{
  "metadata": {
    "vocab_size": 26613,
    "algorithm": "BPE",
    "created_at": "2026-06-24 06:05:36",
    "special_tokens": [
      "<PAD>",
      "<SOS>",
      "<EOS>",
      "<UNK>",
      "<MASK>"
    ]
  },
  "vocab": {
    "mises": 20977,
    "walking": 9980,
    "ħ": 232,
    "Ġlodged": 11251,
    "eneva": 5118,
    "Ġpoul": 15609,
    "Ġwants": 5742,
    "Ġfull": 2178,
    "Ġident": 2242,
    "americ": 8156,
    "according": 12024,
    "Ġthundering": 24290,
    "forecastle": 10989,
    "Ġbuffaloes": 25217,
    "full": 7421,
    "Ġcutting": 4982,
    "stretch": 13979,
    "Ġobstacles": 19834,
    "inian": 21181,
    "Ġresemble": 15689,
    "Ġmasses": 10502,
    "Ġivory": 4476,
    "unexpected": 15774,
    "swallowed": 14850,
    "Ô": 149,
    "seemingly": 25362,
    "Ġdraught": 9842,
    "Ġbanks": 6814,
    "Ġk": 485,
    "tting": 17679,
    "hearing": 8403,
    "Ġwarbling": 26168,
    "Ġparsonage": 7123,
    "shell": 16284,
    "Ć": 199,
    "blood": 7780,
    "Ġlowered": 6735,
    "ime": 625,
    "Ġbuy": 8300,
    "Ġobsc": 7039,
    "Ġcunning": 6238,
    "Ġemerging": 24613,
    "Ġsinking": 7308,
    "fall": 5135,
    "Ġmo": 628,
    "Ġital": 10865,
    "Ġdemeanour": 17335,
    "sych": 9887,
    "Ġgulf": 10634,
    "pursuit": 20339,
    "Ġskeletons": 16790,
    "Ġsgd": 3134,
    "Ġgums": 21609,
    "lur": 13745,
    "Ġrec": 900,
    "ander": 6400,
    "Ġblanket": 8343,
    "ú": 187,
    "twain": 23698,
    "cain": 15324,
    "Ġabusing": 18393,
    "Ġsnorting": 23739,
    "Ġgar": 10837,
    "hetically": 21207,
    "share": 14234,
    "Ġanimating": 23422,
    "Ġweights": 897,
    "Ġdonkey": 23226,
    "shudder": 26245,
    "Ġfobbing": 26440,
    "mysteries": 26051,
    "Ġweek": 2827,
    "butter": 11782,
    "Ġpronouncing": 16968,
    "road": 6677,
    "Ġcoopers": 20520,
    "Ġcaptioning": 23020,
    "fearfully": 25116,
    "Ġconnex": 10664,
    "othe": 2615,
    "Ġear": 1422,
    "Ġmaybe": 12945,
    "Ġcanes": 22160,
    "pretending": 17040,
    "Ġabaft": 22272,
    "itting": 1152,
    "unhappy": 10236,
    "Ġcelebrated": 13592,
    "Ġvoyager": 16510,
    "arab": 21440,
    "eminently": 25105,
    "Ġwarb": 17787,
    "iracle": 11243,
    "Ġhastening": 19335,
    "Ġactiv": 833,
    "Ġvolume": 6769,
    "Ġshift": 2281,
    "Ġinnocently": 24025,
    "process": 11147,
    "raising": 21630,
    "removing": 17763,
    "hosmer": 25902,
    "dil": 11477,
    "Ġornament": 11717,
    "Ġbelow": 4062,
    "Ġdisasters": 16051,
    "anguish": 15980,
    "Ġestate": 6316,
    "Ġezekiel": 26192,
    "Ġnurtured": 19748,
    "off": 1885,
    "Ġfrog": 23918,
    "Ġundeviating": 15215,
    "Ġfew": 1202,
    "upper": 11537,
    "hit": 20888,
    "Ġofficer": 6753,
    "Ġbelted": 22946,
    "Ġacc": 573,
    "Ġabject": 18391,
    "Ġsaintsbury": 26372,
    "Ġabandonment": 25603,
    "Ġpredecess": 18518,
    "Ġnature": 2539,
    "Ġtoler": 7589,
    "Ġcommanding": 16589,
    "Ġarchy": 14345,
    "Ġirritated": 17241,
    "thrasher": 25658,
    "eds": 6674,
    "Ġfists": 15579,
    "Ġconcentrate": 25063,
    "Ġreversed": 15693,
    "Ġweakened": 16822,
    "ull": 1432,
    "aur": 15306,
    "Ġraven": 16113,
    "Ġbetrayed": 9560,
    "sequent": 6831,
    "firmly": 20279,
    "Ġboundless": 10494,
    "ropy": 1101,
    "Ġwandered": 6930,
    "adel": 15725,
    "jol": 20924,
    "Ġ500": 24327,
    "historian": 25735,
    "Ġclothe": 4710,
    "Ġluggage": 25957,
    "Ġperforming": 7928,
    "dropped": 12259,
    "tumultuously": 25613,
    "reflections": 24735,
    "Ġvapors": 19907,
    "immedi": 8450,
    "Ġall": 422,
    "Ġassuming": 16692,
    "Ġarg": 4764,
    "Ġcannibals": 10586,
    "placed": 7881,
    "ocr": 10467,
    "V": 58,
    "Ġgenerously": 22397,
    "oted": 4596,
    "youth": 11872,
    "Ġinsip": 19266,
    "Ġremarking": 13122,
    "superior": 9523,
    "Ġinflamed": 13471,
    "sweetly": 25134,
    "Ġmat": 1148,
    "Ġonly": 790,
    "Ġwatery": 6296,
    "ikes": 8087,
    "baron": 24925,
    "Ġleak": 2161,
    "Ġwhistles": 24625,
    "Ġfirmament": 19469,
    "Ġadvise": 7935,
    "disposition": 10040,
    "allic": 12809,
    "example": 16010,
    "Ġs": 265,
    "Ġfrightened": 5341,
    "pedest": 24695,
    "Ġlessened": 19085,
    "Ġworsh": 12996,
    "Ġpo": 738,
    "Ġcarry": 4777,
    "Ġplate": 8897,
    "Ġcosine": 2371,
    "Ġdeceived": 6544,
    "Ġtyphoons": 20233,
    "chel": 11206,
    "Ġjing": 15946,
    "Ġstepping": 9352,
    "royal": 11392,
    "aug": 1214,
    "queg": 1771,
    "moved": 9783,
    "Ġagreed": 7028,
    "Ġguessed": 11281,
    "Ġhealth": 3905,
    "proposal": 18754,
    "Ġsorry": 4211,
    "Ġspeedy": 11171,
    "Ġdedu": 5582,
    "Ġjoining": 13162,
    "Ġmccarthys": 19661,
    "Ġdisinterested": 16054,
    "Ġfris": 23255,
    "ieves": 4007,
    "Ġhonorable": 16875,
    "ulls": 8836,
    "room": 2179,
    "Ġdepend": 777,
    "Ġ127": 24471,
    "ickory": 22667,
    "wow": 21120,
    "Ġlinen": 12404,
    "problems": 11433,
    "Ġosc": 2836,
    "Ġappo": 8498,
    "Ġdistant": 5387,
    "topic": 10526,
    "sl": 5794,
    "bearded": 18522,
    "Ġcrotch": 9961,
    "Ġquitting": 7646,
    "Ġwedged": 24067,
    "Ġrecursive": 4780,
    "Ġbeaufort": 13566,
    "Ġjohn": 5031,
    "Ġreplay": 5046,
    "Ġpar": 456,
    "Ġdeaf": 12717,
    "size": 15423,
    "ority": 8418,
    "beings": 12872,
    "Ġiron": 3236,
    "Ġmists": 14628,
    "Ġoutriders": 26542,
    "braid": 17493,
    "Ġmarking": 16467,
    "keel": 14127,
    "sided": 17663,
    "Ġtables": 9876,
    "Ġrescued": 24205,
    "Ġlads": 8596,
    "Ġrepaid": 19080,
    "stonecraft": 24355,
    "conjecture": 15120,
    "leviathans": 19936,
    "Ġsystematic": 5245,
    "Ġperfections": 23607,
    "Ġtomorrow": 21511,
    "Ġplanks": 5563,
    "especially": 3572,
    "confl": 22467,
    "sad": 11519,
    "Ġxliv": 23407,
    "tan": 4740,
    "igantic": 5538,
    "ron": 5216,
    "passed": 8026,
    "Ġimmedi": 2903,
    "urbed": 15705,
    "grasping": 20638,
    "Ġblue": 3456,
    "izer": 2030,
    "Ġrobes": 16243,
    "Ġsleek": 23382,
    "ustration": 2260,
    "across": 10323,
    "ht": 375,
    "Ġcreates": 2010,
    "400": 20754,
    "thing": 1480,
    "Ġelement": 6898,
    "Ġphase": 14469,
    "Ġphilipses": 24451,
    "Ġstrained": 10217,
    "embarrassed": 20595,
    "Ġbr": 1074,
    "Ġpregn": 22230,
    "Ġquietude": 19358,
    "Ġtwin": 12924,
    "alter": 10825,
    "Ġjunk": 15950,
    "Ġthereof": 22366,
    "Ġjolly": 6858,
    "Ġwilt": 9642,
    "Ġpresence": 5030,
    "Ġfashion": 4298,
    "conduct": 11794,
    "Ġmuttered": 7086,
    "Ġhelper": 24023,
    "Ġgovern": 10449,
    "Ġacqu": 1416,
    "Ġevaluation": 16540,
    "Ġinfirmity": 26300,
    "Ġevening": 2651,
    "Ġupd": 947,
    "furthermore": 20002,
    "ĠâĢľâĢĶ": 9732,
    "drown": 13702,
    "Ġdames": 23472,
    "ending": 1991,
    "Ġaudible": 19880,
    "Ġexpect": 2304,
    "Ġsluggish": 25890,
    "Ġeverywhere": 9794,
    "Ġpreprocessing": 26535,
    "break": 6101,
    "Ġskirt": 18729,
    "discover": 10538,
    "Ġastronomy": 25926,
    "vest": 6230,
    "tenham": 16319,
    "Ġpatchwork": 24140,
    "Ġinexperienced": 26100,
    "Ġestab": 6315,
    "Ġthrilling": 19747,
    "pping": 1425,
    "Ġwhale": 627,
    "Ġthrew": 3974,
    "Ġconjecture": 9530,
    "Ġrubbing": 9319,
    "Ġpreser": 6041,
    "Ġcrevice": 22725,
    "taking": 5689,
    "Ġbehaviour": 4384,
    "pun": 9616,
    "izure": 21832,
    "Ġspotted": 12135,
    "arman": 11593,
    "holmes": 4431,
    "Ġtasks": 1788,
    "======": 9831,
    "Ġtakes": 5006,
    "g": 75,
    "Ġserenely": 13505,
    "Ġsmothe": 18574,
    "Ġref": 910,
    "Ġjunks": 25113,
    "beheld": 11798,
    "prejudiced": 17295,
    "Ġpledged": 20686,
    "Ġpawn": 12060,
    "idence": 4302,
    "Ġbowsman": 11254,
    "Ġpots": 9426,
    "owe": 15704,
    "Ġsubtle": 6716,
    "Ġaverted": 16254,
    "Ġcondesc": 7182,
    "Ġinterrupted": 6343,
    "announced": 19758,
    "Ġxli": 14540,
    "feelings": 5674,
    "Ġparched": 11724,
    "Ġfoundling": 22966,
    "Ġincomplete": 17207,
    "Ġyea": 8914,
    "Ġintervening": 17266,
    "Ġwe": 387,
    "Ġcasc": 15552,
    "Ġejaculated": 15167,
    "Ġsemicircle": 26067,
    "Ġscraps": 16901,
    "Ġroylott": 7306,
    "Ġrespectability": 14483,
    "straight": 9938,
    "Ġtrunks": 15961,
    "Ġplaying": 6909,
    "downward": 16618,
    "ppings": 18176,
    "Ġfriday": 14487,
    "Ġunjustly": 17125,
    "Ġmazes": 25940,
    "luent": 15993,
    "vari": 1515,
    "inence": 15479,
    "regard": 7973,
    "Ġtunnels": 24621,
    "Ġmariner": 7248,
    "knowledge": 7479,
    "Ġdriver": 16472,
    "Ġcontext": 1716,
    "slack": 16893,
    "Ġphysiognomically": 25612,
    "Ġridges": 16730,
    "al": 292,
    "Ġinexpressible": 17331,
    "Ġmilan": 19534,
    "Ġmourning": 13476,
    "Ġhistories": 14685,
    "Ġjogged": 26236,
    "Ġsooty": 25815,
    "persecut": 22187,
    "ouraged": 22860,
    "tackles": 25624,
    "âĢĻ-": 18166,
    "Ġcoachman": 14999,
    "formal": 14167,
    "Ġmerely": 3773,
    "Ġpiratical": 24801,
    "Ġretention": 23070,
    "rie": 2787,
    "Ġcharges": 23267,
    "chance": 6827,
    "Ġinstrument": 7118,
    "Ġshark": 5549,
    "Ġsubsc": 22788,
    "Ġxxxvi": 24971,
    "inks": 6869,
    "Ġelbows": 18633,
    "Ġdeafened": 25651,
    "Ġbrigs": 20321,
    "Ġwindpipe": 23104,
    "Ġimped": 18448,
    "Ġblubber": 5666,
    "Ġessex": 20125,
    "Ġcriminal": 7538,
    "Ġupdates": 1299,
    "Ġcompleted": 8996,
    "Ġunprepared": 22048,
    "Ġpeculiar": 3156,
    "instrument": 15236,
    "Ġvehement": 16199,
    "Ġdey": 11673,
    "hement": 13830,
    "Ġfagged": 17882,
    "icking": 8909,
    "Ġfrosts": 19801,
    "opposing": 24825,
    "wrinkled": 16553,
    "vulgar": 25918,
    "Ġdisciple": 22782,
    "cu": 10082,
    "Ġguidance": 9415,
    "ester": 11596,
    "lower": 8879,
    "scap": 22983,
    "Ġreport": 6191,
    "Ġpiteous": 17917,
    "Ġforged": 12700,
    "Ġsketch": 16162,
    "coach": 23558,
    "Ġstar": 6023,
    "arat": 9179,
    "Ġcrazy": 8592,
    "Ġgerm": 13962,
    "Ġasse": 8160,
    "Ġglance": 4233,
    "Ġegyptians": 25289,
    "corners": 17366,
    "Ġcruelty": 9967,
    "trick": 19411,
    "Ġcomprises": 22570,
    "Ġancles": 21445,
    "Ġstilly": 25973,
    "Ġclattered": 22350,
    "Ġoun": 13861,
    "idea": 9299,
    "Ġrefreshed": 15288,
    "oftentimes": 19419,
    "Ġromish": 19583,
    "Ġboiling": 8525,
    "Ġnom": 21517,
    "Ġforth": 3464,
    "ables": 7891,
    "beware": 16037,
    "Ġoarsmen": 7738,
    "Ġnotes": 7190,
    "nostr": 22716,
    "Ġmounted": 7833,
    "Ġdictator": 20152,
    "lass": 5993,
    "headsman": 16699,
    "umes": 10916,
    "Ġshouldn": 14323,
    "Ġstepdaughter": 22612,
    "Ġdisliked": 12887,
    "Ġslipped": 6491,
    "Ġface": 1724,
    "Ġ82": 24457,
    "Ġapp": 496,
    "Ġcordiality": 24394,
    "Ġmisunderstood": 18705,
    "Ġlively": 5449,
    "scorn": 22984,
    "achine": 607,
    "cod": 12440,
    "Ġfiery": 6871,
    "--âĢľ": 12968,
    "Ġtrip": 16787,
    "Ġricher": 12755,
    "Ò": 147,
    "Ġmerry": 5868,
    "Ġpitiful": 13236,
    "Ġpaddled": 20200,
    "ding": 1231,
    "Ġstrung": 22617,
    "archangel": 18790,
    "Ġsuffering": 8945,
    "education": 20300,
    "Ġdrives": 14575,
    "Ġ102": 24409,
    "Ġappeals": 16313,
    "someone": 14562,
    "hamlet": 23261,
    "Ġholds": 7976,
    "Ġhymn": 24517,
    "Ġdigging": 14935,
    "scotland": 20527,
    "Ġfiles": 21412,
    "pick": 17633,
    "Ġinvest": 4977,
    "Ġabruptness": 25299,
    "Ġshores": 8846,
    "bedstead": 23847,
    "Ġcharles": 11953,
    "nings": 9130,
    "Ġdecline": 9285,
    "Ġappe": 1538,
    "Ġreb": 15687,
    "Ġlabelled": 23329,
    "Ġsell": 7826,
    "Ġfloat": 12029,
    "Ġtelegra": 11888,
    "extreme": 11028,
    "kindled": 16659,
    "rages": 15677,
    "Ġassemblage": 26351,
    "pounds": 21024,
    "Ġaggreg": 12880,
    "Ġstudents": 23236,
    "Ġwhistling": 19789,
    "specul": 23940,
    "Ġfant": 9172,
    "Ġmal": 5221,
    "Ġcontextually": 11954,
    "Ġreceipt": 20354,
    "hog": 8380,
    "Ġwithdrawn": 10605,
    "killer": 20474,
    "\"": 6,
    "returned": 7766,
    "Ġloun": 7167,
    "Ġheartfelt": 18966,
    "term": 3761,
    "aws": 8237,
    "eers": 20842,
    "Ġquarrel": 7293,
    "Ġconsidering": 4614,
    "Ġmeaning": 1415,
    "Ġcaring": 23090,
    "family": 7325,
    "forgetting": 25485,
    "assault": 22304,
    "Ġsubstit": 19539,
    "Ġeastern": 11627,
    "Ġgraze": 18226,
    "Ġdegradation": 2631,
    "Ġperennial": 22692,
    "breat": 10076,
    "urp": 1473,
    "Ġlavenza": 17970,
    "title": 17286,
    "calmly": 20138,
    "oology": 21005,
    "irection": 2390,
    "judge": 13334,
    "Ġaudits": 24770,
    "rev": 17755,
    "hitherto": 17282,
    "Ġtranqu": 4603,
    "Ġprice": 10402,
    "Ġpasture": 14541,
    "Ġcontrivance": 17182,
    "estone": 18364,
    "Ġbecher": 18879,
    "Ġunc": 2124,
    "Ġhedge": 8365,
    "Ġrover": 18455,
    "Ġsoothingly": 25047,
    "Ġspectrum": 4474,
    "Ġmultitudinous": 26273,
    "haps": 1672,
    "Ġearn": 3547,
    "kish": 20933,
    "hounds": 20906,
    "Ġstr": 759,
    "Ġrus": 14091,
    "oles": 21004,
    "Ġinhab": 5083,
    "seated": 11670,
    "encounter": 20390,
    "newsp": 23133,
    "oblivious": 26581,
    "Ġbody": 2436,
    "successfully": 14989,
    "ices": 2138,
    "Ġrests": 13090,
    "everlasting": 18772,
    "Ġprint": 18968,
    "Ġprogramming": 1186,
    "Ġlabyrin": 13102,
    "burning": 25078,
    "Ġprimal": 17106,
    "Ġlaughs": 24115,
    "Ġphysiogn": 12385,
    "announce": 24559,
    "Ġdart": 4584,
    "ouched": 4635,
    "Ġmutters": 23953,
    "property": 19998,
    "Ġrelief": 6060,
    "Ġextinct": 14324,
    "overfitting": 13097,
    "Ġbridal": 14951,
    "Ġaugust": 10596,
    "ividually": 22081,
    "Ġassisting": 13256,
    "remaining": 20219,
    "ighbour": 3389,
    "like": 1884,
    "Ġadvertising": 25389,
    "jac": 8382,
    "Ġdemig": 20355,
    "Ġyou": 366,
    "Ġappal": 18359,
    "Ġtraitors": 23077,
    "estation": 15919,
    "_.)": 7279,
    "Ġimpunity": 14219,
    "Ġpermit": 9747,
    "Ġpan": 5082,
    "Ġexact": 2543,
    "prosper": 19100,
    "Ġhump": 5853,
    "Ġimprec": 14220,
    "Ġgallery": 10523,
    "ren": 549,
    "Ġjest": 18403,
    "Ġrespectable": 6736,
    "hideous": 25407,
    "ott": 1872,
    "Ġhinted": 6012,
    "Ġaberde": 22275,
    "Ġliked": 5264,
    "Ġsteed": 13037,
    "Ġsly": 9631,
    "Ġdischarged": 15218,
    "Ġuniform": 2225,
    "culiar": 2821,
    "Ġsabbath": 17253,
    "ituted": 13871,
    "asis": 12646,
    "Ġslighter": 18939,
    "strike": 14946,
    "describe": 1513,
    "bu": 5132,
    "Ġfinish": 7949,
    "Ġgoble": 14228,
    "Ġlouisiana": 25076,
    "Ġtelegram": 15221,
    "kindly": 14741,
    "scho": 8759,
    "oning": 7573,
    "Ġsupreme": 13605,
    "osa": 22258,
    "warmly": 25026,
    "Ġincreasing": 8248,
    "Ġparchment": 13650,
    "disciple": 16777,
    "Ġentr": 14337,
    "cim": 8719,
    "portent": 25412,
    "undoubtedly": 13309,
    "Ġdepending": 14286,
    "Ġremorse": 6440,
    "serious": 14446,
    "dispositions": 25011,
    "P": 52,
    "Ġsimultaneously": 4312,
    "Ġaudacious": 13458,
    "Ġequal": 4136,
    "Ġwhitting": 18055,
    "Ġegyptian": 13584,
    "rus": 5930,
    "Ġquarrelling": 13497,
    "Ġbegan": 2022,
    "Ġroses": 11783,
    "Ġtusks": 17252,
    "Ġpieces": 7370,
    "Ġflat": 8228,
    "Ġaids": 12225,
    "Ġthro": 5817,
    "Ġnonce": 23232,
    "fav": 6646,
    "Ġremarkable": 4913,
    "Ġhuddled": 20298,
    "Ġflying": 5413,
    "wing": 2520,
    "Ġelevate": 24498,
    "Ġ65": 24367,
    "Ġcorpor": 23039,
    "satisf": 5781,
    "ignant": 11128,
    "Ġcondense": 21806,
    "Ġnodes": 1969,
    "Ġbunger": 9994,
    "Ġmeasureless": 14707,
    "jaws": 20931,
    "Ġfancied": 7327,
    "Ġbred": 9168,
    "Ġdefect": 8554,
    "isen": 10791,
    "eth": 618,
    "Ġfastened": 7065,
    "Ġunseen": 3524,
    "sympathy": 20541,
    "Ġcompared": 2228,
    "luckily": 19751,
    "Ġcalhoun": 23043,
    "Ġincalculable": 17459,
    "Ġalas": 5922,
    "Ġgravity": 9246,
    "hen": 3518,
    "Ġhypotheses": 4386,
    "recognised": 15260,
    "Ġnose": 4402,
    "Ġsupers": 18278,
    "maged": 15391,
    "benevolently": 25600,
    "rifle": 21045,
    "nal": 1902,
    "kindness": 10504,
    "Ġheave": 7600,
    "tawny": 26403,
    "hairs": 20903,
    "Ġwast": 21858,
    "Ġimagenet": 19245,
    "Ġhaul": 11689,
    "Ġoccup": 3742,
    "of": 767,
    "cable": 20796,
    "do": 1996,
    "urity": 8143,
    "vocabulary": 25085,
    "ong": 536,
    "Ġembarks": 22967,
    "Ġspices": 22129,
    "Ġeleven": 9388,
    "Ġsolved": 8930,
    "Ġattacking": 24464,
    "ĠĠĠĠĠĠĠĠĠĠĠĠĠĠĠĠĠĠĠĠĠĠĠĠĠĠĠĠĠ": 19698,
    "Ġcem": 17823,
    "answ": 15877,
    "Ġgirth": 13134,
    "Ġpleasant": 4171,
    "uity": 12514,
    "conceive": 16026,
    "Ġhandsom": 11123,
    "Ġcheers": 16361,
    "min": 4570,
    "Ġquieted": 23840,
    "Ġdespondence": 25869,
    "carpenter": 11426,
    "Ġcoronet": 6344,
    "additional": 20462,
    "Ġhaven": 8473,
    "Ġreceptacle": 23189,
    "allows": 15904,
    "ements": 11107,
    "Ġmystic": 7504,
    "Ġwhistle": 9065,
    "Ġextant": 18680,
    "Ġwretchedly": 19505,
    "Ġsuperlatively": 26075,
    "Ġpig": 5705,
    "Ġsermon": 12373,
    "Ġubiqu": 18046,
    "î": 175,
    "Ġgeometric": 3220,
    "Ġhysterics": 26093,
    "umul": 1289,
    "Ġfasc": 12594,
    "Ġtrespass": 23599,
    "ract": 969,
    "Ġinvolving": 18763,
    "Ġspirits": 3700,
    "adler": 21760,
    "Ġlakeman": 6986,
    "Ġanimals": 8977,
    "Ġhaunted": 10252,
    "cil": 8720,
    "devoted": 20015,
    "Ġcreated": 2706,
    "chester": 23805,
    "iscre": 17850,
    "Ġmet": 1960,
    "vation": 4742,
    "pocket": 9807,
    "Ġconceals": 23901,
    "Ġkeeps": 8267,
    "Ġagent": 6277,
    "Ġbrows": 13298,
    "worthy": 7733,
    "Ġdifferen": 937,
    "Ġhieroglyph": 11967,
    "thed": 8825,
    "Ġanalog": 12608,
    "Ġcontract": 18475,
    "increase": 20267,
    "accompan": 11451,
    "Ġtout": 17718,
    "Ġevian": 24291,
    "Ġstruggles": 16577,
    "uten": 11620,
    "Ġdome": 15585,
    "Ġweep": 7620,
    "things": 6033,
    "Ġtempestuous": 20069,
    "Ġund": 4119,
    "Ġleakage": 23458,
    "astonishment": 10028,
    "Ġdiligently": 11404,
    "Ġape": 21195,
    "Ġsquall": 7043,
    "Ġsymptoms": 8704,
    "lined": 12480,
    "30": 20753,
    "Ġtiresome": 26156,
    "_,âĢĿ": 6218,
    "umbrance": 22116,
    "ap": 546,
    "eyed": 11485,
    "Ġprematurely": 24003,
    "Ġspitz": 14147,
    "Ġdrawback": 23987,
    "neville": 22463,
    "Ġheroes": 10575,
    "Ġunforgiving": 25995,
    "Ġwand": 4342,
    "mou": 10707,
    "Ġbriefly": 11366,
    "Ġobserved": 3541,
    "Ġascend": 9958,
    "Ġurgent": 16866,
    "Ġdepression": 21839,
    "iluvian": 18060,
    "Ġdotted": 16791,
    "Ġdrifted": 14623,
    "perfectly": 9084,
    "treacle": 25148,
    "Ġabomin": 8189,
    "sorrow": 12505,
    "nameless": 19902,
    "Ġcadiz": 17323,
    "arms": 10172,
    "Ġcourtiers": 24136,
    "entric": 11617,
    "Ġworld": 1595,
    "Ġfowls": 8690,
    "ensing": 12892,
    "reproach": 15184,
    "Ġmassac": 14733,
    "Ġregarded": 5762,
    "Ġescorted": 23504,
    "speak": 5504,
    "Ġoutset": 15952,
    "attoo": 6807,
    "Ġbelong": 3888,
    "Ġpeaks": 16125,
    "omination": 21640,
    "stranger": 9881,
    "olerable": 7183,
    "untarily": 6312,
    "âĢĶâĢľ_": 13200,
    "gaining": 20122,
    "Ġsociety": 3978,
    "Ġauthorities": 11263,
    "solute": 16597,
    "shoe": 14964,
    "Ġmischief": 8541,
    "Ġanatomical": 15074,
    "ouble": 2659,
    "antly": 1990,
    "jane": 4482,
    "Ġproved": 4882,
    "bies": 15310,
    "Ġstronger": 8577,
    "Ġjuncture": 17128,
    "persu": 8028,
    "Ġcred": 8779,
    "Ġcaut": 6520,
    "Ġdevouring": 11858,
    "Ġstammered": 26199,
    "Ġfarthest": 23116,
    "Ġhearties": 18965,
    "nam": 2834,
    "eel": 11482,
    "Ġgown": 10200,
    "iteous": 14260,
    "Ġinexplicable": 12253,
    "Ġthinner": 24181,
    "hol": 3839,
    "Ġwitness": 4620,
    "bl": 4143,
    "Ġtallest": 15472,
    "lesson": 22769,
    "Ġfossiliferous": 25609,
    "tor": 15430,
    "eline": 2292,
    "scream": 11075,
    "handedness": 24920,
    "Ġbeside": 5192,
    "inching": 21188,
    "loved": 14249,
    "Ġantip": 24176,
    "ditch": 17527,
    "Ġprayer": 16665,
    "Ġnephews": 24714,
    "arance": 4696,
    "given": 8377,
    "Ġmeanings": 18608,
    "Ġmim": 3111,
    "computer": 1928,
    "ant": 439,
    "Ġaccuse": 14210,
    "inqu": 6121,
    "Ġsuppress": 13016,
    "Ġnoblest": 13240,
    "Ġexamine": 7735,
    "Ġstreamed": 14544,
    "Ġinvoluntarily": 8548,
    "Ġsinews": 20286,
    "rosings": 15640,
    "Ġeuropean": 20044,
    "iability": 20919,
    "myself": 5113,
    "Ġcharnel": 22250,
    "Ġmarvellous": 7539,
    "Ġdangers": 12351,
    "Ġintend": 12760,
    "earn": 10695,
    "Ġapplication": 2131,
    "Ġbrush": 17864,
    "fins": 13717,
    "akened": 7416,
    "Ġinoffensive": 21496,
    "Ġburying": 19251,
    "Ġjog": 18404,
    "Ġess": 5691,
    "angry": 18294,
    "Ġinquest": 16546,
    "Ġinstances": 5567,
    "ois": 9133,
    "young": 7322,
    "Ġutterly": 6100,
    "apidated": 22334,
    "doubted": 17525,
    "Ġgrecian": 26296,
    "ersed": 10258,
    "settled": 10505,
    "--------": 14778,
    "Ġe": 311,
    "Ġmurder": 4280,
    "ctor": 13958,
    "divided": 25018,
    "Ġirrad": 19093,
    "Ġapplying": 13089,
    "plings": 11694,
    "Ġrid": 4355,
    "Ġcaves": 15550,
    "ety": 3521,
    "Ġmixture": 9561,
    "bore": 13684,
    "Ġcondensed": 24049,
    "Ġfirmly": 8014,
    "**:": 4735,
    "Ġcompetition": 14265,
    "Ġheaps": 11640,
    "Ġguilty": 7251,
    "lingering": 18601,
    "flutter": 23968,
    "Ġstake": 14001,
    "Ġnecessitates": 23926,
    "Ġcharley": 19006,
    "Ġireland": 17333,
    "Ġfraud": 19017,
    "lege": 17841,
    "Ġengra": 7875,
    "Ġauxiliary": 26417,
    "gment": 4390,
    "Ġmanifold": 13558,
    "Ġpet": 4585,
    "resent": 10768,
    "Ġexhilar": 19682,
    "Ġselfishness": 12286,
    "inside": 23064,
    "public": 17645,
    "Ġarea": 14185,
    "Ġretire": 10380,
    "Ġenraptured": 26499,
    "Ġunclasp": 26510,
    "lively": 12481,
    "aned": 5147,
    "Ġfreed": 7268,
    "Ġdictionary": 15110,
    "Ġpicking": 11258,
    "or": 282,
    "ĠĠĠĠĠĠĠĠĠĠĠĠĠĠĠĠĠĠĠĠĠĠĠĠĠĠĠĠĠĠĠĠĠĠĠĠĠĠĠĠĠĠĠ": 12151,
    "Ġmid": 2616,
    "Ġsteady": 4845,
    "Ġbottles": 16569,
    "Ġinsc": 7586,
    "Ġladyship": 5045,
    "Ġshowers": 16604,
    "Ġcont": 620,
    "Ġdelivered": 11114,
    "Ġcous": 3438,
    "Ġoverflow": 10291,
    "Ġflit": 23006,
    "Ġcareless": 11118,
    "Ġran": 3345,
    "Ġporpoise": 7106,
    "oundering": 11743,
    "avers": 17479,
    "Ġevil": 3807,
    "ulty": 22565,
    "Ġon": 351,
    "iform": 2201,
    "Ø": 153,
    "Ġexquis": 9696,
    "ultaneous": 18582,
    "Ġlany": 21552,
    "gloom": 17138,
    "collinses": 19922,
    "Ġaccent": 10292,
    "Ġglimmering": 25240,
    "Ġbequeathed": 20700,
    "Ġtwilight": 16118,
    "Ġserv": 3331,
    "delighted": 10561,
    "civil": 7797,
    "ella": 12748,
    "Ġant": 4346,
    "Ġtomahawk": 7540,
    "Ġpresuming": 16792,
    "Ġsimon": 5172,
    "Ġdealer": 23974,
    "Ġnailing": 21525,
    "Ġapothecary": 13657,
    "Ġcolder": 22855,
    "tranquil": 25870,
    "precisely": 6917,
    "present": 1138,
    "esu": 17901,
    "Ġlawyers": 25248,
    "Ġchase": 3946,
    "resnet": 4070,
    "Ġgable": 15663,
    "Ġleaders": 16626,
    "Ġexertion": 8054,
    "tempestuous": 26097,
    "Ġgratifying": 13303,
    "Ġbitterness": 8025,
    "Ġfoundation": 4232,
    "Ġserene": 8167,
    "find": 6954,
    "contempt": 13186,
    "Ġmanilla": 15956,
    "ğ": 224,
    "hullo": 17569,
    "_).âĢĶ": 8681,
    "Ġunicorn": 22055,
    "want": 8765,
    "Ġvillage": 5774,
    "Ġjewell": 19519,
    "irra": 15781,
    "Ġxv": 23405,
    "consternation": 16911,
    "Ġvisits": 8221,
    "resentment": 15183,
    "window": 7743,
    "ousand": 2430,
    "Ġfavoured": 16359,
    "Ġ[": 6967,
    "Ġkneel": 14804,
    "Ġadvertise": 25388,
    "blame": 14791,
    "Ġsanction": 20024,
    "ores": 2414,
    "Ġtum": 5692,
    "Ġearnestly": 5979,
    "Ġpolitical": 19223,
    "Ġfloated": 7289,
    "Ġbad": 3989,
    "Ġpolluted": 25593,
    "Ġrange": 9710,
    "ermaid": 14296,
    "wrong": 13204,
    "Ġzeal": 9096,
    "wound": 21125,
    "Ġboast": 7034,
    "_:": 17477,
    "eleg": 20848,
    "Ġsit": 4217,
    "Ġtheoretic": 23307,
    "Ġsatisfy": 6912,
    "Ġmarvel": 23033,
    "Ġgiddy": 20495,
    "Ġeach": 892,
    "buttoned": 13630,
    "friend": 3865,
    "ix": 1800,
    "Ġsad": 3870,
    "club": 26379,
    "Ġ49": 24078,
    "Ġgodfrey": 15291,
    "Ġforge": 8456,
    "Ġplausible": 26552,
    "Ġexploit": 19161,
    "Ġgushed": 21605,
    "Ġfishermen": 5971,
    "objection": 19914,
    "satisfaction": 9990,
    "obser": 11098,
    "Ġintrig": 21988,
    "Ġsoftness": 18917,
    "Ġledgers": 23935,
    "Ġwearer": 21920,
    "Ġchisel": 20366,
    "Ġallowance": 14387,
    "Ġwickedness": 9524,
    "approb": 11041,
    "Ġgo": 613,
    "Ġbottomless": 12103,
    "Ġshoulder": 5848,
    "Ġconsideration": 5191,
    "Ġescaped": 6458,
    "clopÃ¦": 13052,
    "Ġbenjam": 22889,
    "Ġdepressed": 10882,
    "Ġmasterly": 23991,
    "digger": 24309,
    "Ġ85": 24459,
    "Ġspouts": 7730,
    "Ġbeak": 18079,
    "ladder": 19783,
    "Ġcompensated": 17399,
    "Ġfrankness": 16745,
    "Ġimpartial": 15217,
    "wail": 21124,
    "itories": 15545,
    "icial": 12651,
    "Ġbuckler": 24859,
    "Ġhealthful": 24055,
    "Ġirretrie": 23372,
    "Ġsepulchral": 25892,
    "Ġdirectors": 18921,
    "gling": 10096,
    "plentiful": 21960,
    "Ġpurses": 23475,
    "Ġawoke": 7287,
    "Ġflash": 8230,
    "ouch": 2780,
    "Ġaffidav": 18788,
    "Ġtophet": 23571,
    "Ġscru": 8191,
    "cano": 18839,
    "anum": 17835,
    "Ġcandelabra": 26601,
    "Ġhunted": 7454,
    "Ġmaw": 15536,
    "Ġviv": 6156,
    "Ġcounters": 24139,
    "naught": 20993,
    "Ġtone": 4039,
    "overing": 6306,
    "Ġklux": 22193,
    "Ġherbage": 25996,
    "loat": 8885,
    "Ġprove": 5232,
    "Ġtrout": 22341,
    "Ġpresumably": 19623,
    "Ġtut": 8769,
    "Ġdiscovery": 5412,
    "garity": 17553,
    "consp": 18502,
    "Ġoversampling": 20514,
    "Ġdup": 21426,
    "suspected": 12369,
    "Ġchuckled": 10646,
    "Ġnorthwards": 19545,
    "Ġformation": 2942,
    "Ġclutched": 13517,
    "Ġacquisition": 18899,
    "Ġpursuers": 13223,
    "Ġcomplet": 4423,
    "Ġbowls": 23769,
    "uous": 4146,
    "Ġoccasioned": 13224,
    "Ġtribes": 20479,
    "Ġcombines": 1159,
    "Ġpure": 6137,
    "ounding": 22381,
    "Ġshilling": 18228,
    "Ġtrem": 6659,
    "Ġtremulous": 14984,
    "Ġformer": 3325,
    "Ġoppressively": 25712,
    "Ġprair": 7747,
    "powerful": 24847,
    "ifully": 13182,
    "Ġordinarily": 20648,
    "Ġinsects": 25646,
    "Ġjoined": 4563,
    "Ġprofited": 19190,
    "Ġspl": 2983,
    "Ġoptimal": 1855,
    "Ġexceptions": 13227,
    "Ġwoof": 14718,
    "Ġtrump": 8195,
    "Ġunexplored": 26517,
    "Ġuntil": 2666,
    "Ġpurposed": 23550,
    "Ġvindication": 25364,
    "Ġconvulsively": 25717,
    "Ġperseus": 10602,
    "getting": 12963,
    "obst": 11929,
    "Ġsets": 8773,
    "heads": 4095,
    "fle": 7128,
    "Ġimbu": 15888,
    "generous": 16567,
    "uneven": 23683,
    "Ġwoody": 23516,
    "Ġvulgar": 13602,
    "Ġroared": 7023,
    "Ġdusk": 12324,
    "Ġsums": 2901,
    "Ġdegrees": 7295,
    "Ġobserv": 8586,
    "clay": 18930,
    "Ġtrop": 7566,
    "pend": 6367,
    "missing": 13216,
    "Ġpraises": 16729,
    "Ġsulk": 15044,
    "thoroughly": 26507,
    "imprudence": 16556,
    "Ġends": 8238,
    "resistible": 10642,
    "Ġledge": 19399,
    "Ġterm": 2267,
    "Ġouthouse": 22312,
    "roll": 9195,
    "Ġsulphur": 24933,
    "Ġwaist": 6892,
    "spoken": 11857,
    "knowing": 10436,
    "Ġasks": 5115,
    "Ġdisgraceful": 15018,
    "Ġcham": 4890,
    "Ġdisappointing": 19578,
    "Ġrightly": 13061,
    "Ġprofanely": 23568,
    "disapprobation": 19155,
    "Ġabandoned": 8353,
    "Ġbapt": 13894,
    "Ġpassers": 18757,
    "Ġdemon": 7870,
    "Ġcart": 11581,
    "Ġhermits": 22072,
    "Ġconveniences": 19811,
    "Ġdelivery": 18973,
    "Ġthread": 14537,
    "Ġsite": 17752,
    "Ġabed": 22263,
    "eg": 17528,
    "!âĢĶâĢĻ": 23563,
    "Ġrifled": 21977,
    "hangs": 15366,
    "heartily": 24214,
    "impul": 16555,
    "Ġdecreed": 18484,
    "det": 5207,
    "where": 2092,
    "Ġsolomon": 11051,
    "aset": 10831,
    "vember": 10854,
    "moil": 22703,
    "Ġchin": 4889,
    "¯": 112,
    "Ġinvent": 7165,
    "Ġbegun": 7244,
    "india": 22369,
    "girl": 12315,
    "Ġfurious": 10353,
    "Ġegypt": 9677,
    "lock": 1471,
    "Ġmountains": 4427,
    "Ġachieved": 13164,
    "Ġwilled": 21290,
    "Ġexperience": 1382,
    "erne": 21268,
    "words": 7983,
    "Ġjourneying": 25565,
    "Ġhuge": 4698,
    "Ġburned": 8630,
    "depths": 25663,
    "stripped": 16944,
    "ver": 331,
    "Ġtraversed": 18892,
    "Ġsyrian": 18353,
    "Ġunass": 14113,
    "stream": 15683,
    "Ġtruce": 24114,
    "Ġbutt": 14112,
    "Ġunwillingly": 15846,
    "ifers": 15778,
    "Ġrecovering": 11860,
    "Ġers": 15458,
    "Ġhyster": 16872,
    "Ġsaratoga": 26422,
    "Ġflapp": 23008,
    "importance": 9987,
    "Ġlacepede": 20493,
    "Ġuncovered": 23430,
    "Ġpaints": 23521,
    "model": 4415,
    "reporting": 24493,
    "Ġkl": 2735,
    "Ġhav": 12750,
    "Ġgroves": 16739,
    "Ġbigger": 19760,
    "better": 7119,
    "Ġpurchasing": 19874,
    "21": 10070,
    "Ġdair": 17889,
    "Ġhieroglyphic": 25587,
    "Ġinvoked": 19144,
    "Ġconsum": 9798,
    "Ġhammers": 13238,
    "lands": 8241,
    "Ġloveliness": 13606,
    "Ġdepresses": 25797,
    "Ġbluish": 23651,
    "Ġscore": 9736,
    "Ġnorris": 23199,
    "Ġship": 1091,
    "Ġ117": 19696,
    "Ġv": 398,
    "ryphon": 4163,
    "arity": 1302,
    "utored": 15659,
    "Ġvulgarity": 25363,
    "Ġswallowed": 7944,
    "Ġbur": 2697,
    "aving": 2407,
    "onah": 3339,
    "Ġsubl": 7236,
    "Ġfro": 3472,
    "Ġfid": 10802,
    "Ġstoried": 18072,
    "Ġloathed": 15872,
    "Ġlar": 765,
    "lift": 15382,
    "Ġdevotion": 22736,
    "Ġoccasions": 7988,
    "icide": 11616,
    "Ġhorses": 6384,
    "nikin": 23230,
    "Ġj": 533,
    "bble": 17483,
    "inform": 10142,
    "Ġimagined": 8606,
    "Ġrandomly": 1919,
    "boards": 23254,
    "Ġmight": 965,
    "adow": 18087,
    "Ġsurest": 19056,
    "ve": 322,
    "Ġlayer": 1011,
    "Ġpermanently": 25473,
    "âĢľ": 344,
    "rose": 6014,
    "Ġthirds": 16707,
    "Ġconsecrated": 26487,
    "Ġmultitude": 9323,
    "Ġmariners": 6068,
    "pervised": 1652,
    "born": 7544,
    "asting": 12802,
    "Ġzones": 22817,
    "Ġcauses": 2561,
    "Ġshreds": 12766,
    "Ġwhisper": 6205,
    "Ġket": 18347,
    "amet": 583,
    "Ġdisinclined": 22527,
    "ributed": 8215,
    "ere": 6789,
    "circled": 24186,
    "Ġindulgence": 11318,
    "immed": 9216,
    "aled": 3945,
    "sli": 11521,
    "Ġextracted": 16294,
    "Ġvigorously": 11298,
    "inspect": 11557,
    "Ġmemories": 14539,
    "ĕ": 214,
    "Ġalternative": 19985,
    "yramid": 8368,
    "Ġconscience": 6929,
    "Ġmisfortunes": 7041,
    "Ġforbear": 17120,
    "Ġjoyous": 14661,
    "Ġxiv": 23406,
    "respect": 6374,
    "Ġchewing": 23282,
    "overed": 2854,
    "Ġfins": 9662,
    "Ġmetrics": 19089,
    "zed": 8104,
    "uguese": 20731,
    "Ġkindliness": 23291,
    "entirely": 7782,
    "rets": 12537,
    "Ġdireful": 11017,
    "impart": 21707,
    "kill": 13742,
    "Ġelements": 2665,
    "Ġcalculating": 9923,
    "arrangement": 17413,
    "Ġgales": 12661,
    "Ġpowerful": 1505,
    "Ġdif": 872,
    "dered": 2474,
    "Ġstatistics": 1685,
    "consult": 24168,
    "Ġlights": 8959,
    "Ġsplinter": 23745,
    "favourable": 12260,
    "Ġhier": 1893,
    "abs": 11665,
    "Ġri": 3396,
    "Ġstair": 8455,
    "sue": 2077,
    "cd": 15321,
    "Ġdreaming": 11222,
    "Ġended": 7950,
    "Ġexponentially": 1444,
    "Ġdependencies": 2314,
    "Ġwaldman": 11344,
    "Ġundue": 25993,
    "unte": 21871,
    "======================================================================": 10066,
    "Ġlaw": 3656,
    "ropol": 10952,
    "Ġcreditor": 24289,
    "Ġabandon": 12254,
    "Ġsincer": 13062,
    "Ġnot": 410,
    "jure": 20923,
    "pher": 11510,
    "Ġit": 339,
    "Ġswelling": 11922,
    "cking": 4265,
    "stately": 18021,
    "Ġwearing": 12735,
    "Ġ183": 13235,
    "Ġlethargy": 26482,
    "Ġindividuals": 24545,
    "repro": 10769,
    "Ġshoots": 14566,
    "Ġmoon": 4607,
    "iance": 5279,
    "bib": 17490,
    "Ġtawny": 20480,
    "Ġprogra": 1146,
    "Ġplunged": 8692,
    "cares": 24308,
    "backward": 2682,
    "consent": 18501,
    "advice": 12154,
    "smooth": 20247,
    "know": 2318,
    "mong": 15387,
    "Ġchannel": 26012,
    "Ġtimbers": 14836,
    "Ġthemselves": 3252,
    "Ġthinnest": 24182,
    "âĢĶ.âĢĿ": 22253,
    "interview": 19297,
    "Ġfasten": 11131,
    "Ġpreparing": 8647,
    "Ġarise": 7897,
    "Ġgrunt": 18736,
    "Ġherd": 7889,
    "Ġvect": 1225,
    "astic": 1867,
    "Ġalternately": 15030,
    "Ĳ": 243,
    "Ġnoted": 15824,
    "march": 13753,
    "Ġsnar": 13196,
    "Ġtruth": 3322,
    "Ġprovid": 1006,
    "cask": 12443,
    "Ġmeekly": 26489,
    "Ġhandy": 12932,
    "Ġpudding": 17915,
    "olog": 1071,
    "Ġarose": 7361,
    "mai": 22912,
    "Ġcocain": 18596,
    "travelling": 24316,
    "scand": 18849,
    "Ġjost": 23630,
    "Ġdisturbing": 19944,
    "Ġquarters": 8619,
    "civility": 17512,
    "Ġsurmised": 24919,
    "Ġhag": 12621,
    "desp": 6076,
    "Ġcirclings": 26430,
    "Ġembatt": 18842,
    "Ġground": 2847,
    "ackled": 22418,
    "oak": 21002,
    "falling": 24360,
    "Ġrickety": 26505,
    "Ġuntrodden": 23519,
    "vy": 21106,
    "ote": 4595,
    "Ġpreliminary": 10055,
    "Ġofficially": 24838,
    "Ġdella": 21438,
    "Ġopposition": 16519,
    "Ġbelieved": 4368,
    "Ġforests": 13590,
    "Ġmarrying": 6177,
    "avern": 24792,
    "?âĢĻ": 2640,
    "Ġdrawer": 13264,
    "Ġagreeably": 24952,
    "Ġyear": 3286,
    "Ġarc": 14157,
    "Ġquiescent": 26242,
    "Ġcapering": 21352,
    "rential": 22917,
    "althy": 8432,
    "Ġfuller": 11155,
    "Ġmaterially": 12188,
    "Ġinstrum": 6055,
    "Ġwhiff": 21716,
    "Ġcoop": 14268,
    "Ġornam": 15861,
    "Ġwretch": 6377,
    "Ġnavel": 24575,
    "measure": 10029,
    "Ġbewil": 11655,
    "tut": 15432,
    "Ġpersuading": 19408,
    "Ġanimate": 23421,
    "Ġsheer": 14149,
    ",âĢĻ": 2327,
    "mentioning": 24885,
    "Ġnieces": 8433,
    "Ġbiographical": 22758,
    "ult": 722,
    "Ġunknown": 4453,
    "ming": 3600,
    "Ġfleet": 9430,
    "Ġflesh": 5969,
    "Ġcomstock": 21844,
    "Ġsmoothed": 23658,
    "Ġloom": 7629,
    "Ġsentinel": 26065,
    "Ġtechni": 1698,
    "laborers": 23913,
    "Ġrecklessly": 16982,
    "Ġchiswick": 25560,
    "Ġmidnight": 5265,
    "member": 20974,
    "Ġmaxim": 3090,
    "Ġsized": 11561,
    "bedroom": 14674,
    "iffs": 9020,
    "ous": 476,
    "Ġencourag": 1393,
    "Ġaslant": 21899,
    "Ġbone": 4693,
    "companion": 9556,
    "ira": 3958,
    "intelligence": 5883,
    "Ġwrench": 12553,
    "asted": 4648,
    "Ġperches": 18443,
    "fal": 17535,
    "firm": 10697,
    "connected": 1309,
    "ą": 198,
    "magnificent": 20273,
    "mediterranean": 16401,
    "Ġlamented": 24993,
    "rich": 11516,
    "Ġlass": 15644,
    "Ġbureau": 11588,
    "Ġcattle": 12568,
    "apped": 5395,
    "Ġgene": 15668,
    "Ġdestitute": 14564,
    "perishing": 22184,
    "chose": 18040,
    "Ġunfrequent": 24108,
    "scale": 3535,
    "Ġowen": 15092,
    "violets": 23542,
    "Ġsupplies": 20325,
    "comprehensive": 20625,
    "Ġun": 424,
    "Ġcommis": 22669,
    "Ġminus": 18749,
    "Ġbleached": 24395,
    "convalescence": 24884,
    "antled": 18287,
    "Ġmichigan": 26425,
    "Ġseam": 3910,
    "Ġgunwales": 12237,
    "generosity": 23785,
    "endeavouring": 15014,
    "Ġboister": 12915,
    "Ġsalad": 19477,
    "Ġbeing": 1165,
    "Ġbowing": 10474,
    "Ġsaint": 15505,
    "Ġif": 698,
    "Ġtiger": 11553,
    "Ġdeg": 3282,
    "Ġreality": 7057,
    "preced": 10308,
    "ount": 1113,
    "bermaid": 20789,
    "rador": 19158,
    "Ġfabulous": 25948,
    "Ġunconquerable": 22061,
    "Ġpie": 13913,
    "Ġflaw": 23010,
    "Ġencamp": 22800,
    "Ġmisanthrop": 22754,
    "alleging": 23023,
    "circumstance": 7764,
    "terrors": 25041,
    "Ġsubsisting": 23433,
    "Ġjoyously": 19345,
    "Ġrelinquish": 17345,
    "Ġinvestigated": 25386,
    "Ġexterm": 21827,
    "Ġnosegay": 24191,
    "threshold": 21985,
    "Ġwronged": 24246,
    "bub": 15314,
    "Ġunmannerly": 26516,
    "loud": 11499,
    "dragged": 16607,
    "shed": 8095,
    "Ġbodily": 6106,
    "Ġostr": 21323,
    "Ġrand": 1584,
    "du": 604,
    "Ġaccident": 5380,
    "Ġdilatory": 24705,
    "Ġtweezers": 26555,
    "Ġleaping": 8341,
    "Ġbackwater": 18639,
    "Ġworthless": 19564,
    "rise": 6226,
    "Ġclosely": 6487,
    "Ġanguish": 5583,
    "attempt": 9358,
    "Ġcounty": 9029,
    "will": 1970,
    "Ġmy": 409,
    "Ġscattered": 6856,
    "vib": 21114,
    "Ġgrope": 17994,
    "abashed": 21790,
    "Ġhints": 8430,
    "Ġobstinate": 11335,
    "Ġcontemplation": 11356,
    "troubled": 17111,
    "Ġahab": 1216,
    "Ġbalmoral": 16204,
    "soles": 18687,
    "Ġaffect": 1387,
    "Ġ74": 24260,
    "inquiry": 15140,
    "Ġkey": 2102,
    "thence": 23398,
    "Ġgrammar": 1063,
    "Ġhval": 21486,
    "Ġsax": 10928,
    "ront": 15416,
    "Ġparticip": 16128,
    "possibility": 13359,
    "Ġbones": 4582,
    "Ġconvent": 11666,
    "Ġlawyer": 10667,
    "Ġnecessity": 7297,
    "ana": 15555,
    "Ġvide": 10249,
    "guarded": 13292,
    "rent": 1172,
    "Ġsafer": 22168,
    "Ġtren": 17720,
    "Ġbent": 5149,
    "black": 6768,
    "halfway": 24310,
    "prodigious": 17465,
    "combe": 7661,
    "animate": 12573,
    "orter": 4255,
    "Ġfeelings": 2453,
    "Ġabatement": 22274,
    "Ġdefines": 1745,
    "Ġvicissitudes": 12416,
    "dorff": 15235,
    "Ġcommonplaces": 16286,
    "anct": 21356,
    "Ġirene": 8444,
    "Ġdelicate": 6479,
    "Ġsave": 4051,
    "Ġdefinite": 11068,
    "Ġbenefited": 19396,
    "Ġarr": 1799,
    "Ġvexations": 24610,
    "usage": 12829,
    "Ġattained": 14076,
    "explaining": 23139,
    "Ã": 132,
    "Ġraved": 22651,
    "loa": 18536,
    "Ġanticipating": 17057,
    "tles": 10729,
    "Ġ122": 24466,
    "Ġmix": 7577,
    "charge": 9447,
    "hall": 8085,
    "allingly": 22197,
    "Ġqualifications": 24675,
    "wling": 11543,
    "Ġtaffrail": 15474,
    "Ġmonomania": 17084,
    "Ġdiscomposed": 25580,
    "Ġsphy": 18311,
    "Ġdarling": 12600,
    "cing": 1013,
    "Ġswallow": 8949,
    "Ġkingdom": 12015,
    "bbles": 13689,
    "Ġnuptials": 20492,
    "Ġdisturbed": 8671,
    "Ġveritable": 19379,
    "Ġnursed": 16884,
    "headers": 23107,
    "amused": 21850,
    "Ă": 195,
    "Ġtragedies": 25241,
    "Ġunfrequ": 19507,
    "Ġcoleridge": 18767,
    "ouse": 1194,
    "intervals": 10636,
    "Ġhoof": 23352,
    "Ġsumatra": 15284,
    "Ġeconomy": 17199,
    "Ġvicinity": 7316,
    "Ġserenity": 10026,
    "sufficient": 6635,
    "Ġfund": 2844,
    "Ġshrinking": 14802,
    "Ġproduce": 4367,
    "Ġpugnacious": 26450,
    "Ġworst": 7445,
    "Ġcommodore": 12392,
    "nervous": 16275,
    "Ġapprehended": 26091,
    "Ġtooth": 9191,
    "Ġsheet": 6262,
    "_),": 7125,
    "Ġgathers": 24743,
    "Ġskirting": 22797,
    "rows": 6441,
    "Ġsubt": 11865,
    "Ġoccasionally": 5589,
    "Ġdisdain": 8361,
    "ė": 216,
    "Ġdisordered": 16052,
    "Ġunit": 1848,
    "Ġtem": 801,
    "Ġquoin": 22416,
    "Ġregard": 3073,
    "grate": 23410,
    "Ġbulkington": 14675,
    "Ġkindling": 19029,
    "prom": 6508,
    "Ġprofundities": 20452,
    "Ġhere": 1089,
    "pits": 15410,
    "Ġconj": 8460,
    "Ġopp": 2696,
    "Ġanchored": 17438,
    "Ġstoner": 7179,
    "rud": 4191,
    "Ġatonement": 21940,
    "kington": 11202,
    "Ġclust": 9272,
    "emper": 18180,
    "tempest": 16958,
    "ipped": 5790,
    "preservation": 25305,
    "Ġallusions": 10905,
    "Ġbeale": 12695,
    "Ġnotion": 7883,
    "benevol": 12223,
    "Ġplates": 11006,
    "Ġducking": 17145,
    "similar": 13451,
    "Ġsuddenness": 23380,
    "Ġsemantic": 1959,
    "Ġlikely": 3597,
    "histor": 13489,
    "ports": 13772,
    "declined": 25174,
    "Ġemble": 13969,
    "coff": 9107,
    "Ġpalsy": 25778,
    "Ġdenial": 13212,
    "taken": 7561,
    "Ġconcert": 11962,
    "discoveries": 25385,
    "Ġtusked": 25426,
    "Ġinfall": 7965,
    "vap": 13801,
    "life": 4930,
    "Ġdirectly": 2105,
    "Ġhastily": 5763,
    "Ġpenetrate": 12266,
    "ing": 273,
    "apothe": 22332,
    "Ġpositional": 2598,
    "Ġcontented": 9754,
    "Ġmallet": 17810,
    "Ġgenerous": 6273,
    "iltrated": 19304,
    "Ġopinion": 3146,
    "Ġmoonshine": 19596,
    "Ġunnearable": 26515,
    "Ġexaggerated": 25650,
    "Ġmagnus": 18956,
    "grandfather": 25009,
    "thole": 21984,
    "Ġflog": 23622,
    "Ġdeepest": 8214,
    "pton": 15790,
    "steering": 16634,
    "Ġforthwith": 16617,
    "equal": 14991,
    "Ġrejoinder": 24598,
    "elag": 12654,
    "Ġuseful": 3558,
    "Ġmischie": 22755,
    "Ġranks": 21973,
    "avery": 13681,
    "Ġstuff": 5717,
    "Ġreeled": 13984,
    "oriously": 17874,
    "removed": 15514,
    "negro": 18495,
    "Ġharp": 17923,
    "Ġharshly": 25249,
    "sounding": 24796,
    "Ġchambers": 16798,
    "Ġflame": 7449,
    "Ġme": 352,
    "weave": 22683,
    "therefore": 5954,
    "Ġswears": 16462,
    "Ġsample": 3180,
    "Ġperceptible": 18446,
    "onement": 21255,
    "elect": 20845,
    "Ġpeeped": 10010,
    "Ġconst": 1910,
    "Ġscrutiny": 26015,
    "Ġshops": 21999,
    "Ġraise": 6166,
    "Ġpathways": 11152,
    "Ġstepmother": 16085,
    "cry": 12442,
    "clair": 18932,
    "elihood": 4621,
    "ames": 2952,
    "Ġconcentrated": 15081,
    "Ġhorizont": 6937,
    "cup": 10689,
    "Ġlanguages": 1570,
    "Ġspoil": 17006,
    "acqu": 4840,
    "Ġpick": 4256,
    "ves": 697,
    "Ġheathen": 10564,
    "Ġcertainty": 6734,
    "Ġrows": 10560,
    "publ": 17637,
    "Ġmeridians": 17354,
    "Ġsmo": 2700,
    "Ġforget": 2634,
    "insanity": 23067,
    "Ġintercourse": 10997,
    "Ġhindrance": 25220,
    "Ġelephant": 8256,
    "Ġseparating": 16684,
    "ir": 379,
    "Ġsuperfluous": 17412,
    "unguarded": 23668,
    "intelligent": 16843,
    "delight": 5344,
    "kin": 7131,
    "obedience": 17408,
    "Ġflour": 8943,
    "Ð": 145,
    "Ġunhappiness": 14117,
    "deed": 1517,
    "Ġfaltering": 17884,
    "ended": 1832,
    "Ġwork": 1319,
    "bourgh": 19103,
    "claimed": 9834,
    "Ġknows": 4161,
    "Ġravings": 18645,
    "splinter": 25210,
    "Ġbount": 15564,
    "Ġenumerating": 15242,
    "imet": 21704,
    "bree": 15312,
    "rucastle": 22176,
    "loss": 22506,
    "cellar": 20276,
    "Ġrepine": 16407,
    "response": 25762,
    "Ġegg": 8817,
    "Ġaims": 15494,
    "Ġbusier": 23337,
    "alluring": 18352,
    "onomy": 12543,
    "spanish": 14332,
    "Ġsincere": 11135,
    "Ġgra": 415,
    "Ġ71": 24258,
    "tin": 6116,
    "cun": 20794,
    "doubtless": 17001,
    "brown": 15315,
    "increasing": 20268,
    "Ġsoda": 25534,
    "Ġmastery": 23990,
    "Ġinferiority": 17114,
    "Ġclinging": 10290,
    "Ġincognita": 26550,
    "Ġinanimate": 13931,
    "Ġsurmises": 17054,
    "tranqu": 14703,
    "ected": 7874,
    "Ġnaturally": 2467,
    "highly": 24764,
    "Ġgravel": 14100,
    "ressing": 8917,
    "Ġanimation": 11151,
    "Ġgeorgiana": 8625,
    "Ġvolition": 14795,
    "continuing": 24478,
    "torture": 26151,
    "sank": 17661,
    "athom": 12936,
    "Ġeludes": 26553,
    "Ġdarts": 16767,
    "Ġfulfilment": 20186,
    "fell": 6953,
    "raged": 9210,
    "Ġreal": 1634,
    "Ġgodson": 23357,
    "Ġperform": 1036,
    "limbs": 20190,
    "presently": 9805,
    "Ġgrieved": 8298,
    "Ġobedient": 20103,
    "Ġanswer": 2599,
    "Ġexceptionable": 25503,
    "ripp": 6403,
    "Ġmoritz": 11903,
    "Č": 205,
    "Ġreplied": 2265,
    "Ġtroub": 22342,
    "Ġwhe": 438,
    "Ġlive": 2734,
    "lets": 7837,
    "nobody": 16132,
    "Ġhousehold": 8567,
    "Ġexcessive": 3894,
    "conclusive": 25673,
    "Ġtestified": 16329,
    "Ġlove": 2054,
    "Ġtyph": 10006,
    "oysius": 14364,
    "Ġdawned": 14992,
    "Ġclients": 19730,
    "Ġneed": 2608,
    "urs": 6989,
    "Ġheavier": 13100,
    "Ġsaturday": 6451,
    "Ġambergris": 8705,
    "pred": 2803,
    "Ġunthinkingly": 26220,
    "Ġvarying": 15807,
    "unched": 10234,
    "Ġanalyzing": 18795,
    "Ġfunny": 7638,
    "Ġtendinous": 16930,
    "Ġcleared": 6075,
    "Ġfacetious": 20582,
    "Ġlanguage": 645,
    "uttural": 21587,
    "Ġsignificantly": 4518,
    "âĢĶâĢĻ": 8188,
    "burn": 8371,
    "years": 6883,
    "Ġadds": 1805,
    "Ġnote": 4263,
    "mouthful": 25208,
    "Ġsuggestive": 11296,
    "Ġrejected": 12291,
    "shipping": 10306,
    "proceeded": 25190,
    "Ġunhallowed": 17179,
    "face": 3678,
    "Ġbreakfast": 3976,
    "Ġneighbor": 25805,
    "Ġimplac": 24874,
    "Ġwaistcoat": 12267,
    "Ġberries": 13405,
    "ory": 1082,
    "Ġmississippi": 20724,
    "Ġweak": 5098,
    "Ġtrousers": 12412,
    "wealth": 22686,
    "Ġstalked": 20427,
    "Ġgrosvenor": 17416,
    ").âĢĿ": 20740,
    "Ġexcell": 10415,
    "mistress": 14902,
    "Ġtipt": 21172,
    "¾": 127,
    "Ġproud": 5654,
    "rooms": 10431,
    "Ġbreeding": 14519,
    "Ġpearl": 20375,
    "sively": 13784,
    "Ġsentin": 16367,
    "Ġchinese": 14182,
    "Ġsubsequent": 7660,
    "subs": 14304,
    "Ġlunch": 13524,
    "Ġdetective": 14397,
    "Ġviews": 7291,
    "Ġcrows": 24028,
    "fortunes": 6332,
    "Ġelimin": 16104,
    "famous": 16915,
    "ignor": 8960,
    "hearts": 13342,
    "Ġcontrive": 16007,
    "Ġminister": 18751,
    "unting": 21872,
    "Ġbarrens": 25501,
    "Ġcottage": 4732,
    "Ġspare": 5102,
    "ts": 962,
    "Ġgardiner": 3239,
    "Ġpitiable": 9912,
    "Ġshudderings": 25200,
    "Ġchip": 12821,
    "Ġhardihood": 23110,
    "entreat": 17975,
    "Ġmud": 11571,
    "seaman": 25457,
    "Ġlonger": 3361,
    "accessible": 13637,
    "Ġgamming": 25542,
    "ġ": 226,
    "Ġexcluded": 16377,
    "Ġcruise": 12046,
    "Ġplata": 25117,
    "Ġbulge": 23855,
    "calmed": 16201,
    "asht": 4085,
    "Ġhack": 12752,
    "Ġinterrupt": 4360,
    "itates": 13867,
    "asmuch": 10193,
    "ran": 11514,
    "Ġch": 513,
    "Ġflush": 14422,
    "Ġeyford": 10640,
    "Ġcurving": 16242,
    "Ġchorus": 10945,
    "atre": 17769,
    "Ġadmitting": 19182,
    "Ġcreature": 2383,
    "ela": 21567,
    "Ġpurporting": 19181,
    "Ġperishing": 22385,
    "Ġwraps": 19775,
    "Ġsodden": 25535,
    "Ġmoods": 14948,
    "Ġnetworks": 600,
    "Ġsisterly": 16300,
    "Ġfain": 5808,
    "hug": 17562,
    "sunlight": 24851,
    "ily": 1032,
    "courageous": 26127,
    "Ġshake": 6034,
    "calabash": 22892,
    "arious": 10315,
    "exhibited": 18477,
    "Ġprepare": 8646,
    "D": 40,
    "lakeman": 13749,
    "asses": 7016,
    "Ġxlvi": 25590,
    "towing": 17688,
    "warmest": 25027,
    "ized": 1527,
    "Ġprofessor": 11230,
    "lace": 13746,
    "gang": 17552,
    "brace": 16941,
    "Ġbroods": 23101,
    "experience": 17157,
    "ile": 521,
    "Ġplanisphere": 26606,
    "Ġcleanse": 24526,
    "Ġkettle": 26232,
    "eous": 13710,
    "Ġexclude": 19038,
    "points": 14391,
    "Ġproduced": 2452,
    "Ġfirm": 3873,
    "solitude": 23293,
    "Ġnois": 4267,
    "hend": 13251,
    "Ġserve": 9367,
    "Ġconstantly": 11969,
    "Ġpreparations": 12307,
    "Ġspot": 4156,
    "Ġkidnapping": 26356,
    "Ġventured": 7502,
    "pretend": 24882,
    "Ġcore": 13876,
    "aly": 1100,
    "datasets": 11949,
    "Ġdisregard": 22526,
    "igating": 21698,
    "Ġsharp": 2415,
    "Ġpurchas": 19873,
    "izabeth": 906,
    "advantages": 11270,
    "unhes": 21873,
    "Ġwink": 11567,
    "pause": 12497,
    "Ġrailway": 15019,
    "Ġconfidence": 6590,
    "Ġupstairs": 5836,
    "Ġboats": 2637,
    "imes": 1301,
    "Ġrejoicing": 13419,
    "unusually": 15776,
    "Ġwool": 19431,
    "Ġball": 3623,
    "Ġunhappily": 18265,
    "Ġ_": 840,
    "Ġbreak": 2868,
    "isome": 17848,
    "Ġdisgust": 6705,
    "lights": 13203,
    "ĠĠĠĠĠ": 3527,
    "Ġwhereof": 16099,
    "Ġscalable": 1587,
    "fiend": 13659,
    "Ġabridged": 26539,
    "Ġdeed": 7869,
    "Ġunctuous": 10266,
    "Ġquick": 2581,
    "Ġconvert": 11839,
    "Ġgranting": 18737,
    "Ġhooped": 23354,
    "Ġconcuss": 19045,
    "irst": 879,
    "devils": 20031,
    "Ġnumer": 3638,
    "unctions": 18155,
    "out": 467,
    "Ġ(`": 12849,
    "published": 26142,
    "elly": 17979,
    "Ġsequence": 1977,
    "certain": 3677,
    "Ġembell": 14411,
    "Ġtri": 4811,
    "Ġrather": 1494,
    "wers": 12516,
    "Ġtalked": 4421,
    "bow": 5424,
    "Ġmatrimony": 13633,
    "Ġellenborough": 26154,
    "Ġfishery": 4176,
    "ivorous": 22080,
    "Ġrefill": 18698,
    "cell": 10684,
    "Ġill": 2194,
    "surprise": 9528,
    "soup": 21057,
    "Ġlocations": 12410,
    "Ġindic": 2886,
    "Ġsituated": 9446,
    "Ġmari": 6813,
    "Ġspasmodically": 17312,
    "difference": 13706,
    "Ġfalse": 4344,
    "Ġfixed": 2684,
    "Ġglowing": 12279,
    "Ġunfor": 15837,
    "Ġcondemn": 13442,
    "deemed": 18315,
    "american": 11399,
    "antial": 8487,
    "Ġslim": 18936,
    "Ġpepper": 9779,
    "simon": 16972,
    "Ġphrase": 11186,
    "usually": 10284,
    "Ġfact": 1730,
    "thirty": 12758,
    "Ġmitigating": 1614,
    "Ġworried": 22924,
    "Ġinstruction": 14342,
    "Ġprevention": 16087,
    "projecting": 26073,
    "itics": 13870,
    "Ġrepute": 18034,
    "Ġslender": 11937,
    "Ġsensitivity": 3075,
    "Ġbustle": 17226,
    "Ġdelicately": 24124,
    "(_": 7541,
    "weakness": 16121,
    "ergy": 2360,
    "Ġoutlaws": 22321,
    "Ġseas": 3083,
    "Ġourselves": 5127,
    "Ġtarpaul": 17729,
    "gledy": 25403,
    "tarpaul": 21096,
    "Ġhereford": 22877,
    "gravel": 22618,
    "Ġdeterm": 1270,
    "archical": 1926,
    "Ġvolley": 24144,
    "Ġrolls": 8334,
    "vis": 4576,
    "Ġprelimin": 8859,
    "contain": 18500,
    "doc": 23374,
    "carpet": 25202,
    "ar": 285,
    "Ġcomparison": 7099,
    "Ġbasin": 19847,
    "Ġprovide": 7750,
    "Ġresol": 2663,
    "Ġrecept": 1523,
    "allen": 22194,
    "wes": 17702,
    "Ġsatire": 22899,
    "ived": 1531,
    "Ġemblematical": 25788,
    "Ġfacility": 19849,
    ".}": 20744,
    "ieties": 19024,
    "Ġbravely": 23836,
    "reme": 2425,
    "poles": 16206,
    "prodig": 16424,
    "Ġjewels": 12366,
    "Ġanswered": 2852,
    "watson": 12240,
    "has": 4014,
    "Ġshin": 18227,
    "favourite": 15141,
    "Ġlower": 2660,
    "incing": 15483,
    "mix": 20973,
    "rons": 21038,
    "Ġbon": 8784,
    "Ġsilly": 7686,
    "Ġbringing": 5869,
    "closing": 23154,
    "Ġpossess": 3205,
    "cept": 557,
    "Ġlearnt": 7613,
    "Ġcurtains": 23001,
    "extra": 8219,
    "'m": 9581,
    "Ġsing": 3079,
    "Ġdate": 7842,
    "Ġvap": 6837,
    "Ġwishing": 7831,
    "Ġrecovery": 11440,
    "Ġkindly": 6078,
    "Ġvibration": 17098,
    "Ġheavy": 3746,
    "llable": 6879,
    "Ġadvice": 4899,
    "Ġporter": 15607,
    "Ġacknowledged": 7535,
    "Ġavocation": 23950,
    "Ġbenchmarks": 15020,
    "Ġmidships": 23633,
    "ained": 3071,
    "Ġfootfall": 14659,
    "Ġmounting": 19975,
    "Ġtransports": 24276,
    "spark": 18689,
    "Ġtreasures": 17046,
    "Ġ1828": 25720,
    "Ġstraighten": 24001,
    "cially": 3491,
    "creator": 26380,
    "Ġpacked": 9978,
    "Ġdepose": 22593,
    "Ġbeckoning": 20500,
    "Â£": 4810,
    "Ġshell": 11733,
    "Ġscotland": 6639,
    "Ġplain": 2818,
    "foreign": 18544,
    "pierced": 26141,
    "Ġrallied": 14094,
    "Ġham": 3422,
    "Ġga": 4446,
    "Ġthumb": 6981,
    "Ġbeggars": 20628,
    "awk": 23114,
    "Ġrepugn": 23362,
    "leton": 5148,
    "Ġmutually": 23954,
    "felt": 5889,
    "Ġbenjamin": 26566,
    "iquet": 17574,
    "Ġseizing": 7878,
    "Ġbrotherhood": 23669,
    "Ġaggregate": 25677,
    "atra": 17770,
    "Ġagreeable": 4551,
    "Ġcherub": 23284,
    "ased": 1267,
    "Ġonset": 12706,
    "Ġspring": 4121,
    "Ġmurky": 19200,
    "ow": 325,
    "Ġprecip": 7074,
    "iter": 4391,
    "Ġbuzz": 23994,
    "fleece": 19946,
    "Ġcontinues": 18810,
    "resum": 17760,
    "Ġwarden": 17223,
    "ience": 807,
    "quin": 21851,
    "iro": 20913,
    "Ġaccursed": 9443,
    "Ġtight": 8108,
    "Ġbewit": 15724,
    "miss": 3176,
    "Ġseasoned": 24404,
    "eyeing": 14943,
    "Ġintegrated": 13529,
    "Ġuneasy": 8661,
    "Ġmiserable": 3634,
    "Ġstil": 15714,
    "Ġcongrat": 5827,
    "Ġactivations": 2719,
    "Ġboone": 11837,
    "È": 137,
    "Ġrequ": 827,
    "Ġpromptly": 23815,
    "Ġirrevocably": 15295,
    "Ġperiodical": 14769,
    "Ġfling": 9659,
    "Ġformality": 22826,
    "odox": 21809,
    "Ġwaits": 23278,
    "ouncing": 8494,
    "ream": 2708,
    "vens": 21111,
    "pertaining": 22186,
    "supers": 22659,
    "ĠĠĠĠĠĠĠĠĠĠĠĠĠĠĠĠĠĠĠĠĠĠĠĠĠĠĠĠĠĠĠĠĠĠĠĠĠĠĠĠĠĠĠĠĠĠĠĠĠĠĠĠĠĠĠĠĠĠĠĠ": 19259,
    "deacon": 22145,
    "Ġmechanically": 14396,
    "Ġclimes": 12837,
    "results": 20385,
    "Ġpondicherry": 20489,
    "Ġpea": 14315,
    "Ġundecided": 22046,
    "Ġebony": 18008,
    "hoisted": 19281,
    "connect": 1293,
    "attention": 2110,
    "Ġhousekeeper": 7457,
    "Ġbackbone": 22646,
    "Ġfalsely": 20580,
    "Ġroots": 11184,
    "inquiries": 13575,
    "bbs": 23690,
    "ux": 7814,
    "Ġ78": 19612,
    "Ġfabric": 25947,
    "Ġsmell": 7217,
    "Ġany": 689,
    "Ġfairy": 14625,
    "Ġraging": 14302,
    "Ġregulate": 22573,
    "dreaded": 25138,
    "token": 21081,
    "Ġruins": 16155,
    "Ġsag": 6513,
    "Ġrum": 5924,
    "Ġdiscreet": 16480,
    "Ġpoets": 11818,
    "iel": 11492,
    "become": 14245,
    "Ġfitly": 23996,
    "trying": 15436,
    "cooper": 19188,
    "Ġmarine": 23031,
    "Ġcountries": 13093,
    "Ġprogram": 12990,
    "Ġprivile": 8645,
    "Ġeve": 13968,
    "Ġalexander": 17422,
    "Ġeffectively": 2664,
    "Ġgets": 10838,
    "night": 2169,
    "them": 3022,
    "Ġspeed": 2448,
    "aded": 3549,
    "Ġengraving": 17079,
    "Ġemm": 18002,
    "anders": 18152,
    "two": 3860,
    "Ġdan": 8791,
    "resist": 8276,
    "Ġlapl": 19776,
    "dread": 8728,
    "Ġexercising": 19906,
    "Ġsnoring": 23738,
    "Ġtahit": 10753,
    "Ġindestruct": 22956,
    "Ä": 133,
    "uously": 7354,
    "Ġcordage": 19677,
    "Ġlengthwise": 10451,
    "Ġencirc": 18731,
    "Ġsuit": 5725,
    "Ġwired": 17786,
    "Ġrefreshing": 20263,
    "possible": 5743,
    "Ġerudite": 26350,
    "ening": 3110,
    "Ġspilling": 22136,
    "ought": 830,
    "guest": 19480,
    "unicorn": 21887,
    "Ġaid": 6122,
    "Ġassumed": 9464,
    "Ġscandal": 9080,
    "appear": 13194,
    "Ġrecommending": 24336,
    "crat": 24096,
    "Ġcourage": 4632,
    "Ġshave": 21994,
    "Ġ105": 24412,
    "Ġhospital": 15038,
    "izens": 18135,
    "suited": 22658,
    "Ġillness": 8589,
    "Ġproble": 1110,
    "Ġconverts": 2806,
    "Ġtying": 15471,
    "Ġlim": 2380,
    "Ġnought": 21520,
    "Ġsmells": 8888,
    "necessarily": 19630,
    "azore": 23461,
    "Ġskilful": 25837,
    "Ġshavings": 14108,
    "Ġcraft": 4376,
    "Ġenjoys": 19448,
    "Ġinexpress": 12631,
    "Ġtwelve": 4962,
    "Ġyet": 1025,
    "chain": 18039,
    "tall": 17672,
    "altern": 17941,
    "icates": 11615,
    "message": 17370,
    "Ġdeceive": 12718,
    "ille": 9218,
    "Ġeffectual": 18732,
    "Ġbut": 423,
    "clergy": 18933,
    "Ġtwain": 16116,
    "Ġmau": 21309,
    "Ġscenarios": 26541,
    "embraced": 25804,
    "sn": 7138,
    "Ġproximity": 3221,
    "Ġrambling": 18643,
    "Ġblunt": 11891,
    "Ġ116": 24439,
    "Ġlowly": 11120,
    "Ġimposed": 14217,
    "windward": 24159,
    "Ġspectre": 16629,
    "Ġliterature": 17147,
    "contrast": 25594,
    "tro": 15431,
    "Ġrece": 11636,
    "Ġdifficult": 3571,
    "Ġbuying": 23993,
    "Ġorbs": 22090,
    "Ġspur": 18303,
    "duing": 22409,
    "Ġshield": 21997,
    "Ġentreating": 24206,
    "Ġequilibrium": 4142,
    "avating": 18605,
    "Ġwednesday": 9023,
    "vous": 2252,
    "comed": 8544,
    "Ġgrenadier": 21614,
    "Ġwip": 13851,
    "Ġpyramids": 15112,
    "mare": 17598,
    "atived": 21261,
    "Ġinsolent": 13598,
    "Ġhasty": 10476,
    "Ġcorrespond": 6209,
    "Ġpadded": 25036,
    "Ġsembl": 19059,
    "mblance": 7324,
    "around": 12604,
    "Ġpythag": 26447,
    "Ġrods": 9752,
    "Ġmansion": 17809,
    "ries": 3355,
    "Ġfidget": 15187,
    "penetrate": 20323,
    "Ġpumps": 8427,
    "\",": 10677,
    "Ġstrongest": 11134,
    "Ġprehens": 22229,
    "Ġwatched": 6297,
    "www": 17250,
    "Ġpy": 21450,
    "Ġfreshness": 23985,
    "Ġagitated": 7648,
    "Ġprovides": 1930,
    "meditation": 19066,
    "Ġprob": 971,
    "disappointment": 11424,
    "Ġspent": 3965,
    "Ġcarve": 23091,
    "Ġphilosopher": 12180,
    "Ġembarrassed": 11383,
    "Ġinvis": 6902,
    "affrail": 11204,
    "Ġmanly": 22322,
    "stairs": 5155,
    "Ġexplanatory": 22202,
    "irious": 15782,
    "renadier": 18419,
    "Ġ118": 19697,
    "Ġstall": 12692,
    "Ġnamed": 6139,
    "archbishop": 22894,
    "Ġhat": 2773,
    "pardon": 10063,
    "reported": 24492,
    "Ġgravesend": 15214,
    "Ġmors": 17801,
    "Ġirritation": 20265,
    "Ġcorresponding": 13436,
    "counterpart": 26359,
    "Ġcoroner": 7511,
    "Ġrapidity": 11099,
    "Ġabased": 22266,
    "Ġbanished": 10615,
    "fool": 9046,
    "odecim": 9830,
    "Ġlistless": 16474,
    "win": 6801,
    "wretch": 17707,
    "Ġsatisf": 2807,
    "Ġjeer": 24122,
    "Ġabruptly": 15148,
    "fixedly": 24929,
    "Ġovertaken": 18430,
    "Ġtinted": 13820,
    "Ġdismally": 20213,
    "forward": 2188,
    "village": 25422,
    "Ġsusp": 2661,
    "ree": 874,
    "Ġclubb": 22349,
    "embra": 14072,
    "Ġcedar": 15186,
    "ordered": 8788,
    "law": 6115,
    "balanced": 14553,
    "Ġundu": 15835,
    "Ġlatin": 16820,
    "Ġslappin": 18942,
    "Ġavoid": 5199,
    "Ġbarbs": 10530,
    "Ġwhirled": 14957,
    "write": 14645,
    "value": 18808,
    "Ġmagistrate": 8234,
    "obtained": 23094,
    "drink": 10594,
    "Ġaverse": 11080,
    "fol": 4860,
    "Ġprovocation": 24190,
    "Ġtash": 13818,
    "Ġstacked": 21741,
    "apprec": 22844,
    "Ġpier": 7163,
    "Ġmetaphys": 16411,
    "Ġrang": 9243,
    "Ġcompliments": 8632,
    "tail": 8761,
    "Ľ": 254,
    "Ġgiving": 4086,
    "princ": 8620,
    "Ġbalancing": 2431,
    "Ġinhale": 20299,
    "Ġbounds": 9916,
    "Ġruggedness": 26268,
    "speeches": 25239,
    "drew": 7335,
    "Ġhang": 9186,
    "Ġelizabeth": 1129,
    "Ġsign": 2495,
    "Ġremark": 2148,
    "Ġdangerously": 23934,
    "Ġcrumbs": 20639,
    "Ġ131": 24782,
    "Ġfinally": 4665,
    "Ġscotch": 12206,
    "Ġdl": 3377,
    "Ġhonestly": 19970,
    "Ġcalms": 23041,
    "ium": 4862,
    "sal": 8757,
    "passenger": 24165,
    "Ġmans": 15533,
    "Ġafterwards": 3531,
    "Ġgentleness": 8709,
    "scr": 16237,
    "Ġgidd": 25783,
    "verdict": 21727,
    "Ġgenius": 8046,
    "Ġstroll": 13350,
    "Ġexpectations": 13141,
    "Ġvow": 10245,
    "Ġsway": 7572,
    "Ġembra": 6578,
    "oniously": 21256,
    "Ġtowing": 9192,
    "wonderful": 16959,
    "Ġpuzzle": 11304,
    "Ġdismasted": 15249,
    "Ġmonosy": 18845,
    "bohem": 19001,
    "Ġwildest": 16508,
    "Ġlatterly": 24081,
    "Ġmended": 21312,
    "Ġliterally": 15114,
    "ghost": 20886,
    "sleeves": 26109,
    "really": 6971,
    "ulled": 14054,
    "Ġoverlooked": 15970,
    "Ġwhereby": 11833,
    "yth": 983,
    "Ġdum": 10810,
    "Ġprinciples": 10009,
    "Ġdenominated": 15226,
    "Ġclear": 1949,
    "igner": 21700,
    "Ġoblivion": 26031,
    "yd": 21141,
    "skirted": 24488,
    "needles": 20313,
    "stuff": 15684,
    "Ġpole": 6432,
    "event": 8077,
    "Ġkindled": 19028,
    "future": 13715,
    "tot": 10727,
    "sticks": 25965,
    "timidity": 25753,
    "Ġnapole": 15113,
    "Ġcongratulate": 9062,
    "Ġrepetition": 8971,
    "Ġsymmetry": 20364,
    "Ġexacted": 23602,
    "Ġwet": 6517,
    "Ġgloomily": 14798,
    "Ġinsensibility": 17109,
    "Ġindoors": 18836,
    "Ġforgiven": 24024,
    "Ġcontinual": 6777,
    "Ġlivid": 14987,
    "Ġmotion": 4565,
    "Ġroving": 22401,
    "Ġchopping": 24218,
    "ileries": 18058,
    "Ġhastened": 9003,
    "Ġexecut": 4247,
    "Ġdiscrete": 2477,
    "ting": 1334,
    "Ġbearded": 15723,
    "Ġ1894": 5196,
    "Ġiroqu": 21622,
    "Ġdeposit": 17267,
    "Ġparticularly": 5055,
    "mology": 12488,
    "Ġwatchman": 23667,
    "entary": 21565,
    "Ġ(": 595,
    "Ġmusty": 22678,
    "Ġleaf": 15719,
    "Ġpleasure": 2694,
    "Ġrep": 1937,
    "Ġwithered": 19463,
    "rd": 17648,
    "Ġsally": 15500,
    "enterprise": 24994,
    "Ġruin": 6056,
    "Ġcarted": 21347,
    "shipmates": 11925,
    "sorting": 17003,
    "vand": 21107,
    "Ġmag": 1430,
    "Ġwashed": 15761,
    "neighbours": 24881,
    "safety": 20348,
    "Ġloads": 22112,
    "Ġinfinity": 23323,
    "Ġconversation": 3332,
    "Ġstands": 5258,
    "favour": 9547,
    "Ġblasted": 7938,
    "opic": 22474,
    "Ġlargely": 14283,
    "knight": 20939,
    "cabin": 8364,
    "athy": 14321,
    "Ġmonarchs": 25849,
    "Ġfangs": 12593,
    "Ġprevious": 2089,
    "water": 4866,
    "Ġembal": 11902,
    "philosophy": 13578,
    "Ġheath": 15698,
    "Ġprettier": 23764,
    "orrowed": 19288,
    "Ġshock": 6083,
    "ĠĠĠĠĠĠĠĠĠĠĠĠĠĠĠĠĠĠĠĠĠĠĠĠĠĠĠĠĠĠĠĠĠĠĠĠĠĠĠĠĠĠĠĠ": 12150,
    "Ġharem": 9707,
    "orable": 8120,
    "Ġpursu": 3240,
    "Ġshunned": 17291,
    "Ġtropical": 17064,
    "gone": 6503,
    "Ġtissu": 25920,
    "Ġproperty": 6449,
    "iminished": 19023,
    "Ġdead": 2172,
    "delightful": 12193,
    "Ġexult": 10227,
    "Ġhumped": 19768,
    "Ġknelt": 12155,
    "Ġadapts": 3818,
    "evid": 11483,
    "Ġbee": 21747,
    "ulum": 21861,
    "Ġemotion": 7690,
    "Ġdisconsol": 18557,
    "sensibility": 25023,
    "Ġpemberley": 4587,
    "least": 8783,
    "encies": 4081,
    "Ġhatty": 19264,
    "Ġtruly": 4794,
    "Ġstrongly": 5657,
    "Ġstructures": 2718,
    "parameter": 3060,
    "Ġdepos": 11004,
    "stand": 637,
    "Ġinserting": 19905,
    "ensity": 11810,
    "birth": 15320,
    "speps": 14334,
    "Ġlines": 4533,
    "Ġhopelessly": 16371,
    "Ġbleak": 10557,
    "Ġanomaly": 25636,
    "witted": 17706,
    "Ġmahogany": 20576,
    "Ġbeneficial": 23929,
    "Ġphilosophers": 10550,
    "Ġunhinged": 26216,
    "thyself": 19296,
    "Ġpeaceable": 14720,
    "Ġtremble": 6906,
    "Ġlaborious": 13101,
    "Ġminimum": 23040,
    "Ġflorid": 17134,
    "complet": 11382,
    "Ġregent": 18586,
    "Ġhush": 13209,
    "unsupervised": 10888,
    "oko": 18441,
    "board": 3565,
    "Ġvolcano": 24146,
    "fast": 3076,
    "âĢĿ": 354,
    "Ġinflex": 20635,
    "Ġpanther": 16818,
    "ilations": 21720,
    "play": 5099,
    "Ġfugitives": 25634,
    "carriage": 9944,
    "bewil": 22496,
    "ie": 729,
    "kept": 11714,
    "Ġinst": 911,
    "Ġdeliber": 7269,
    "Ġundressed": 19512,
    "numbers": 17615,
    "penn": 18827,
    "presum": 12864,
    "pond": 21012,
    "Ġfurnaces": 24002,
    "Ġchosen": 7202,
    "Ġdebated": 9039,
    "ı": 242,
    "Ġarter": 22180,
    "quickly": 14959,
    "Ġpenetrating": 17010,
    "Ġbund": 17863,
    "dough": 15333,
    "evil": 11484,
    "Ġcareful": 2612,
    "apside": 22958,
    "stepfather": 19189,
    "Ġclapping": 14202,
    "bb": 2801,
    "ground": 4670,
    "Ġoppression": 23652,
    "Ġmajest": 24057,
    "harbors": 20147,
    "appalled": 18760,
    "abode": 21789,
    "division": 20047,
    "Ġsting": 10860,
    "Ġcanaan": 22163,
    "Ġtreas": 7359,
    "attachment": 13048,
    "Ġtint": 13815,
    "exact": 7911,
    "Ġwoman": 2388,
    "Ġwhither": 10213,
    "Ġskull": 6288,
    "Ġdrought": 19277,
    "Ġcheating": 16362,
    "Ġfluctuations": 5516,
    "Ġsuffice": 18869,
    "Ġnerves": 2627,
    "sit": 13778,
    "Ġisles": 8459,
    "Ġripp": 11218,
    "Ġrepresentation": 14404,
    "creation": 14803,
    "Ġwithdra": 6397,
    "fingers": 17368,
    "Ġworks": 5857,
    "Ġscar": 3214,
    "Ġvit": 10244,
    "Ġscuttle": 7415,
    "classification": 4387,
    "Ġbackward": 7655,
    "Ġrambles": 17183,
    "Ġsymbols": 2797,
    "Ġreflect": 6574,
    "Ġthousand": 2782,
    "involved": 25626,
    "Ġstopped": 5957,
    "Ġcaulking": 20292,
    "Ġshivering": 10264,
    "Ġpredefined": 20716,
    "impl": 21705,
    "swept": 19785,
    "Ġunctuousness": 17234,
    "Ġenjoyment": 7301,
    "ortunities": 15937,
    "kilt": 4864,
    "Ġcold": 3036,
    "outre": 18320,
    "Ġclimates": 25050,
    "Ġacquiesced": 25493,
    "Ġascribe": 16781,
    "Ġcracked": 8593,
    "Ġchose": 7414,
    "Ġ63": 24365,
    "herself": 4888,
    "Ġsquared": 1384,
    "Ġther": 17777,
    "Ġlids": 12272,
    "nals": 16397,
    "Ġphyset": 23198,
    "Ġcharacteristics": 8609,
    "Ġghostly": 24650,
    ",âĢĶâĢĺ": 23801,
    "unned": 21876,
    "Ġcrusad": 23704,
    "Ġflower": 16229,
    "wonder": 6371,
    "cater": 20814,
    "sullen": 17668,
    "crowded": 20189,
    "Ġhesitated": 10000,
    "topp": 22563,
    "Ġdons": 17888,
    "there": 1424,
    "Ġguar": 23044,
    "Ġblackness": 9391,
    "Ġraised": 4658,
    "Ġtornado": 24622,
    "farewell": 12303,
    "Ġpertin": 18444,
    "ĠĠĠĠĠĠĠ": 7632,
    "Ġturkey": 19219,
    "Ġimperson": 14221,
    "Ġlamps": 14788,
    "Ġlady": 1586,
    "pain": 7351,
    "Ġgracious": 8845,
    "Û": 156,
    "itive": 6668,
    "Ġmis": 914,
    "Ġarms": 3967,
    "gans": 11488,
    "Ġbraced": 16578,
    "birds": 15142,
    "answering": 26003,
    "brow": 15313,
    "Ġoffices": 14336,
    "Ġjav": 7903,
    "aders": 21756,
    "Ġlashed": 9197,
    "Ġmout": 17798,
    "discharging": 26305,
    "Ġmurderer": 4979,
    "ism": 4872,
    "mped": 16646,
    "Ġbumpkin": 20199,
    "Ġvex": 5949,
    "Ġsan": 7825,
    "Ġslip": 8953,
    "grown": 10098,
    "Ġmysticetus": 24922,
    "Ġtill": 1822,
    "spades": 14333,
    "harpo": 4803,
    "bruary": 15233,
    "msprop": 2625,
    "Ġcaged": 21350,
    "Ġaristotle": 25817,
    "Ġstreets": 5863,
    "Ġbesides": 3514,
    "Ġlic": 8436,
    "Ġtallow": 14774,
    "Ġadmission": 23553,
    "atmosphere": 21263,
    "prepar": 22464,
    "Ġlowest": 11121,
    "Ġtransparent": 9487,
    "bbing": 6323,
    "inging": 5907,
    "ieve": 1659,
    "Ġoccurring": 2792,
    "false": 15352,
    "reas": 989,
    "Ġperpendicularly": 11373,
    "Ġprincely": 24147,
    "Ġtelesc": 12989,
    "fug": 17542,
    "Ġshades": 9461,
    "tuesday": 17689,
    "Ġdirecting": 16298,
    "Ġbehaved": 13252,
    "Ġborrowed": 17228,
    "Ġpiling": 17910,
    "accordingly": 19213,
    "upt": 13796,
    "Ġthoughtlessness": 16191,
    "rents": 5308,
    "Ġfierc": 18710,
    "attain": 21260,
    "Ġcakes": 13882,
    "rudently": 16710,
    "Ġmeasure": 3593,
    "Ġepit": 18006,
    "Ġscant": 22278,
    "Ġsilken": 16374,
    "Ġpict": 3500,
    "Ġpluck": 15610,
    "ison": 3080,
    "f": 74,
    "countless": 24149,
    "Ġhyena": 24518,
    "ashes": 6016,
    "Ġwrest": 11569,
    "(-": 2979,
    "Ġunfav": 14785,
    "Ġapproxim": 1219,
    "Ġalleg": 14015,
    "sive": 4145,
    "irectly": 6940,
    "learn": 2511,
    "Ġcommitting": 22671,
    "Ġrel": 1096,
    "Ġdiscussed": 19558,
    "Ġresisted": 22539,
    "achusetts": 20709,
    "Ġlengthen": 15650,
    "true": 2587,
    "Ġveter": 15808,
    "Ġfamous": 5255,
    "bat": 8072,
    "fil": 12459,
    "Ġagon": 10319,
    "Ġcarrying": 6072,
    "ogene": 18674,
    "Ġdisadvantages": 18558,
    "Ġumbrella": 15263,
    "ane": 1181,
    "âĢĶ.": 11752,
    "Ġpips": 9844,
    "/`)": 13658,
    "Ġsomeone": 6703,
    "contact": 23726,
    "Ġback": 812,
    "ha": 3982,
    "Ġinch": 7850,
    "Ġaccompan": 5513,
    "Ġharb": 7371,
    "Ġbank": 4875,
    "Ġnorton": 12645,
    "dimensional": 2348,
    "Ġinvented": 17036,
    "Ġwalking": 4325,
    "lement": 10165,
    "Ġamaz": 5385,
    "rive": 9705,
    "end": 501,
    "dia": 2135,
    "Ġdisputes": 25825,
    "Ġdoth": 13906,
    "Ġchemical": 10408,
    "violently": 23541,
    "effectually": 25128,
    "Ġdeemed": 7615,
    "lying": 7175,
    "endured": 22223,
    "Ġheidelburgh": 11641,
    "Ġtranslations": 12049,
    "oc": 2835,
    "Ġunwound": 25169,
    "z": 94,
    "spell": 22729,
    "web": 18664,
    "Ġwatches": 11081,
    "Ġmortal": 4680,
    "shroud": 20309,
    "Ġreap": 18026,
    "Ġfield": 1220,
    "Ġwhiskers": 10491,
    "rival": 12738,
    "Ġsine": 10762,
    "rudential": 16709,
    "Ġeclipsed": 26376,
    "Ġproof": 6153,
    "Ġhandles": 22693,
    "Ġhungry": 10531,
    "Ġinexhaustible": 16980,
    "Ġcolonial": 22859,
    "vanity": 24976,
    "Ġstunsail": 25543,
    "talking": 10005,
    "shape": 10981,
    "lanter": 15385,
    "Ġcontention": 22424,
    "Ġoverladen": 22363,
    "empt": 2619,
    "Ġask": 1492,
    "gentlemen": 9502,
    "Ġriotous": 20543,
    "suspended": 15175,
    "Ġbadly": 12128,
    "Ġimpending": 22390,
    "lesome": 12961,
    "Ġcastles": 16638,
    "idated": 11659,
    "Ġcritical": 7476,
    "Ġstricken": 9774,
    "Ġforcing": 3226,
    "mense": 4778,
    "Ġsneering": 24697,
    "Ġpushed": 5910,
    "Ġincident": 6280,
    "Ġflowed": 10370,
    "dling": 9110,
    "individual": 18435,
    "Ġnameless": 7700,
    "opolising": 25676,
    "Ġawake": 8272,
    "Ġliberality": 24376,
    "Ġtransl": 2830,
    "Ġrecklessness": 24745,
    "Ġgovernments": 20266,
    "Ġfreshets": 25705,
    "heat": 15495,
    "Ġsprout": 24084,
    "Ġconfound": 23301,
    "Ġgid": 13960,
    "Ġundiscovered": 18255,
    "Ġa": 263,
    "Ġhurt": 7701,
    "Ġutilize": 4796,
    "Ġpair": 5706,
    "Ġsk": 963,
    "Ġturbid": 23610,
    ".;": 20743,
    "Ġdorm": 4819,
    "Ġvapory": 17005,
    "itaries": 21334,
    "idirection": 2412,
    "endurable": 22224,
    "swinging": 25912,
    "cab": 7334,
    "Ġslay": 16304,
    "pute": 8843,
    "ersburgh": 18215,
    "Ġungracious": 18261,
    "infidel": 24663,
    "ractions": 11631,
    "sutherland": 21061,
    "exercise": 17458,
    "Ġtrack": 7451,
    "com": 975,
    "level": 2652,
    "Ġglit": 8559,
    "Ġimpud": 18450,
    "adam": 15726,
    "Ġdomineering": 23649,
    "Ġgryphon": 4300,
    "Ġlobster": 11388,
    "Ġwallowing": 24040,
    "Ġundo": 15838,
    "Ġpersuas": 23944,
    "Ġstranded": 9773,
    "Ġ44": 16678,
    ",âĢĶâĢľ": 10068,
    "Ġpersonality": 16475,
    "Ġeag": 2966,
    "urned": 9304,
    "Ġcomely": 21841,
    "reasonable": 7752,
    "Ġdisquiet": 18552,
    "ü": 189,
    "Ġhurricane": 16430,
    "]]": 5205,
    "ted": 791,
    "Ġprotect": 6337,
    "Ġexcitement": 9379,
    "affairs": 14654,
    "concent": 19478,
    "Ġdeject": 10880,
    "Ġbible": 9317,
    "Ġolive": 12561,
    "coronet": 16862,
    "Ġpacific": 5153,
    "Ġindistinct": 17406,
    "Ġdenny": 9000,
    "asse": 15641,
    "ampling": 12722,
    "Ġmapp": 2082,
    "vishnoo": 21118,
    "Ġlunging": 24991,
    "Ġsneer": 13445,
    "Ġreporting": 24657,
    "Ġ80": 24455,
    "Ġwaning": 15531,
    "Ġlabours": 8582,
    "Ġproblems": 2849,
    "Ġcomponents": 8891,
    "Ġcomplaisance": 19447,
    "Ġrocked": 12852,
    "osures": 22259,
    "Ġheaded": 11053,
    "Ġmain": 808,
    "Ġsalesman": 13666,
    "Ġgroom": 13964,
    "arm": 1357,
    "heartedness": 24827,
    "Ġstaircase": 20094,
    "Ġforgiveness": 16655,
    "establish": 17391,
    "Ġwretched": 4082,
    "offices": 19061,
    "ignorantly": 25189,
    "uer": 21099,
    "Ġhelmet": 19686,
    "Ġexpressed": 4467,
    "Ġharbor": 10025,
    "Ġfragment": 14497,
    "ject": 875,
    "Ġungod": 22022,
    "Ġhails": 21948,
    "ioning": 21507,
    "Ġprecipice": 19939,
    "Ġhourly": 23298,
    "Ġreliability": 22879,
    "oken": 4308,
    "pair": 21011,
    "Ġmuzzle": 21319,
    "Ġunreasonably": 17449,
    "Ġdifferent": 1429,
    "Ġconce": 3423,
    "add": 5229,
    "mine": 5617,
    "Ġdrew": 3537,
    "several": 5543,
    "Ġcyn": 13884,
    "Ġbelonging": 8308,
    "Ġmorcar": 13007,
    "ville": 6088,
    "Ġapproving": 18507,
    "right": 2770,
    "Ġleft": 1762,
    "Ġshetland": 22157,
    "ivil": 6410,
    "Ġcloud": 3913,
    "rol": 5713,
    "Ġprogrammed": 11057,
    "Ġton": 15462,
    "Ġwa": 1756,
    "steelkilt": 10045,
    "ool": 17617,
    "Ġgener": 590,
    "Ġtrusty": 24103,
    "unmistakable": 21893,
    "Ġadventurous": 16732,
    "Ġanoint": 25537,
    "augment": 18829,
    "somewhat": 11159,
    "Ġarchitects": 18738,
    "Ġconfirmation": 17209,
    "Ġre": 317,
    "harmony": 25750,
    "Ġwestward": 24388,
    "Ġstalls": 25647,
    "Ġjavel": 17083,
    "rece": 21233,
    "Ġblasphemer": 26116,
    "Ġwaking": 11568,
    "Ġchagrin": 20606,
    "Ġguinea": 8946,
    "fe": 678,
    "Ġsuburban": 17344,
    "itic": 11576,
    "horner": 23613,
    "Ġhappier": 10358,
    "Ġgenerations": 10964,
    "misrepresented": 24210,
    "Ġcall": 2074,
    "hered": 5622,
    "agitation": 14066,
    "Ġbenefit": 8294,
    "Ġsoftmax": 1692,
    "Ġnocturn": 18375,
    "stad": 7598,
    "Ġwapping": 21293,
    "Ġris": 4884,
    "Ġattached": 5392,
    "Ġintact": 21987,
    "Ġscaled": 2106,
    "Ġovertook": 18429,
    "te": 994,
    "ructive": 18543,
    "Ġneighbourhood": 5126,
    "Ġrule": 1532,
    "upp": 10129,
    "Ġaband": 6561,
    "Ġcraven": 16468,
    "Ġtech": 1644,
    "rough": 588,
    "Ġsensible": 4975,
    "ductive": 23933,
    "cific": 10084,
    "lie": 12479,
    "Ġvague": 6405,
    "asc": 6385,
    "Ġpresc": 15922,
    "Ġsquaw": 22839,
    "Ġtough": 13813,
    "milk": 20475,
    "Ġdistantly": 18534,
    "theirs": 23601,
    "oration": 2209,
    "tiest": 21080,
    "course": 6104,
    "Ġjackal": 24238,
    "Ġimputed": 12804,
    "Ġhatchway": 13523,
    "sir": 5000,
    "Ġmadam": 5663,
    "depend": 9111,
    "Ġmoves": 14230,
    "apparat": 22846,
    "bul": 6951,
    "Ġke": 1156,
    "Ġteacher": 22908,
    "Ġprints": 16328,
    "âĢĶ_": 3202,
    "Ġorphan": 12380,
    "Ġmalay": 24390,
    "oquence": 11385,
    "Ġlinn": 13951,
    "Ġgoing": 2066,
    "Ġconv": 2968,
    "Ġrepairs": 19081,
    "Ġano": 11594,
    "Ġdecaying": 2248,
    "Ġnetwork": 452,
    "squeezing": 25913,
    "hero": 21203,
    "Ġsecretary": 19440,
    "Ġcomment": 9231,
    "Ġchristendom": 16694,
    "onious": 15516,
    "Ġdestination": 19149,
    "Ġwill": 679,
    "asiness": 8129,
    "ert": 2632,
    "oms": 4592,
    "Ġtranquillize": 24757,
    "Ġoutrageous": 20609,
    "Ġjeopard": 9941,
    "footsteps": 25199,
    "ĠĊ": 12519,
    "Ġbasic": 24701,
    "Ġoperation": 11995,
    "Ġfrosty": 14932,
    "Ġby": 383,
    "Ġhertfordshire": 5377,
    "Ġuncivil": 11154,
    "Ġwhites": 21715,
    "Ġphotograph": 6302,
    "Ġfires": 16470,
    "Ġbuilded": 24719,
    "ozy": 17621,
    "murderers": 25728,
    "Ġinnocent": 4919,
    "Ġhours": 2820,
    "cottagers": 20046,
    "Ġencapsulate": 13672,
    "Ġtrance": 12835,
    "impression": 15707,
    "Ġbeliefs": 24581,
    "Ġinheriting": 25354,
    "Ġcot": 13875,
    "Ġnobleman": 19390,
    "hair": 9121,
    "hypothe": 25905,
    "Ġhermit": 15854,
    "thes": 7392,
    "entimes": 12652,
    "Ġmiscell": 16145,
    "acity": 5735,
    "Ġsteward": 6584,
    "roylott": 20025,
    "awn": 3835,
    "Ġlogs": 16343,
    "Ġge": 1980,
    "Ġpecks": 18669,
    "Ġrept": 13981,
    "rigging": 20004,
    "tha": 15820,
    "Ġunimpe": 22070,
    "uries": 6147,
    "Ġreferred": 8915,
    "Ġcy": 13872,
    "perform": 15898,
    "Ġporpoises": 13380,
    "Ġinstantaneously": 23659,
    "Ġrepenting": 25322,
    "Ġpref": 14170,
    "Ġadditionally": 1178,
    "Ġbethink": 12376,
    "beryls": 25309,
    "washed": 13042,
    "Ġthank": 3793,
    "Ġemper": 9859,
    "Ġencouraging": 2264,
    "Ġseveral": 2672,
    "enborough": 21284,
    "anean": 7444,
    "µ": 118,
    "opement": 10310,
    "orses": 6052,
    "Ġtribe": 10750,
    "Ġtongues": 14860,
    "Ġexpired": 18624,
    "Ġruinous": 24634,
    "/(": 2981,
    "ization": 484,
    "Ġarsac": 11739,
    "boilers": 26297,
    "Ġretrieval": 10673,
    "found": 4215,
    "Ġdisgu": 8206,
    "Ġsatisfactory": 11191,
    "Ġenthusiasm": 8065,
    "Ġuncommonly": 7760,
    "Ġintellig": 531,
    "Ġentertainment": 12219,
    "Ġassailants": 20447,
    "thrill": 25656,
    "Ġtower": 8319,
    "plainly": 11089,
    "arted": 2202,
    "accur": 14591,
    "Ġsimple": 1617,
    "Ġpanic": 11285,
    "Ġfired": 16147,
    "six": 7141,
    "captains": 12124,
    "existence": 16011,
    "Ġflooded": 24961,
    "Ġas": 374,
    "Ġasyl": 12730,
    "Ġposter": 14273,
    "ensed": 10994,
    "Ġisle": 8831,
    "Ġdexterous": 15146,
    "itively": 21329,
    "Ġquiver": 16000,
    "saf": 11523,
    "iasm": 8061,
    "Ġchaff": 18383,
    "Ġ92": 24591,
    "poured": 17636,
    "umps": 6317,
    "Ġavalanche": 17431,
    "mention": 7215,
    "Ġdad": 12596,
    "oky": 8198,
    "Ġunsafe": 22039,
    "Ġlearnedly": 23384,
    "Ġstingy": 25455,
    "Ġto": 297,
    "crown": 13696,
    "Ġintelligence": 566,
    "carbuncle": 26381,
    "Ġposs": 1612,
    "Ġcumul": 4179,
    "Ġsang": 12531,
    "Ġencounters": 19579,
    "Ġconn": 9228,
    "Ġwick": 2006,
    "Ġbennets": 9804,
    "Ġ5": 4934,
    "Ġquery": 2480,
    "far": 5787,
    "dz": 4737,
    "Ġlamb": 8811,
    "Ġminim": 1324,
    "Ġhired": 10176,
    "impe": 21706,
    "izings": 14042,
    "Ġnobler": 14174,
    "Ġdigesting": 19808,
    "Ġnooks": 26011,
    "Ġthyself": 6602,
    "Ġinclemency": 22553,
    "Ġroy": 4229,
    "Ġbrotherly": 16526,
    "Ġstacks": 18074,
    "Ġdistinct": 4608,
    "Ġfr": 1699,
    "Ġfry": 17879,
    "avenue": 25057,
    "Ġstumble": 26481,
    "Ġencaps": 12958,
    "Ġchallenge": 25471,
    "Ġcrawling": 17044,
    "Ġmeasures": 1208,
    "ercely": 12546,
    "worm": 15451,
    "def": 1452,
    "near": 5842,
    "Ġtrod": 15025,
    "osp": 6854,
    "Ġstarlight": 24627,
    "stretching": 20497,
    "Ġtimid": 6345,
    "Ġflourished": 15123,
    "Ġinquisitive": 26317,
    "representing": 25271,
    "carry": 19525,
    "Ġdiab": 10610,
    "Ġgay": 5534,
    "Ġflukes": 5266,
    "Ġcastaways": 19426,
    "string": 15682,
    "Ġslighted": 16566,
    "ju": 13739,
    "Ġfacil": 16961,
    "recovered": 19786,
    "influences": 25250,
    "Ġpleasantest": 24137,
    "lust": 15377,
    "Ġrecumbent": 22740,
    "con": 651,
    "Ġhosts": 19937,
    "Ġwise": 6811,
    "mr": 1901,
    "udding": 11862,
    "Ġsavagely": 26323,
    "Ġheels": 10849,
    "Ġhappened": 3716,
    "Ġplead": 14453,
    "Ġties": 12523,
    "ax": 693,
    "Ġexhibited": 9542,
    "Ġwarmup": 3923,
    "Ġtahiti": 13617,
    "Ġarticle": 9500,
    "aviour": 11003,
    "volutions": 16320,
    "Ġdiagon": 24740,
    "Ġpul": 2040,
    "superst": 11324,
    "Ġapolog": 9042,
    "Ġmanaging": 22323,
    "Ġalways": 1700,
    "Ġrustic": 14962,
    "Ġroute": 11380,
    "rivial": 9432,
    "Ġaffirm": 11884,
    "Ġskies": 8919,
    "Ġdears": 18139,
    "Ġglo": 1717,
    "ĉ": 202,
    "Ġyouthful": 16722,
    "Ġmemoirs": 26205,
    "Ġfall": 2986,
    "Ġtransom": 22434,
    "Ġshuddering": 9050,
    "usive": 8192,
    "violence": 16476,
    "read": 3276,
    "listened": 15042,
    "quer": 11677,
    "Ġassembled": 9234,
    "Ġraving": 16112,
    "Ġrefers": 1567,
    "Ġuniversal": 2234,
    "Ġbewildered": 15211,
    "Ġunlabeled": 3801,
    "Ġenough": 1763,
    "und": 4118,
    "Ġcomprehensive": 15085,
    "Ġeliminating": 20618,
    "Ġbending": 12581,
    "Ġbennet": 1576,
    "Ġdut": 2987,
    "Ġdecent": 10977,
    "rogress": 21534,
    "draw": 23896,
    "Ġattendance": 12178,
    "character": 6331,
    "Ġadieu": 10049,
    "pard": 9617,
    "cent": 8073,
    "Ġcaus": 1726,
    "precaution": 23820,
    "names": 16535,
    "arranging": 19317,
    "lost": 8886,
    "Ġbless": 4343,
    "Ġbursting": 8655,
    "Ġenlivened": 26207,
    "part": 2573,
    "Ġbegrim": 23015,
    "willing": 6592,
    "ambition": 13409,
    "Ġmaled": 21313,
    "atiable": 17773,
    "Ġcheery": 16363,
    "sequently": 14581,
    "Ġcompares": 20165,
    "Ġrumbling": 18211,
    "umbling": 6758,
    "Ġinvade": 19142,
    "disguise": 26306,
    "led": 580,
    "Ġvowed": 14082,
    "razor": 21635,
    "gress": 2213,
    "Ġwrapping": 19774,
    "eral": 9158,
    "aks": 8506,
    "scuttle": 11907,
    "Ġpian": 13915,
    "Ġremind": 6058,
    "Ġlining": 13949,
    "Ġfinest": 10391,
    "Ġdiscu": 4364,
    "Ġstupid": 7604,
    "Ġrugged": 18720,
    "Đ": 209,
    "Ġliar": 22406,
    "crack": 19839,
    "Ġsadness": 13284,
    "Ġenabling": 1081,
    "Ġsilk": 11957,
    "Ġgroans": 14821,
    "direct": 12453,
    "Ġscrews": 25177,
    "Ġbeards": 21749,
    "Ġpled": 17907,
    "ody": 1478,
    "Ġincidentally": 16953,
    "grampus": 18617,
    "ineas": 15818,
    "pile": 17628,
    "Ġacceler": 1607,
    "Ġcares": 9364,
    "rmsprop": 4521,
    "fere": 10988,
    "Ġcripp": 9652,
    "Ġmadden": 10446,
    "Ġindestructible": 26571,
    "prise": 7727,
    "Ġtopsails": 19192,
    "Ġformerly": 7494,
    "ict": 593,
    "Ġever": 1183,
    "Ġpa": 2988,
    "Ġdropout": 1560,
    "Ġchas": 18379,
    "Ġtart": 12524,
    "Ġsongs": 13418,
    "advanced": 19587,
    "Ġanom": 12607,
    "Ġnorm": 763,
    "Ġtracing": 18889,
    "ë": 172,
    "Ġdelineate": 26057,
    "decoder": 3645,
    "biscuit": 17499,
    "Ġimperilled": 19577,
    "ishing": 1145,
    "Ġsuspected": 9061,
    "Ġedinburgh": 16435,
    "wholly": 10940,
    "Ġexhibition": 14954,
    "Ġadaptively": 4129,
    "atiate": 12544,
    "Ġvehic": 8932,
    "Ġalluded": 7886,
    "Ġbreckinridge": 14520,
    "Ġplow": 21458,
    "atiously": 15519,
    "higher": 20405,
    "pan": 10715,
    "polar": 24584,
    "Ġring": 4452,
    "Ġfig": 3624,
    "Ġanvil": 11595,
    "row": 1067,
    "pur": 7807,
    "bone": 5611,
    "Ġcurbstone": 26046,
    "Ġstrategy": 2385,
    "co": 2434,
    "Ġunintermitted": 26219,
    "excepting": 19705,
    "Ġarmitage": 23579,
    "Ġgrec": 18960,
    "Ġcomfits": 21845,
    "thereby": 14445,
    "bec": 4052,
    "Ġcassock": 20485,
    "Ġoutrage": 15955,
    "tend": 17673,
    "oric": 21394,
    "Ġabusive": 22271,
    "housekeeping": 24101,
    "Ġburial": 16520,
    "otent": 8830,
    "lean": 21363,
    "apply": 18759,
    "branch": 23576,
    "pemberley": 9619,
    "Ġglancing": 5399,
    "Ġoccupied": 5272,
    "Ġcircumspection": 25884,
    "however": 4373,
    "Ġrele": 2916,
    "Ġuniversity": 13119,
    "itically": 21328,
    "surv": 24212,
    "nine": 13759,
    "Ġrevolution": 3308,
    "Ġpirates": 9072,
    "Ġgospel": 18000,
    "Ġalbatross": 10870,
    "Ġemboldened": 22968,
    "Ġred": 3006,
    "tormented": 13643,
    "Ġuninter": 18249,
    "Ġaloysius": 15734,
    "driver": 14918,
    "Ġleg": 2334,
    "Ġvig": 5460,
    "rawling": 21634,
    "Ġconquered": 14024,
    "Ġgrave": 5100,
    "aunt": 8370,
    "Ġlabors": 23328,
    "tempted": 26402,
    "Ġscheme": 7064,
    "Ġmodesty": 12813,
    "grass": 23411,
    "kine": 15373,
    "swaying": 25910,
    "Ġid": 1909,
    "aning": 2254,
    "isition": 11584,
    "amore": 21847,
    "Ġtrouble": 3692,
    "Ġfoul": 7160,
    "Ġfiercely": 12948,
    "Ġgrat": 4057,
    "Ġuniversally": 11996,
    "Ġdetermining": 14419,
    "Ġflowing": 14409,
    "Ġscreening": 25300,
    "ame": 644,
    "¶": 119,
    "Ġabrupt": 9734,
    "Ù": 154,
    "Ġjovial": 19233,
    "Ġreign": 13983,
    "Ġbreezes": 14866,
    "begone": 12874,
    "Ġincluding": 2848,
    "Ġcritic": 19124,
    "85": 13679,
    "sixteen": 24853,
    "Ġsplendour": 20223,
    "ection": 4947,
    "uce": 11534,
    "escape": 16004,
    "custom": 15331,
    "Ġoverboard": 6045,
    "Ġlac": 17964,
    "Ġpercept": 14215,
    "Ġsubordinate": 18722,
    "whiteness": 18371,
    "Ġconsidered": 4610,
    "Ġtossed": 5815,
    "ications": 4445,
    "Ġices": 21153,
    "Ġswerve": 14436,
    "soc": 5175,
    "cle": 3956,
    "Ġadvisable": 11441,
    "Ġlashing": 11614,
    "oundered": 14161,
    "Ġdaybreak": 18727,
    "Ġjuggl": 20436,
    "fresh": 13390,
    "Ġdiscovered": 4412,
    "convenient": 12234,
    "these": 3242,
    "Ġbuoyant": 13530,
    "beat": 10985,
    "readers": 23845,
    "Ġspain": 15878,
    "Ġboon": 22635,
    "verty": 8452,
    "Ġtashtego": 4486,
    "flow": 2192,
    "mortal": 10111,
    "Ġoversight": 22359,
    "ishly": 14198,
    "Ġlaughter": 9026,
    "Ġimm": 3966,
    "Ġvoracity": 25986,
    "Ġacute": 16120,
    "ę": 218,
    "Ġcooped": 22581,
    "reflection": 13453,
    "Ġbeeches": 9225,
    "Ġfamil": 4321,
    "Ġeng": 1164,
    "tures": 21068,
    "Ġcocked": 12900,
    "Ġmaddening": 17242,
    "mistak": 16877,
    "reflected": 24733,
    "Ġward": 10154,
    "important": 7112,
    "Ġspont": 22130,
    "Ġentreaties": 9034,
    "Ġjealous": 9467,
    "quished": 21852,
    "Ġrags": 18644,
    "Ġmole": 11788,
    "Ġlisten": 4672,
    "Ġsatisfying": 23695,
    "Ġrapidly": 3304,
    "Ġmeantime": 6206,
    "laying": 19771,
    "Ġwherever": 8523,
    "Ġabraham": 18395,
    "Ġmoot": 22428,
    "Ġsecrets": 9053,
    "subst": 12161,
    "marvell": 24171,
    "Ġcalf": 16265,
    "Ġefforts": 11799,
    "Ġepisode": 26346,
    "Ġfle": 3096,
    "Ġlocked": 6035,
    "rubbery": 17340,
    "appo": 3916,
    "Ġshudder": 9049,
    "turned": 7307,
    "Ġheightened": 8648,
    "Ġextravagance": 17278,
    "Ġconcealment": 16913,
    "despairing": 25074,
    "Ġhis": 381,
    "Ġrecently": 11859,
    "courage": 17508,
    "complained": 25838,
    "Ġcalamity": 17347,
    "Ġejac": 10202,
    "indirect": 22370,
    "ation": 320,
    "eled": 2357,
    "Ġmass": 3782,
    "abst": 21786,
    "ricane": 16276,
    "whalebone": 19118,
    "Ġthoughtless": 16190,
    "ace": 719,
    "Ġinsensibly": 20074,
    "Ġpun": 4586,
    "germ": 15354,
    "Ġemployments": 12099,
    "define": 1525,
    "Ġrede": 13982,
    "Ġfac": 6380,
    "Ġkiss": 8183,
    "screwed": 17186,
    "ropri": 2180,
    "ighted": 8476,
    "Ġinsolence": 20252,
    "been": 3346,
    "Ġtie": 10749,
    "Ġspanish": 2828,
    "Ġfeature": 746,
    "Ġtahitian": 25427,
    "Ġhue": 8429,
    "pious": 17632,
    "Ġdollar": 25283,
    "Ġeconomical": 25287,
    "Ġshroud": 6482,
    "Ġchace": 14177,
    "employ": 10894,
    "ciousness": 20816,
    "Ġbalm": 22902,
    "ificial": 615,
    "Ġunsatisfied": 22042,
    "Ġvice": 6548,
    "Ġlifetime": 13600,
    "Ġhist": 2445,
    "age": 504,
    "iron": 3687,
    "Ġdirt": 15590,
    "furthest": 19840,
    "Ġbrook": 13044,
    "oused": 6556,
    "lers": 10105,
    "cri": 17504,
    "Ġhunks": 18935,
    "Ġoverwhelmed": 11402,
    "facts": 19841,
    "Ġamateur": 22483,
    "touching": 15089,
    "Ġsleepers": 13147,
    "derick": 22166,
    "ude": 7563,
    "Ġdelay": 5748,
    "Ġobjectionable": 16990,
    "ower": 1028,
    "Ġnoses": 18373,
    "Ġven": 4646,
    "Ġwitty": 21291,
    "Ġcurled": 8227,
    "tallied": 21088,
    "Ġmanoir": 22329,
    "sample": 12503,
    "canst": 22959,
    "))": 1514,
    "Ġnarrower": 24353,
    "Ġprecautions": 23725,
    "Ġphantoms": 13484,
    "Ġsou": 1886,
    "orial": 8417,
    "their": 2541,
    "Ġplane": 11820,
    "Ġfearing": 12811,
    "Ġed": 2145,
    "finally": 9497,
    "!âĢĿâĢĶ": 8532,
    "Ġflaming": 8563,
    "pall": 17627,
    "ference": 1881,
    "Ġactuated": 18545,
    "Ġjerking": 12242,
    "Ġglowed": 24864,
    "Ġgallop": 19554,
    "Ġantique": 19550,
    "Ġimplies": 24873,
    "Ġeaster": 15671,
    "flood": 19805,
    "Ġconstruct": 23341,
    "pronouncing": 25193,
    "Ġunjustifiable": 25109,
    "Ġbloodless": 19338,
    "exactly": 10635,
    "ont": 2622,
    ":âĢĶâĢĺ": 24192,
    "Ġgiven": 1627,
    "ince": 4340,
    "Ġmalays": 19676,
    "meetings": 20376,
    "Ġharpooneers": 4730,
    "illum": 15866,
    "Ġvelv": 10618,
    "ohog": 9841,
    "izing": 1068,
    "Ġstrive": 23691,
    "Ġtreachery": 15099,
    "Ġswash": 23054,
    "Ġdisappointment": 6626,
    "Ġregularity": 22770,
    "Ġlizzie": 26461,
    "hav": 20896,
    "Ġtuples": 13475,
    "Ġdaboll": 25950,
    "hun": 5210,
    "Ġbend": 9169,
    "Ġfails": 13311,
    "Ġtal": 7565,
    "Ġprofess": 3701,
    "ď": 208,
    "aside": 10190,
    "Ġrepugnant": 26589,
    "Ġallured": 14111,
    "Ġdefinition": 14403,
    "ave": 980,
    "Ġsupper": 4664,
    "Ġsatisfied": 4173,
    "Ġpositive": 2296,
    "Ġdragon": 14941,
    "Ġcloser": 8659,
    "athan": 2955,
    "Ġaffected": 5576,
    "Ġwatchful": 16525,
    "Ġgathered": 8443,
    "Ġvi": 1953,
    "Ġhears": 8139,
    "Ġsanct": 15063,
    "Ġvictor": 5125,
    "Ġxxxix": 24970,
    "wilful": 25086,
    "Ġpl": 745,
    "Ġskylarking": 19485,
    "azz": 8262,
    "Ġweight": 655,
    ">": 34,
    "Ġlovely": 4708,
    "ark": 848,
    "times": 8099,
    "Ġtuileries": 24826,
    "Ġmagnetic": 17239,
    "Ġgrip": 11625,
    "answers": 22121,
    "ounds": 4158,
    "pie": 21010,
    "Ġbarmaid": 19334,
    "Ġcruis": 14622,
    "Ġlone": 11611,
    "Ġspect": 3552,
    "Ġshore": 4832,
    "amped": 12030,
    "Ġtrembled": 8701,
    "Ġpresentiment": 18989,
    "Ġagents": 9764,
    "Ġalive": 4398,
    "Ġcanals": 22161,
    "turns": 14903,
    "nns": 1892,
    "irresistible": 18173,
    "solut": 3365,
    "Ġlosing": 10915,
    "mered": 8218,
    "generative": 4331,
    "bingley": 4925,
    "endom": 15917,
    "Ġincoherent": 17398,
    "kind": 3866,
    "homage": 25616,
    "de": 460,
    "Ġthrough": 603,
    "Ġtherefore": 2240,
    "Ġcolonel": 3408,
    "Ġjets": 10286,
    "ishes": 6522,
    "Ġfeast": 10276,
    "nurtured": 25524,
    "Ġstand": 1737,
    "Ġwelcomed": 9480,
    "oke": 1859,
    "?âĢĻâĢĿ": 23642,
    "Ġrecommended": 8667,
    "subject": 6631,
    "Ġdepress": 14046,
    "Ġtapering": 8770,
    "when": 1590,
    "Ġindefinite": 17175,
    "landsmen": 25059,
    "Ġplug": 17146,
    "Ġdevoting": 22735,
    "Ġseverest": 14088,
    "Ġbloom": 9885,
    "Ġformations": 18748,
    "Ġemptied": 24346,
    "Ġgpt": 4351,
    "smote": 23907,
    "omuch": 21638,
    "mush": 20976,
    "Ġvaulted": 25167,
    "omited": 21639,
    "mency": 18925,
    "culiarity": 11140,
    "Ġstepped": 7051,
    "conceivable": 17129,
    "Ġsplitting": 4383,
    "bildad": 9585,
    "Ġbored": 16102,
    "teous": 16171,
    "Ġflights": 24753,
    "Ġchased": 8860,
    "performances": 26006,
    "earthly": 24724,
    "Ġaunt": 3179,
    "Ġdomains": 6611,
    "ientious": 11688,
    "Ġland": 1998,
    "Ġexample": 5096,
    "Ġexec": 19491,
    "Ġpoker": 13920,
    "Ġindelicacy": 25695,
    "Ġparent": 14643,
    "ura": 1062,
    "Ġblame": 6445,
    "Ġinstance": 2545,
    "Ġheroism": 24543,
    "pattern": 5069,
    "commanding": 24752,
    "Ġgentlemanly": 19315,
    "Ġjeroboam": 10599,
    "okers": 18442,
    "flex": 24843,
    "Ġevap": 19622,
    "Ġknights": 15147,
    "Ġspo": 6846,
    "vi": 2375,
    "ef": 5134,
    "Ġdogs": 7742,
    "Ġepid": 18004,
    "94": 4801,
    "reading": 12076,
    "Ġ95": 19772,
    "Ġoutweigh": 22320,
    "Ġtierce": 15476,
    "Ġsharper": 17178,
    "anger": 2173,
    "older": 15752,
    "Ġhunsford": 6301,
    "having": 5211,
    "Ġgrotesque": 26329,
    "Ġtam": 7822,
    "ails": 6160,
    "Ġuncl": 22014,
    "Ġcaw": 13881,
    "ingale": 21298,
    "Ġhusband": 3619,
    "aves": 3598,
    "Ġsab": 10761,
    "Ġqualities": 7534,
    "Ġpam": 21453,
    "Ġhung": 4559,
    "irregular": 21909,
    "Ġboneless": 19604,
    "Ġsigmoid": 2463,
    "Ġaffair": 4463,
    "a": 69,
    "Ġrelish": 14382,
    "Ġtossing": 8126,
    "Ġimprudent": 12846,
    "Ġexactness": 23603,
    "Ġdiving": 12597,
    "ondon": 2705,
    "Ġgrowled": 19282,
    "ogn": 2532,
    "uttle": 6247,
    "Ġfru": 8420,
    "Ġunw": 8848,
    "Ġinsincere": 26598,
    "asper": 7855,
    "Ġhonest": 7288,
    "Ġcontroverted": 23250,
    "mitted": 5213,
    "Ġfailure": 13312,
    "Ġwert": 12552,
    "):": 11460,
    "Ġnearly": 3364,
    "Ġprofundity": 20451,
    "Ġanalogy": 25639,
    "Ġsun": 1722,
    "Ġenveloping": 19732,
    "Ġbirds": 5873,
    "esty": 4306,
    "Ġcranial": 25592,
    "Ġabating": 22265,
    "news": 23132,
    "Ġmarshy": 20217,
    "Ġrooted": 13167,
    "Ġgangway": 20157,
    "Ġstables": 23656,
    "Ġaccidents": 10294,
    "hatchet": 24822,
    "ĳ": 244,
    "supervised": 2046,
    "lacings": 26134,
    "learning": 2725,
    "pha": 22774,
    "Ġbehavioral": 11395,
    "Ġcapable": 5053,
    "Ġisolation": 17149,
    "does": 6194,
    "Ġtwice": 4660,
    "arned": 21815,
    "Ġvestige": 20061,
    "gul": 12462,
    "opposition": 24823,
    "Ġearlier": 9085,
    "spee": 9315,
    "enhall": 13848,
    "Ġtract": 21164,
    "Ġenterprise": 8641,
    "female": 20665,
    "noted": 22747,
    "Ġatt": 779,
    "noise": 14327,
    "rical": 11517,
    "jabez": 20932,
    "Ġvinc": 14083,
    "Ġsensibly": 14511,
    "Ġlazily": 11379,
    "Ġphil": 3386,
    "udg": 22767,
    "Ġnimble": 21526,
    "agos": 21902,
    "Ġdeportment": 22595,
    "Ġfreer": 23206,
    "Ġconsiderations": 9408,
    "Ġcasual": 11408,
    "Ġpollard": 20384,
    "bern": 20774,
    "lux": 14225,
    "rices": 4558,
    "Ġcleaned": 23180,
    "Ġsallow": 12532,
    "Ġgash": 15667,
    "displayed": 20735,
    "Ġclinched": 17392,
    "Ġsomething": 1794,
    "Ġproportional": 2525,
    "Ġredness": 19311,
    "Ġtreatise": 19343,
    "begin": 8882,
    "dependence": 17166,
    ";âĢĻ": 15300,
    "Ġdisposal": 19374,
    "ĠâĢĶ": 13809,
    "mical": 9127,
    "conjectured": 25181,
    "bert": 4661,
    "wished": 13803,
    "Ġtransc": 12859,
    "Ġworshipper": 25692,
    "lips": 13748,
    "still": 4220,
    "Ġblinds": 8007,
    "others": 7671,
    "gence": 876,
    "ounced": 4953,
    "Ġcataract": 23426,
    "ostent": 16845,
    "fering": 17541,
    "chanced": 18806,
    "emberley": 4172,
    "mown": 20969,
    "thinness": 25810,
    "Ġbou": 17852,
    "Ġchronicle": 20227,
    "aware": 16292,
    "Ġsmacking": 20164,
    "declaration": 25175,
    "hospit": 25903,
    "Ġbuilding": 8063,
    "Ġdemanded": 8327,
    "car": 4213,
    "swells": 26148,
    "Ġcreativity": 3057,
    "bread": 10683,
    "ench": 21278,
    "Ġcareer": 11117,
    "sperm": 5203,
    "uncomfortable": 18160,
    "Ġleviathans": 8282,
    "eer": 15345,
    "arse": 7161,
    "bouton": 17500,
    "hand": 2757,
    "fic": 20851,
    "Ġsubsided": 14548,
    "Ġrequires": 1049,
    "Ġsize": 1218,
    "Ġprivately": 19522,
    "brimming": 23575,
    "Ġsingle": 1695,
    "Ġdece": 6996,
    "Ġimper": 4501,
    "cord": 8723,
    "Ġplaintiffs": 13607,
    "Ġpalace": 16689,
    "Ġindies": 22949,
    "Ġmajor": 13289,
    "exasper": 22425,
    "Ġalphabetical": 17200,
    "description": 11093,
    "Ġbye": 12734,
    "Ġgoblets": 20517,
    "Ġlobsters": 13515,
    "Ġintermix": 22577,
    "ascar": 8435,
    "Ġmicrosc": 20675,
    "Ġuttermost": 19486,
    "island": 10793,
    "rem": 1521,
    "certainly": 5339,
    "Ġcounterpart": 24721,
    "oug": 430,
    "Ġhiss": 15784,
    "bear": 10313,
    "Ġcomple": 2841,
    "prison": 14660,
    "murmured": 24454,
    "Ġfootmarks": 19336,
    "Ġremo": 3787,
    "Ġsuck": 15856,
    "kn": 5791,
    "Ġicy": 10746,
    "repeat": 25151,
    "Ġsaid": 577,
    "imental": 16531,
    "plifted": 9709,
    "Ġinput": 609,
    "Ġsheets": 9720,
    "vedale": 22710,
    "Ġbreeze": 5681,
    "oura": 1061,
    "Ġresolute": 19244,
    "Ġpallet": 21480,
    "ensils": 22546,
    "boys": 13357,
    "Ġfelix": 4846,
    "Ġsaw": 1351,
    "Ġperplexed": 23660,
    "Ġyon": 9691,
    "gle": 20868,
    "iary": 15368,
    "unts": 12727,
    "Ġdiddled": 22665,
    "clifford": 23155,
    "Ġimpenetrable": 17395,
    "Ġnind": 17949,
    "granting": 23412,
    "Ġgrease": 26189,
    "fiercely": 25256,
    "good": 2898,
    "inferior": 12391,
    "Ġwor": 1191,
    "Åĵ": 10743,
    "Ġrestrained": 16368,
    "airs": 2220,
    "ggy": 13111,
    "Ġspade": 9257,
    "Ē": 211,
    "Ġsignifies": 19202,
    "Ġindisp": 18834,
    "ifford": 15780,
    "Ġclapped": 9743,
    "Ġincommod": 25307,
    "rees": 5436,
    "ellative": 21947,
    "Ġpenal": 1774,
    "Ġforeseen": 16442,
    "Ġdeclines": 23960,
    "upright": 23016,
    "inery": 17732,
    "access": 11179,
    "Ġhammered": 13237,
    "absent": 21788,
    "Ġcake": 12566,
    "Ġbanker": 8666,
    "Ġhimmale": 18329,
    "abounding": 25979,
    "total": 17249,
    "Ġlimb": 9400,
    "Ġalong": 1981,
    "Ġbeauties": 10444,
    "Ġdishonor": 25601,
    "ate": 421,
    "estic": 4955,
    "confirmation": 26089,
    "Ġsunlight": 13082,
    "Ġshaft": 18229,
    "Ġinjustice": 9189,
    "Ġawa": 7714,
    "decor": 23779,
    "Ġwrists": 11112,
    "Ġlounging": 10020,
    "Ġvictim": 6098,
    "Ġconstraint": 16512,
    "Ġtarshish": 12025,
    "fitters": 24761,
    "ight": 403,
    "Ġdifferently": 10388,
    "Ġclubbed": 26546,
    "gallant": 7781,
    "Ġmask": 1865,
    "Ġpants": 21464,
    "Ġhill": 5626,
    "ifling": 15779,
    "Ġflavor": 16250,
    "impenetrable": 26196,
    "maid": 8553,
    "omn": 15678,
    "Ġsuperlative": 26074,
    "Ġmich": 21304,
    "plied": 10254,
    "Ġappend": 18360,
    "hello": 13361,
    "Ġinclement": 22551,
    "Ġalchemists": 26486,
    "Ġadler": 8174,
    "Ġsnuff": 7992,
    "weary": 22684,
    "Ġunfelt": 24109,
    "Ġchili": 25561,
    "Ġsurve": 9872,
    "circum": 16736,
    "destroyed": 15258,
    "Ġtakings": 20571,
    "hist": 7130,
    "Ġdisobedience": 22533,
    "Ġpiercing": 13492,
    "Ġshud": 5461,
    "Ġruled": 22784,
    "Ġupright": 8493,
    "Ġmonkey": 8226,
    "|": 96,
    "Ġanother": 1740,
    "dri": 5888,
    "carries": 19526,
    "Ġwars": 17785,
    "Ġeighty": 19474,
    "Ġsnoo": 21227,
    "Ġsunrise": 9371,
    "Ġapprehension": 7113,
    "Ġregularizer": 2338,
    "investments": 25532,
    "Ġstaid": 21733,
    "Ġmess": 7832,
    "tent": 21063,
    "Ġmagazine": 23098,
    "Ġincline": 18570,
    "Ġamusing": 11797,
    "Ġconjure": 17122,
    "atious": 10150,
    "Ġtorm": 5434,
    "ga": 17549,
    "Ġord": 3738,
    "pacific": 17640,
    "recurrent": 4993,
    "wich": 11542,
    "Ġmysteries": 11321,
    "olly": 3227,
    "Ġexpon": 968,
    "Ġrun": 2354,
    "Ġmedic": 11246,
    "lleg": 20950,
    "thine": 15821,
    "Ġtransform": 749,
    "Ġ1869": 19382,
    "deliberated": 26118,
    "Ġcomplaint": 24776,
    "Ġirreparable": 19997,
    "Ġsqualid": 14367,
    "Ġgenteel": 19979,
    "Ġclasp": 9742,
    "Ġdes": 1253,
    "Ġmaledictions": 26427,
    "Ġperempt": 13671,
    "circumst": 5348,
    "Ġmaker": 15539,
    "Ġasked": 2277,
    "Ġlatitudes": 9494,
    "Ġcontains": 2793,
    "abilizing": 2923,
    "enial": 17779,
    "Ġunrecord": 16620,
    "Ġmarch": 4083,
    "Ġstraw": 9427,
    "mblings": 19779,
    "Ġslice": 23158,
    "era": 13845,
    "onse": 21248,
    "denial": 18717,
    "Ġvine": 8471,
    "astron": 22167,
    "Ġridge": 14816,
    "respectively": 24700,
    "Ġconvention": 25546,
    "Ġineff": 12630,
    "Ġutter": 3975,
    "Ġlessen": 14529,
    "Ġ2026": 12332,
    "Ġai": 3132,
    "Ġgrieve": 14704,
    "Ġpout": 17906,
    "mingled": 14710,
    "Ġbloss": 19255,
    "Ġmississ": 18838,
    "upid": 6581,
    "ordinary": 4407,
    "Ġbeam": 2879,
    "Ġagile": 22511,
    "Ġoverwhel": 8197,
    "Ġunche": 23427,
    "stories": 18023,
    "Ġbag": 5699,
    "surely": 10568,
    "ĠĠĠĠĠĠĠĠĠĠĠĠĠĠĠĠĠĠĠĠĠĠĠĠĠĠĠ": 14883,
    "}": 97,
    "Ġcoll": 8222,
    "err": 1143,
    "Ġlift": 8809,
    "Ġincorruption": 26309,
    "Ġniag": 21528,
    "Ġscramble": 24577,
    "Ġsimilarity": 3170,
    "Ġhoneymoon": 25645,
    "Ġbrown": 6298,
    "Ġcountless": 16375,
    "Ġwhoa": 22420,
    "Ġweave": 21918,
    "devouring": 24950,
    "powers": 25410,
    "thin": 14095,
    "uteronomy": 15660,
    "Ġsomebody": 7913,
    "Ġclean": 5652,
    "Ġnowadays": 18546,
    "Ġslope": 14458,
    "render": 10289,
    "Ġproposed": 7461,
    "uncommon": 11679,
    "remembered": 17349,
    "Ġvalues": 2650,
    "delirium": 14782,
    "Ġcatching": 9476,
    "Ġsentry": 19025,
    "Ġmonstr": 7668,
    "umberland": 16836,
    "haustible": 16890,
    "Ġravines": 25830,
    "ond": 1163,
    "pike": 11513,
    "Ġdouble": 4939,
    "ape": 1905,
    "==": 945,
    "Ġcolleg": 22856,
    "Ġobtru": 18672,
    "Ġinsens": 8277,
    "Ġawhile": 13828,
    "Ġimpetuous": 25570,
    "Ġte": 1142,
    "rapid": 12666,
    "Ġcrucial": 9890,
    "Ġcoldness": 23758,
    "C": 39,
    "Ġreason": 1340,
    "itatingly": 25277,
    "aways": 15308,
    "Ġexpansion": 22624,
    "Ġfemales": 14934,
    "usiveness": 22291,
    "figures": 20120,
    "Ġbouton": 17868,
    "Ġla": 5913,
    "Ġhideousness": 16914,
    "Ġtrapped": 23076,
    "um": 454,
    "pine": 13767,
    "Ġlandsman": 11349,
    "uture": 1064,
    "Ġsecre": 5493,
    "Ġcolours": 12971,
    "Ġdoctor": 5066,
    "Ġplun": 6281,
    "Ġoutrages": 18415,
    "Ġagonies": 14250,
    "frightened": 17194,
    "Ġende": 21930,
    "chat": 21684,
    "Ġirre": 7469,
    "Ġanger": 5442,
    "oce": 10713,
    "Ġnear": 1720,
    "Ġcongratulated": 19765,
    "rison": 13777,
    "utely": 8132,
    "Ġskewer": 19619,
    "Ġcontemptuously": 19832,
    "Ġscript": 18398,
    "Ġvineyard": 12327,
    "ribed": 7693,
    "Ġquantity": 6948,
    "speaks": 19718,
    "regiment": 16451,
    "Ġsugg": 4499,
    "Ġinsensible": 12322,
    "Ġpropri": 6738,
    "Ġtig": 13811,
    "Ġdrive": 5054,
    "Ġscraggy": 24578,
    "Ġcontextual": 3745,
    "Ġuplifted": 11645,
    "Ġscal": 1556,
    "Ġalt": 18098,
    "Ġstaff": 14004,
    "Ġshouted": 5347,
    "meeting": 11018,
    "trimmed": 23946,
    "Ġgranite": 22808,
    "Ġreigning": 15697,
    "Ġfierceness": 26264,
    "Ġad": 441,
    "prevent": 11792,
    "Ġeyelashes": 26106,
    "Ġopposing": 12037,
    "ner": 1373,
    "Ġdecipher": 22444,
    "Ġprofounder": 23567,
    "\":": 9580,
    "Ġrim": 21966,
    "Ġidler": 16403,
    "bent": 15309,
    "Ġvalidation": 2356,
    "Ġtheirs": 7024,
    "Ġrat": 4354,
    "theast": 21746,
    "Ġwax": 10775,
    "mas": 5212,
    "Ġminutes": 3001,
    "Ġlegible": 23530,
    "bits": 17487,
    "Ġ77": 24262,
    "Ġsli": 4746,
    "Ġsupple": 22992,
    "Ġpostmark": 16724,
    "Ġtrue": 1339,
    "Ġgettest": 23231,
    "nical": 20990,
    "oblig": 16288,
    "Ġdesertion": 24787,
    "Ġprosperous": 15169,
    "Ġhailing": 11690,
    "Ġstabbing": 20302,
    "leful": 17842,
    "Ġhither": 4757,
    "Ġaccuracy": 1102,
    "Ġhart": 17921,
    "xic": 9144,
    "Ġblazing": 11893,
    "Ġsmelling": 16063,
    "Ġconsoled": 18112,
    "Ġgibberish": 25786,
    "nest": 10112,
    "Ġarbit": 4649,
    "Ġ99": 10744,
    "dings": 2168,
    "Ġexplained": 5936,
    "clock": 3934,
    "Ġbruited": 25773,
    "Ġwhen": 514,
    "Ġpurposes": 11167,
    "Ġevangelical": 25506,
    "Ġcemet": 20679,
    "Ġstubbornness": 25380,
    "Ġglistened": 20171,
    "Ġfret": 10805,
    "Ġlombardy": 26462,
    "Ġemigrant": 25859,
    "Ġscreen": 17204,
    "Ġrelevant": 1863,
    "Ġextreme": 2516,
    "tomb": 21092,
    "uttered": 8441,
    "Ġarguing": 25470,
    "Ġlonely": 6823,
    "Ġsubst": 4273,
    "Ġbor": 5804,
    "Ġinser": 6820,
    "plexion": 14257,
    "solved": 7685,
    "Ġslipping": 13358,
    "Ġjollies": 20368,
    "tish": 17676,
    "Ġdetected": 18811,
    "Ġtolerable": 6949,
    "Ġarrest": 7410,
    "Ġeluded": 12917,
    "Ġrese": 2238,
    "nesday": 8702,
    "inger": 6812,
    "Ġview": 2762,
    "ages": 829,
    "whis": 7899,
    "Ġbecoming": 4397,
    "Ġtests": 8956,
    "Ġintimidated": 24805,
    "Ġattributed": 11830,
    "<": 32,
    "Ġordained": 19443,
    "Ġshouts": 19536,
    "88": 20757,
    "noo": 9785,
    "nay": 7135,
    "Ó": 148,
    "Ġminutely": 14559,
    "Ġevaporate": 26332,
    "anning": 10163,
    "ff": 461,
    "skylight": 25623,
    "Ġbid": 6131,
    "Ġexhausting": 24710,
    "Ġfuture": 1070,
    "smug": 23905,
    "Ġopenness": 18955,
    "Ġsearching": 13160,
    "Ġunderstood": 5655,
    "Ġhil": 10820,
    "friendship": 24045,
    "Ġrumpled": 24601,
    "arthly": 8030,
    "Ġnod": 1887,
    "Ġchasing": 11751,
    "richard": 17285,
    "Ġexclusiveness": 23924,
    "Ġfled": 6670,
    "alyards": 18780,
    "into": 3681,
    "bears": 22488,
    "Ġcaptive": 14425,
    "invari": 21183,
    "Ġmelted": 19620,
    "Ġinducement": 16842,
    "dischar": 19151,
    "Ġwrong": 4722,
    "Ġled": 3522,
    "Ġhereditary": 10663,
    "gabriel": 15358,
    "sneezes": 11445,
    "Ġplanted": 9772,
    "Ġrays": 10328,
    "aping": 8194,
    "sculpt": 16240,
    "Ġsuccessful": 9921,
    "Ġemperor": 15156,
    "Ġmorose": 18843,
    "Ġalb": 14014,
    "Ġkills": 15903,
    "Ġclut": 7642,
    "likely": 9021,
    "Ġbehaves": 23297,
    "Ġready": 3399,
    "Ġsickening": 19603,
    "mal": 6794,
    "annica": 24560,
    "Ġsling": 21219,
    "Ġdividing": 12108,
    "Ġreasons": 6020,
    "Ġadroop": 26001,
    "io": 3803,
    "ÿ": 192,
    "Ġcylinders": 25943,
    "Ġliterary": 25162,
    "Ġimplore": 24872,
    "sorts": 21059,
    "concluding": 19479,
    "Ġrubber": 22785,
    "Ġdestro": 3725,
    "Ġlives": 4824,
    "que": 1125,
    "churning": 21695,
    "Ġvanished": 6874,
    "greeting": 24553,
    "..": 5783,
    "Ġbowlines": 19321,
    "Ġfriends": 2653,
    "Ġpinch": 15015,
    "Ġisa": 14023,
    "Ġstartled": 7082,
    "Ġillustrations": 17107,
    "Ġinv": 2223,
    "Ġespecial": 26409,
    "Ġargu": 10933,
    "gaffman": 26389,
    "Ġobeying": 13412,
    "mbling": 3347,
    "uzzle": 19582,
    "sc": 1260,
    "Ġ91": 24590,
    "eenth": 12457,
    "Ġsuggestions": 24452,
    "brad": 20780,
    "ann": 5802,
    "create": 24158,
    "Ġwhelm": 25998,
    "cru": 7126,
    "Ġcocksure": 26258,
    "Ġevolve": 3002,
    "ara": 12602,
    "Ġviolation": 23404,
    "Ġshrouded": 14966,
    "flour": 23963,
    "Ġburgled": 23655,
    "Ġcarter": 18900,
    "Ġconsec": 21803,
    "shrouded": 26361,
    "useless": 14592,
    "Ġerrors": 2597,
    "Ġmaternal": 11058,
    "Ġstab": 10861,
    "inlaid": 21189,
    "rapt": 13971,
    "Ġsaith": 14154,
    "Ġlandlord": 5580,
    "Ġfettered": 24567,
    "quaker": 15759,
    "Ġsiamese": 20481,
    "Ġinstincts": 16985,
    "Ġbawling": 25945,
    "iciously": 17973,
    "Ġdevilish": 11227,
    "Ġcompanion": 3644,
    "Ġlullaby": 20586,
    "ihood": 20921,
    "Ġ-": 1945,
    "Ġmightier": 18730,
    "Ġmonth": 2850,
    "Ġg": 310,
    "Ġsap": 18323,
    "Ġquestioned": 14618,
    "Ġmystical": 12129,
    "Ġblindly": 12106,
    "Ġauthor": 4375,
    "Ġdecreases": 3410,
    "Ġwreaths": 25937,
    "Ġpunctures": 25133,
    "Ġcomes": 3424,
    "gangway": 20666,
    "ishness": 22340,
    "poise": 6171,
    "Ġcurb": 16241,
    "Ġmizzen": 20288,
    "Ġbloody": 9886,
    "Ġcologne": 12972,
    "his": 1412,
    "endar": 18362,
    "dancing": 12451,
    "Ġwhile": 606,
    "Ġexceeded": 14432,
    "Ġrespects": 7270,
    "Ġmonoton": 3636,
    "point": 6063,
    "copyright": 5277,
    "Ġforbidding": 17078,
    "Ġgills": 17992,
    "aint": 2542,
    "Ġimagine": 3925,
    "Ġparamore": 22120,
    "Ġpurchases": 24756,
    "well": 1694,
    "Ġtho": 21512,
    "quit": 15758,
    "Ġsteadfast": 8678,
    "Ġtoward": 17946,
    "Ġuntimely": 16465,
    "lested": 14880,
    "swim": 16778,
    "should": 3263,
    "Ġhearses": 20058,
    "Ġpenalties": 10410,
    "misery": 13341,
    "Ġforeman": 23446,
    "commer": 22802,
    "Ġknocked": 9498,
    "gracechurch": 24580,
    "rael": 21627,
    "buck": 17489,
    "singing": 24362,
    "Ġperforms": 11874,
    "Ġupheld": 22150,
    "Ġmicha": 17811,
    "windows": 19533,
    "Ġcharms": 11129,
    "Ġrested": 9377,
    "Ġcrews": 8989,
    "Ġverge": 23885,
    "mers": 9609,
    "Ġamid": 4958,
    "Ġentreat": 4509,
    "Ġcrav": 19172,
    "Ġcare": 1639,
    "Ġfollow": 1397,
    "Ġrail": 7225,
    "kick": 20935,
    "Ġhogshe": 20490,
    "repaid": 24490,
    "Ġcollected": 2611,
    "elijah": 19471,
    "iard": 9600,
    "Ġabominably": 20064,
    "Ġstandard": 14495,
    "Ġmuch": 919,
    "Ġstorm": 4301,
    "Ġdetect": 1175,
    "Ġcurt": 18853,
    "Ġdevout": 14335,
    "Ġeigenvalues": 4997,
    "Ġflickering": 23014,
    "tis": 4105,
    "forget": 11031,
    "Ġtails": 9900,
    "Ġshaggy": 13568,
    "Ġimp": 589,
    "Ġmeeting": 5193,
    "Ġpovels": 22590,
    "Ġhumble": 8551,
    "woes": 21132,
    "Ġstreaked": 19113,
    "Ġharpo": 1943,
    "Ġvol": 4190,
    "Ġejaculation": 20253,
    "Ġriveted": 13616,
    "Ġbrisk": 9801,
    "Ġlegal": 10438,
    "Ġrusty": 14961,
    "Ġpred": 667,
    "pet": 4865,
    "execut": 13653,
    "Ġfervour": 19737,
    "Ġstripping": 23694,
    "hope": 5990,
    "Ġcage": 17825,
    "Ġpreservation": 24631,
    "gno": 13725,
    "Ġcorrupt": 11920,
    "Ġslang": 23157,
    "Ġvel": 7187,
    "etrics": 21583,
    "Ġfort": 2578,
    "Ġresume": 18565,
    "hig": 12471,
    "Ġbushy": 16399,
    "Ġnail": 9194,
    "susp": 10595,
    "Ġpink": 12614,
    "Ġeffect": 970,
    "Ġstumbling": 21740,
    "omely": 21637,
    "Ġfairly": 6325,
    "Ġbreach": 11970,
    "Ġsto": 1498,
    "Ġcalculus": 23980,
    "Ġincorrupt": 19234,
    "vius": 23540,
    "Ġwarmly": 8986,
    "Ġshrink": 14801,
    "Ġrear": 6535,
    "Ġconversed": 13184,
    "cating": 20801,
    "Ġpunishment": 9954,
    "ivity": 1679,
    "Ġsearched": 15813,
    "ich": 468,
    "Ġfogs": 25282,
    "Ġimmeasurable": 26230,
    "Ġpaid": 5014,
    "Ġillustration": 19135,
    "infernal": 24662,
    "gallery": 24693,
    "Ġlustre": 15132,
    "Ġmum": 13856,
    "Ġforb": 11661,
    "Ġundertaken": 18987,
    "Ġintolerably": 15827,
    "usual": 5841,
    "Ġaddress": 2271,
    "onsible": 22559,
    "Ġdiscoveries": 13356,
    "Ġuninterrupted": 22044,
    "Ġappalling": 8499,
    "Ġdemo": 10879,
    "br": 2479,
    "Ġhead": 1124,
    "Ġengineering": 3029,
    "backpropagation": 11982,
    "Ġfreshe": 13067,
    "september": 14034,
    "Ġascending": 14851,
    "sharks": 14237,
    "Ġ112": 24436,
    "Ġyields": 19655,
    "blacksmith": 17000,
    "Ġhereabouts": 12974,
    "Ġanticip": 7508,
    "correspond": 13396,
    "Ġtermination": 16459,
    "Ġcatastrophic": 3542,
    "ifix": 21901,
    "Ġfrancisco": 26064,
    "rimsh": 17026,
    "Ġconnivance": 25225,
    "erc": 5905,
    "Ġnavy": 14913,
    "commun": 15032,
    "tes": 11527,
    "capting": 24036,
    "sul": 15419,
    "visitors": 13346,
    "Ġcoquet": 22582,
    "ations": 711,
    "Ġrelied": 16192,
    "Ġdomin": 10460,
    "weaving": 18666,
    "Ġcapacious": 19175,
    "Ġorgans": 15862,
    "gods": 13364,
    "Ġdirector": 18920,
    "Ġ*/": 10372,
    "purse": 20023,
    "plan": 15815,
    "Ġexploitation": 2347,
    "anke": 15557,
    "ards": 2505,
    "Ġreasoner": 14431,
    "Ġbrew": 23343,
    "Ġvoyages": 6908,
    "Ġ51": 24319,
    "bearer": 18521,
    "Ġeternally": 11368,
    "Ġcandidate": 16700,
    "Ġcharmed": 16761,
    "arched": 10814,
    "Ġamendment": 26024,
    "signed": 21060,
    "Ġdecoding": 3087,
    "Ġreturn": 1713,
    "ĠĠĠĠĠĠĠĠĠĠĠĠĠĠĠĠĠĠĠĠĠĠĠĠĠĠĠĠĠĠĠĠĠĠĠĠĠĠĠĠĠĠĠĠĠĠ": 9951,
    "Ġgateway": 24802,
    "Ġmakest": 25435,
    "Ġdancing": 5703,
    "baned": 17494,
    "Ġdolphins": 20394,
    "Ġcobweb": 22584,
    "coll": 23778,
    "Ġtelescope": 17346,
    "Ġtaking": 3250,
    "Ġrewarding": 13435,
    "fab": 13714,
    "Ġlistened": 4469,
    "shabb": 18492,
    "Ġbelieving": 8225,
    "Ġthrowing": 6335,
    "neurons": 3139,
    "Ġafternoon": 6053,
    "servant": 15034,
    "borough": 20784,
    "dÃ¦mon": 17526,
    "icles": 17972,
    "Ġengaged": 3431,
    "Ġcursed": 6729,
    "Ġpoltro": 23618,
    "despatched": 19800,
    "Ġadorned": 15245,
    "Ġarist": 14158,
    "aulets": 18620,
    "Ġacres": 14311,
    "action": 3729,
    "searching": 25103,
    "Ġspeaking": 4027,
    "Ġbrute": 8925,
    "Ġgenial": 12191,
    "Ġobligations": 12088,
    "Ġdecayed": 22823,
    "Ġouter": 6859,
    "Ġrefrained": 14341,
    "Ġfootmen": 23796,
    "appearance": 5333,
    "compassion": 12365,
    "Ġprocessions": 18438,
    "forehead": 8515,
    "Ġexh": 5231,
    "Ġspears": 12922,
    "Ġgrasshopper": 24379,
    "humored": 19451,
    "Ġgraves": 11705,
    "Ġpia": 21463,
    "Ġsleeper": 8599,
    "Ġfoot": 3165,
    "probably": 10018,
    "Ġsincerely": 7962,
    "Ġlit": 6246,
    "Ġdeceased": 15005,
    "Ġfond": 4753,
    "suppose": 8644,
    "Ġobvious": 4963,
    "Ġgardeners": 12117,
    "Ġcollege": 11423,
    "accomplishments": 25326,
    "Ġsurmount": 19999,
    "Ġpretence": 13205,
    "Ġwife": 2588,
    "agged": 9235,
    "Ġprudence": 13918,
    "circle": 16735,
    "numerous": 17429,
    "Ġwidth": 16771,
    "remarkable": 13496,
    "Ġworked": 6583,
    "Ġdeliverance": 15155,
    "Ġwine": 6810,
    "Ġep": 7385,
    "sford": 5998,
    "Ġyanke": 18097,
    "sense": 11522,
    "Ġalike": 8147,
    ",âĢĻâĢĶ": 23524,
    "affording": 23776,
    "Ġvoy": 2620,
    "Ġhandsomely": 25497,
    "Ġessentials": 20001,
    "Ġbell": 4634,
    "Ġreminds": 13429,
    "Ġaforethought": 25428,
    "Ġappears": 5402,
    "Ġreaching": 7304,
    "inted": 2648,
    "cruise": 24841,
    "Ġpanthe": 19652,
    "Ġkindest": 23290,
    "Ġflint": 23009,
    "Ġbattle": 5908,
    "Ġhab": 4219,
    "specific": 10496,
    "orphans": 26439,
    "oftener": 23962,
    "Ġliving": 3069,
    "Ġbeaten": 10527,
    "Ġimpenit": 22394,
    "momentum": 4990,
    "Ġfeeling": 3089,
    "Ġclaps": 22347,
    "Ġarrangements": 16513,
    "Ġshank": 21995,
    "Ġcost": 2506,
    "ets": 1162,
    "vint": 21113,
    "suitableness": 26260,
    "uding": 16148,
    "Ġlowering": 7987,
    "rior": 12737,
    "cheon": 23802,
    "ede": 21504,
    "Ġpyth": 21460,
    "Ġpredicts": 2595,
    "Ġcastle": 14714,
    "Ġextras": 22715,
    "Ġsnugness": 20075,
    "Ġtuesday": 9625,
    "anted": 5026,
    "threadbare": 25989,
    "Ġrelatives": 12978,
    "Ġsavann": 14682,
    "softened": 20408,
    "Ġtired": 9148,
    "opius": 18509,
    "Ġembedding": 2104,
    "Ġthreats": 13375,
    "prior": 21031,
    "Ġaround": 3610,
    "Ġyounge": 16285,
    "Ġ43": 14766,
    "Ġbrief": 6976,
    "elt": 4115,
    "butt": 15991,
    "Ġadduced": 26523,
    "Ġextensive": 12937,
    "Ġsepar": 4001,
    "Ġexig": 21824,
    "Ġbanish": 15566,
    "ale": 505,
    "fastened": 19324,
    "Ġdedicated": 19204,
    "ortment": 22255,
    "Ġrecording": 24433,
    "Ġunmingled": 18266,
    "Ġsolutions": 1947,
    "Ġdenying": 14656,
    "Ġsitting": 3604,
    "pass": 4291,
    "baked": 20778,
    "Ġhurry": 4911,
    "Ġswimming": 5507,
    "ildad": 3532,
    "wedded": 24338,
    "ilege": 22254,
    "Ġbrougham": 17870,
    "Ġdissip": 10991,
    "irmed": 9237,
    "Ġdocks": 14176,
    "Ġadm": 2403,
    "r": 86,
    "±": 114,
    "Ġadvent": 4357,
    "Ġfooted": 23795,
    "Ġvocation": 10524,
    "Ġcoiling": 12901,
    "Ġprov": 4400,
    "Ġgleams": 17308,
    "Ġfurnishing": 16644,
    "ousings": 18330,
    "Ġsubstitute": 16725,
    "Ġundertake": 14478,
    "Ġwhirling": 12245,
    "Ġinquiring": 8998,
    "Ġdeadly": 5405,
    "Ġbengal": 18783,
    "spir": 5738,
    "clinging": 20821,
    "Ġgilded": 17443,
    "priv": 9618,
    "Ġcoff": 3508,
    "Ġpaul": 12059,
    "Ġpushing": 10818,
    "duct": 3507,
    "Ġfaulty": 14904,
    "Ġbestow": 6454,
    "Ġmoral": 6579,
    "Ġado": 7627,
    "Ġobe": 5800,
    "ulated": 6030,
    "waving": 21130,
    "ser": 1427,
    "Ġmechanical": 7937,
    "Ġwallowed": 24039,
    "Ġlaid": 3942,
    "men": 1486,
    "horses": 17566,
    "Ġappre": 5165,
    "Ġfaith": 5350,
    "heim": 17745,
    "Ġreasonably": 11085,
    "Ġhorsey": 24248,
    "Ġhistor": 3391,
    "Ġbackpropagation": 1249,
    "Ġbearing": 5298,
    "vic": 13800,
    "carp": 9108,
    "Ġwhosoever": 21717,
    "reader": 23844,
    "onic": 7828,
    "Ġdy": 2565,
    "Ġmichael": 20678,
    "superstitiousness": 25508,
    "adr": 6994,
    "Ġscrut": 15941,
    "Ġmisgivings": 15289,
    "Ġpint": 17909,
    "dred": 2527,
    "Ġrestricted": 19027,
    "Ġfarther": 5955,
    "don": 3544,
    "Ġfur": 991,
    "Ġfaculties": 14955,
    "Ġly": 2269,
    "<EOS>": 2,
    "Ġprodigies": 19792,
    "either": 6791,
    "Ġointment": 21324,
    "Ġminiatures": 20320,
    "Ġdramat": 23213,
    "Ġcircumst": 2974,
    "Ġpod": 15600,
    "Ġmamm": 25090,
    "satisfied": 10577,
    "Ġsingers": 23770,
    "rolling": 9059,
    "reeable": 3611,
    "Ġnest": 10187,
    "arrival": 15596,
    "gradually": 12911,
    "need": 10982,
    "ooped": 17622,
    "idly": 12696,
    "Ġamelia": 26251,
    "Ġhob": 12625,
    "latter": 15380,
    "estations": 22226,
    "ike": 4999,
    "rian": 10241,
    "remarks": 23186,
    "lasting": 8011,
    "Ġ&": 6512,
    "Ġsket": 18728,
    "speaking": 12095,
    "seeking": 17151,
    "Ġexception": 11215,
    "Ġluxur": 12338,
    "Ġfullest": 14811,
    "securer": 25602,
    "Ġwrithed": 17105,
    "Ġlascar": 9198,
    "ack": 610,
    "capital": 15086,
    "Ġsheltered": 19910,
    "harpoons": 24284,
    "eluded": 21573,
    "iny": 4294,
    "Ġscoresby": 10461,
    "Ġsens": 1852,
    "destruction": 11255,
    "Ġthanking": 18602,
    "able": 451,
    "dire": 15334,
    "Ġcomprehensiveness": 25072,
    "Ġusefulness": 19406,
    "yes": 986,
    "cary": 10688,
    "Ġsleet": 8974,
    "Ġwinged": 16994,
    "Ġfeatures": 1433,
    "loun": 17587,
    "Ġdrooping": 9418,
    "agre": 18164,
    "Ġlime": 13946,
    "word": 2488,
    "ositories": 22262,
    "Ġfilial": 16619,
    "paradise": 20636,
    "Ġcarriage": 3951,
    "Ġsedentary": 25430,
    "Ġdangerous": 6613,
    "Ġsquatted": 25841,
    "Ġemerg": 13422,
    "expected": 5780,
    "Ġinsignificant": 20455,
    "Ġduties": 6609,
    "caut": 20811,
    "icable": 6387,
    "Ġbra": 3255,
    "Ġapartments": 19613,
    "Ġinland": 11606,
    "Ġsweating": 16461,
    "Ġunprovided": 18263,
    "Ġenig": 15796,
    "Ġorgies": 18285,
    "Ġimprisonment": 22393,
    "Ġintens": 7003,
    "Ġsailing": 5323,
    "Ġinsight": 16528,
    "Ġmarvels": 11083,
    "Ġoath": 7834,
    "ertips": 23639,
    "Ġsings": 15503,
    "Ġcircumference": 13543,
    "past": 8090,
    "blo": 6353,
    "Ġhides": 16263,
    "ĠcÃ¦": 15551,
    "Ġgrievous": 13259,
    "spin": 22728,
    "house": 4078,
    "utarch": 15658,
    "complied": 19912,
    "Ġpang": 15601,
    "Ġ23": 13188,
    "Ġpine": 8795,
    "thur": 7189,
    "Ġcountenance": 3971,
    "Ġanyways": 22518,
    "ia": 1259,
    "unders": 13308,
    "ici": 8440,
    "ourselves": 9009,
    "Ġint": 414,
    "pered": 4198,
    "uling": 2258,
    "Ġscatter": 18397,
    "fates": 20857,
    "inct": 3295,
    "wl": 17701,
    "Ġvigilance": 12368,
    "remote": 23187,
    "Ġabundantly": 17155,
    "duck": 22410,
    "Ġshout": 4264,
    "Ġrebellion": 26474,
    "shazzar": 15287,
    "Ġorder": 1688,
    "Ġdiligence": 17113,
    "Ġbenevolent": 7773,
    "vo": 11538,
    "Ġgallantry": 15101,
    "pyramid": 21029,
    "Ġicicles": 25264,
    "complacency": 19913,
    "rank": 21040,
    "sized": 15426,
    "Ġdau": 21424,
    "Ġrejoined": 14924,
    "counter": 20277,
    "glanced": 19364,
    "private": 13580,
    "Ġpendulous": 25955,
    "pul": 8753,
    "Ġlan": 5820,
    "Ġcoals": 16072,
    "Ġhedges": 19983,
    "ugn": 9376,
    "Ġlik": 2523,
    "Ġmab": 12556,
    "Ġundec": 22017,
    "gast": 20870,
    "Ġ123": 24467,
    "Ġalan": 10868,
    "rushing": 10016,
    "69": 17473,
    "backed": 9864,
    "indifference": 15979,
    "iled": 1766,
    "Ġnatives": 17950,
    "ibility": 2392,
    "Ġzigzag": 26272,
    "Ġunder": 1636,
    "Ġchestnuts": 24380,
    "Ġmorning": 1751,
    "Ġsteersman": 13038,
    "capt": 3837,
    "Ġgestures": 13534,
    "Ġcentury": 8291,
    "constant": 11323,
    "hound": 20894,
    "Ġmetropolitan": 17274,
    "ringle": 21039,
    "Ġshot": 4543,
    "Ġreceive": 4702,
    "Ġgirl": 3091,
    "Ġere": 3686,
    "Ġsigning": 22706,
    "residence": 19262,
    "ivided": 22079,
    "Ġaudacity": 19881,
    "Ġform": 1021,
    "Ġcele": 9898,
    "unearthly": 19272,
    "Ġpolynes": 16076,
    "Ġmil": 4254,
    "Ġclaims": 13371,
    "Ġrick": 21971,
    "means": 9784,
    "Ġ135": 24785,
    "caroline": 24148,
    "Ġlargest": 6282,
    "Ġlarger": 1402,
    "Ġful": 4297,
    "Ġcontinuation": 22916,
    "just": 1702,
    "hearted": 6970,
    "cherries": 19755,
    "Ġworship": 10365,
    "amouch": 21849,
    "Ġblackest": 19098,
    "dist": 4480,
    "ourable": 4966,
    "Ġdoes": 943,
    "ain": 343,
    "Ġterrified": 14669,
    "suffer": 24333,
    "inquire": 16931,
    "Ġbaleen": 10035,
    "Ġviii": 16410,
    "question": 5418,
    "itche": 7579,
    "Ġhighlands": 22772,
    "racing": 21629,
    "Ġbefallen": 12340,
    "ary": 988,
    "Ġstrictly": 12282,
    "Ġapple": 14166,
    "Ġmast": 2899,
    "gpt": 5355,
    "justice": 7958,
    "Ġperturbed": 20438,
    "Ġdreadfully": 7726,
    "Ġflap": 14420,
    "Ġhorrible": 4903,
    "Ġjulia": 22300,
    "progra": 9393,
    "gaz": 20877,
    "Ġclo": 6043,
    "Ġflooring": 23623,
    "Ġmodel": 509,
    "Ġstrikes": 13179,
    "Ġpresumed": 10543,
    "Ġknowledge": 1446,
    "kitty": 10104,
    "Ġaccess": 9745,
    "Ġlimit": 10442,
    "iously": 2676,
    "Ġconfusing": 23304,
    "Ġprevail": 13440,
    "cake": 20803,
    "boil": 18999,
    "Ġhushed": 13923,
    "h": 76,
    "Ġhan": 15614,
    "augh": 1783,
    "Ġquartered": 20371,
    "Ġbitterest": 12399,
    "Ġimprecate": 20516,
    "inguished": 6598,
    "$": 8,
    "Ġcruellest": 19657,
    "Ġorganization": 7984,
    "Ġown": 1005,
    "Ġfollies": 16255,
    "Ġtransformers": 1136,
    "Ġtant": 12521,
    "Ġincensed": 18572,
    "Ġoutermost": 22317,
    "Ġfeels": 6882,
    "Ġrind": 21970,
    "Ġincreased": 2211,
    "amous": 15757,
    "ems": 5236,
    "Ġmainland": 22645,
    "Ġcarriages": 11097,
    "enger": 10772,
    "Ġbodiless": 24225,
    "Ġacquaintances": 17348,
    "O": 51,
    "Ġ103": 24410,
    "Ġshutters": 9935,
    "mic": 12485,
    "faith": 15023,
    "cap": 8373,
    "mured": 6960,
    "throughout": 24083,
    "Ġtrappers": 23080,
    "Ġunfolded": 10637,
    "expressing": 16800,
    "harpoon": 9489,
    "Ġunquestionable": 26221,
    "Ġwrenched": 12554,
    "wester": 21137,
    "Ġmoth": 17802,
    "Ġoffering": 3009,
    "Ġbrid": 6290,
    "peddling": 24696,
    "Ġruns": 8594,
    "intim": 22932,
    "este": 15918,
    "inconsiderable": 21190,
    "Ġtricks": 13482,
    "Ġjon": 15945,
    "drab": 23895,
    "Ġdespite": 19351,
    "Ġpointed": 4771,
    "Ġdemand": 4946,
    "rations": 10722,
    "afford": 14652,
    "Ġadmiration": 5328,
    "Ġroughs": 19955,
    "ateful": 5927,
    "Ġconfidently": 24957,
    "Ġfinanc": 23127,
    "Ġrock": 5310,
    "pondicherry": 26399,
    "Ġ1991": 3019,
    "iner": 2669,
    "Ġmould": 6518,
    "Ġwhereupon": 14294,
    "clergyman": 20728,
    "Ġsynthe": 26007,
    "befall": 22493,
    "Ġcrowding": 13277,
    "puzzling": 26143,
    "Ġcorroded": 18875,
    "Ġelbowed": 16106,
    "lungs": 26135,
    "Ġthreatened": 8330,
    "constantly": 24607,
    "Ġmedical": 9462,
    "otle": 21795,
    "Ġreverie": 13455,
    "Ġvort": 18193,
    "Ġgodfre": 14526,
    "Ġissuing": 16947,
    "Ġfeel": 1262,
    "osal": 11756,
    "gia": 20875,
    "Ġinfat": 14508,
    "Ġlima": 10441,
    "Ġrudimental": 25108,
    "Ġcontradict": 12382,
    "Ġexperiences": 13026,
    "Ġhumbly": 16195,
    "Ġevery": 927,
    "Ġwant": 1118,
    "ah": 1831,
    "Ġmir": 9645,
    "hess": 4745,
    "Ġdivision": 19442,
    "Ġbenediction": 18784,
    "Ġexerc": 6832,
    "Ġmexic": 14030,
    "Ġhar": 5814,
    "bare": 12438,
    "uncont": 15770,
    "desolation": 20448,
    "stool": 23817,
    "Ġshaped": 15831,
    "Ġthirty": 4943,
    "Ġexploring": 4305,
    "Ġerud": 20053,
    "Ġmillions": 11353,
    "occasion": 7754,
    "Ġwall": 3843,
    "admitted": 18091,
    "Ġarranging": 11173,
    "Ġcoast": 4654,
    "Ġunfathomable": 20547,
    "agony": 14067,
    "glo": 8737,
    "Ġlived": 3992,
    "Ġpressing": 9259,
    "Ġleather": 7607,
    "Ġjane": 1759,
    "Ġnovelty": 13461,
    "Ġcath": 17826,
    "Ġdropping": 7484,
    "confused": 19643,
    "westward": 25424,
    "Ġfilling": 13406,
    "eding": 7166,
    "Ġfriend": 1296,
    "esc": 617,
    "Ġfancy": 3748,
    "Ġcontemplative": 19892,
    "Ġservant": 5764,
    "Ġtresses": 21174,
    "advise": 24216,
    "native": 17610,
    "Ġscratching": 20367,
    "Ġscre": 9735,
    "Ġboyhood": 23753,
    "reg": 2185,
    "Ġpave": 8798,
    "resembling": 25932,
    "Ġspeakest": 23484,
    "apprehension": 26114,
    "Ġignorantly": 19494,
    "Ġexceptional": 19369,
    "Ġbourgh": 5068,
    "Ġproprietor": 12370,
    "Ġloitering": 22114,
    "Ġperman": 10963,
    "itu": 1227,
    "Ġbl": 1192,
    "ernal": 4313,
    "Ġproportionate": 17042,
    "Ġlaud": 17967,
    "Ġdens": 21423,
    "Ġcurved": 18856,
    "Ġmiserably": 12944,
    "Ġdinnertime": 16718,
    "undertaking": 23786,
    "Ġnaut": 13939,
    "Ġpartiality": 9396,
    "Ġjail": 22292,
    "Ġimpaling": 22389,
    "Ġhistory": 4009,
    "Ġhire": 21483,
    "Ġbroken": 3449,
    "Ġcertain": 1559,
    "Ġspared": 7894,
    "vocation": 25084,
    "Ġmultipl": 2791,
    "Ġbumping": 25280,
    "Ġvegetables": 15219,
    "precedented": 15172,
    "Ġprodigiously": 14929,
    "Ġglasses": 9473,
    "oriented": 2946,
    "Ġsomewhat": 4895,
    "Ġpoints": 5248,
    "abled": 12790,
    "Ġwilliam": 3484,
    "Ġinattention": 17931,
    "Ġdenomin": 12064,
    "dropout": 3198,
    "sorrows": 17318,
    "borean": 25743,
    "Ġportcull": 23861,
    "Ġremoving": 12113,
    "Ġdistrustful": 25054,
    "Ġmerchants": 23731,
    "aneous": 7241,
    "Ġbats": 13898,
    "Ġding": 12595,
    "sherlock": 5422,
    "cooee": 12415,
    "Ġappalled": 22217,
    "================================": 5671,
    "compasses": 19456,
    "Ġprocession": 11775,
    "ena": 11566,
    "Ġnamely": 20688,
    "Ġawaited": 17073,
    "Ġfolio": 11915,
    "flutterings": 26605,
    "bound": 6220,
    "Ġproving": 15751,
    "pipe": 8696,
    "M": 49,
    "Ġexecuted": 9470,
    "iant": 5427,
    "since": 5895,
    "Ġconcluded": 5658,
    "sun": 7139,
    "Ġpalp": 11250,
    "withstanding": 8944,
    "ä": 165,
    "Ġlot": 6678,
    "later": 20952,
    "Ġnorthern": 7266,
    "Ġshadowed": 24042,
    "Ġsatin": 12984,
    "wheel": 22870,
    "Ġlike": 668,
    "hroom": 12473,
    "Ġrole": 15994,
    "persuaded": 15071,
    "this": 1439,
    "Ġneeded": 7718,
    "Ġturned": 2134,
    "Ġhawsers": 26501,
    "penetrating": 25490,
    "Ġadversary": 12170,
    "Ġsplintered": 11417,
    "Ġpractises": 23322,
    "Ġharris": 13925,
    "Ġshrieks": 12196,
    "watery": 19825,
    "Ġdoubling": 23315,
    "over": 1844,
    "sigma": 3003,
    "atively": 2695,
    "Ġugly": 8715,
    "Ġbefitting": 15722,
    "Ġlong": 794,
    "insurance": 18888,
    "Ġknife": 7310,
    "Ġparliament": 18302,
    "Ġlogits": 3451,
    "Ġgrass": 5177,
    "leading": 15558,
    "Ġpriority": 19761,
    "happy": 4425,
    "eches": 8078,
    "Ġmuttering": 10498,
    "Ġdutch": 6327,
    "Ġhowling": 8509,
    "uttering": 12658,
    "Ġtemporarily": 11166,
    "Ġpositively": 13027,
    "hurried": 11352,
    "Ġtrees": 4203,
    "Ġfactor": 19012,
    "sus": 6228,
    "Ġappearance": 3702,
    "aps": 1229,
    "ique": 8742,
    "above": 8148,
    "nails": 17613,
    "Ġtattooed": 11377,
    "Ġadver": 5641,
    "Ġbrixton": 13661,
    "Ġexpecting": 10435,
    "avo": 8517,
    "Ġdeuteronomy": 15756,
    "Ġfors": 21769,
    "Ġempty": 5353,
    "income": 15484,
    "Ġor": 437,
    "Ġunscrew": 22038,
    "Ġcrowned": 16840,
    "Ġjacket": 6488,
    "Ġgipsies": 12405,
    "Ġowns": 22822,
    "Ġrumors": 11320,
    "vag": 8764,
    "Ġrubbed": 12951,
    "Ġimag": 2674,
    "analy": 17838,
    "Ġconstrained": 19239,
    "dled": 9109,
    "Ġimbec": 14155,
    "voc": 8394,
    "against": 5870,
    "pilot": 25908,
    "Ġantics": 24177,
    "measured": 19988,
    "Ġcirculation": 16414,
    "Ġwaiter": 16358,
    "among": 6256,
    "collected": 13211,
    "dwelling": 20563,
    "Ġlungless": 24863,
    "Ġeven": 1024,
    "Ġmorass": 22969,
    "Ġethics": 15460,
    "countenance": 6925,
    "Ġwards": 17789,
    "Ġtheorem": 2325,
    "Ġinterchange": 16070,
    "retched": 3074,
    "Ġsingled": 23771,
    ":": 30,
    "Ġintellectual": 11400,
    "Ġlaborers": 19057,
    "nect": 662,
    "compass": 9458,
    "Ġsaf": 4003,
    "Ġday": 960,
    "Ġunguarded": 15848,
    "Ġanswering": 7478,
    "vour": 17698,
    "Ġcensured": 25094,
    "Ġdeformed": 14047,
    "Ġwhere": 783,
    "Ġwilful": 10533,
    "Ġfour": 2214,
    "holder": 13280,
    "Ġforgery": 25977,
    "trip": 21090,
    "less": 928,
    "Ġretains": 20028,
    "Ġsparkled": 13460,
    "matlock": 23468,
    "Ġ179": 19753,
    "Ġreckoned": 24744,
    "ales": 3319,
    "Ġbaboon": 19692,
    "Ġbreaths": 14854,
    "Ġhandsome": 4904,
    "Ġauthorized": 16734,
    "soo": 18686,
    "Ġsinful": 18948,
    "Ġforbearance": 12325,
    "girdling": 26388,
    "rity": 13774,
    "aying": 15746,
    "Ġblameless": 19858,
    "Ġenvelopes": 24506,
    "Ġenduring": 16301,
    "oforte": 14284,
    "Ġhelplessness": 25071,
    "Ġresignation": 18566,
    "leo": 21362,
    "browed": 25894,
    "Ġsurm": 7477,
    "vering": 15712,
    "Ġremember": 2677,
    "garn": 20869,
    "Ġobjects": 5577,
    "Ġsickness": 10537,
    "civilities": 24973,
    "Ġlimping": 23544,
    "Ġbang": 17854,
    "Ġirreproachable": 24917,
    "Ġtheme": 16016,
    "Ġfreckled": 18959,
    "Ġx": 2073,
    "lotts": 23823,
    "Ġframe": 1857,
    "Ġgen": 5296,
    "Ġimagination": 5759,
    "itage": 17816,
    "Ġpoetic": 17102,
    "Ġrequisite": 18650,
    "Ġnoiseless": 10356,
    "Ġwakes": 11570,
    "winding": 16719,
    "Ġgasp": 7173,
    "Ġpassing": 4316,
    "Ġhorseback": 14847,
    "Ġirreduc": 5491,
    "Ġmuslin": 19381,
    "Ġtoes": 10828,
    "Ġwhaleboats": 18478,
    "Ġresigned": 9766,
    "Ġpaying": 9936,
    "Ġcalendar": 18876,
    "Ġveins": 8931,
    "cerem": 15674,
    "Ġdazed": 15592,
    "ourse": 8868,
    "Ġlocker": 16910,
    "Ġaccounts": 7208,
    "Ġstage": 7390,
    "Ġincreasingly": 9369,
    "Ġane": 9180,
    "bit": 3933,
    "Ġthousandth": 23682,
    "lovely": 16043,
    "Ġuninhabited": 22049,
    "uncommonly": 25549,
    "Ġclassification": 1094,
    "secut": 7868,
    "Ġreprehensible": 15695,
    "ronted": 14874,
    "dug": 18462,
    "Ġragged": 11842,
    "u": 89,
    "Ġcables": 15554,
    "Ġinflict": 15000,
    "Ġunwritten": 22032,
    "Ġdrugg": 17118,
    "Ġsuicide": 12782,
    "tawn": 21079,
    "Ġcontained": 7680,
    "Ġtrous": 10955,
    "stalls": 26472,
    "naturalists": 23539,
    "parlour": 16390,
    "Ġinclusive": 24162,
    "```": 25893,
    "Ġchained": 16383,
    "Ġpropriety": 10008,
    "Ġdisconcerted": 18562,
    "Ġ93": 24592,
    "building": 17307,
    "Ġdodging": 19886,
    "thee": 9688,
    "Ġwidest": 24233,
    "Ġdance": 4442,
    "Ġevermore": 18812,
    "visitor": 15058,
    "people": 7678,
    "Ġstri": 2804,
    "istrate": 7407,
    "Ġdinners": 23979,
    "icha": 11734,
    "icilian": 20690,
    "beam": 16036,
    "exam": 10975,
    "Ġoutfits": 22319,
    "ume": 4833,
    "Ġcoolly": 9770,
    "Ġawait": 17072,
    "Ġjones": 7205,
    "Ġtuck": 10139,
    "imprisonment": 23761,
    "Ġelias": 18632,
    "cely": 3574,
    "Ġhabitu": 19527,
    "Ġsurviving": 24638,
    "Ġrotation": 25474,
    "kward": 6958,
    "Ġimmens": 9937,
    "Ġsought": 5009,
    "wond": 8767,
    "Ġburnt": 9926,
    "alone": 10182,
    "relieved": 13274,
    "Ġinjurious": 24269,
    "Ġproportion": 7282,
    "numer": 15397,
    "Ġadequ": 10912,
    "raise": 18011,
    "Ġinh": 10823,
    "Ġstaggered": 9537,
    "Ġeasily": 3893,
    "Ġsquat": 14366,
    "Ġnative": 4639,
    "Ġalleys": 25978,
    "Ġobtruded": 20721,
    "Ġhappening": 14381,
    "impress": 18051,
    "vable": 10131,
    "Ġwail": 21285,
    "Ġminimize": 7050,
    "Ġendurance": 23143,
    "aire": 10679,
    "Ġinvisible": 7328,
    "Ġnoble": 3441,
    "Ġroused": 7624,
    "Ġplacid": 11823,
    "Ġdiana": 21435,
    "chief": 4643,
    "Ġdescrib": 2717,
    "vel": 2386,
    "Ġsmoky": 22556,
    "Ġmajority": 13290,
    "Ġimparted": 15990,
    "Ġovercame": 9744,
    "Ġpace": 9182,
    "narrative": 17317,
    "Ġmouldings": 24737,
    "Ġclasping": 20208,
    "eldest": 22792,
    "armon": 23058,
    "Ġmimic": 3147,
    "Ġomen": 11574,
    "Ġpirate": 14995,
    "Ġrealising": 18982,
    "Ġquee": 1982,
    "Ġsciences": 15940,
    "Ġcapacity": 10439,
    "ocity": 8278,
    "whims": 22237,
    "Ġinstigated": 18702,
    "Ġfrock": 10488,
    "Ġpel": 17904,
    "Ġending": 18189,
    "Ġshipw": 12975,
    "Ġinstinctively": 13457,
    "hamed": 6305,
    "our": 534,
    "Ġrueful": 25581,
    "Ġvelvets": 25393,
    "Ġpartner": 6714,
    "deaux": 22146,
    "aming": 5828,
    "Ġanatomy": 12317,
    "Ġautonom": 10413,
    "dig": 4927,
    "jolly": 20930,
    "Ġscarcely": 4010,
    "Ġreplaced": 13069,
    "Ġinns": 17929,
    "Ġgreat": 896,
    "Ġsweetheart": 19393,
    "eng": 1488,
    "Ġcroquet": 9960,
    "bed": 3292,
    "Ġtraditions": 11442,
    "umnal": 18300,
    "Ġsurface": 5119,
    "Ġdiv": 3734,
    "Ġbehooves": 20732,
    "whatever": 6694,
    "Ġconjectured": 9995,
    "Ġcircumvent": 25064,
    "Ġwrecked": 9964,
    "Ġpuff": 6525,
    "Ġey": 8135,
    "harpoone": 6107,
    "Ġluxuries": 25163,
    "Ġdegra": 2590,
    "Ġwoe": 4791,
    "Ġpolished": 11181,
    "Ġinsane": 19268,
    "Ġconsecutive": 20701,
    "Ġimmemorial": 10509,
    "genteel": 19947,
    "Ġadvantage": 4317,
    "Ġdense": 8123,
    "Ġphilistines": 26082,
    "Ġdistrust": 8205,
    "Ġmonitors": 3160,
    "Ġoutskirts": 17455,
    "Ġyarns": 15193,
    "S": 55,
    "parts": 14599,
    "Ġsnows": 14723,
    "Ġintelligences": 12828,
    "mantel": 26393,
    "Ġcrisp": 11999,
    "Ġmur": 2489,
    "inferences": 17738,
    "Ġbarely": 16935,
    "Ġamiss": 18512,
    "crawling": 16957,
    "ollion": 19714,
    "Ġdaughter": 2869,
    "Ġtrap": 7673,
    "pos": 15408,
    "Ġforecastle": 5495,
    "Ġwarnings": 16880,
    "Ġdesigns": 13008,
    "Ġnephew": 6404,
    "illed": 2624,
    "Ġmanifested": 17156,
    "Ġpost": 4272,
    "Á": 130,
    "Ġsport": 6688,
    "merc": 19279,
    "Ġassert": 7120,
    "Ġr": 405,
    "Ġcau": 13879,
    "Ġinsatiate": 19269,
    "Ġassign": 11109,
    "conversation": 7122,
    "tumult": 12420,
    "nue": 15395,
    "preserving": 25304,
    "Ġyards": 5371,
    "tical": 10127,
    "Ġbrave": 6329,
    "ident": 3380,
    "Ġnorth": 4320,
    "drawing": 10485,
    "explanations": 25234,
    "Ġintervened": 25481,
    "Ġannouncing": 16753,
    "mild": 15389,
    "Ġsuspecting": 14907,
    "Ġquadrille": 13539,
    "eye": 6224,
    "could": 2872,
    "Ġtrough": 15960,
    "Ġcoiled": 11817,
    "Ġfruits": 17117,
    "Ġlater": 6017,
    "Ġexempl": 21828,
    "Ġthey": 576,
    "Ġwere": 556,
    "Ġpredicted": 2044,
    "Ġtorn": 6000,
    "Ġjesty": 18405,
    "Ġnotice": 4542,
    "Ġemerged": 8684,
    "Ġsped": 22124,
    "Ġnineveh": 13387,
    "Ġdiscl": 9795,
    "Ġtenderness": 12212,
    "Ġreferences": 21672,
    "Ġdirections": 1972,
    "asol": 21538,
    "analysis": 26173,
    "sp": 894,
    "eastern": 17532,
    "acing": 2716,
    "Ġreproached": 24891,
    "educ": 10827,
    "snowy": 20282,
    "Ġdisreputable": 22532,
    "Ġthem": 639,
    "bergs": 18683,
    "Ġreconciled": 13585,
    "itty": 3554,
    "kinder": 24845,
    "Ġneglig": 18877,
    "moid": 2450,
    "morning": 4857,
    "Ġtyrant": 24767,
    "Ġbod": 4580,
    "Ġduplicates": 17215,
    "Ġengland": 3857,
    "Ġaccountability": 10437,
    "Ġresult": 4460,
    "Ġextend": 18681,
    "Ġsuperb": 16444,
    "Ġcanopy": 18321,
    "august": 11070,
    "mock": 5174,
    "Ġsuggests": 12197,
    "Ġmonths": 3457,
    "approach": 24833,
    "divers": 15340,
    "Ġsultan": 15182,
    "ellation": 12749,
    "Ġlanes": 19764,
    "Ġassertion": 13487,
    "Ġcreation": 6438,
    "Ġdecl": 3589,
    "humour": 7499,
    "stall": 21644,
    "Ġpenalizing": 13088,
    "Ġequals": 4725,
    "Ġwardrobe": 17224,
    "Ġegress": 21619,
    "meth": 11501,
    "Ġproposition": 23248,
    "Ġarabic": 24980,
    "Ġthirst": 7590,
    "Ġdemonstrate": 24996,
    "mut": 17594,
    "mediate": 16511,
    "Ġtoll": 7852,
    "Ġmanxman": 9564,
    "recollect": 17222,
    "pictures": 15088,
    "unknown": 10889,
    "Ġpeas": 8533,
    "Ġcrawl": 11374,
    "Ġtheories": 13847,
    "twilight": 23700,
    "Ġmund": 21317,
    "Ġcoat": 4553,
    "Ġcircum": 8258,
    "Ġunwilling": 7887,
    "Ġinitialization": 1255,
    "ean": 20839,
    "shire": 3024,
    "likewise": 13103,
    "halloa": 17089,
    "Ġunravel": 26214,
    "oury": 22302,
    "Ġzer": 1095,
    "Ġmissed": 8555,
    "Ġbeliever": 25845,
    "Ġpoem": 22587,
    "ated": 730,
    "Ġfreemason": 23208,
    "pronounced": 12343,
    "wish": 8100,
    "Ġheat": 5453,
    "ccas": 15882,
    "Ġsix": 3048,
    "rily": 7622,
    "Ġmenaces": 23105,
    "Ġbachelor": 7787,
    "Ġingrat": 16839,
    "sleeve": 26108,
    "Ġinstant": 2703,
    "feature": 4053,
    "Ġb": 281,
    "Ġdeceit": 13479,
    "patient": 25342,
    "putation": 7625,
    "Ġadmit": 7711,
    "Ġstrict": 7223,
    "ask": 858,
    "Ġpublicly": 13320,
    "Ġunwelcome": 12777,
    "Ġcracking": 14571,
    "enth": 6680,
    "Ġgarments": 15191,
    "wore": 21123,
    "Ġ90": 24589,
    "hopper": 23713,
    "proportions": 22832,
    "Ġinstruments": 12220,
    "Ġwinking": 17793,
    "threat": 10899,
    "uv": 6229,
    "Ġexclusion": 19394,
    "Ġflourishing": 25187,
    "Ġoutwardly": 25000,
    "Ġgirls": 4279,
    "Ġhold": 2245,
    "achus": 18283,
    "Ġarrowy": 25469,
    "Ġpromises": 10399,
    "Ġcatholic": 20680,
    "interval": 7991,
    "they": 1879,
    "Ġnathan": 21524,
    "Ġwearisome": 19794,
    "chastic": 2333,
    "Ġhumanity": 6731,
    "events": 12314,
    "ier": 1137,
    "Ġlard": 13945,
    "phants": 9318,
    "Ġflannel": 26576,
    "Ġdespaired": 14666,
    "Ġeffective": 1251,
    "Ġapothe": 12372,
    "youngest": 19742,
    "Ġextinguish": 14326,
    "Ġlying": 4823,
    "yesterday": 10352,
    "Ġplaguy": 22605,
    "tossing": 18580,
    "Ġblasts": 19994,
    "Ġtropic": 17063,
    "magnet": 14967,
    "ĠdÃ¦mon": 7845,
    "Ġdecorum": 16018,
    "Ġorganize": 8990,
    "Ġabsence": 4892,
    "arrant": 10473,
    "Ġhay": 11603,
    "Ġperception": 9748,
    "Ġrucastles": 18721,
    "Ġthou": 1809,
    "Ġrefuse": 5739,
    "Ġparagraph": 17452,
    "Ġlawless": 19433,
    "Ġcom": 367,
    "ñ": 178,
    "month": 6462,
    "generations": 23784,
    "Ġswung": 6448,
    "Ġpolite": 9880,
    "Ġmust": 844,
    "Ġepis": 19980,
    "Ġdaily": 5987,
    "Ġfeet": 2259,
    "come": 2377,
    "owders": 18047,
    "Ġfortresses": 23620,
    "Ġfootfalls": 25866,
    "conc": 3948,
    "Ġundulated": 19515,
    "rab": 7597,
    "ources": 2789,
    "stem": 561,
    "Ġcrowds": 14736,
    "Ġlurk": 13381,
    "Ġspy": 22122,
    "Ġped": 6817,
    "Ġmemo": 18119,
    "Ġtremendous": 8354,
    "diff": 9112,
    "Ġkith": 22190,
    "presented": 12986,
    "bad": 12433,
    "Ġmuster": 16119,
    "Ġmus": 3398,
    "ilight": 12689,
    "T": 56,
    "Ġloo": 22108,
    "Ġrejecting": 17050,
    "Ġdeposition": 18606,
    "Ġflatter": 9346,
    "Ġhorrors": 10478,
    "Ġdisgracing": 26255,
    "Ġaboriginal": 14187,
    "Ġliver": 14226,
    "imper": 13995,
    "Ġangle": 8602,
    "Ġsurvived": 14931,
    "Ġanxious": 4517,
    "Ġcuba": 25095,
    "Ġprosperity": 20257,
    "Ġking": 2303,
    "Ġretrogression": 26580,
    "Ġbegging": 11079,
    "Ġfoiled": 23243,
    "erson": 7002,
    "Ġsleeping": 6319,
    "Ġcircumstantial": 14641,
    "Ġrevive": 13477,
    "expedition": 26078,
    "rings": 10721,
    "Ġfowler": 16936,
    "lished": 8383,
    "childhood": 16865,
    "wall": 10135,
    "Ġcalmed": 16266,
    "eling": 6681,
    "Ġscheming": 23269,
    "umed": 6554,
    "Ġungenerous": 18269,
    "jacket": 12289,
    "Ġextravagant": 17277,
    "disappo": 8983,
    "Ġtortured": 14921,
    "Ġsplendidly": 25327,
    "Ġwonder": 2117,
    "Ġprofessed": 14721,
    "ricade": 13035,
    "Ġmontan": 22976,
    "Ġju": 10285,
    "akeman": 6267,
    "aternity": 21264,
    "Ġhilarious": 20297,
    "Ġrobots": 11078,
    "Ġfifth": 11256,
    "Ġbuoyed": 20039,
    "neck": 14240,
    "Ġofficious": 19346,
    "Ġbias": 1193,
    "movement": 25577,
    "mell": 20963,
    "Ġturnpike": 23027,
    "Ġdisappoint": 24204,
    "Ġsquee": 7929,
    "Ġprognostics": 20557,
    "Ġ3": 3986,
    "Ġcoincidence": 25483,
    "Ġdelight": 2548,
    "Ġvari": 832,
    "Ġpassed": 2011,
    "Ġgentlemen": 3642,
    "Ġ101": 24408,
    "Ġfif": 4218,
    "ersman": 11699,
    "Ġdistance": 3485,
    "Ġmilitary": 11257,
    "Ġcachalot": 17834,
    "uniform": 18157,
    "aths": 22699,
    "shish": 11790,
    "Ġexisting": 12713,
    "Ġcentaurs": 23830,
    "prof": 7699,
    "Ġhairy": 23863,
    "heedful": 20572,
    "Ġcable": 11578,
    "heric": 15909,
    "borrowed": 20791,
    "osity": 14184,
    "Ġancho": 15599,
    "Ġvery": 636,
    "Ġprofile": 16486,
    "uning": 1313,
    "cigar": 26124,
    "Ġglist": 9342,
    "Ġspaniard": 20361,
    ":--": 5784,
    "Ġwinter": 5220,
    "Ġbrist": 14376,
    "hat": 6956,
    "Ġpawnbroker": 13656,
    "Ġpulse": 13112,
    "Ġskrimshander": 22799,
    "Ġfirmest": 16663,
    "Ġinfamous": 16386,
    "Ġobtain": 8913,
    "Ġshoot": 11160,
    "Ġroarings": 25302,
    "Ġdom": 2670,
    "Ġstings": 21732,
    "Ġpuzz": 5532,
    "Ġlucerne": 23862,
    "Ġvortex": 26208,
    "Ġwearied": 15789,
    "period": 15899,
    "Ġkra": 18348,
    "ying": 1369,
    "Ġlongest": 18629,
    "absolut": 8458,
    "Ġwaxed": 21296,
    "Ġagricultural": 26549,
    "hing": 981,
    "insult": 16277,
    "enge": 21279,
    "horr": 14597,
    "Ġhoofs": 14524,
    "itheat": 21336,
    "baby": 25515,
    "Ġadv": 1140,
    "rates": 21037,
    "usions": 6159,
    "Ġgrinned": 16856,
    "Ġwebster": 20160,
    "Ġuncont": 14115,
    "Ġsingularly": 12145,
    "Ġcounsel": 13613,
    "Ġrepugnance": 19084,
    "Ġcloset": 19590,
    "Ġchannels": 26013,
    "Ġcent": 3254,
    "Ġmemorable": 16425,
    "Ġintegrity": 12310,
    "iage": 17572,
    "ink": 756,
    "Ġlet": 1112,
    "rived": 5373,
    "Ġpostpone": 17305,
    "Ġwhispering": 14942,
    "Ġirresolute": 24916,
    "Ġorthodox": 22093,
    "owner": 18611,
    "corpse": 24485,
    "shazz": 14239,
    "Ġanat": 8124,
    "Ġconsp": 10223,
    "clo": 5612,
    "Ġnet": 3626,
    "Ġdirected": 5578,
    "Ġ550": 19640,
    "swell": 17662,
    "Ġarticles": 7108,
    "Ġcant": 17824,
    "context": 3405,
    "emph": 21924,
    "Ġmanner": 2197,
    "Ġremainder": 9856,
    "Ġpeered": 18668,
    "Ġenvelope": 7320,
    "safe": 10052,
    "aurus": 20559,
    "ā": 194,
    "lun": 20945,
    "Ġcoleman": 22585,
    "shore": 10304,
    "Ġsequentially": 4912,
    "riages": 10242,
    "Ġordered": 5832,
    "oquent": 12496,
    "------": 12130,
    "Ġhatchet": 16527,
    "elze": 21571,
    "Ġyouth": 4261,
    "Ġcomparable": 24277,
    "Ġrephrased": 26476,
    "Ġdiscoursing": 26266,
    "Ġze": 8545,
    "Ġvoluntarily": 12137,
    "Ġ16": 7927,
    ",âĢĶ": 3173,
    "Ġlabrador": 23330,
    "see": 3051,
    ";âĢĿâĢĶ": 20759,
    "Ġincorpor": 13163,
    "Ġveiled": 16198,
    "tone": 8762,
    "Ġhyper": 19738,
    "Ġshirr": 18231,
    "weaknesses": 26030,
    "Ġprofessional": 7300,
    "Ġinsinuating": 19270,
    "Ġdisgrace": 7216,
    "Ġlightly": 13081,
    "Ġpleas": 1906,
    "Ġdecisions": 6702,
    "Ġdescends": 14285,
    "Ġsemantics": 2893,
    "delay": 16697,
    "Ġrespected": 11950,
    "Ġmister": 22750,
    "functions": 11229,
    "ror": 7352,
    "Ġinvariably": 8064,
    "Ġcompletion": 12144,
    "Ġhearty": 9843,
    "peculiarities": 13469,
    "Ġflashes": 11913,
    "Ġclicked": 22353,
    "Ġexplicit": 3588,
    "Ġexasperated": 11411,
    "Ġhammock": 5768,
    "Ġglove": 14490,
    "moby": 8536,
    "Ġbeck": 14007,
    "scar": 9814,
    "lections": 4750,
    "Ġinconvenient": 20008,
    "chains": 9683,
    "chambers": 25454,
    "himself": 3972,
    "Ġoverspread": 14205,
    "Ġcoars": 14269,
    "Ġinhabitants": 7525,
    "Ġfrightful": 7736,
    "Ġmince": 22828,
    "Ġspit": 22123,
    "Ġdiminished": 16664,
    "moments": 19410,
    "Ġcompass": 4408,
    "Ġvess": 3298,
    "isation": 13891,
    "Ġinc": 703,
    "Ġcurses": 13019,
    "Ġensuing": 12306,
    "Ġconsciousness": 9946,
    "weeks": 14314,
    "extinguish": 22764,
    "Ġmetropol": 11144,
    "willingness": 24755,
    "Ġultimately": 17163,
    "Ġlifted": 6985,
    "Ġattends": 19649,
    "magistrate": 19862,
    "Ġchips": 14180,
    "commod": 16166,
    "Ġguns": 16775,
    "secure": 12232,
    "fallen": 19658,
    "Ġabhor": 5467,
    "ance": 478,
    "raltar": 24232,
    "Ġportion": 7493,
    "Ġcompromised": 22569,
    "Ġpunish": 12156,
    "Ġidentifies": 12011,
    "Ġbalance": 2021,
    "remark": 7262,
    "oga": 22697,
    "aution": 9385,
    "Ġimbib": 22173,
    "Ġser": 1673,
    "imin": 1770,
    "Ġrenew": 6145,
    "Ġdescription": 7430,
    "Ġchapters": 10472,
    "Ġturks": 14596,
    "staking": 21646,
    "Ġsilence": 3269,
    "cket": 3689,
    "Ġconsolidation": 5059,
    "whereby": 23416,
    "Ġperplexity": 2755,
    "Ġgifted": 17996,
    "Ġcorporeally": 25729,
    "Ġholy": 6591,
    "supposing": 24134,
    "typewritten": 26038,
    "innocent": 20285,
    "Ġexisted": 15748,
    "Ġhawaiian": 25366,
    "Ġremoved": 5274,
    "Ġinit": 819,
    "Ġseats": 14086,
    "Ġsports": 18310,
    "advancing": 14833,
    "Ġprecise": 7075,
    "Ġwield": 21289,
    "Ġjack": 4651,
    "cy": 646,
    "¬": 110,
    "ĠĠĠĠĠĠĠĠĠĠĠĠĠĠĠĠĠ": 22947,
    "Ġenvironmental": 24126,
    "broker": 13302,
    "Ġnearer": 5301,
    "âĢĶâĢĺ_": 24831,
    "jar": 17576,
    "Ġcorp": 5574,
    "========": 2312,
    "angel": 5726,
    "sme": 17657,
    "rusted": 16505,
    "Ġperdition": 15985,
    "Ġforgo": 21771,
    "Ġnewfoundland": 26568,
    "70": 17474,
    "Ġassizes": 11108,
    "meryton": 10110,
    "Ġcalling": 5662,
    "huzza": 20912,
    "rug": 18336,
    "Ġspectacle": 10495,
    "Ġicelandic": 25886,
    "province": 26072,
    "Ġelder": 7224,
    "Ġhearers": 15699,
    "Ġsche": 1708,
    "sought": 15425,
    "Ġsource": 6805,
    "Ġearthy": 23711,
    "vapor": 25755,
    "disgu": 19153,
    "itions": 4149,
    "Ġswish": 23052,
    "itzerland": 9993,
    "nyder": 16685,
    "avier": 2831,
    "Ġlat": 5087,
    "adventures": 20255,
    "Ġimpress": 6862,
    "comes": 5394,
    "Ġeaten": 14842,
    "Ġpresented": 5183,
    "buff": 15316,
    "romising": 18233,
    "ernity": 18612,
    "frankenstein": 11390,
    "Ġevents": 4472,
    "handled": 19260,
    "Ġschoolmaster": 16861,
    "Ġhasten": 10477,
    "Ġmeta": 3643,
    "Ġrealities": 18981,
    "Ġinsists": 23676,
    "Ġlingo": 24903,
    "eringly": 22996,
    "miserably": 24209,
    "Ġvultures": 25653,
    "Ġinstituted": 18701,
    "ù": 186,
    "Ġcloak": 9532,
    "Ġmuscles": 12085,
    "Ġestablished": 9068,
    "Ġout": 542,
    "art": 591,
    "Ġlashings": 25097,
    "velope": 17700,
    "reach": 17756,
    "Ġballasted": 23977,
    "dar": 20823,
    "100": 11463,
    "Ġrecord": 5316,
    "Ġdaw": 21428,
    "Ġcar": 1418,
    "rying": 3188,
    "Ġconfirms": 23306,
    "Ġh": 290,
    "Ġgrowl": 16536,
    "Ġpaddles": 15145,
    "Ġlumps": 21554,
    "struck": 7863,
    "Ġwhatever": 3475,
    "ustom": 3791,
    "Ġnapkins": 25161,
    "Ġvigilant": 20183,
    "liness": 8746,
    "local": 22508,
    "_.âĢĻâĢĿ": 17478,
    "ien": 10100,
    "Ġridiculous": 10627,
    "grew": 17554,
    "Ġfever": 6558,
    "Ġessentially": 24924,
    "Ġreiter": 21664,
    "Ġcruisings": 25864,
    "contains": 16027,
    "Ġquench": 22417,
    "Ġpounds": 5368,
    "Ġmoments": 4843,
    "valley": 16211,
    "Ġmiriam": 25273,
    "Ġtour": 9146,
    "cheeked": 19339,
    "Ġjoists": 19232,
    "Ġpractical": 3167,
    "Ġsalvation": 14754,
    "yrin": 12518,
    "Ġinvestigation": 9041,
    "Ġphysiology": 25332,
    "Ġmines": 21307,
    "Ġpresentation": 14479,
    "Ġrender": 8305,
    "declare": 25173,
    "Ġsecurity": 8976,
    "Ġtask": 1310,
    "attered": 4019,
    "sust": 15420,
    "Ġrefine": 3054,
    "prints": 23810,
    "Ġemb": 1250,
    "umst": 2504,
    "Ġwond": 3940,
    "inforcement": 2957,
    "Ġstreat": 15717,
    "Ġtear": 6722,
    "contrad": 19290,
    "writ": 16552,
    "Ġneskye": 21529,
    "Ġhumorousness": 25377,
    "utherland": 9577,
    "Ġtransformer": 2636,
    "Ġabused": 22267,
    "bolt": 25135,
    "Ġincredible": 9513,
    "Ġuncles": 23429,
    "Ġflattered": 10373,
    "Ġpatterns": 1215,
    "humoured": 11236,
    "achment": 5464,
    "Ġentertaining": 16925,
    "Ġenergy": 2552,
    "Ġalex": 15131,
    "ifying": 5235,
    "Ġpolitely": 8992,
    "linked": 17592,
    "stre": 5451,
    "permission": 15900,
    "Ġinclu": 1099,
    "lipped": 16214,
    "tiness": 21070,
    "office": 16393,
    "Ġarrive": 6907,
    "Ġhansom": 13662,
    "mystic": 25316,
    "matters": 14871,
    "network": 1895,
    "dare": 12450,
    "rics": 13034,
    "indulged": 22373,
    "Ġproportionably": 19969,
    "Ġchanges": 2285,
    "sar": 12501,
    "Ġthousands": 6748,
    "Ġslightly": 7294,
    "Ġswamp": 14435,
    "Ġundiscernible": 22066,
    "boast": 23252,
    "papers": 12498,
    "Ĵ": 245,
    "catherine": 7127,
    "Ġkicking": 16900,
    "der": 472,
    "Ġamph": 18511,
    "ular": 710,
    "Ġgifts": 21610,
    "Ġ/*": 10138,
    "Ġwoollen": 12100,
    "mechanical": 25578,
    "Ġfaintness": 24569,
    "Ġneedles": 11183,
    "Ġexhibiting": 19837,
    "Ġfaithful": 9501,
    "returning": 12202,
    "whel": 7666,
    "Ġstretching": 10013,
    "Ġprogno": 14039,
    "Ġexc": 1830,
    "Ġbackwards": 12920,
    "Ġrepulsive": 14527,
    "valued": 2853,
    "Ġomnipotent": 13546,
    "Ġwander": 9030,
    "Ġsprings": 16686,
    "Ġworms": 25216,
    "Ġmounttop": 19976,
    "osh": 18388,
    "Ġdisco": 3430,
    "Ġguilt": 6179,
    "Ġcheck": 7272,
    "Ġboom": 9308,
    "Ġducks": 25157,
    "Ġ1950": 11358,
    "lection": 3654,
    "Ġinvests": 14865,
    "ignominious": 26586,
    "Ġfavour": 3641,
    "constantinople": 25507,
    "appro": 7044,
    "Ġinvesting": 19645,
    "Ġanimal": 2498,
    "arson": 22746,
    "Ġemig": 14521,
    "principal": 20659,
    "Ġnoiselessly": 22864,
    "Ã¦": 4338,
    "Ġhope": 1789,
    "Ġsqueaking": 26274,
    "Ġhousings": 21491,
    "osen": 6855,
    "Ġshrill": 12138,
    "Ġdromedary": 17437,
    "Ġdowry": 20684,
    "Ġth": 299,
    "cused": 15330,
    "Ġidentified": 19150,
    "Ġilliterate": 26593,
    "Ġsp": 458,
    "intention": 10366,
    "Ġtormented": 8674,
    "Ġintensely": 17016,
    "cats": 17511,
    "iantly": 13737,
    "hmael": 7343,
    "Ġgestic": 21606,
    "ouri": 21446,
    "condesc": 18503,
    "Ġwines": 21286,
    "Ġob": 861,
    "Ġbeheading": 21752,
    "Ġperth": 7022,
    "Ġcolds": 23757,
    "Ġsegmentation": 17338,
    "bod": 12434,
    "âĢĶâĢĶâĢĿ": 15936,
    "attery": 18506,
    "Ġcredulous": 17143,
    "nd": 11502,
    "Ġmaketh": 15185,
    "reed": 6373,
    "Ġsporting": 16998,
    "Ġpraised": 19552,
    "calculating": 25689,
    "preserver": 20212,
    "Ġting": 8398,
    "Ġexclamations": 11360,
    "Ġinterp": 16068,
    "examination": 25478,
    "Ġlye": 21549,
    "Ġsilver": 7464,
    "Ġwearily": 18177,
    "Ġfleece": 10613,
    "Ġdwelt": 12601,
    "ĺ": 251,
    "Ġlur": 5226,
    "Ġchatting": 24747,
    "Ġbabel": 24425,
    "irited": 15783,
    "Ġenglish": 3613,
    "ample": 1365,
    "ipping": 2207,
    "Ġwhistled": 24624,
    "Ġorganisation": 23581,
    "positive": 20566,
    "Ġpatronage": 17052,
    "olerably": 11671,
    "addition": 13382,
    "Ġabreast": 18394,
    "round": 3369,
    "mannered": 22850,
    "Ġtreated": 7080,
    "ingu": 2119,
    "Ġwidows": 24235,
    "adjust": 21758,
    "Ġtending": 17723,
    "Ġpur": 2216,
    "Ġpurple": 10432,
    "clean": 14757,
    "Ġwalrus": 14970,
    "Ġcollar": 11876,
    "Ġfamine": 16325,
    "Ġaltered": 7394,
    "Ġlecture": 13565,
    "spot": 9787,
    "Ġbands": 14881,
    "Ġpicturesque": 14891,
    "Ġsinging": 7724,
    "damn": 20022,
    "pushed": 21022,
    "Ġtowers": 16737,
    "anelles": 26433,
    "venerable": 26407,
    "dict": 15337,
    "learned": 8601,
    "Ġsmitten": 12895,
    "took": 6164,
    "Ġdepth": 2438,
    "send": 15421,
    "Ġminds": 6303,
    "inordinate": 21193,
    "Ġfedallah": 6108,
    "I": 45,
    "Ġmercy": 8997,
    "Ġbefore": 809,
    "Ġintrude": 25990,
    "Ġle": 333,
    "Ġrucastle": 5176,
    "Ġagrees": 22514,
    "Ġless": 1938,
    "awake": 14450,
    "Ġtapers": 11550,
    "Ġchalk": 15930,
    "Ġconvenience": 11330,
    "Ġpreface": 18367,
    "Ġbloodshot": 23798,
    "get": 1019,
    "nav": 17611,
    "petulance": 24298,
    "Ġmassachusetts": 24019,
    "sch": 21049,
    "Ġevalu": 2915,
    "Ġjup": 15949,
    "Ġsupplement": 22995,
    "Ġmagg": 18905,
    "Ġiii": 7861,
    "Ġshoving": 23487,
    "<SOS>": 1,
    "Ġonto": 14027,
    "Ġvirtue": 4920,
    "Ġlieutenant": 15259,
    "Ġfairness": 9892,
    "Ġensures": 3062,
    "sebastian": 21818,
    "Ġvolat": 24143,
    "Ġtransactions": 18480,
    "Ġpersons": 6180,
    "Ġvarious": 3510,
    "Ġcountrymen": 23594,
    "Ġlung": 7168,
    "provid": 11148,
    "Ġsympathising": 24296,
    "wives": 15453,
    "Ġanonym": 17897,
    "Ġeat": 4642,
    "Ġsquad": 22837,
    "bearance": 22492,
    "anatory": 21361,
    "ination": 2911,
    "beries": 22718,
    "Ġexpand": 9305,
    "ī": 236,
    "Ġfaithfully": 14884,
    "ilated": 18057,
    "Ġaisle": 21200,
    "Ġmac": 15535,
    "Ġinevitable": 15165,
    "Ġincrease": 9368,
    "Ġsor": 4147,
    "Ġsheep": 10925,
    "althily": 19357,
    "Ġmeets": 7397,
    "Ġmainz": 22643,
    "Ġsu": 431,
    "Ġclues": 18422,
    "strained": 21656,
    "tubes": 25211,
    "Ġelephants": 9862,
    "Ġprocess": 570,
    "Ġswiftly": 5670,
    "Ġsufferings": 7514,
    "Ġgrind": 18735,
    "Ġmotionless": 8324,
    "Ġbas": 6379,
    "Ġoutward": 7905,
    "lemency": 21372,
    "Ġnigh": 4876,
    "Ġanchors": 12609,
    "itled": 7578,
    "Ġmaps": 2962,
    "Ġinterpret": 5490,
    "Ġkilling": 13330,
    "rinted": 21042,
    "Ġoptim": 788,
    "ised": 1111,
    "erest": 10696,
    "pronounce": 25192,
    "Ġdesolation": 12265,
    "Ġste": 1390,
    "Ġnumerical": 4245,
    "bastian": 10672,
    "Ġcommon": 1413,
    "Ġscrape": 14915,
    "itives": 17819,
    "Ġdomestic": 6910,
    "insist": 23063,
    "Ġbusily": 9382,
    "Ġcoarsely": 25828,
    "Ġhish": 21912,
    "Ġdisturbance": 15011,
    "Ġinvolves": 1109,
    "ggling": 19096,
    "iber": 6505,
    "Ġimprinted": 22395,
    "Ġmorris": 18844,
    "Ġcallest": 17832,
    "Ġcrown": 5287,
    "Ġbob": 22634,
    "ists": 4002,
    "Ġturbulence": 26596,
    "Ġlands": 6594,
    "whalemen": 10430,
    "isticated": 1619,
    "inate": 6233,
    "Ġnug": 21523,
    "Ġruth": 14092,
    "Ġhabit": 6771,
    "stick": 15681,
    "Ġremnants": 22794,
    "ĠĠĠĠĠĠĠĠĠĠĠĠĠĠĠĠĠĠĠĠĠĠĠ": 18832,
    "Ġgleam": 12305,
    "join": 12110,
    "Ġinferior": 8352,
    "Ġanswerable": 23469,
    "Ġfools": 14480,
    "istic": 998,
    "Ġcarelessly": 11119,
    "oil": 7806,
    "Ġtot": 4186,
    "Ġsacrifice": 9554,
    "pigs": 17139,
    "atched": 6375,
    "Ġdefection": 22940,
    "Ġprotesting": 14738,
    "Ġpreserve": 7530,
    "Ġmacro": 25939,
    "sleeping": 13452,
    "Ġsuch": 793,
    "Ġpathetic": 19042,
    "affold": 16561,
    "Ġlibrary": 6422,
    "Ġsuccour": 20433,
    "attentions": 13572,
    "curiosity": 8623,
    "Ġcouldn": 7649,
    "Ġdependence": 18619,
    "Ġunnaturally": 24870,
    "brushing": 20787,
    "Ġindec": 13926,
    "Ġprofessions": 11231,
    "Ġtraveller": 8049,
    "Ġsurpassing": 20466,
    "Ġentertained": 9996,
    "Ġchaos": 17008,
    "hor": 2571,
    "Ġfreezing": 23881,
    "Ġdisc": 944,
    "rub": 15890,
    "Ġbrightly": 13221,
    "B": 38,
    "Ġdevil": 3612,
    "Ġinsipid": 26313,
    "Ġartist": 12908,
    "attended": 8951,
    "filled": 9593,
    "cannibal": 15222,
    "Ġflight": 6580,
    "glow": 20873,
    "igning": 12677,
    "Ġunembarrassed": 22067,
    "nourished": 26397,
    "Ġimpro": 920,
    "Ġcavity": 20486,
    "tr": 3579,
    "Ġancient": 5443,
    "matic": 4617,
    "è": 169,
    "Ġlaurel": 20653,
    "wishing": 21127,
    "Ġwrist": 8243,
    "ethics": 8876,
    "mult": 8747,
    "calcul": 12983,
    "Ġeleg": 6192,
    "Ġsockets": 22086,
    "Ġlovers": 9718,
    "Ġcomputer": 1184,
    "ĭ": 238,
    "Ġfruitless": 25605,
    "soundest": 24797,
    "Ġobeisance": 19757,
    "Ġdistricts": 20262,
    "illation": 14140,
    "ç": 168,
    "counters": 25397,
    "expression": 10546,
    "Ġsettling": 11061,
    "wolf": 26408,
    "prov": 16420,
    "Ġyielded": 14869,
    "Ġburly": 19249,
    "Ġprevented": 5942,
    "imod": 15706,
    "Ġanticipatingly": 26102,
    "omnipotent": 25964,
    "comput": 1917,
    "Ġreverse": 16981,
    "ssible": 2992,
    "inspector": 13644,
    "merchant": 10466,
    "presbyter": 20616,
    "ples": 6845,
    "Ġburgl": 13171,
    "Ġdri": 2362,
    "Ġcharted": 22248,
    "causes": 20342,
    "Ġchapter": 2954,
    "Ġawfulness": 23585,
    "charmed": 21694,
    "Ġconcre": 16382,
    "Ġmun": 12558,
    "Ġmonsie": 11446,
    "remember": 7263,
    "Ġheaths": 25972,
    "Ġtomb": 8806,
    "Ġoscillations": 2897,
    "something": 4285,
    "Ġostlers": 25276,
    "seized": 14033,
    "x": 92,
    "Ġfut": 15571,
    "Ġhy": 5625,
    "blot": 20782,
    "surgeon": 24213,
    "Ġheadsmen": 14729,
    "Ġobli": 9314,
    "ply": 6366,
    "eldom": 4413,
    "Ġtarget": 2822,
    "Ġmill": 6666,
    "Ġbanners": 24858,
    "Ġspeaks": 11158,
    "corner": 13395,
    "Ġnic": 7377,
    "Ġassiduous": 26292,
    "Ġshed": 8181,
    "Ġwhether": 2001,
    "miraculous": 26395,
    "spl": 9138,
    "Ġwished": 3732,
    "Ġclue": 7020,
    "Ġwarped": 25035,
    "igms": 3050,
    "Ġnervous": 2405,
    "Ġlastly": 16202,
    "interrupt": 8615,
    "Ġyield": 5093,
    "Ġrational": 8479,
    "Ġscr": 11757,
    "america": 17096,
    "Ġindividually": 22955,
    "retrospect": 23136,
    "Ġinsure": 13176,
    "Ġjournal": 15216,
    "Ġray": 18641,
    "tack": 12509,
    "gings": 7550,
    "Ġdeclared": 5594,
    "apt": 724,
    "tick": 17677,
    "wake": 11544,
    "Ġcaught": 3733,
    "Ġfold": 5530,
    "Ġprayers": 12120,
    "Ġshower": 11707,
    "Ġmeek": 21810,
    "press": 1733,
    "Ġtok": 1247,
    "Ġstur": 15713,
    "Ġrefuge": 8539,
    "_--": 20761,
    "Ġdank": 21427,
    "uff": 2730,
    "considerable": 10547,
    "Ġprison": 5403,
    "Ġparallel": 1414,
    "Ġplantation": 11422,
    "ĠĠ": 353,
    "Ġunwaning": 25170,
    "Ġyoung": 1506,
    "Ġfervently": 25877,
    "elfth": 22367,
    "restoration": 23234,
    "Ġnights": 7259,
    "call": 8722,
    "Ġvines": 12745,
    "iated": 5890,
    "Ġambitious": 18514,
    "Ġrevel": 9213,
    "Ġworshippers": 25693,
    "setting": 13283,
    "required": 17029,
    "Ġgent": 7384,
    "Ġsalutations": 25382,
    "alously": 15625,
    "eur": 7546,
    "Ġendeared": 26497,
    "slackened": 26094,
    "mus": 10109,
    "sold": 15424,
    "scotch": 25850,
    "Ġrobust": 1348,
    "police": 10582,
    "alt": 12634,
    "ounts": 4650,
    "uble": 21101,
    "Ġcathed": 14546,
    "Ġopulent": 23628,
    "Ġmusk": 7495,
    "æ": 167,
    "Ġincognit": 22552,
    "Ġshop": 9250,
    "Ġreally": 2160,
    "anged": 3587,
    "rail": 10203,
    "Ġpens": 21459,
    "Ġdepart": 4655,
    "iction": 4268,
    "Ġopenly": 8572,
    "roses": 17956,
    "Ġdesire": 3720,
    "pointed": 9806,
    "Ġpestilent": 25777,
    "Ġalready": 2711,
    "Ġfretfully": 25447,
    "Ġinnocence": 6476,
    "Ġencoura": 1368,
    "Ġgenus": 24428,
    "sings": 4251,
    "Ġbeacon": 21754,
    "Ġpanelled": 19653,
    "Ġimpulses": 19960,
    "Ġnich": 21518,
    "iv": 432,
    "Ġevenly": 4130,
    "Ġgait": 13328,
    "shattered": 22452,
    "Ġwidely": 8033,
    "Ġoverdone": 22360,
    "isms": 12576,
    "Ġdiscrimin": 2546,
    "herent": 2529,
    "Ġentirely": 3435,
    "Ġperched": 10296,
    "Ġobliging": 13241,
    "mockery": 24377,
    "diligence": 26110,
    "stained": 21653,
    "sters": 6390,
    "Ġtur": 2564,
    "Ġextracts": 9359,
    "Ġstir": 5823,
    "Ġsymbol": 7717,
    "Ġdepths": 4327,
    "Ġgriefs": 16770,
    "Ġsc": 528,
    "Ġtheory": 5798,
    "iries": 18169,
    "Ġgermans": 25784,
    "interred": 23735,
    "shirt": 22451,
    "Ġentic": 16143,
    "master": 5687,
    "Ġsafety": 6339,
    "Ġcogn": 11001,
    "interest": 5421,
    "ible": 1114,
    "Ġbrewed": 23345,
    "Ġval": 951,
    "Ġmarty": 20289,
    "Ġmocking": 24000,
    "approve": 19935,
    "balls": 12302,
    "wandering": 20283,
    "Ġrowing": 10299,
    "Ġtransf": 22433,
    "gryphon": 15356,
    "move": 11851,
    "Ġfra": 1748,
    "Ġventure": 7740,
    "Ġindiscriminately": 20626,
    "named": 9891,
    "usable": 22287,
    "stricken": 9882,
    "lances": 15381,
    "smallest": 23909,
    "Ġplaid": 22601,
    "unimportant": 18159,
    "Ġfa": 4817,
    "Ġdespatched": 23827,
    "Ġirreducible": 5519,
    "Ġmatrim": 11059,
    "elf": 564,
    "follow": 5680,
    "Ġilluminate": 17191,
    "sixty": 24852,
    "Ġroyalty": 19734,
    "Ġ[_": 15459,
    "breaking": 14761,
    "icuous": 10834,
    "Ġheartless": 13070,
    "Ġnick": 21521,
    "Ġangles": 23587,
    "Ġansw": 2205,
    "Ġcling": 11768,
    "conscience": 14857,
    "Ġalarming": 14776,
    "Ġadvertised": 17246,
    "Ġsafie": 6617,
    "Ġteach": 8552,
    "Ġturtle": 4204,
    "affection": 7488,
    "Ġlibr": 15998,
    "self": 616,
    "Ġabsorbing": 17127,
    "Ġash": 4830,
    "Ġtied": 7358,
    "Ġlanguid": 14212,
    "comprehens": 16167,
    "worship": 19385,
    "ohn": 4560,
    "Ġunrivalled": 26518,
    "Ġtip": 15469,
    "lion": 20943,
    "seen": 2880,
    "Ġopens": 23626,
    "Ġobtained": 7433,
    "ou": 287,
    "ilty": 6393,
    "Ġbattering": 13899,
    "sloop": 26145,
    "aus": 1499,
    "inu": 1116,
    "atherine": 2596,
    "umbled": 8492,
    "Ġpigeon": 9514,
    "Ú": 155,
    "Ġlucifers": 16587,
    "Ġinvestig": 10548,
    "Ġquies": 18464,
    "Ġaccept": 4410,
    "ivia": 22077,
    "Ġwaving": 8575,
    "Ġont": 18118,
    "Ġdews": 21837,
    "Ġtertiary": 15292,
    "Ġtraged": 9350,
    "Ġod": 4439,
    "alvan": 21502,
    "Ġpleaded": 16297,
    "arth": 4443,
    "jet": 13740,
    "Ġornamented": 20360,
    "riminately": 16481,
    "Ġuttering": 16460,
    "complaisance": 24811,
    "Ġbul": 3296,
    "Ġskeleton": 5514,
    "Ġstiffest": 24829,
    "attest": 23119,
    "heredit": 21208,
    "Ġhappiness": 2944,
    "Ġjoky": 18406,
    "reject": 21235,
    "Ġfatality": 12091,
    "Ġxxx": 7767,
    "Ġextremely": 2667,
    "Ġentreaty": 10528,
    "Ġnewly": 9336,
    "shold": 2774,
    "Ġfl": 1280,
    "introduction": 15121,
    "Ġalco": 21780,
    "bale": 20773,
    "Ġoar": 6236,
    "Ġtempt": 5564,
    "Ġunsocial": 18259,
    "Ġsplice": 19307,
    "Ġarsacides": 17292,
    "Ġmeans": 700,
    "sies": 21053,
    "Ġunprecedented": 15852,
    "danish": 20832,
    "Ġingenuity": 17162,
    "Ġadaptation": 3159,
    "ague": 3908,
    "Ġrendering": 16656,
    "Ġqual": 6274,
    "Ġworking": 5573,
    "Ġpresume": 8038,
    "ourably": 14375,
    "Ġfarthing": 14452,
    "omy": 6248,
    "Ġprofoundest": 16859,
    "powder": 17644,
    "hed": 670,
    "catch": 17505,
    "rane": 17652,
    "Ġtongue": 6347,
    "Ġcrazed": 19174,
    "arpening": 21442,
    "Ġmoderation": 12814,
    "Ġgaze": 6932,
    "Ġsubterr": 10347,
    "gent": 7129,
    "uracy": 1088,
    "mme": 22499,
    "Ġtea": 5040,
    "ality": 2513,
    "cleanliness": 25871,
    "athans": 7434,
    "town": 7142,
    "Ġsouls": 6308,
    "Ġcolleague": 17158,
    "Ġunabated": 15850,
    "Ġgans": 5821,
    "station": 10843,
    "deficient": 23117,
    "Ġhardy": 8565,
    "thrusting": 20258,
    "Ġinno": 1379,
    "unaffected": 21881,
    "Ġtapped": 11552,
    "Ġdrily": 23536,
    "thomas": 18219,
    "alth": 3256,
    "smoking": 23908,
    "ind": 567,
    "Ġsupercil": 23453,
    "Ġsurpassed": 25267,
    "Ġfrolic": 23921,
    "engagement": 14456,
    "Ġreplying": 19580,
    "belt": 24032,
    "Ġour": 1009,
    "Ġventilator": 8713,
    "ige": 12676,
    "Ġconflag": 20334,
    "arp": 2027,
    "Ġbrighter": 16185,
    "favouring": 24762,
    "indul": 22368,
    "Ġastonished": 7087,
    "morn": 20975,
    "Ġmovement": 9966,
    "time": 3150,
    "Ġclimax": 25051,
    "anel": 21355,
    "but": 592,
    "Ġgods": 6453,
    "sequ": 2402,
    "Ġmedit": 8019,
    "Ġcliffs": 15967,
    "irty": 4049,
    "Ġswallows": 18882,
    "Ġtypewriter": 19097,
    "Ġwrapt": 24596,
    "clever": 20812,
    "strade": 5064,
    "yond": 2329,
    "Ġmodeling": 2096,
    "Ġjoll": 11762,
    "Ġut": 2278,
    "Ġlegit": 16471,
    "ivory": 10268,
    "ning": 950,
    "Ġhurtling": 24959,
    "vessels": 10624,
    "Ġlewis": 15721,
    "Ġthin": 4348,
    "Ġglim": 9341,
    "Ġsecretly": 13269,
    "uits": 21103,
    "Ġpropont": 16346,
    "Ġlimits": 3455,
    "quent": 2094,
    "sent": 761,
    "green": 7115,
    "Ġpyramid": 8800,
    "Ġformula": 2865,
    "msgate": 18412,
    "Ġpound": 12612,
    "Ġreverend": 15257,
    "Ġinert": 15618,
    "Ġluc": 3313,
    "had": 1951,
    "Ġsubstituting": 26326,
    "morland": 24152,
    "À": 129,
    "Ġat": 395,
    "Ġdeficient": 18825,
    "Ġreserves": 19669,
    "Ġhieroglyphics": 17301,
    "meadow": 18678,
    "decided": 13213,
    "anely": 17836,
    "skinned": 25387,
    "Ġrush": 5925,
    "endeavoured": 12277,
    "detective": 24382,
    "Ġkick": 5837,
    "oman": 2018,
    "bug": 17491,
    "Ġlodgings": 8312,
    "Ġcondition": 6764,
    "Ġconstantinople": 19836,
    "Ġguests": 12284,
    "spond": 5566,
    "Ġbooks": 4674,
    "Ġmatted": 22911,
    "<UNK>": 3,
    "Ġcircus": 19091,
    "ineffectual": 26503,
    "Ġdru": 8422,
    "posterity": 25488,
    "ian": 1239,
    "Ġlandowner": 23379,
    "Ġexcused": 23309,
    "Ġprompt": 3191,
    "Ġsufferer": 16258,
    "Ġstout": 6025,
    "Ġfiends": 14825,
    "appin": 18758,
    "dining": 13703,
    "Ġundertone": 23239,
    "Ġsighed": 10336,
    "steep": 19417,
    "nable": 13760,
    "Ġslipper": 24264,
    "Ġfiendish": 13325,
    "Ġeyed": 12663,
    "ti": 8390,
    "entering": 17976,
    "iple": 4804,
    "Ġoutlines": 15954,
    "ab": 345,
    "Ġcelestial": 10065,
    "footed": 19688,
    "Ġforbe": 8457,
    "Ġprecious": 5760,
    "Ġdataset": 12816,
    "rush": 7010,
    "Ġbenefactor": 14695,
    "Ġperish": 8873,
    "Ġspecksnyder": 17401,
    "Ġbradstreet": 9575,
    "etime": 12655,
    "Ġcollectively": 19966,
    "ret": 1475,
    "÷": 184,
    "consum": 12866,
    "Ġrol": 3555,
    "accents": 19211,
    "thickness": 25367,
    "ister": 1295,
    "Ġplanet": 14747,
    "Ġunexpectedly": 19909,
    "Ġsituations": 10490,
    "Ġdisgusted": 14988,
    "Ġdesmarest": 22974,
    "itional": 22472,
    "enorm": 17780,
    "Ġvertical": 16603,
    "Ġissu": 6253,
    "aired": 8369,
    "satisfy": 16891,
    "soft": 12506,
    "Ġdistension": 22503,
    "Ĭ": 237,
    "Ġmatches": 14394,
    "Ġbugs": 13646,
    "father": 3778,
    "isite": 15559,
    "eting": 7170,
    "Ġrecre": 22737,
    "activity": 22629,
    "attracted": 13047,
    "charles": 14696,
    "Ġloading": 15871,
    "Ġimpregnable": 26023,
    "ario": 14246,
    "dition": 15338,
    "Ġshall": 1144,
    "Ġoxen": 19949,
    "Ġproperly": 7945,
    "Ġneglect": 7942,
    "Ġtelegraph": 25583,
    "Ġflirt": 14421,
    "pivot": 21030,
    "thumb": 18218,
    "serve": 13043,
    "Ġunthink": 18250,
    "Ġmembrane": 20502,
    "moral": 14799,
    "chair": 5917,
    "Ġasleep": 6836,
    "anxious": 15107,
    "Ġgates": 10199,
    "Ġflung": 8562,
    "Ġuppermost": 15276,
    "Ġpursue": 6314,
    "Ġcomprehend": 6493,
    "Ġbomb": 17867,
    "Ġborrow": 10169,
    "Ġintimately": 24804,
    "Ġfates": 15574,
    "Ġscratches": 22284,
    "ulia": 18148,
    "Ġproport": 2297,
    "Ġhorse": 4723,
    "Ġvapor": 8699,
    "likelihood": 4991,
    "Ġascended": 8665,
    "tremendous": 20672,
    "Ġpitiless": 19386,
    "endure": 22221,
    "Ġevenness": 22831,
    "Ġalps": 10869,
    "Ġsong": 5903,
    "under": 3136,
    "hammered": 19004,
    "chiefly": 14843,
    "Ġribs": 7101,
    "Ġchat": 6560,
    "benefit": 24642,
    "Ĩ": 233,
    "eli": 3876,
    "Ġsignal": 5945,
    "Ġsemicirc": 16391,
    "Ġeffusion": 22498,
    "breadth": 20275,
    "aimed": 3953,
    "olence": 10229,
    "Ġproportions": 16466,
    "Ġdec": 640,
    "enari": 21280,
    "Ġgrimes": 11034,
    "derstand": 658,
    "hurst": 19878,
    "mpt": 6653,
    "Ġprof": 2461,
    "avenza": 17103,
    "gg": 1997,
    "adding": 21757,
    "rist": 10121,
    "igators": 18045,
    "material": 13127,
    "Ġseparated": 9463,
    "Ġsparsity": 4209,
    "Ġgazed": 6477,
    "Ġknots": 15007,
    "Ġoverflowing": 17236,
    "Ġjingling": 26017,
    "historical": 20464,
    "Ġsa": 474,
    "Ġenlarged": 25985,
    "Ġabsent": 7014,
    "ot": 346,
    "Ġfrontispiece": 23911,
    "immediately": 10047,
    "Ġunspeakable": 10054,
    "Ġsperm": 1841,
    "adru": 15727,
    "_.âĢĿ": 5886,
    "Ġdisposed": 7083,
    "Ġdet": 508,
    "common": 4128,
    "Ġrazors": 22657,
    "Ġrepl": 1592,
    "Ġtorpor": 25031,
    "Ġvariance": 1168,
    "Ġprim": 8244,
    "Ġexamination": 8005,
    "Ġblundering": 26283,
    "Ġapproximates": 2418,
    "Ġrascally": 26506,
    "thouse": 21980,
    "Ġur": 5539,
    "assistance": 20369,
    "Ġomin": 11575,
    "secret": 12233,
    "supp": 4165,
    "comparison": 25840,
    "lanterns": 17427,
    "rubbed": 22178,
    "Ġsomehow": 4839,
    "sky": 12507,
    "specimen": 26604,
    "ce": 313,
    "Ġsticks": 14928,
    "Ġtimor": 24223,
    "Ġmoderately": 22211,
    "Ġvic": 5237,
    "ĠĠĠĠĠĠĠĠĠĠĠĠĠĠĠĠĠĠĠĠĠĠĠĠĠĠĠĠĠĠĠĠĠĠĠĠ": 23665,
    "Ġchimney": 6496,
    "return": 5489,
    "Ġsquares": 11168,
    "dimens": 2317,
    "Ġconsumed": 10348,
    "Ġmantle": 25274,
    "ause": 1314,
    "Ġindependence": 12101,
    "Ġblank": 5951,
    "Ġwhine": 21713,
    "Ġsteelkilt": 5675,
    "examined": 17265,
    "soon": 4028,
    "Ġindividual": 5744,
    "Ġsherlock": 3895,
    ";âĢĶ": 3752,
    "wants": 21129,
    "Ġconveniently": 20077,
    "descending": 16282,
    "Ġtinkling": 25212,
    "Ġunexpected": 6842,
    "Ġdemi": 25548,
    "sides": 12504,
    "Ġpenet": 6888,
    "sitting": 8387,
    "orns": 12588,
    "Ġhates": 21484,
    "summoned": 26590,
    "Ġreverence": 12056,
    "gish": 20872,
    "Ġlangsdorff": 15274,
    "crooked": 25746,
    "Ġthigh": 10185,
    "Ġunpitying": 25660,
    "Ġaffections": 10383,
    "Ġreminded": 9997,
    "luded": 4228,
    "Ġbonds": 17869,
    "Ġsecrecy": 7317,
    "Ġamounted": 18513,
    "Ġexpatiate": 18626,
    "mem": 10708,
    "enchanted": 26423,
    "Ġnightfall": 23130,
    "wal": 10132,
    "Ġhandle": 3141,
    "Ġaxe": 15062,
    "Ġpreventing": 884,
    "cheeks": 23806,
    "walls": 25345,
    "Ġhit": 7164,
    "Ġstructured": 2972,
    "riage": 2123,
    "utch": 21584,
    "prepare": 20211,
    "uted": 7593,
    "istered": 14143,
    "previous": 9759,
    "worth": 8626,
    "Ġtarn": 21157,
    "levi": 7047,
    "Ġharpooned": 13260,
    "requirements": 24857,
    "ping": 9614,
    "Ġpages": 15604,
    "Ġduke": 7756,
    "Ġxviii": 23408,
    "Ġmetropolis": 17273,
    "Ġunharmed": 15137,
    "deployment": 26526,
    "Ġire": 12665,
    "Ġoutcast": 18414,
    "shud": 18487,
    "ites": 3900,
    "loving": 18540,
    "Ġdumb": 7844,
    "tedious": 22631,
    "Ġcombination": 22852,
    "Ġrounding": 16273,
    "ribbed": 16409,
    "hent": 12530,
    "Ġcease": 7076,
    "icate": 9200,
    "Ġlegisl": 23531,
    "stayed": 25290,
    "Ġdaylight": 10349,
    "Ġmislead": 22752,
    "zealand": 26049,
    "occ": 4484,
    "Ġlow": 1648,
    "Ġconcerns": 12028,
    "ancies": 11582,
    "vener": 21110,
    "Ġsloop": 25930,
    "Ġconfed": 13094,
    "Ġseventeen": 26210,
    "distinctive": 25726,
    "Ġdrown": 6815,
    "meant": 7922,
    "ckled": 9255,
    "Ġelevates": 24499,
    "Ġrust": 6407,
    "atus": 21259,
    "Ġinnermost": 12157,
    "Ġfrigates": 25707,
    "Ġimpenet": 14222,
    "Ġsickbed": 24245,
    "narrowly": 20346,
    "Ġse": 401,
    "Ġpasseng": 12967,
    "Ġcustody": 13645,
    "Ġtangle": 25760,
    "!_": 7330,
    "Ġbold": 5291,
    "Ġpalpitated": 26085,
    "purposes": 25021,
    "ilt": 2967,
    "being": 3915,
    "Ġfortifications": 23619,
    "Ġhussey": 7725,
    "Ġproves": 14037,
    "sombre": 23852,
    "Ġregiment": 6431,
    "Ġclaws": 15966,
    "inating": 9152,
    "Ġplumber": 16082,
    "Ġpin": 7162,
    "Ġhideous": 5983,
    "Ġ13": 6718,
    "Ġhimmalehs": 26229,
    "quely": 10230,
    "imens": 1750,
    "Ġvisitors": 7985,
    "Ġyonder": 7393,
    "Ġstraightway": 9015,
    "Ġthrown": 4638,
    "heidelburgh": 21210,
    "Ġcos": 2208,
    "Ġconfluent": 19037,
    "Ġconnections": 972,
    "Ġveracity": 23887,
    "Ġridic": 7509,
    "Ġrevelation": 25222,
    "produ": 10719,
    "Ġscratch": 25564,
    "entrance": 12653,
    "Ġ29": 23728,
    "Ġclergyman": 8711,
    "wretched": 10740,
    "insula": 23065,
    "bordered": 17497,
    "Ġfeeds": 16432,
    "itioned": 22473,
    "Ġpromised": 5181,
    "Ġannual": 14829,
    "``": 15304,
    "included": 19207,
    "Ġmythologies": 26213,
    "Ġarched": 10931,
    "greek": 25404,
    "Ġwalk": 1823,
    "Ġtransferred": 16428,
    "Ġinconceivable": 17937,
    "Ġcravat": 26307,
    "Åĵuv": 15180,
    "Ġcrony": 23439,
    "Ġobliquely": 12359,
    "Ġcanada": 22162,
    "hro": 20890,
    "Ġroot": 2649,
    "Ġemblazonings": 26042,
    "ieving": 7031,
    "Ġetern": 7085,
    "Ġpersonages": 23537,
    "neglect": 25668,
    "leviathan": 7785,
    "Ġapparel": 20434,
    "Ġvolumes": 14797,
    "Ġunwe": 15836,
    "Ġheedfulness": 24521,
    "scarcely": 12383,
    "alty": 17938,
    "Ġnin": 10186,
    "Ġvilest": 20099,
    "communication": 25881,
    "Ġhisself": 21913,
    "Ġinfallibly": 10039,
    "Ġcomplement": 23708,
    "Ġtrait": 23073,
    "Ġsales": 12803,
    "encyclopÃ¦dia": 16662,
    "fourths": 25509,
    "Ġcongratulatory": 19766,
    "mber": 7804,
    "Ġvanquished": 22876,
    "sound": 6799,
    "Ġdownstairs": 11223,
    "disappeared": 14568,
    "aul": 6352,
    "Ġwishes": 4793,
    "agery": 21905,
    "Ġdestabilizing": 5052,
    "Ġmanipulated": 25178,
    "Ġdistributing": 22677,
    "ire": 494,
    "Ġengravings": 15065,
    "luyt": 18454,
    "pens": 17631,
    "Ġninety": 13599,
    "Ġstores": 18068,
    "Ġexile": 12712,
    "garet": 9596,
    "Ġpartially": 13120,
    "Ġrough": 7188,
    "Ġquestions": 3973,
    "Ġhobbling": 25644,
    "ired": 1445,
    "Ġpequod": 2322,
    "Ġart": 751,
    "uned": 21869,
    "occasional": 19575,
    "serv": 7452,
    "Ġcabinets": 23860,
    "Ġafghan": 22627,
    "Ġdissimilar": 22529,
    "Ġbusy": 6189,
    "Ġhus": 3097,
    "Ġwrig": 13064,
    "starbuck": 6019,
    "Ġhelps": 9365,
    "Ġtipped": 17727,
    "Ġspasmod": 12411,
    "enty": 2914,
    "promised": 12248,
    "Ġmention": 2985,
    "Ġtook": 1854,
    "cut": 3128,
    "Ġuntutored": 19165,
    "Ġstrait": 23748,
    "Ġhelp": 1641,
    "Ġpal": 4041,
    "Ġinsufficient": 9671,
    "onom": 9157,
    "opes": 10309,
    "seriously": 18904,
    "Ġbought": 8416,
    "Ġconstitutional": 25125,
    "hoisting": 23715,
    "Ġhostile": 19938,
    "rified": 15417,
    "Ġluxuriant": 20393,
    "Ġsaintly": 25931,
    "Ġvisions": 12969,
    "Ġsword": 6732,
    "Ġgazing": 5876,
    "Ġinterruptions": 24185,
    "treatment": 20410,
    "Ġseason": 5238,
    "Ġappearing": 9839,
    "Ġrippling": 17276,
    "Ġgallon": 24183,
    "Ġviolates": 3168,
    "happening": 16563,
    "Ġfriesland": 26441,
    "conveyed": 20519,
    "Ġminut": 2204,
    "artificial": 1026,
    "Ġlanterns": 24576,
    "Ġbrains": 2630,
    "Ġintrepidity": 25550,
    "Ġwashes": 21859,
    "Ġbronze": 22868,
    "Ġallows": 3234,
    "Ġspringing": 10517,
    "Ġpad": 8125,
    "Ġconnexion": 11453,
    "Ġberyls": 25775,
    "Ġears": 4490,
    "compliments": 24810,
    "Ġpatentee": 25586,
    "compared": 24030,
    "Ġfavourite": 5270,
    "Ġfree": 3376,
    "Ġsystem": 572,
    "Ġvindict": 13603,
    "Ġglobular": 19010,
    "Ġmotives": 7487,
    "order": 1961,
    "becomes": 22494,
    "Ġdivergence": 2727,
    "Ġpor": 5225,
    "war": 6802,
    "E": 41,
    "embarr": 15793,
    "Ġpitching": 16610,
    "truth": 9917,
    "works": 6587,
    "information": 12390,
    "olic": 14040,
    "º": 123,
    "Ġexhale": 24401,
    "Ġtread": 9407,
    "Ġforeb": 12000,
    "Ġgladly": 14679,
    "Ġinfamy": 14509,
    "other": 1315,
    "Ġcanvassed": 19933,
    "help": 1477,
    "Ġsources": 10146,
    "½": 126,
    "consciousness": 13363,
    "Ġmechanisms": 1577,
    "Ġdecreasing": 2443,
    "lar": 4483,
    "ĠĠĠĠĠĠ": 6413,
    "an": 278,
    "keeper": 5596,
    "dense": 18716,
    "acetty": 24463,
    "embedding": 20703,
    "racted": 4774,
    "Ġartificial": 796,
    "Ġdidst": 11846,
    "orand": 21395,
    "Ġdiscuss": 9472,
    "âĢĻ,": 14068,
    "ingly": 2136,
    "hued": 20910,
    "Ġsuperglue": 23456,
    "Ġjur": 12830,
    "Ġchamounix": 14861,
    "swiss": 24254,
    "orney": 17873,
    "consider": 6348,
    "resol": 17759,
    "are": 638,
    "boiling": 19000,
    "Ġslanting": 23170,
    "engineer": 23146,
    "length": 7134,
    "Ġbedfellow": 16436,
    "Ġsumm": 3357,
    "Ġbay": 9167,
    "itely": 5365,
    "Ġponder": 6819,
    "Ġ10": 5249,
    "Ġaugment": 8691,
    "Ġvideo": 25365,
    "produced": 25414,
    "feeder": 12358,
    "ulating": 10886,
    "blazing": 24131,
    "Ġreproach": 9555,
    "uctive": 17695,
    "Ġdream": 3538,
    "skull": 24487,
    "Ġagrippa": 11804,
    "lude": 6161,
    "reated": 10301,
    "mechan": 11854,
    "Ġhellaswag": 24342,
    "talk": 6656,
    "Ġskip": 1843,
    "Ġunqualified": 22059,
    "Ġhalf": 1671,
    "whiskers": 12308,
    "Ġtra": 1386,
    "Ġcrowded": 8012,
    "Ġhaunt": 18197,
    "Ġjoist": 19231,
    "Ġfisheries": 17436,
    "Ġpity": 4940,
    "Ą": 197,
    "Ġwhalers": 8048,
    "Ġlivelihood": 24774,
    "avoid": 9303,
    "Ġvolcanoes": 24145,
    "Ġseizure": 21955,
    "Ġyarman": 12701,
    "Ġdeliberation": 19967,
    "Ġhelm": 5275,
    "Ġan": 286,
    "merit": 19280,
    "Ġinterlacing": 22576,
    "ideas": 18581,
    "Ġbed": 2146,
    "Ġcrow": 3806,
    "Ġpositives": 4318,
    "Ġidle": 8253,
    "Ġconvince": 14640,
    "solic": 16372,
    "calculation": 25688,
    "Ġsolemnity": 9939,
    "disreputable": 23501,
    "alloyed": 22199,
    "Ġgun": 4700,
    "merged": 11192,
    "Ġpol": 2576,
    "Ġincredulous": 9985,
    "Ġhumaneval": 25582,
    "Ġoriental": 9095,
    "Ġconvinced": 4207,
    "Ġgreater": 3042,
    "Ġsold": 6003,
    "makes": 10710,
    "Ġknave": 11271,
    "Ġtram": 11091,
    "ram": 13970,
    "enance": 3372,
    "orough": 5700,
    "Ġholder": 6724,
    "Ġwalker": 23300,
    "som": 3294,
    "union": 15766,
    "Ġaccustomed": 6861,
    "along": 6013,
    "Ġfet": 5807,
    "Ġreinforcement": 3210,
    "ivities": 22078,
    "lot": 3208,
    "Ġoutlined": 22318,
    "Ġdestroyed": 5271,
    "symp": 14614,
    "mean": 6437,
    "Ġnecessitated": 23925,
    "Ġspark": 6689,
    "sim": 6509,
    "Ġrich": 2993,
    "Ġbelieve": 2149,
    "Ġhaws": 21949,
    "Ġprized": 23216,
    "hercules": 22204,
    "Ġmiddle": 4139,
    "ĠĠĠĠĠĠĠĠĠĠĠĠĠĠĠĠĠĠĠĠĠĠĠĠĠĠĠĠĠĠĠĠĠĠĠĠĠĠĠĠĠĠĠĠĠĠĠ": 16754,
    "viating": 14577,
    "Ġputting": 5326,
    "Ġnocturnal": 20714,
    "kindred": 24046,
    "Ġslavish": 23171,
    "pane": 10119,
    "Ġcalled": 1974,
    "Ġtin": 15461,
    "Ġstash": 18067,
    "Ġpervers": 11776,
    "Ġdoom": 6416,
    "Ġstrengthen": 20699,
    "Ġhall": 4184,
    "Ġtattoo": 7360,
    "Ġtarquin": 23609,
    "Ġcorridor": 10670,
    "Ġ150": 22824,
    "Ġidiotic": 25588,
    "appropri": 22843,
    "Ġthirt": 13937,
    "Ġdarkly": 19114,
    "Ġfeasts": 25369,
    "Ġprecisely": 6465,
    "cturn": 17986,
    "Ġfog": 9660,
    "assumed": 22306,
    "melted": 25206,
    "Ġaug": 6234,
    "Ġchanc": 18384,
    "regards": 23465,
    "Ġclaret": 22351,
    "command": 6576,
    "Ġgrand": 3592,
    "Ġgeorgia": 23884,
    "oons": 12495,
    "Ġhatches": 12042,
    "humanity": 24839,
    "umbers": 10917,
    "Ġmule": 13860,
    "limin": 8384,
    "Ġarrogance": 26231,
    "Ġadmirable": 8269,
    "attering": 7420,
    "Ġconver": 802,
    "Ġsoothe": 7406,
    "yl": 7819,
    "ady": 995,
    "Ġardent": 9968,
    "Ġstoutest": 24629,
    "tiger": 13795,
    "mon": 2309,
    "wis": 12515,
    "Ġflirting": 16248,
    "place": 4155,
    "Ġpartake": 18670,
    "Ġhoops": 9386,
    "Ġdoted": 21432,
    "thorough": 21983,
    "Ġcried": 1487,
    "Ġoffending": 22741,
    "Ġkeenest": 12158,
    "Ġgreedily": 18964,
    "Ġabundant": 17153,
    "Ġreliably": 22878,
    "ipotent": 10958,
    "ads": 5718,
    "Ġintercept": 14267,
    "sen": 21048,
    "Ġblush": 14401,
    "interference": 23736,
    "Ġsunbeam": 23274,
    "hither": 11491,
    "Ġoutlast": 22311,
    "Ġhartshorn": 26180,
    "Ġshrugged": 12765,
    "Ġvoyagings": 19235,
    "Ġlivel": 11354,
    "interrupted": 11416,
    "»": 124,
    "Ġallow": 1127,
    "enes": 5218,
    "olently": 15753,
    "Ġcommonplace": 11095,
    "accomplishment": 20222,
    "ribe": 1224,
    "Ġyard": 5921,
    "Ġpleasurable": 23339,
    "tempered": 13444,
    "Ġearthly": 7990,
    "boone": 23253,
    "Ġstudent": 14477,
    "geons": 15976,
    "Ġlongbourn": 3509,
    "Ġhot": 4257,
    "trial": 20349,
    "ighter": 7968,
    "Ġdecapitated": 20614,
    "ick": 836,
    "Ġmachine": 804,
    "fifth": 20145,
    "Ġtearless": 24786,
    "Ġmor": 1252,
    "prairies": 20565,
    "Ġforeseeing": 23449,
    "Ġforces": 12698,
    "stead": 10845,
    "Ġscener": 10948,
    "Ġensl": 19273,
    "Ġprivate": 5345,
    "Ġsubset": 9868,
    "Ġimminent": 11244,
    "Ġswain": 18880,
    "Ġimmeas": 18332,
    "Ġrhine": 12353,
    "Ġtunnel": 14927,
    "prit": 19340,
    "cannib": 11899,
    "proceeding": 20140,
    "Ġadjusting": 3413,
    "cures": 20804,
    "persuade": 13531,
    "Ġcrunched": 19123,
    "pleasure": 5978,
    "Ġtru": 4106,
    "Ġchilled": 18382,
    "Ġbrace": 11210,
    "Ġrecede": 25968,
    "Ġconfine": 14505,
    "Ġdeclares": 16991,
    "Ġchocks": 13343,
    "Ġschedu": 1821,
    "Ġ76": 24261,
    "Ġsummar": 3525,
    "ipagos": 22357,
    "strip": 19829,
    "Ġgoat": 16003,
    "slightest": 25416,
    "evening": 7089,
    "knew": 9125,
    "Ġpedest": 14994,
    "aved": 5475,
    "Ġsteal": 16281,
    "Ġimpersonal": 17394,
    "Ġinfrequent": 3825,
    "\"],": 26120,
    "Ġanalytical": 22904,
    "Ġunansw": 22056,
    "Ġcetacean": 25878,
    "ice": 587,
    "ĠĠĠĠĠĠĠĠĠĠĠĠĠĠĠĠĠĠĠĠĠĠĠĠĠĠĠĠĠĠ": 24442,
    "ountain": 2917,
    "mits": 13754,
    "Ġsummers": 23871,
    "Ġprofits": 16487,
    "chapter": 1404,
    "Ġtrunk": 7206,
    "Ġprescribed": 26010,
    "inal": 15478,
    "Ġunexampled": 20358,
    "Ġsake": 4092,
    "Ġprinces": 23218,
    "hauteur": 26390,
    "Ġfreedom": 9081,
    "Ġquicker": 16506,
    "Ġbabes": 24424,
    "Ġwat": 1287,
    "Ġcal": 1326,
    "Ġsole": 3300,
    "arian": 10314,
    "Ġsoftware": 18918,
    "nihil": 9847,
    "Ġresembling": 4098,
    "Ġacutely": 14312,
    "Ġaye": 3354,
    "Ġnorms": 3667,
    "Ġaware": 5756,
    "Ġlevelled": 11283,
    "Ġmarbles": 18872,
    "H": 44,
    "Ġenters": 11024,
    "grow": 10097,
    "acknowledging": 25476,
    "adventurous": 25361,
    "Ġfeelingly": 22990,
    "Ġrecourse": 22739,
    "Ġlulled": 17968,
    "Ġtries": 9149,
    "Ġassures": 14463,
    "Ġprey": 6414,
    "Ġoccupation": 9929,
    "26": 10071,
    "Ġswiftness": 9925,
    "Ġaccompaniments": 24481,
    "Ġjuicy": 25370,
    "Ġchaldee": 26234,
    "er": 269,
    "Ġconceived": 8150,
    "rosc": 17954,
    "deliver": 19503,
    "Ġsant": 21213,
    "app": 1041,
    "race": 11629,
    "Ġpetersburgh": 24227,
    "Ġassertions": 19945,
    "Ġself": 1779,
    "Ġpossibility": 7459,
    "Ġtend": 6120,
    "Ġbigot": 24564,
    "accusations": 23598,
    "Ġsweetness": 9445,
    "Ġlomb": 21557,
    "00": 1608,
    "Ġamber": 7026,
    "riumph": 4917,
    "Ġappeal": 16312,
    "Ġsurgeon": 8980,
    "bur": 4685,
    "gd": 3129,
    "impressed": 12687,
    "Ġspeech": 4609,
    "cutting": 23783,
    "reel": 21232,
    "Ġcountenances": 11959,
    "Ġpavement": 9576,
    "visited": 13345,
    "Ġjoys": 13217,
    "Ġknow": 631,
    "umerable": 11722,
    "might": 4079,
    "Ġserved": 8246,
    "Ġenter": 4030,
    "res": 2759,
    "Ġstepfather": 7222,
    "floor": 14933,
    "clam": 13051,
    "Ġheading": 8934,
    "akers": 9737,
    "Ġsending": 8774,
    "71": 20755,
    "Ġgeneralization": 985,
    "Ġspoutings": 14673,
    "Ġmuff": 8114,
    "Ġtightly": 13532,
    "Ġcows": 15549,
    "Ġtwee": 22673,
    "Ġflock": 21410,
    "Ġeats": 15673,
    "Ġmons": 10155,
    "unks": 15771,
    "Ġtreats": 19342,
    "quake": 11678,
    "dark": 5613,
    "Ġcamp": 9163,
    "boom": 18998,
    "ometer": 19325,
    "Ġprobed": 18733,
    "lesc": 11038,
    "Ġbring": 3326,
    "ined": 1261,
    "goodbye": 12053,
    "quarters": 24946,
    "ials": 11701,
    "Ġwont": 9850,
    "unworthy": 18161,
    "etch": 9203,
    "Ġbroad": 3639,
    "Ġperiods": 13301,
    "silly": 24421,
    "Ġamphitheat": 26252,
    "gold": 9119,
    "anc": 6378,
    "Ġpreacher": 18369,
    "Ġaffecting": 2323,
    "bel": 3836,
    "Ġbriskly": 25311,
    "type": 16173,
    "Ġoriginated": 24121,
    "gate": 12463,
    "Ġnewton": 3533,
    "Ġtort": 5902,
    "erce": 6126,
    "Ġhonoured": 9879,
    "Ġgave": 2217,
    "nel": 11503,
    "Ġsewing": 21952,
    "Ġcuvier": 9164,
    "Ġmultiplied": 23688,
    "Ġaccomplishments": 13377,
    "discovering": 24250,
    "Ġfrance": 7683,
    "tranquillity": 20545,
    "Ġ*": 1273,
    "³": 116,
    "large": 6625,
    "Ġmah": 15537,
    "._]]": 5334,
    "ruding": 9722,
    "Ġtexel": 25923,
    "Ġpatroness": 13508,
    "Ġappropriated": 23483,
    "Ġpau": 17908,
    "Ġwhim": 13997,
    "ojo": 7350,
    "Ġdesert": 6726,
    "Ġhad": 443,
    "monster": 8591,
    "Ġinvader": 23477,
    "Ġdeliriously": 23227,
    "Ġtigers": 25758,
    "Ġgrinning": 9052,
    "chooses": 23672,
    "Ġcarefully": 6304,
    "Ġchal": 18378,
    "staring": 18020,
    "grat": 5051,
    "Ġmentioning": 9897,
    "Ġphilist": 16600,
    "Ġquadrant": 11403,
    "Ġwould": 650,
    "Ġprior": 11317,
    "tern": 4224,
    "bloom": 24689,
    "Ġswitching": 23056,
    "overcome": 19049,
    "Ġprospect": 4705,
    "spiracle": 22733,
    "Ġquitted": 5311,
    "Ġcatherine": 2814,
    "Ġbreathes": 13245,
    "Ġemploying": 23975,
    "Ġastir": 14638,
    "Ġgazette": 19499,
    "Ġaint": 17743,
    "apsed": 6295,
    "path": 10117,
    "Ġdomain": 3393,
    "sur": 4522,
    "Ġsuper": 2155,
    "Ġundivided": 24119,
    "Ġnone": 3225,
    "Ġtransformed": 22609,
    "Ġbird": 3759,
    "Ġpalms": 8643,
    "Ġchick": 22245,
    "clothes": 9056,
    "intellect": 18822,
    "Ġsmote": 18575,
    "folio": 10545,
    "Ġnur": 5710,
    "rious": 11686,
    "Ġamput": 16031,
    "Ġflor": 8561,
    "Ġmacey": 12559,
    "Ġshapeless": 24523,
    "Ġcorre": 3890,
    "Ġschol": 17375,
    "Ġblanched": 26282,
    "Ġlunatic": 24992,
    "owl": 12679,
    "Ġmouldy": 14971,
    "Ġsprung": 11248,
    "ieth": 10703,
    "masterly": 24529,
    "Ġmagic": 8233,
    "odings": 4399,
    "Ġhindoo": 17174,
    "Ġbusied": 19064,
    "Ġpersuaded": 5769,
    "Ġwindsor": 16886,
    "Ġfurn": 3712,
    "Ġancestry": 25641,
    "atement": 17772,
    "Ġjames": 6418,
    "ĠĠĠĠĠĠĠĠĠĠĠĠĠ": 22560,
    "Ġshaded": 14103,
    "Ġleave": 2458,
    "repe": 8775,
    "Ġmutinous": 23955,
    "idered": 4552,
    "visits": 24222,
    "looked": 6084,
    "Ġpruning": 18969,
    "Ġtraverse": 18891,
    "wil": 8396,
    "yder": 10137,
    "anchor": 13887,
    "Ġmosses": 20162,
    "Ġbackbones": 22647,
    "evidence": 25521,
    "Ġeither": 2604,
    "imag": 6990,
    "Ġarri": 2553,
    "Ġforwards": 12699,
    "Ġburst": 4380,
    "Ġsponge": 26004,
    "Ġkicks": 19767,
    "companions": 15022,
    "Ġunreserved": 19395,
    "Ġfluttered": 16247,
    "Ġfrayed": 23277,
    "irksome": 18172,
    "Ġlandau": 16417,
    "Ġilleg": 21621,
    "rese": 15506,
    "Ġinmates": 15619,
    "Ġsmoke": 4713,
    "angible": 22103,
    "9": 29,
    "Ġcommodores": 25374,
    "dilig": 17281,
    "Ġbour": 4874,
    "emone": 21923,
    "Ġgeneric": 18453,
    "Ġhereditarily": 25224,
    "coarse": 16485,
    "Ġdistillation": 16042,
    "Ġpleasantness": 24138,
    "affect": 13210,
    "Ġdaugh": 2291,
    "Ġanyone": 4459,
    "Ġchry": 22244,
    "terror": 18128,
    "Ġreply": 4514,
    "mag": 6507,
    "Ġinqu": 2964,
    "Ġjabbering": 22301,
    "formity": 10277,
    "harb": 9122,
    "Ġunfathomably": 25873,
    "Ġslaught": 23165,
    "Ġadvantageously": 19544,
    "Ġperem": 12928,
    "til": 17670,
    "Ġgoney": 14543,
    "Ġassur": 6074,
    "amp": 2606,
    "pots": 11512,
    "disappearing": 23500,
    "odiac": 14026,
    "Ġdomineer": 23648,
    "worse": 14688,
    "Ġprevent": 757,
    "Ġimpertinence": 11365,
    "Ġbernard": 20683,
    "general": 7490,
    "Ġimaginations": 16515,
    "Ġstructural": 2799,
    "injustice": 17736,
    "trees": 10730,
    "Ġfol": 1288,
    "boats": 6204,
    "Ġ62": 24364,
    "jammed": 25906,
    "ch": 321,
    "fail": 17539,
    "Ġquiet": 3262,
    "Ġphaeton": 17463,
    "Ġscientific": 6857,
    "Ġgallows": 12142,
    "cav": 17506,
    "msman": 9268,
    "Ġcounterpane": 11342,
    "Ġscolded": 25472,
    "Ġsuav": 22074,
    "Ġother": 760,
    "sand": 21051,
    "Ġrheum": 18214,
    "Ġrobins": 16244,
    "Ġbidirectional": 3758,
    "Ġmaterials": 11287,
    "imperturbable": 25790,
    "Ġmiscellaneous": 17461,
    "Ġsneezes": 24698,
    "elephant": 12348,
    "entropy": 1438,
    "Ġbarbary": 24215,
    "encountered": 20391,
    "walked": 10569,
    "Ġimmensity": 25329,
    "idav": 18092,
    "Ġdisagree": 22530,
    "pendicular": 6498,
    "piteous": 21032,
    "Ġintently": 8169,
    "senses": 25022,
    "Ġthreat": 5154,
    "Ġfounder": 17883,
    "Ġbordering": 17227,
    "enstern": 17781,
    "Ġthews": 21276,
    "Ġmisty": 16538,
    "Ġitalian": 12407,
    "Ġlarge": 1066,
    "Ġ14": 9321,
    "Ġlord": 2965,
    "Ġstirred": 12214,
    "_.": 2212,
    "Ġcreate": 2091,
    "Ġvaluable": 5607,
    "weather": 7230,
    "Ġencompassed": 15251,
    "naturedly": 24840,
    "norm": 20984,
    "allions": 22196,
    "Ġanonymous": 26178,
    "Ġcetacea": 20552,
    "Ġhel": 3788,
    "Ġbizarre": 17871,
    "Ġplying": 17913,
    "Ġwillingly": 8883,
    "Ġ1807": 26083,
    "sullenly": 26149,
    "Ġmonster": 3795,
    "Ġantichron": 24180,
    "Ġexcurs": 23310,
    "Ġhotels": 19535,
    "Ġfunction": 585,
    "Ġassociate": 13448,
    "Ġhour": 1811,
    "edged": 15627,
    "Ġaffording": 14818,
    "iven": 1238,
    "tied": 21069,
    "Ġprince": 18970,
    "Ġunh": 9251,
    "ahead": 12431,
    "beards": 22489,
    "Ġsatan": 14388,
    "Ġpoured": 8799,
    "Ġcounting": 13092,
    "Ġunho": 18248,
    "trade": 19635,
    "Ġendless": 7053,
    "springing": 24889,
    "vious": 1784,
    "yarn": 15455,
    "Ġinference": 9670,
    "Ġapt": 9154,
    "Ġunrival": 22045,
    "Ġstung": 21736,
    "cular": 15326,
    "Ġgreenland": 5761,
    "Ġindependent": 9014,
    "Ġbarricade": 14658,
    "imprudent": 14649,
    "Ġing": 5283,
    "Ġdistrusting": 25053,
    "Ġderivatives": 2369,
    "labours": 16616,
    "Ã¦mon": 7094,
    "adm": 7609,
    "angels": 22104,
    "Ġmidday": 23632,
    "anim": 6521,
    "Ġconfirm": 9854,
    "Ġimpelled": 11781,
    "ank": 1367,
    "gn": 8082,
    "Ġfatigued": 13463,
    "Ġexhaled": 19681,
    "Ġminimax": 5858,
    "Ġmoustache": 20482,
    "ai": 2526,
    "Ġcampa": 17172,
    "Ġunceasingly": 20357,
    "Ġnoon": 6559,
    "Ġpictured": 16621,
    "Ġclearness": 23181,
    "aust": 15307,
    "Ġcens": 8413,
    "Ġrearing": 12673,
    "operation": 13499,
    "Ġunequal": 14839,
    "04": 10678,
    "adoes": 11658,
    "agne": 21903,
    "Ġindelible": 25694,
    "Ġjaw": 3321,
    "lic": 17586,
    "Ġinfirm": 19054,
    "jewell": 25523,
    "Ġjot": 11760,
    "Ġtitle": 11407,
    "Ġdemoniacal": 20555,
    "Ġwarriors": 19722,
    "Ġconvolutions": 21805,
    "ĠâĢĺ_": 11115,
    "impregnable": 26480,
    "unvarying": 21885,
    "ĠâĢĶâĢľ_": 17717,
    "Q": 53,
    "Ġdavy": 25951,
    "ounded": 9746,
    "ĠĠĠĠĠĠĠĠĠĠĠĠĠĠĠĠĠĠĠĠĠĠĠĠĠĠĠĠĠĠĠĠĠĠĠĠĠĠĠĠĠĠĠĠĠĠĠĠ": 7989,
    "ghan": 19453,
    "Ġway": 1086,
    "Ġrepe": 3281,
    "committed": 18734,
    "Ġinches": 5845,
    "Ġbills": 17860,
    "Ġfaintly": 14912,
    "Ġdisd": 7030,
    "Ġmccarthy": 5145,
    "Ġausten": 5881,
    "Ġabsolut": 3912,
    "Ġkicked": 10580,
    "letons": 14610,
    "Ġboy": 3025,
    "visual": 24221,
    "Ġkentuckian": 26342,
    "icating": 15651,
    "cast": 2926,
    "conception": 22470,
    "Ġpoor": 1712,
    "Ġig": 3502,
    "Ġforcibly": 10059,
    "consumed": 25675,
    "Ġmiracle": 15091,
    "ridden": 24361,
    "Ġservice": 6470,
    "Ġsnatch": 14637,
    "Ġcumberland": 21353,
    "ep": 444,
    "miseries": 16756,
    "beaten": 20314,
    "Ý": 158,
    "Ġbeg": 1282,
    "Ġdeigned": 18141,
    "Ġapiece": 16812,
    "Ġcomplicated": 14732,
    "Ġfare": 5809,
    "taller": 26150,
    "harpooned": 24285,
    "Ġsangu": 15502,
    "Ġstim": 18063,
    "flakes": 23965,
    "weed": 14313,
    "Ġafore": 10757,
    "Ġhardest": 18912,
    "Ġlament": 7857,
    "arken": 18667,
    "jud": 4481,
    "resolution": 17765,
    "Ġbabies": 19691,
    "aisance": 15072,
    "crazy": 24691,
    "resc": 21237,
    "eryton": 4094,
    "ogue": 9782,
    "Ġfugitive": 17325,
    "Ġvir": 7001,
    "Ġmizen": 17257,
    "Ġgreenhorn": 23767,
    "hibited": 17425,
    "Ġdisappearing": 22531,
    "Ġmusky": 19380,
    "Ġmanagement": 8193,
    "give": 4687,
    "Ġblotting": 25313,
    "Ġtattooings": 24900,
    "Ġair": 1833,
    "veil": 18042,
    "Ġfetched": 24566,
    "gins": 12465,
    "Ġreckless": 13456,
    "gerine": 22887,
    "violent": 14578,
    "Ĥ": 229,
    "Ġhedgehog": 10643,
    "rid": 5137,
    "Ġautumn": 14502,
    "Ġrazor": 22655,
    "iteness": 4392,
    "ifle": 10890,
    "Ġswaths": 23057,
    "Ġspeak": 2229,
    "Ġcondu": 18109,
    "Ġknees": 6928,
    "Ġreaction": 15691,
    "Ġvoyage": 3061,
    "Ġdrop": 4345,
    "Ġprom": 1526,
    "Ġbasement": 24702,
    "inkers": 22614,
    "Ġhavoc": 15810,
    "Ġstaving": 21735,
    "Ġforg": 3789,
    "destined": 24113,
    "Ġaccordance": 19496,
    "ware": 3936,
    "unlike": 18156,
    "atever": 3084,
    "Ġavenues": 25429,
    "Ġowest": 25091,
    "warrant": 21136,
    "ullied": 23103,
    "Ġincarnation": 25573,
    "Ġav": 3581,
    "lat": 9603,
    "tables": 19756,
    "creatures": 7518,
    "Ġdreamt": 23936,
    "Ġpast": 2099,
    "Ġumbrell": 13648,
    "aphs": 22333,
    "Ġadding": 2404,
    "olds": 9309,
    "transformer": 25015,
    "gardiner": 12288,
    "chants": 21690,
    "Ġinfants": 16385,
    "fashion": 8081,
    "Ġcarbuncle": 14443,
    "Ġbead": 21748,
    "Ġwheel": 9716,
    "Ġsen": 9155,
    "lascar": 20959,
    "joke": 20929,
    "Ġborne": 6351,
    "knot": 13743,
    "fireside": 24692,
    "popular": 26140,
    "Ġaffection": 2639,
    "Ġpeculiarity": 12929,
    "anything": 5518,
    "esting": 7413,
    "Ġredden": 15690,
    "Ġoxford": 11370,
    "enderby": 25215,
    "Ġmerc": 9424,
    "Ġspeedily": 7712,
    "Ġscuff": 15938,
    "Ġfinancial": 23128,
    "Ġrad": 4960,
    "dissatisfied": 26611,
    "proves": 23392,
    "Ġlavater": 20494,
    "Ġshallow": 14393,
    "Ġmanipulation": 10657,
    "contrasted": 17304,
    "ish": 550,
    "Ġhoot": 19074,
    "Ġemperors": 15157,
    "imony": 12686,
    "Ġbetween": 792,
    "gal": 15353,
    "sustained": 20567,
    "wicked": 24448,
    "ives": 1409,
    "Ġplaces": 5390,
    "Ġconfident": 11137,
    "Ġcleansed": 26293,
    "wharf": 20605,
    "Ġterrific": 6754,
    "Ġadie": 8488,
    "Ġtorment": 8673,
    "Ġtimorous": 24224,
    "Ġdents": 13909,
    "achel": 7032,
    "Ġpatience": 3028,
    "irect": 5552,
    "Ġthrow": 3785,
    "Ġlighten": 23258,
    "Ġjung": 12832,
    "Ġloomed": 12298,
    "week": 12927,
    "Ġdaresay": 14701,
    "icken": 6711,
    "oker": 10962,
    "Ġidentity": 2524,
    "abetical": 15739,
    "Ġranges": 2882,
    "Ġintimacy": 8700,
    "Ġbefell": 14008,
    "Ġcaution": 11345,
    "derbyshire": 18322,
    "Ġgouge": 26188,
    "elter": 21569,
    "feather": 16040,
    "Ġsanguine": 25928,
    "Ġnice": 6676,
    "ô": 181,
    "Ġfishy": 16522,
    "Ġencoder": 3635,
    "ished": 1428,
    "Ġburden": 8607,
    "Ġedition": 16433,
    "Ġapparently": 6778,
    "proof": 16421,
    "Ġinsulated": 23678,
    "gration": 9120,
    "inder": 9151,
    "Ġthunder": 4821,
    "outer": 9667,
    "Ġdejection": 15194,
    "Ġclos": 4548,
    "nowhere": 18418,
    "arrow": 4180,
    "inking": 6709,
    "sacrifice": 13490,
    "Ġawkwardness": 13485,
    "amed": 4449,
    "toss": 22564,
    "Ġarrang": 2469,
    "ires": 6038,
    "Ġallies": 18234,
    "Ġhid": 1320,
    "Ġampl": 22478,
    "Ġspear": 9312,
    "mists": 17604,
    "Ġopulence": 23627,
    "Ġdeserts": 10506,
    "Ġinconsistency": 26182,
    "Ġimpetuously": 20370,
    "Ġpalpit": 16690,
    "Ġbroker": 23100,
    "Ġbedside": 19121,
    "feeders": 25235,
    "Ġcrocod": 19627,
    "Ġneskyeuna": 26458,
    "ittingly": 18807,
    "Ġcontin": 5382,
    "bast": 10075,
    "Ġantilles": 24178,
    "Ġfestival": 25445,
    "oo": 7554,
    "Ġbelshazzar": 16223,
    "fron": 24280,
    "spirited": 19752,
    "sory": 17658,
    "aling": 1035,
    "ospel": 17009,
    "hatches": 19927,
    "Ġbulk": 5590,
    "Ġdiscoloured": 15250,
    "Ġpennies": 17269,
    "Ġhurst": 5581,
    "Ġmarlings": 23034,
    "married": 9947,
    "onet": 12541,
    "crane": 24097,
    "iony": 9190,
    "Ġforetold": 23450,
    "kempt": 20940,
    "european": 26371,
    "Ġfurnace": 19438,
    "dog": 10691,
    "Ġoptimizers": 18628,
    "Ġinteractions": 12899,
    "Ġshe": 466,
    "Ġcontinue": 5398,
    "Ġsober": 10910,
    "brated": 12023,
    "Ġbrimstone": 25686,
    "Ġsnuffed": 15070,
    "Ġdoubled": 19641,
    "inative": 15481,
    "Ġcommerce": 11014,
    "Ġteeth": 4168,
    "involuntarily": 20413,
    "binnacle": 20786,
    "eld": 956,
    "Ġdiffer": 18679,
    "<PAD>": 0,
    "Ġrejo": 5916,
    "yellow": 9623,
    "examine": 25477,
    "woe": 21134,
    "Ġplaus": 22600,
    "Ġsavor": 23873,
    "Ġpromising": 10398,
    "Ġglen": 18846,
    "author": 9858,
    "Â·": 21148,
    "Ġ17": 5740,
    "Ġadopted": 15176,
    "Ġsucc": 12779,
    "Ġengineer": 11971,
    "Ġdedication": 3014,
    "Ġmoreover": 6163,
    "03": 20747,
    "seldom": 13785,
    "Ġdanced": 7843,
    "rer": 3622,
    "Ġcanv": 7009,
    "Ġwelcome": 5603,
    "user": 5105,
    "Ġcedars": 20291,
    "Ġleaving": 3906,
    "charlotte": 6472,
    "artic": 14223,
    "Ġmagnificence": 20631,
    "Ġgest": 8134,
    "Ġimmensely": 13593,
    "Ġdisobey": 18559,
    "bride": 19198,
    "Ġming": 9644,
    "astes": 11736,
    "aph": 10953,
    "eties": 10836,
    "Ġtim": 4577,
    "Ġambiguous": 20163,
    "Ġbride": 6291,
    "ters": 1574,
    "Ġm": 274,
    "Ġknowest": 12860,
    "Ġgross": 11623,
    "church": 8140,
    "w": 91,
    "Ġhardened": 14448,
    "supposed": 13313,
    "ral": 4626,
    "transom": 19733,
    "ancial": 21360,
    "Ġbandaged": 16841,
    "val": 1154,
    "Ġsimplicity": 2922,
    "Ġunquestion": 18251,
    "Ġtime": 690,
    "practised": 20246,
    "Ġvilla": 14744,
    "proble": 9392,
    "Ġshrivelled": 19702,
    "Ġ1": 1014,
    "Ġseriously": 7060,
    "Ġcaptiv": 16256,
    "ley": 1815,
    "Ġsuggestion": 19706,
    "Ġtorch": 25030,
    "Ġweeps": 24947,
    "Ġ124": 24468,
    "Ġtreading": 16502,
    "finds": 19926,
    "ulent": 21860,
    "Ġinfidel": 13099,
    "Ġbetter": 1177,
    "somebody": 14563,
    "Ġbehalf": 14504,
    "featured": 24092,
    "Ġoutputs": 2885,
    "Ġfuel": 13902,
    "Ġbrought": 2517,
    "isf": 2435,
    "hem": 6663,
    "sm": 3437,
    "Ġfloats": 9411,
    "grammar": 6434,
    "elves": 2159,
    "dee": 11730,
    "inent": 9627,
    "Ġcrumb": 16439,
    "Ġhorner": 8957,
    "Ġstigma": 25791,
    "further": 7536,
    "Ġcannon": 14152,
    "Ġcelest": 9899,
    "departure": 15232,
    "Ġexcuse": 5861,
    "Ġcompan": 2174,
    "Ë": 140,
    "lydia": 6826,
    "ierce": 14389,
    "Ġgrop": 12660,
    "wouldn": 23532,
    "vine": 10733,
    "Ġhusbands": 16641,
    "arch": 1121,
    "Ġmountainous": 16598,
    "erring": 11056,
    "bowsprit": 16852,
    "Ġwomen": 4748,
    "Ġcosmopolitan": 20640,
    "Ġgemini": 26468,
    "Ġso": 433,
    "appe": 2943,
    "Ġcurvature": 3573,
    "Ġperemptorily": 17365,
    "Ġpeaking": 22688,
    "Ġcaroline": 7255,
    "Ġmurmur": 14587,
    "Ġhail": 7401,
    "chorus": 19810,
    "Ġbelieves": 14406,
    "barr": 15318,
    "unsuitable": 21891,
    "Ġscheduling": 2349,
    "Ġendwise": 23142,
    "down": 3470,
    "Ġsemi": 11965,
    "method": 17283,
    "urrection": 12406,
    "brink": 23574,
    "Ġapologies": 25196,
    "ough": 470,
    "Ġcheshire": 13087,
    "Ġexper": 1292,
    "ent": 305,
    "Ġvirtues": 9934,
    "faces": 13718,
    "Ġtasselled": 25921,
    "subtle": 24242,
    "barbaric": 26358,
    "Ġstretched": 5920,
    "Ġmistake": 6203,
    "oub": 1633,
    "Ġriding": 14093,
    "holloa": 19462,
    "Ġencircling": 26271,
    "Ġaffinity": 18786,
    "ud": 925,
    "Ġtwisted": 7229,
    "Ġpope": 11600,
    "Ġrenegades": 26475,
    "Ġcrimes": 8588,
    "Ġdeduce": 8337,
    "Ġcreative": 9828,
    "extensive": 18708,
    "stays": 15685,
    "Ġoctavo": 15161,
    "Ġresulting": 24197,
    "Ġtimes": 2301,
    "Ġindication": 22950,
    "ibank": 6880,
    "Ġprejudiced": 24809,
    "Ġdisplays": 19856,
    "Ġfireside": 23528,
    "viii": 12017,
    "Ġscalding": 16316,
    "Ġinterven": 10996,
    "ackinaw": 22419,
    "esteem": 26008,
    "seam": 10873,
    "suspicions": 25391,
    "intense": 22934,
    "lantern": 17426,
    "pents": 11511,
    "Ġrapture": 13494,
    "source": 11524,
    "fowl": 17548,
    "Ġmentioned": 4330,
    "Ġmultiplication": 2871,
    "fel": 8733,
    "Ġlowers": 23240,
    "natural": 2374,
    "Ġconfounded": 16376,
    "84": 15299,
    "Ġwhirlpool": 20654,
    "acks": 11785,
    "earnest": 12396,
    "Ġelbow": 12916,
    "Ġlighted": 7063,
    "cursed": 23841,
    "Ġstock": 7456,
    "during": 6787,
    "Ġinconveniences": 24939,
    "nor": 2740,
    "Ġtree": 5284,
    "hetic": 12200,
    "5": 25,
    "ilburn": 18059,
    "rous": 3755,
    "Ġsy": 487,
    "compose": 24029,
    "lizzy": 6651,
    "licted": 20955,
    "Ġalph": 9693,
    "Ġcolon": 18765,
    "Ġcup": 5697,
    "orate": 10799,
    "aren": 10072,
    "cases": 12444,
    "iriously": 18171,
    "Ġinspiring": 19112,
    "verbally": 25360,
[...]
