{
  "metadata": {
    "vocab_size": 26616,
    "algorithm": "BPE",
    "created_at": "2026-06-25 06:05:27",
    "special_tokens": [
      "<PAD>",
      "<SOS>",
      "<EOS>",
      "<UNK>",
      "<MASK>"
    ]
  },
  "vocab": {
    "vener": 21114,
    "Ġresc": 4505,
    "Ġoutdone": 22322,
    "countenances": 24151,
    "acit": 16066,
    "Ġ1839": 20463,
    "Ġbread": 5404,
    "Ġpatent": 11966,
    "Ġrender": 8305,
    "arpening": 21446,
    "Ġquarrels": 16569,
    "hate": 20894,
    "Ġq": 1086,
    "Ġcontemplative": 19895,
    "winds": 10524,
    "apprehens": 17409,
    "stained": 21658,
    "Ġenumer": 12751,
    "Ġslippers": 19618,
    "plendent": 21962,
    "Ġsneezing": 12252,
    "oors": 17622,
    "screw": 9350,
    "splash": 25210,
    "least": 8789,
    "Ġadmired": 7982,
    "Ġfates": 15582,
    "Ġadmirably": 16483,
    "ezes": 9994,
    "Ġconfession": 11237,
    "Ġobligation": 13248,
    "Ġunpleasing": 22057,
    "eck": 20846,
    "discovered": 8325,
    "rants": 13781,
    "Ġcategor": 4133,
    "Ġshortly": 6198,
    "Ġdoubloon": 6945,
    "Ġproposed": 7460,
    "Ġaddresses": 3765,
    "Ġcryst": 9920,
    "itive": 6671,
    "Ġawe": 7148,
    "justified": 19004,
    "Ġquadru": 16008,
    "inch": 10757,
    "aggra": 21910,
    "complied": 19915,
    "Ġgroaned": 11268,
    "meanwhile": 10612,
    "too": 4506,
    "sam": 21054,
    "Ġcrunched": 19122,
    "laws": 19810,
    "iration": 4539,
    "Ġjan": 11766,
    "Ġrealised": 18982,
    "Ġunprinciple": 18255,
    "Ġmunro": 25631,
    "Ġobservable": 25129,
    "Ġ135": 24784,
    "buckets": 26124,
    "Ġwraps": 19779,
    "Ġbedroom": 7277,
    "inging": 5908,
    "mense": 4781,
    "Ġfumbled": 17883,
    "Ġdiscrimination": 23607,
    "Ġthus": 2034,
    "Ġrepelled": 19087,
    "Ġrusty": 14967,
    "Ġintimacy": 8704,
    "Ġmastery": 23996,
    "dis": 2251,
    "occur": 19578,
    "Ġhagger": 21494,
    "¼": 125,
    "hig": 12479,
    "ner": 1372,
    "posture": 16929,
    "mens": 20971,
    "Ġmonarch": 14418,
    "Ġcreator": 7254,
    "bonnet": 25743,
    "Ġstarvation": 19794,
    "Ġrephrased": 26479,
    "Ġvolition": 14800,
    "Ġreconcile": 25292,
    "oney": 3051,
    "Ġorganically": 3015,
    "rive": 9710,
    "Ġindefinitely": 25222,
    "akers": 9743,
    "ven": 780,
    "Ġclaim": 5106,
    "inite": 6003,
    "Ġram": 11015,
    "o": 83,
    "Ġrevolving": 9986,
    "Ġwhispered": 5338,
    "lived": 12491,
    "Ġryder": 10261,
    "Ġreminds": 13434,
    "shazz": 14245,
    "Ġmanufact": 22332,
    "Ġtawn": 13826,
    "round": 3369,
    "cadence": 26126,
    "Ġgenus": 24429,
    "Ġaccumulates": 2887,
    "Ġentreat": 4508,
    "ĳ": 244,
    "Ġamount": 8514,
    "Ġtaller": 16689,
    "Ġhearse": 10422,
    "Ġleaving": 3902,
    "Ġpretence": 13208,
    "ditch": 17530,
    "Ġriv": 10748,
    "Ġwarb": 17789,
    "Ġpreside": 18366,
    "Ġagreeably": 24955,
    "Ġdif": 870,
    "place": 4147,
    "Ġmoments": 4847,
    "tahit": 17694,
    "behaviour": 11303,
    "Ġsour": 21219,
    "Ġestab": 6317,
    "Ġeither": 2602,
    "ahead": 12438,
    "Ġpoliceman": 15262,
    "Ġsource": 6806,
    "Ġinvulnerable": 19148,
    "Ġfavours": 23283,
    "clothed": 19741,
    "Ġbrutality": 26278,
    "rence": 5555,
    "Ġmelt": 21320,
    "Ġexig": 21830,
    "Ġbristling": 20530,
    "distinguished": 10529,
    "belongs": 25597,
    "Ġvestige": 20066,
    "Ġcomponents": 8897,
    "Ġanointing": 25540,
    "Ġexcursion": 26591,
    "Ġnobler": 14176,
    "hunted": 16834,
    "bergs": 18696,
    "Ġcolumb": 22860,
    "Ġairy": 23320,
    "Ġutter": 3971,
    "Ġble": 5223,
    "Ġtemptations": 24508,
    "\\": 64,
    "ď": 208,
    "Ġpaws": 13924,
    "Ġdescribing": 19256,
    "Ġsex": 8846,
    "pips": 21022,
    "Ġphyset": 23206,
    "Ġclipping": 2443,
    "Ġhue": 8430,
    "Ġadvances": 12997,
    "corrupt": 14898,
    "Ġsummers": 23876,
    "Ġtour": 9150,
    "Ġunc": 2125,
    "thorough": 21989,
    "Ġmuscles": 12093,
    "Ġwretched": 4076,
    "Ġinsist": 9892,
    "Ġfading": 15588,
    "Ġproposal": 10022,
    "weight": 2938,
    "Ġunpitying": 25661,
    "Ġsuperstitious": 13522,
    "Ġswift": 3668,
    "Ġplunged": 8696,
    "Ġreefed": 20305,
    "Ġconsideration": 5191,
    "Ġdeadliest": 14558,
    "onings": 21255,
    "Ġfrankenstein": 7097,
    "crews": 15045,
    "airing": 16178,
    "Ġacquisition": 18901,
    "arded": 5029,
    "Ġreckoned": 24743,
    "uzz": 4523,
    "dwelt": 23874,
    "Ġtesting": 23196,
    "eternal": 17985,
    "Ġintroduces": 3272,
    "Ġstorms": 11264,
    "Ġloftiest": 16876,
    "Ġadv": 1156,
    "Ġslung": 23172,
    "rect": 1597,
    "short": 6568,
    "Ġsupplication": 25492,
    "cable": 20799,
    "Ġsolving": 2484,
    "coil": 23561,
    "del": 4071,
    "Ġconvinced": 4198,
    "scratch": 26045,
    "ython": 1030,
    "Ġmonstrous": 7790,
    "Ġboots": 5945,
    "Ġdisappoint": 24208,
    "Ġexcurs": 23317,
    "Ġencoder": 3635,
    "Ġtheore": 1830,
    "ede": 21509,
    "Ġbrought": 2516,
    "died": 11482,
    "wooden": 24588,
    "Ġpersever": 10006,
    "Ġgamy": 18001,
    "counterpart": 26361,
    "Ġpink": 12624,
    "Ġkl": 2734,
    "ulatory": 15772,
    "ping": 9618,
    "Ġunmannerly": 26519,
    "etical": 13961,
    "Ġdeified": 18140,
    "Ä": 133,
    "Ġdespatched": 23833,
    "Ġhermit": 15861,
    "Ġfleet": 9435,
    "head": 1436,
    "/": 19,
    "Ġantiqu": 12149,
    "Ġlove": 2051,
    "Ġearnest": 3928,
    "Ġgall": 4347,
    "Ġdisc": 945,
    "Ġtangles": 25762,
    "Ġwhe": 438,
    "Ġrepulses": 26071,
    "mayhew": 23995,
    "Ġebb": 21625,
    "Ġtreatise": 19348,
    "Ġplum": 11826,
    "Ġquar": 3116,
    "Ġderives": 16311,
    ";âĢĻ": 15306,
    "uccas": 21109,
    "Ġlocket": 22117,
    "Ġacceptable": 16746,
    "Ġbarren": 11208,
    "conquerable": 17402,
    "Ġgent": 7383,
    "Ġcomplet": 4420,
    "Ġcor": 1321,
    "Ġ/*": 10142,
    "Ġpursued": 6330,
    "Ġcrimin": 6901,
    "Ġrichest": 26213,
    "Ġasking": 5651,
    "Ġrefill": 18704,
    "Ġstreng": 18073,
    "Ġfrogs": 23927,
    "ising": 2256,
    "Ġextensive": 12949,
    "ogene": 18657,
    "bod": 12441,
    "Ġfluttered": 16251,
    "deceiving": 22148,
    "Ġlight": 1701,
    "Ġstrategy": 2401,
    "Ġshadowed": 24048,
    "Ġconting": 18473,
    "operation": 13503,
    "Ġrays": 10333,
    "Æ": 135,
    "Ġsurest": 19056,
    "september": 14039,
    "cousins": 20121,
    "mun": 20964,
    "Ġincorporated": 25710,
    "enchant": 21286,
    "Ġquestioning": 10466,
    "iqu": 7803,
    "holding": 7739,
    "top": 4484,
    "Ġcarpenters": 16754,
    "Ġsubtle": 6718,
    "Ġchatbots": 11351,
    "Ġdesperately": 24657,
    "mered": 8218,
    "Ġident": 2241,
    "ound": 585,
    "Ġtreatment": 12076,
    "âĢľâĢĻ": 10224,
    "Ġinverted": 12643,
    "accomplishment": 20226,
    "Ġsite": 17755,
    "Ġdepartment": 24244,
    "Ġfamiliarity": 16731,
    "anged": 3588,
    "Ġparlour": 12325,
    "Ġpeaceful": 9458,
    "formality": 22218,
    "Ġesq": 15112,
    "Ġlearning": 387,
    "Ġsleet": 8978,
    "Ġpots": 9431,
    "Ġmagnitude": 1943,
    "Ġtear": 6724,
    "arbuck": 2022,
    "Ġfiled": 15584,
    "Ġunb": 10909,
    "Ġkeen": 4615,
    "earliest": 20123,
    "Ġresent": 6050,
    "Ġaffliction": 25846,
    "uteness": 17988,
    "icit": 3379,
    "extra": 8219,
    "Ġcharging": 23270,
    "Ġjamming": 17267,
    "Ġtill": 1825,
    "Ġexact": 2543,
    "balance": 12011,
    "simultaneously": 19866,
    "position": 15416,
    "cur": 3273,
    "Ġtin": 15466,
    "theories": 18081,
    "Ġterm": 2267,
    "umerable": 11729,
    "Ġconcil": 23324,
    "aciously": 12902,
    "Ġpillows": 24989,
    "connect": 1291,
    "atiously": 15525,
    "Ġgrat": 4052,
    "Ġcause": 2414,
    "twas": 15440,
    "Ġfiends": 14830,
    "seems": 10877,
    "matlock": 23471,
    "Ġmornings": 16241,
    "olen": 9703,
    "Ġweeps": 24950,
    "Ġequinox": 25856,
    "abound": 15744,
    "python": 4693,
    "Ġinter": 726,
    "Ġactiv": 833,
    "Ġbadly": 12136,
    "Ġfort": 2578,
    "iful": 2878,
    "M": 49,
    "somewhere": 12017,
    "december": 25559,
    "Ġmut": 3583,
    "Ġprayers": 12128,
    "Ġsult": 10769,
    "ientiously": 21936,
    "asion": 5714,
    "american": 11402,
    "Ġwhitewashed": 14473,
    "enhall": 13853,
    "guinea": 16675,
    "Ġtusks": 17256,
    "Ġdiscriminator": 3393,
    "Ġassaulted": 25321,
    "Ġshuttle": 12131,
    "alions": 21504,
    "Ġborder": 10172,
    "signed": 21064,
    "Ġharpooning": 23982,
    "Ġendure": 5957,
    "Ġmilitary": 11260,
    "Ġhorses": 6386,
    "Ġemph": 14527,
    "metals": 24765,
    "Ġselects": 4382,
    "Ġrelig": 8553,
    "higher": 20410,
    "Ġconf": 1820,
    "japan": 15378,
    "Ġsuspecting": 14913,
    "varying": 13807,
    "say": 3980,
    "acter": 2507,
    "ss": 397,
    "Ġ48": 24082,
    "come": 2380,
    "Ġintegrated": 13533,
    "fifty": 12356,
    "Ġneglig": 18879,
    "Ġmetaphys": 16409,
    "icil": 17974,
    "Ġvary": 15811,
    "dining": 13709,
    "Ġseating": 18202,
    "unhappy": 10240,
    "Ġseethings": 26505,
    "Ġconsist": 1933,
    "believe": 8304,
    "Ġ131": 24781,
    "dressed": 10697,
    "visible": 10536,
    "cross": 3576,
    "Ġordered": 5833,
    "Ġapologizing": 25198,
    "ile": 521,
    "Ġmournfully": 20120,
    "Ġjokes": 18409,
    "Ġramadan": 9578,
    "pretend": 24883,
    "Ġlist": 2368,
    "Ġbridle": 24682,
    "Ġseparation": 11249,
    "Ġindependence": 12109,
    "Ġsociet": 9452,
    "Ġbolivia": 24668,
    "Ġwines": 21290,
    "Ġprecisely": 6467,
    "separation": 25227,
    "driven": 19774,
    "Ġheadlong": 11892,
    "Ġxxii": 24478,
    "impul": 16559,
    "Ġnavies": 16902,
    "rospect": 11615,
    "Ġcontroverted": 23254,
    "surprised": 9534,
    "plied": 10257,
    "homely": 25618,
    "Ġmy": 412,
    "Ġwrong": 4725,
    "Ġsale": 14157,
    "Ġpiteous": 17920,
    "Ġrevived": 11370,
    "necessarily": 19634,
    "Ġstress": 18069,
    "Ġsupport": 6730,
    "Ġrevolt": 24504,
    "Ġafforded": 8029,
    "repeat": 25155,
    "Ġfools": 14484,
    "ara": 12612,
    "ghan": 19458,
    "ï": 176,
    "getting": 12972,
    "Ġwhence": 5840,
    "Ġ35": 24078,
    "Ġforgetting": 3436,
    "Ġnupt": 13946,
    "Ġdenote": 19335,
    "wrapped": 15213,
    "Ġintercept": 14275,
    "Ġhowever": 1302,
    "Ġzones": 22820,
    "Ġpropose": 9856,
    "gun": 10099,
    "Ġsummits": 14685,
    "threadbare": 25990,
    "Ġillustrate": 25068,
    "Ġbred": 9172,
    "Ġpeterson": 9486,
    "Ġblueprints": 13174,
    "Ġexerting": 21836,
    "Ġwidows": 24239,
    "Ġalgorithms": 871,
    "Ġderiv": 1737,
    "Ġstruggling": 12079,
    "arcy": 1275,
    "ullied": 23110,
    "Ġflour": 8947,
    "share": 14240,
    "Ġdreaming": 11225,
    "Ġalleged": 17293,
    "Ġtopmost": 14589,
    "Ġsurrey": 14560,
    "thed": 8831,
    "oga": 22670,
    "persons": 24175,
    "Ġthrown": 4641,
    "pleasantness": 19773,
    "Ġpathways": 11155,
    "wers": 12524,
    "other": 1312,
    "phia": 22782,
    "Ġanticipatingly": 26103,
    "artificial": 944,
    "successfully": 14994,
    "bantering": 25254,
    "final": 19679,
    "Ġopenly": 8576,
    "ought": 829,
    "hot": 8084,
    "Ġnewcastle": 16226,
    "spin": 22729,
    "liking": 22927,
    "dozen": 23381,
    "Ġenable": 685,
    "Ġawaited": 17075,
    "Ġversion": 10632,
    "Ġraving": 16118,
    "fore": 686,
    "Ġimitation": 22175,
    "Ġacquiring": 2765,
    "Ġsunken": 14495,
    "Ġisinglass": 21806,
    "mates": 5073,
    "became": 10517,
    "Ġdum": 10813,
    "magnetic": 20555,
    "Ġ1820": 25718,
    "Ġbureau": 11593,
    "Ġcalam": 13038,
    "Ġoccasions": 7988,
    "Ġprob": 973,
    "Ġproperty": 6451,
    "coll": 23782,
    "Ġsoil": 9258,
    "Ġgasfitters": 25041,
    "Ġunce": 11715,
    "Ġgor": 9209,
    "Ġgrief": 4622,
    "ilingly": 21727,
    "Ġdetermine": 3246,
    ":--": 5784,
    "menced": 23149,
    "tarpaul": 21100,
    "Ġwra": 5907,
    "Ġbefell": 14013,
    "Ġascribed": 14858,
    "**": 4687,
    "tered": 2231,
    "Ô": 149,
    "Ġimaginative": 19249,
    "Ã¦": 4333,
    "Ġgathered": 8444,
    "Ġbrilliant": 11416,
    "Ġvig": 5460,
    "Ġdependen": 1829,
    "Ġaffecting": 2325,
    "Ġbasket": 9575,
    "aks": 8509,
    "crowning": 25749,
    "transition": 24513,
    "deepest": 22837,
    "ivot": 11722,
    "Ġfleece": 10617,
    "necessities": 24308,
    "Ġemer": 5960,
    "ark": 848,
    "Ġrise": 5637,
    "Ġhosts": 19942,
    "Ġburnwell": 13271,
    "hoped": 20912,
    "Ġextinction": 14337,
    "Ġguilt": 6181,
    "Ġprovincial": 20652,
    "romeda": 17265,
    "Ġbrighton": 6471,
    "Ġtext": 2268,
    "_,âĢĻ": 12437,
    "Ġstrateg": 1361,
    "Ġthw": 21518,
    "Ġshapes": 14112,
    "Ġdisciple": 22787,
    "Ġspeeding": 23566,
    "Ġcake": 12575,
    "Ġanother": 1738,
    "Ġfearless": 9878,
    "Ġruns": 8598,
    "Ġop": 2601,
    "cripp": 20821,
    "Ġlowering": 7987,
    "forehead": 8518,
    "owers": 12690,
    "Ġdriving": 3617,
    "Ġstarting": 7729,
    "Ġbaked": 21389,
    "icial": 12661,
    "syntax": 5868,
    "Ġanger": 5442,
    "Ġirreducible": 5519,
    "uniform": 18160,
    "avor": 14283,
    "occupied": 12308,
    "Ġmic": 17799,
    "Ġkey": 2103,
    "ollen": 11300,
    "Ġswings": 11089,
    "Ġstating": 15726,
    "inconsiderable": 21194,
    "Ġplush": 18611,
    "Ġwherever": 8526,
    "istic": 992,
    "gallery": 24694,
    "Ġmitt": 21310,
    "Ġdropped": 4470,
    "Ġplied": 22605,
    "Ġsepulchre": 20562,
    "Ġbottomless": 12111,
    "sideways": 14574,
    "Ġconfessor": 24022,
    "Ġfr": 1697,
    "actor": 11842,
    "Ġmuffled": 10643,
    "frightened": 17198,
    "soled": 14332,
    "leep": 4636,
    "Ġarsacides": 17297,
    "Ġideal": 13124,
    "Ġsmilingly": 22565,
    "Ġceased": 6469,
    "otic": 15749,
    "Ġcircle": 4977,
    "Ġaudacious": 13463,
    "Ġuntoward": 19167,
    "towards": 5003,
    "Ġ129": 24474,
    "Ġdecay": 1011,
    "Ġbelong": 3884,
    "Ġdelightfully": 13161,
    "gyric": 19111,
    "compliment": 11366,
    "Ġladder": 8601,
    "cabinet": 25080,
    "Ġpoverty": 9307,
    "assure": 9272,
    "Ġchis": 11754,
    "Ġanalyzing": 18797,
    "imin": 1770,
    "vult": 21116,
    "Ġhearken": 21688,
    "Ġmatch": 4528,
    "Ġgentleman": 3043,
    "cannon": 22967,
    "Ġcrimes": 8591,
    "movable": 14327,
    "Ġabounding": 12348,
    "Ġstrugg": 3216,
    "Ġcemeteries": 26377,
    "Ġcontinuation": 22921,
    "Ġmaria": 7126,
    "Ġboarders": 16602,
    "Ġtus": 10751,
    "Ġperfectly": 3699,
    "Ġseclusion": 18209,
    "Ġrapture": 13498,
    "Ġalone": 2566,
    "Ġimmeasurable": 26231,
    "_âĢĶâĢĻâĢĿ": 25742,
    "Ġdome": 15593,
    "ĠĠĠĠ": 459,
    "Ġvariance": 1169,
    "Ġwhaling": 2781,
    "Ġpenetrate": 12274,
    "Ġstatue": 23153,
    "Ġhysterics": 26094,
    "Ġpostpone": 17310,
    "Ġsqu": 1037,
    "counters": 25398,
    "Ġconcent": 8250,
    "Ġvanished": 6874,
    "Ġemerging": 24613,
    "piling": 15418,
    "Ġadmeasure": 18296,
    "Ġundertake": 14482,
    "rous": 3749,
    "Ġsubaltern": 22794,
    "later": 20955,
    "across": 10325,
    "Ġlive": 2733,
    "Ġso": 433,
    "Ġcontinental": 19708,
    "Ġajar": 21205,
    "Ġclub": 8877,
    "Ġcoaxing": 18600,
    "Ġlust": 9200,
    "Ġintending": 11709,
    "Ġlowermost": 23246,
    "Ġ91": 24590,
    "Ġunremitting": 26219,
    "Ġmount": 7362,
    "tempered": 13449,
    "depths": 25664,
    "fins": 13722,
    "Ġyours": 4118,
    "Ġsmoked": 10326,
    "akened": 7415,
    "Ġinsip": 19269,
    "sterdam": 19091,
    "zealand": 26055,
    "Ġnumberless": 16418,
    "ctive": 11626,
    "belais": 24041,
    "Ġslay": 16309,
    "Ġpaintings": 15058,
    "meas": 7434,
    "Ġconsecrated": 26490,
    "Ġcustom": 5078,
    "recurrent": 4994,
    "supportable": 12374,
    "Ġmany": 1107,
    "Ġsouls": 6310,
    "seeing": 7080,
    "Ġloads": 22118,
    "Ġflying": 5413,
    "Ġdescend": 7427,
    "Ġvill": 3876,
    "Ġsinister": 8572,
    "Ġliver": 14230,
    "crazy": 24692,
    "Ġextremity": 8991,
    "Ġtemperate": 16167,
    "Ġmar": 1309,
    "Ġpluck": 15618,
    "Ġ121": 24466,
    "feather": 16050,
    "Ġprom": 1527,
    "Ġhoping": 11105,
    "Ġfonder": 17882,
    "Ġhugh": 15006,
    "spent": 12947,
    "Ġhuman": 1315,
    "low": 656,
    "Ġexordium": 26494,
    "Ġstudy": 1714,
    "wretched": 10743,
    "turtle": 12216,
    "Ġcarpent": 4464,
    "arus": 13915,
    "Ġcentral": 7728,
    "carbuncle": 26384,
    "connection": 18870,
    "aked": 2013,
    "Ġdone": 1818,
    "Ġsurrounds": 24234,
    "Ġdaboll": 25951,
    "diff": 9116,
    "Ġeffusions": 18518,
    "Ġwheeling": 18287,
    "lantern": 17431,
    "Ġbigness": 19763,
    "Ġreveal": 11202,
    "<UNK>": 3,
    "gment": 4388,
    "Ġglobular": 19012,
    "Ġexhilarating": 26339,
    "www": 17254,
    "Ġinevitably": 17233,
    "Ġcrop": 10165,
    "iet": 1775,
    "factories": 19846,
    "ff": 461,
    "Ġtrumpet": 9576,
    "hampshire": 23267,
    "Ġ(`": 12858,
    "Ġharvest": 13418,
    "Ġropes": 10750,
    "iousness": 4900,
    "Ġenhancement": 23749,
    "Ġske": 4816,
    "itar": 15551,
    "establishment": 26114,
    "Ġunexpectedly": 19911,
    "Ġprescribed": 26011,
    "icket": 22673,
    "kl": 4866,
    "Ġconfide": 13102,
    "lovel": 22513,
    "ors": 854,
    "Ġvideos": 13609,
    "Ġlittle": 865,
    "penetrating": 25491,
    "Ġherd": 7888,
    "Ġheadsmen": 14735,
    "Ġconsult": 6058,
    "Ġseaward": 22950,
    "Ġyarns": 15199,
    "Ġinvaders": 23482,
    "Ġcin": 13878,
    "ersampling": 18217,
    "Ġ74": 24264,
    "venor": 16101,
    "atter": 654,
    "Ġhyper": 19742,
    "Ġcircumstance": 4987,
    "Ġwarrant": 17796,
    "Ġalways": 1698,
    "Ġhurling": 19112,
    "Ġcautiousness": 19868,
    "Ġcaring": 23097,
    "pha": 22780,
    "Ġpostmark": 16727,
    "Ġphantom": 8710,
    "Ġrivers": 9445,
    "Ġhumped": 19772,
    "ready": 2363,
    "Ġconference": 15751,
    "Ġpr": 1598,
    "aul": 6354,
    "Ġpruning": 18972,
    "Ġmicha": 17813,
    "Ġenglish": 3614,
    "sofa": 26147,
    "gird": 20881,
    "prevent": 11797,
    "aloons": 20014,
    "Ġcircumnavigation": 20403,
    "pick": 17636,
    "Ġunspeakably": 25173,
    "Ġterrific": 6756,
    "Ġfundament": 2925,
    "Ġflamingo": 15104,
    "hanging": 10103,
    "Ġmeanwhile": 5736,
    "Ġmonogram": 26576,
    "Ġgener": 589,
    "Ġarisen": 11747,
    "Ġholidays": 22925,
    "Ġinclement": 22558,
    "emberley": 4164,
    "Ġmadman": 13154,
    "Ġcollections": 22861,
    "Ġjustify": 11074,
    "umed": 6556,
    "Ġrevisit": 21673,
    "Ġrepay": 19083,
    "sighted": 19788,
    "Ġpeddling": 21485,
    "Ġdelicacy": 6342,
    "assist": 11771,
    "Ġsnatch": 14641,
    "Ġvanish": 8931,
    "Ġturing": 7566,
    "Ġcloudless": 16671,
    "Ġagitated": 7648,
    "Ġpronounce": 16970,
    "Ġneuron": 1810,
    "difference": 13711,
    "Ġshowed": 4495,
    "Ġuttered": 7280,
    "Ġenvironments": 24172,
    "umbered": 22121,
    "Ġminiature": 11041,
    "Ġwrinkles": 8574,
    "Ġgratify": 19506,
    "Ġattaining": 15807,
    "possess": 5985,
    "ank": 1366,
    "Ġoutcast": 18414,
    "lightning": 16555,
    "Ġfierc": 18713,
    "duing": 22415,
    "resemblance": 25934,
    "Ġlaudanum": 20693,
    "Ġmultitud": 18748,
    "Ġgin": 13964,
    "Ġevangel": 11282,
    "Ġdesk": 11911,
    "dham": 20832,
    "Ġacquitted": 18900,
    "offic": 7466,
    "Ġimbec": 14159,
    "venerable": 26410,
    "Ġbeacon": 21760,
    "estations": 22226,
    "provided": 13640,
    "morning": 4860,
    "Ġnugent": 26459,
    "Ġperpetually": 17071,
    "unimportant": 18162,
    "Ġhissing": 15794,
    "oct": 7554,
    "owl": 12689,
    "unmistakable": 21899,
    "Ġblacksmiths": 19875,
    "Ġcup": 5697,
    "Ġob": 860,
    "Ġunholy": 26220,
    "Ġwanting": 6723,
    "Ġwind": 1434,
    "Ġchewed": 16373,
    "Ġabutted": 22279,
    "Ġpart": 859,
    "successively": 24778,
    "Ġspas": 10924,
    "malicious": 19904,
    "Ġpitiable": 9917,
    "Ġstrained": 10221,
    "Ġbridegroom": 10607,
    "Ġorgans": 15869,
    "bitt": 17488,
    "Ġlessened": 19089,
    "Ġsanctified": 25883,
    "Ġoffic": 3188,
    "carried": 16713,
    "Ġsavag": 19377,
    "Ġaglow": 22518,
    "Ġdisorder": 16055,
    "reen": 21234,
    "Ġvindictive": 20473,
    "bedstead": 23935,
    "Ġconfirms": 23312,
    "Ġfug": 12601,
    "Ġperverseness": 13657,
    "ky": 4519,
    "Ġaccumulated": 11935,
    "Ġbleached": 24396,
    "quietude": 24656,
    "Ġswinging": 7449,
    "satisfy": 16894,
    "folding": 24928,
    "omist": 21641,
    "Ġcripple": 11442,
    "Ġbattered": 17864,
    "Ġhouse": 1503,
    "Ġcirc": 1984,
    "Ġrattling": 11397,
    "reported": 24493,
    "roqu": 21537,
    "obviously": 25243,
    "presbyterian": 26370,
    "Ġgloomy": 7504,
    "Ġoverthrow": 18433,
    "Ġbecalmed": 18089,
    "Ġricher": 12765,
    "Ġbaggy": 24538,
    "hess": 4748,
    "amb": 5723,
    "Ġhorsham": 10408,
    "listen": 13516,
    "renadier": 18420,
    "berg": 11868,
    "Ġdint": 15595,
    "earth": 6503,
    "Ġexchanged": 10880,
    "oro": 21398,
    "Ġpecks": 18673,
    "Ġsprained": 15887,
    "Ġbeheading": 21758,
    "Ġunfathomably": 25874,
    "Ġimperson": 14223,
    "renewed": 19707,
    "Ġlistened": 4468,
    "Ġunrivalled": 26521,
    "diminished": 20841,
    "Ġspire": 18307,
    "hog": 8380,
    "mph": 20974,
    "Ġsedentary": 25431,
    "Ġdetaining": 25820,
    "Ġsubmission": 22793,
    "Ġcaval": 25770,
    "rant": 11519,
    "nd": 11506,
    "Ġseasons": 9434,
    "Ġcanada": 22167,
    "road": 6679,
    "common": 4122,
    "Ġe": 311,
    "th": 407,
    "charm": 13993,
    "Ġrelief": 6061,
    "Ġhap": 18196,
    "ild": 1154,
    "Ġconsent": 5372,
    "Ġcos": 2208,
    "Ġjanuary": 13656,
    "Ġcler": 11774,
    "Ġprovidence": 18745,
    "iline": 21724,
    "Ġremarked": 3694,
    "eye": 6226,
    "prim": 23814,
    "star": 12678,
    "ravelled": 18017,
    "justice": 7958,
    "Ġbeckoning": 20505,
    "deficient": 23122,
    "Ġprender": 22239,
    "Ġrealising": 18984,
    "Ġrand": 1585,
    "Ġtaking": 3252,
    "Ġmethinks": 10381,
    "Ġhosmer": 6775,
    "germ": 15360,
    "glass": 9912,
    "het": 5435,
    "Ġnecess": 3476,
    "andes": 18154,
    "Ġhungry": 10535,
    "Ġelevate": 24502,
    "that": 850,
    "unteered": 26497,
    "Ġlubber": 17447,
    "persu": 8028,
    "Ġlustre": 15138,
    "Ġarmitage": 23583,
    "appeared": 4275,
    "Ġspy": 22127,
    "Ġoarsman": 8641,
    "Ġadjusting": 3415,
    "cherish": 24552,
    "Ġgems": 9211,
    "Ġallegro": 25795,
    "Ġconveys": 16857,
    "Ġknowledge": 1446,
    "ui": 9147,
    "Ġrheum": 18215,
    "Ġmanager": 11773,
    "Ġcotton": 17382,
    "pron": 9009,
    "Ġintervals": 5598,
    "estic": 4956,
    "Ġmiddle": 4132,
    "Ġmainz": 22651,
    "Ġconsc": 4268,
    "compose": 24035,
    "Ġtwitch": 22681,
    "Ġhands": 1667,
    "ð": 177,
    "Ġirreproachable": 24918,
    "Ġobliquely": 12366,
    "Ġstricken": 9779,
    "Ġrepresentation": 14408,
    "Ġcripp": 9656,
    "claims": 25320,
    "Ġlend": 17965,
    "onah": 3338,
    "Ġwalled": 15538,
    "horror": 13162,
    "Ġrash": 10900,
    "Ġalex": 15137,
    "Ġfruitless": 25606,
    "opÃ¦": 12878,
    "put": 414,
    "pure": 17628,
    "ckery": 22094,
    "Ġsocket": 12795,
    "words": 7983,
    "Ġalgorithm": 773,
    "invol": 12535,
    "Ġbedfellows": 23447,
    "Ġsteak": 9832,
    "Ġreached": 4018,
    "Ġdiscl": 9800,
    "Ġpretend": 7722,
    "mer": 2831,
    "Ġestates": 16461,
    "Ġshutting": 14762,
    "Ġdistingu": 2514,
    "Ġentering": 6287,
    "Ġadroop": 26002,
    "Ļ": 252,
    "ispiece": 19728,
    "Ġidolator": 20001,
    "Ġglobules": 26590,
    "Ġdepl": 14047,
    "Ġdeclines": 23966,
    "Ġpand": 21458,
    "Ġlaid": 3939,
    "derstand": 640,
    "ostent": 16848,
    "Ġenters": 11027,
    "Ġmakest": 25436,
    "chamber": 13628,
    "frank": 7758,
    "Ġshreds": 12776,
    "ology": 1459,
    "Ġsickly": 16776,
    "favouring": 24761,
    "reposed": 24492,
    "scores": 22996,
    "attending": 18918,
    "Ġomniscient": 20089,
    "gle": 20871,
    "irect": 5553,
    "Ġtransplanted": 22445,
    "Ġdraughts": 20224,
    "Ġimprovements": 14510,
    "surprise": 9533,
    "sand": 21055,
    "Ġgarn": 13966,
    "Ġlawyers": 25249,
    "Ġsubtlety": 24779,
    "Ġdaybreak": 18728,
    "rival": 12748,
    "Ġfame": 21409,
    "Ġpetty": 19598,
    "Ġlux": 8818,
    "Ġtails": 9905,
    "Ġsavann": 14686,
    "eches": 8078,
    "lands": 8241,
    "Ġemble": 13974,
    ");": 7330,
    "Ġnor": 1556,
    "ascribed": 24707,
    "magn": 10613,
    "splinter": 25211,
    "Ġhusband": 3620,
    "Ġsalad": 19482,
    "Ġgazes": 24096,
    "measured": 19993,
    "Ġentered": 2843,
    "aire": 10683,
    "Ġimproves": 22742,
    "Ġshift": 2283,
    "Ġtossed": 5816,
    "osop": 4402,
    "Ġmultiplicity": 19277,
    "Ġchildhood": 13141,
    "Ġmedit": 8025,
    "Ġincreased": 2211,
    "ellest": 21577,
    "Ġhoops": 9392,
    "Ġresponsiveness": 2894,
    "Ġwillow": 18532,
    "Ġblameless": 19861,
    "eryton": 4088,
    "un": 373,
    "Ġsagaciously": 24730,
    "startled": 24944,
    "bottom": 11428,
    "immense": 18055,
    "Ġsorry": 4203,
    "Ġcollege": 11426,
    "retch": 4367,
    "Ġdeser": 3885,
    "days": 7688,
    "Ġwashing": 9708,
    "Ġlegendary": 20540,
    "Ġsnowy": 9021,
    "Ġimpetuous": 25571,
    "Ġmomentary": 11037,
    "ifix": 21907,
    "Ġprince": 18973,
    "Ġgifted": 17999,
    "Ġunsocial": 18257,
    "Ġgen": 5298,
    "Ġcoils": 9306,
    "Ġdrawn": 4269,
    "gs": 7338,
    "urmount": 13999,
    "cull": 20811,
    "uend": 21104,
    "Ġlifts": 25359,
    "byshire": 6174,
    "Ġz": 998,
    "puzz": 17642,
    "portuguese": 25414,
    "Ġsplinters": 15106,
    "Ġinte": 2064,
    "Ġunsub": 22025,
    "base": 20779,
    "Ġwanted": 4968,
    "Ġincessant": 15101,
    "Ġtints": 17729,
    "Ġdoubtful": 19143,
    "Ġscent": 10287,
    "thousand": 5547,
    "nostril": 26561,
    "Ġcord": 5222,
    "esting": 7411,
    "Ġremot": 8546,
    "estruct": 22225,
    "Ġmarks": 6748,
    "Ġgreat": 895,
    "Ġwashed": 15769,
    "Ġslipped": 6493,
    "mid": 5617,
    "Ġgateway": 24799,
    "Ġeh": 6988,
    "ment": 691,
    "Ġparmacetti": 20607,
    "Ġgrammatical": 13541,
    "ut": 308,
    "concl": 12875,
    "Ġxxxiv": 24970,
    "Ġfl": 1280,
    "af": 2379,
    "Ġrefers": 1568,
    "Ġwretchedly": 19509,
    "Ġannual": 14835,
    "utions": 1890,
    "crowd": 25255,
    "iar": 2381,
    "Ġconsoled": 18115,
    "Ġwilful": 10537,
    "Ġimpressive": 15001,
    "Ġtemporarily": 11169,
    "Ġvessel": 3796,
    "mosp": 8089,
    "ć": 200,
    "Ġstriking": 6089,
    "Ġugl": 12688,
    "Ġdeposed": 16085,
    "avo": 8522,
    "ignified": 14492,
    "Ġhereditarily": 25225,
    "Ġmasonry": 13602,
    "Ġabide": 14190,
    "Ġheidelburgh": 11646,
    "Ġstaggering": 20276,
    "Ġdeceitful": 25733,
    "icable": 6389,
    "Ġii": 7385,
    "Ġforts": 21776,
    "Ġpled": 17909,
    "Ġsly": 9635,
    "Ġ92": 24591,
    "Ġscuff": 15946,
    "scra": 13027,
    "girl": 12322,
    "exhibited": 18478,
    "----": 4053,
    "Ġhavoc": 15817,
    "Ġemptied": 24347,
    "Ġalbatross": 10873,
    "Ġbreaching": 23350,
    "Ġcharlotte": 3888,
    "Ġoverwhelmed": 11405,
    "roman": 22008,
    "ressing": 8922,
    "george": 26020,
    "Ġcharger": 19006,
    "Ġcanterbury": 22169,
    "Ġsleeper": 8603,
    "ale": 506,
    "Ġlifeless": 8951,
    "rud": 4183,
    "Ġcyl": 15561,
    "Ġbushy": 16404,
    "consid": 4925,
    "Ġspouter": 12804,
    "Ġ12": 5483,
    "Ġconsider": 2568,
    "Ġpleaded": 16302,
    "Ġoriginate": 24121,
    "gale": 13727,
    "Ġcomforts": 14696,
    "elastic": 17983,
    "atum": 21262,
    "Ġdisengaged": 12895,
    "amount": 10886,
    "Ġparamount": 15882,
    "opard": 9294,
    "Ġcompat": 2936,
    "Ġdivulged": 16651,
    "erness": 6435,
    "Ġabound": 8867,
    "aly": 1105,
    "Ġbirds": 5875,
    "Ġresounds": 22546,
    "week": 12937,
    "Ġenergetic": 15201,
    "ĠĠ": 353,
    "Ġknows": 4153,
    "Ġbeliever": 25847,
    "Ġ54": 24318,
    "whis": 7898,
    "Ġchooses": 13350,
    "Ġretains": 20033,
    "Ġdomain": 3514,
    "inced": 3337,
    "Ġwrest": 11574,
    "Ġcomplete": 4379,
    "Ġexplicit": 3589,
    "Ġwestern": 10657,
    "type": 16177,
    "vulgar": 25919,
    "Ġplausible": 26555,
    "yra": 8103,
    "Ġregularity": 22783,
    "Ġwonders": 7500,
    "Ġjustification": 22971,
    "Ġbalmoral": 16210,
    "Ġoutlined": 22324,
    "Ġimmensely": 13598,
    "utterly": 20015,
    "iny": 4289,
    "prep": 9761,
    "beyond": 8886,
    "spee": 9320,
    "ĠĠĠĠĠĠĠĠĠĠĠĠĠĠĠĠĠĠĠĠĠĠĠĠĠĠĠĠĠĠĠĠ": 2736,
    "protest": 24812,
    "Ġelse": 2482,
    "opy": 4456,
    "twain": 23703,
    "Ġpolynesian": 26027,
    "Ġassuredly": 14824,
    "oved": 5215,
    "Ġmight": 965,
    "coo": 11172,
    "ver": 331,
    "Ġdepresses": 25798,
    "unching": 18161,
    "Ġpunct": 8664,
    "Ġjoyously": 19350,
    "Ġpresently": 5116,
    "se": 357,
    "Ġchalk": 15937,
    "Ġup": 463,
    "Ġcalifornian": 25853,
    "anges": 1676,
    "burnt": 20083,
    "ison": 3078,
    "Ġundecided": 22050,
    "Ġwakes": 11575,
    "Ġhealthcare": 8016,
    "Ġ52": 24317,
    "distant": 13338,
    "gn": 8082,
    "Ġstupendous": 20504,
    "Ġgnawed": 25168,
    "Ġservants": 6612,
    "Ġindolence": 16231,
    "strangers": 20339,
    "tolerable": 17690,
    "Ġost": 9652,
    "÷": 184,
    "Ġappeals": 16320,
    "Ġdau": 21428,
    "Ġlunch": 13528,
    "inno": 10758,
    "persecut": 22184,
    "Ġonly": 792,
    "Ġbab": 5291,
    "france": 24284,
    "Ġtruck": 19514,
    "Ġemerge": 14931,
    "float": 19808,
    "Ġfiftieth": 24702,
    "usions": 6161,
    "drovand": 24759,
    "ively": 1316,
    "Ġagitation": 6865,
    "Ġmed": 4170,
    "ignant": 11131,
    "Ġpreser": 6042,
    "unch": 14061,
    "ceiving": 3900,
    "Ġtalker": 23374,
    "Ġforswe": 21778,
    "Ġcrime": 4618,
    "thus": 5158,
    "drawn": 9916,
    "dying": 15344,
    "Ġslave": 7454,
    "unction": 10237,
    "Ġgemini": 26471,
    "Ġguiding": 19243,
    "Ġrashly": 20308,
    "Ġmissed": 8559,
    "Ġstructure": 849,
    "Ġalph": 9698,
    "itying": 21998,
    "ich": 470,
    "Ġilluminating": 25246,
    "Ġsenate": 25215,
    "Ġindisc": 16230,
    "Ġclings": 15970,
    "Ġoverwhel": 8197,
    "inspector": 13649,
    "Ġcongratulations": 10583,
    "Ġconstitutional": 25128,
    "Ġinsect": 12642,
    "uttering": 12668,
    "furn": 10094,
    "Ġgasped": 11374,
    "au": 778,
    "Ġbullion": 24986,
    "Ġsurface": 5119,
    "mother": 5480,
    "Ġseizing": 7879,
    "yards": 9626,
    "Ġforever": 14554,
    "Ġseeth": 21964,
    "Ġwolves": 25935,
    "zers": 21149,
    "Ġxxxii": 24973,
    "rove": 21536,
    "Ġfortun": 4982,
    "Ġrug": 16161,
    "spike": 16142,
    "Ġsur": 2183,
    "Ġrucastles": 18722,
    "quit": 15766,
    "Ġmarking": 16470,
    "ro": 301,
    "Ġriots": 23895,
    "Ġattachment": 6051,
    "idelburgh": 10564,
    "Ġsuffice": 18871,
    "sim": 6511,
    "inforcement": 3006,
    "Ġsect": 17753,
    "Ġventured": 7501,
    "Ġhieroglyphics": 17306,
    "Ġpairs": 4175,
    "Ġburg": 23653,
    "courage": 17512,
    "grant": 10429,
    "Ġwished": 3727,
    "hers": 7636,
    "Ġfound": 1246,
    "Ġdisown": 22528,
    "makes": 10713,
    "hip": 8744,
    "mistakable": 20655,
    "angel": 5726,
    "Ġleaves": 5021,
    "Ġpower": 1224,
    "Ġcommonest": 23095,
    "Ġwreaths": 25938,
    "Ġstrife": 18614,
    "Ġrhyme": 21982,
    "Ġwriters": 13545,
    "Ġdebility": 24275,
    "spades": 14334,
    "destruction": 11257,
    "trowsers": 17693,
    "cele": 21628,
    "itude": 1420,
    "state": 13982,
    "Ġowest": 25094,
    "coronet": 16865,
    "Ġbordeaux": 24565,
    "Ġshout": 4258,
    "Ġwhale": 628,
    "Ġmoney": 3420,
    "Ġincess": 8432,
    "atched": 6376,
    "aset": 10834,
    "Ġpinch": 15019,
    "Ġbuttoning": 17238,
    "Ġfight": 5366,
    "Ġpin": 7162,
    "twelvemonth": 25863,
    "Ġleaned": 7608,
    "Ġconflagration": 26366,
    "ompl": 4535,
    "Ġsubfield": 11873,
    "ult": 721,
    "Ġbroke": 5323,
    "Ġsimulates": 2737,
    "Ġchaise": 9079,
    "ifling": 15787,
    "Ġhypothesis": 14786,
    "Ġlanterns": 24578,
    "belief": 13284,
    "bery": 9798,
    "Ġports": 10820,
    "orers": 14106,
    "Ġane": 9184,
    "_).âĢĶ": 8685,
    "advance": 12161,
    "Ġchristendom": 16696,
    "spark": 18687,
    "Ġspices": 22134,
    "Ġwoman": 2389,
    "sleepy": 24728,
    "Ġfumes": 21421,
    "Ġagreement": 18543,
    "{": 95,
    "ivil": 6412,
    "Ġlift": 8815,
    "Ġloss": 823,
    "Ġadmon": 15872,
    "Ġlandau": 16423,
    "usoid": 4768,
    "Ġinfinite": 8580,
    "water": 4869,
    "Ġdictionaries": 12344,
    "dreadful": 11423,
    "Ġtopic": 9409,
    "dden": 1806,
    "Ġdesmarest": 22984,
    "Ġubiquitous": 26197,
    "Ġbounce": 21396,
    ".;": 20746,
    "named": 9894,
    "Ġbones": 4585,
    "Ġbarrow": 12074,
    "Ġassistance": 6335,
    "/*": 10074,
    "Ġantique": 19554,
    "Ġcultured": 25158,
    "Ġwhite": 1541,
    "Ġfiles": 21416,
    "izing": 1070,
    "Ġmariner": 7247,
    "Ġwicked": 5962,
    "Ġaccommod": 14215,
    "Ġredeem": 20503,
    "Ġhastened": 9007,
    "olerably": 11676,
    "exc": 5169,
    "Ġpalpit": 16692,
    "Ġmonica": 22988,
    "Ġcheers": 16369,
    "Ġhapp": 1091,
    "Ġapology": 8328,
    "acknowledged": 15206,
    "Ġsighing": 18677,
    "sies": 21057,
    "?_âĢĿ": 12320,
    "Ġcool": 5735,
    "Ġdreading": 23801,
    "Ġdemanded": 8327,
    "Ġco": 730,
    "uff": 2729,
    "masterly": 24530,
    "battle": 12446,
    "atigable": 15274,
    "Ġmatlock": 18806,
    "Ġunlim": 18254,
    "est": 498,
    "Ġdesist": 16242,
    "Ġcrack": 7710,
    "Ġbolted": 12249,
    "Ġcus": 21346,
    "Ġat": 395,
    "Ġglance": 4226,
    "Ġreplied": 2265,
    "asper": 7855,
    "Ġfinishing": 23129,
    "contempl": 13192,
    "gar": 5615,
    "Ġflew": 5587,
    "Ġmagnus": 18961,
    "companions": 15026,
    "fate": 17541,
    "Ġmeridians": 17358,
    "Ġpovels": 22600,
    "Ġcopper": 7425,
    "uled": 11539,
    "achusetts": 20712,
    "Ġgestic": 21611,
    "ignorantly": 25190,
    "properly": 24919,
    "Ġsend": 4101,
    "ittance": 12851,
    "Ġclient": 5556,
    "Ġslides": 18941,
    "hauled": 20671,
    "ption": 7398,
    "Ġsurprised": 3828,
    "but": 592,
    "breeze": 20565,
    "==": 946,
    "Ġdemo": 10881,
    "Ġsort": 1507,
    "Ġspo": 6846,
    "Ġperuvian": 18453,
    "Ġbeheld": 4491,
    "Ġchowder": 10282,
    "Ġfirm": 3868,
    "Ġsanguinary": 25930,
    "Ġfears": 5729,
    "Ġdocumentation": 20557,
    "Ġplaint": 10328,
    "Ġparting": 9787,
    "Ġsoon": 1227,
    "tal": 17672,
    "Ġcoolly": 9775,
    "Ġespe": 21158,
    "ester": 11601,
    "Ġesteem": 7531,
    "Ġwriting": 4669,
    "Ġdated": 10940,
    "Ġblankets": 24612,
    "Ġbeque": 18083,
    "precaution": 23826,
    "Ġschol": 17380,
    "Ġsevent": 18203,
    "Ġinformation": 1048,
    "Ġfergus": 16869,
    "moment": 3579,
    "Ġperils": 6274,
    "Ġrecalled": 8540,
    "ruit": 22191,
    "pyramid": 21032,
    "Ġinject": 2709,
    "iom": 20917,
    "Ġintricacies": 15142,
    "Ġrum": 5925,
    "ubb": 1653,
    "Ġmagnanim": 14477,
    "Ġcomprehensive": 15091,
    "Ġchewing": 23287,
    "Ġpermitted": 9281,
    "user": 5105,
    "Ġnigh": 4879,
    "Ġkent": 6693,
    "tub": 9146,
    "Ġleap": 5825,
    "Ġoperations": 2300,
    "extent": 22769,
    "Ġpoison": 7219,
    "pped": 1996,
    "rote": 4594,
    "Ġsickening": 19607,
    "Ġsubtile": 20383,
    "welcomed": 24645,
    "Ġhudson": 15195,
    "ķ": 248,
    "Ġinvolving": 18765,
    "Ġlass": 15652,
    "keepers": 16662,
    "Ġfellows": 8257,
    "Ġpers": 1355,
    "Ġsatan": 14393,
    "Ġdegrad": 2588,
    "_,âĢĻâĢĿ": 20404,
    "Ġthrees": 23404,
    "arness": 11675,
    "Ġdexterity": 25295,
    "pendicular": 6500,
    "Ġreverie": 13460,
    "Ġconfeder": 25708,
    "hist": 7132,
    "Ġharbor": 10030,
    "Ġactive": 7915,
    "gy": 2098,
    "Ġsubmitted": 11875,
    "ains": 5094,
    "endeavouring": 15018,
    "Ġretired": 6072,
    "Ġvoyage": 3057,
    "Ġdepends": 1050,
    "Ġpainter": 19170,
    "!âĢĶ": 2457,
    "Ġgodson": 23361,
    "Ġsoutherly": 23336,
    "soc": 5175,
    "irms": 18171,
    "Ġarist": 14164,
    "Ġsee": 804,
    "worship": 19390,
    "Ġmyster": 5927,
    "Ġoutlandish": 12844,
    "Ġcontour": 18475,
    "Ġscreams": 24604,
    "Ġrepressed": 21671,
    "Ġinclosed": 19541,
    "sorting": 17006,
    "Ġunchanged": 22033,
    "Ġchrist": 4068,
    "Ġpert": 22399,
    "Ġsh": 419,
    "reve": 12544,
    "Ġvexed": 9997,
    "Ġfleetness": 20182,
    "Ġtrepidation": 19217,
    "ocratic": 17247,
    "Ġstairs": 5541,
    "melancholy": 12357,
    "Ġpatted": 16374,
    "threshold": 21991,
    "Ġante": 17898,
    "Ġharder": 14452,
    "Ġpompous": 20426,
    "Ġtinker": 15135,
    "Ġdutch": 6329,
    "Ġtruthful": 23870,
    "affold": 16565,
    "counter": 20281,
    "thine": 15828,
    "attentive": 17192,
    "Ġsafety": 6341,
    "merged": 11195,
    "yden": 21146,
    "Ġoblige": 10491,
    "Ġanat": 8124,
    "Ġfat": 3462,
    "amples": 1823,
    "thrust": 10264,
    "Ġserpents": 13080,
    "Ġcongratulate": 9066,
    "Ġhalls": 19528,
    "Ġrumours": 24599,
    "ers": 405,
    "imprisonment": 23765,
    "enary": 12556,
    "practical": 17224,
    "mediate": 16516,
    "odhead": 18121,
    "Ġobstin": 14956,
    "Ġlicensing": 20096,
    "shold": 2771,
    "Ġtoilings": 24741,
    "Ġweights": 898,
    "Ġdiscipl": 22788,
    "ashion": 3857,
    "Ġblunt": 11898,
    "Ġskewer": 19623,
    "iality": 8848,
    "camp": 15333,
    "permission": 15900,
    "Ġcheeks": 5959,
    "Ġpoland": 23619,
    "fal": 17538,
    "Ġgomorrah": 21618,
    "Ġobstacles": 19838,
    "Ġast": 2961,
    "Ġreflect": 6577,
    "Ġexpensive": 12923,
    "Ġvariants": 1793,
    "dering": 5307,
    "singing": 24363,
    "mn": 3577,
    "ops": 5248,
    "Ġnatural": 1124,
    "nant": 17611,
    "Ġfugitive": 17330,
    "Ġanecd": 20157,
    "mped": 16650,
    "mastod": 23977,
    "Ġsense": 3253,
    "honour": 13470,
    "caps": 20809,
    "Ġantichron": 24182,
    "programming": 10066,
    "Ġpreviously": 3918,
    "big": 13689,
    "bbing": 6325,
    "tumultuously": 25614,
    "Ġjackal": 24242,
    "Ġblushed": 13006,
    "Ġanchored": 17443,
    "Ġforbear": 17124,
    "Ġmien": 17810,
    "Ġmalady": 24392,
    "itates": 13872,
    "Ġlonged": 6437,
    "stat": 21647,
    "Ġunconscious": 9550,
    "Ġshortened": 23484,
    "ines": 678,
    "cheeks": 23810,
    "gener": 3128,
    "Ġlawyer": 10671,
    "Ġmanner": 2195,
    "Ġoccurring": 2790,
    "sequ": 2404,
    "Ġburgled": 23655,
    "Ġexpiring": 16099,
    "Ġbehav": 3540,
    "Ġestimates": 3745,
    "Ġnoises": 18374,
    "Ġprompted": 23820,
    "Ġnominally": 17234,
    "minds": 24235,
    "Ġdescent": 972,
    "Ġwhereon": 16105,
    "Ġdrily": 23542,
    "track": 24335,
    "pointing": 12229,
    "Ġoppress": 13175,
    "Ġordering": 18998,
    "Ġfoes": 11956,
    "circumstances": 8047,
    "caught": 8730,
    "quer": 11681,
    "Ġboiling": 8528,
    "Ġsatirical": 26281,
    "âĢľâĢĺ": 1485,
    "authority": 13594,
    "Ġdeaf": 12727,
    "Ġcircling": 19094,
    "asted": 4651,
    "Ġhorrors": 10482,
    "Ġfurnishing": 16648,
    "Ġsmiled": 5942,
    "Ġbringing": 5871,
    "Ġreappearance": 21670,
    "Ġpot": 2992,
    "Ġcrozetts": 19632,
    "Ġcommencement": 12243,
    "Ġgra": 415,
    "Ġstrategies": 1839,
    "eager": 12464,
    "character": 6333,
    "Ġdark": 2113,
    "experience": 17161,
    "Ġwilfully": 16768,
    "Ġmahogany": 20581,
    "Ġdoubtfully": 23479,
    "cursed": 23847,
    "Ġducking": 17149,
    "madness": 14885,
    "pinn": 21028,
    "Ġmeddling": 21323,
    "Ġblaming": 22933,
    "attributed": 23125,
    "lets": 7836,
    "Ġklan": 23661,
    "arth": 4441,
    "Ġcheek": 8581,
    "Ġedged": 23489,
    "Ġshivered": 14111,
    "rigging": 20009,
    "Ġsnarled": 25715,
    "Ġcalculates": 13268,
    "Ġpreferred": 14969,
    "Ġpossess": 3204,
    "plete": 10921,
    "whel": 7665,
    "Ġcynicism": 25772,
    "jackets": 24896,
    "Ġrelated": 3713,
    "Ġbless": 4338,
    "Ġauthent": 14508,
    "Ġmothers": 14542,
    "Ġflint": 23013,
    "Ġbidirectional": 3752,
    "aug": 1212,
    "Ġmerry": 5870,
    "ougher": 18276,
    "ims": 7177,
    "untarily": 6314,
    "springing": 24890,
    "Ġheighten": 19532,
    ";--": 8069,
    "Ġdaring": 8121,
    "Ġmethodic": 23073,
    "Ġbowled": 23772,
    "longer": 8616,
    "despairing": 25077,
    "Ġfasten": 11134,
    "Ġretreating": 19802,
    "Ġconditions": 8307,
    "Ġlucifers": 16590,
    "sprit": 11384,
    "Ġwallowing": 24046,
    "Ġmuzzle": 21324,
    "preading": 18492,
    "Ġsuits": 22087,
    "Ġhuggins": 24826,
    "atived": 21265,
    "ification": 1001,
    "Ġtass": 15472,
    "Ġwaning": 15537,
    "Ġstable": 2697,
    "Ġdevote": 10341,
    "Ġmexic": 14035,
    "Ġken": 22196,
    "unalterable": 21890,
    "Ġoppressively": 25711,
    "Ġsquare": 2398,
    "¹": 122,
    "Ġcontrari": 23352,
    "shoulder": 16586,
    "bellies": 19977,
    "Ġhighly": 4846,
    "Ġvishnoo": 12759,
    "Ġstrenuously": 17451,
    "Ġsearching": 13165,
    "Ġhoofs": 14529,
    "rics": 13042,
    "geons": 15983,
    "Ġstuffed": 13412,
    "Ġwits": 15535,
    "Ġgrandeur": 8631,
    "Ġintrepid": 11710,
    "Ġgap": 21602,
    "doesn": 19823,
    "Ġpremeditated": 22238,
    "ainted": 3658,
    "Ġmarsh": 9824,
    "convenient": 12242,
    "Ġwooden": 4731,
    "neighbour": 7211,
    "biting": 20783,
    "Ġacres": 14316,
    "Ġwealth": 7621,
    "Ġarea": 14189,
    "Ġharpo": 1942,
    "Ġhebrew": 13991,
    "âĢĶ(": 15942,
    "itives": 17821,
    "Ġviews": 7290,
    "Ġdrawings": 14725,
    "ashed": 3781,
    "Ġprint": 18971,
    "Ġreading": 5114,
    "Ġtrump": 8195,
    "worse": 14693,
    "Ġcontinual": 6778,
    "Ġaunt": 3178,
    "consolatory": 25307,
    "Ġvolcano": 24147,
    "atch": 672,
    "Ġkn": 4545,
    "Ġsatisfactory": 11194,
    "Ġarmada": 23582,
    "Ġphilistines": 26083,
    "Ġcruelty": 9972,
    "taste": 10132,
    "ribut": 815,
    "Ġsuper": 2153,
    "calcul": 12991,
    "Ġreplen": 11117,
    "Ġclay": 7021,
    "ixed": 4853,
    "quee": 4124,
    "Ġzeros": 3326,
    "ubbub": 23247,
    "woe": 21138,
    "Ġfathers": 16299,
    "Ġtrem": 6662,
    "console": 22477,
    "Ġmanxman": 9568,
    "Ġprocess": 561,
    "Ġsaville": 15893,
    "Ġstyle": 6946,
    "Ġmeddle": 20580,
    "Ġforgiveness": 16659,
    "rifled": 21050,
    "fters": 20863,
    "Ġacquainted": 5179,
    "peleg": 16297,
    "unct": 18157,
    "Ġdecided": 5471,
    "Ġsuspect": 5758,
    "Ġdrawer": 13269,
    "Ġhers": 7889,
    "Ġtransfer": 2378,
    "Ġdromed": 15601,
    "Ġwatson": 3597,
    "Ġunscrew": 22042,
    "task": 13796,
    "Ġ46": 19494,
    "Ġcrests": 25686,
    "Ġlayers": 816,
    "forward": 2187,
    "Ġcaulk": 25441,
    "Ġaffectionately": 13171,
    "mindful": 19602,
    "Ġfretfully": 25448,
    "Ġoverspread": 14209,
    "windward": 24160,
    "ole": 9616,
    "Ġdressing": 7092,
    "emotion": 21934,
    "Ġpressed": 6043,
    "Ġcrooked": 11283,
    "Ġdisappearing": 22537,
    "Ġalmanac": 26487,
    "oused": 6558,
    "Ġleaks": 16447,
    "favourite": 15147,
    "Ġdegraded": 19229,
    "Ġdistressed": 8516,
    "Ġparacelsus": 15270,
    "won": 8395,
    "turn": 4287,
    "Ġinfinitely": 8966,
    "fishers": 24929,
    "Ġswain": 18882,
    "Ġbildad": 3778,
    "Ġtexel": 25924,
    "Ġrevolved": 9987,
    "ually": 2768,
    "Ġfrankly": 16747,
    "Ġjunk": 15957,
    "Ġcharity": 8866,
    "leather": 13893,
    "Ġbust": 10170,
    "guilt": 24072,
    "spell": 22730,
    "Ġopinions": 9418,
    "Ġhey": 11644,
    "Ġfitting": 21411,
    "elect": 20848,
    "Ġfluctu": 5268,
    "Ġsubjected": 23574,
    "remarks": 23192,
    "×": 152,
    "Ġsupremacy": 20263,
    "Ġcrib": 21351,
    "Ġpossession": 5589,
    "Ġleyden": 21751,
    "cont": 2919,
    "Ġsorting": 3235,
    "osis": 18390,
    "Ġprank": 23222,
    "Ġtheir": 644,
    "Ġcolonel": 3409,
    "softened": 20413,
    "Ġwood": 2293,
    "tt": 13793,
    "ĠĠĠĠĠĠĠĠĠĠĠĠĠĠĠĠ": 1219,
    "Ġchaos": 17011,
    "Ġfish": 2708,
    "bable": 8722,
    "_": 67,
    "haz": 17566,
    "Ġunaccount": 22029,
    "Ġdivinely": 25723,
    "gra": 769,
    "lorious": 17594,
    "Ġconjunction": 25103,
    "Ġchannels": 26014,
    "Ġtry": 3136,
    "tiest": 21084,
    "Ġunmo": 12779,
    "Ġforgive": 8010,
    "Ġweaken": 21925,
    "Ġbeside": 5192,
    "bal": 2155,
    "pleasures": 24049,
    "susceptible": 24662,
    "pursu": 11394,
    "cavity": 26127,
    "Ġensemble": 1607,
    "Ġcharacter": 2792,
    "susp": 10599,
    "Ġmysteries": 11324,
    "Ġreg": 729,
    "superst": 11327,
    "ologies": 18756,
    "ouncement": 11749,
    "rom": 420,
    "recover": 24623,
    "seated": 11674,
    "Ġincorrect": 2727,
    "playful": 24357,
    "Ġcondensed": 24055,
    "Ġgrated": 22807,
    "alleging": 23026,
    "#": 7,
    "Ġcatches": 23429,
    "erring": 11059,
    "skinned": 25388,
    "Ġchopping": 24222,
    "Ò": 147,
    "Ġcatastrop": 3348,
    "Ġhearts": 4972,
    "Ġrecords": 12200,
    "Ġlashing": 11619,
    "Ġcanes": 22165,
    "Ġsanction": 20029,
    "onel": 3093,
    "evidently": 20348,
    "Ġandes": 12647,
    "Ġwriggling": 15261,
    "Ġsobbed": 14139,
    "Ġmot": 2987,
    "Ġruins": 16162,
    "Ġreception": 9842,
    "australian": 20564,
    "Ġdoubts": 8583,
    "Ġwhichever": 14003,
    "Ġtalk": 1968,
    "hatches": 19930,
    "holland": 24044,
    "stream": 15691,
    "Ġnearest": 8472,
    "Ġceases": 19314,
    "Ġwhim": 14002,
    "asleep": 21547,
    "eland": 11623,
    "dashing": 20838,
    "gravel": 22623,
    "rannical": 26403,
    "entered": 8819,
    "Ġdilatory": 24704,
    "illity": 18297,
    "Ġlewis": 15729,
    "Ġcandidate": 16700,
    "Ġanimal": 2499,
    "Ġbride": 6293,
    "Ġkra": 18349,
    "confid": 14870,
    "Ġpiping": 23228,
    "Ġmorass": 22979,
    "Ġlightness": 23263,
    "description": 11096,
    "uing": 17695,
    "Ġmarked": 4621,
    "Ġangular": 19209,
    "sac": 7142,
    "cheer": 9440,
    "Ġbeaks": 21759,
    "residence": 19265,
    "Ġvoracity": 25987,
    "important": 7114,
    "Ġcomputational": 1627,
    "Ġpreaching": 15930,
    "Ġsummoned": 9914,
    "Ġpaved": 17915,
    "gives": 15361,
    "Ġjur": 12840,
    "###": 3825,
    "Ġrelinquish": 17350,
    "ustration": 2260,
    "Ġmanif": 8874,
    "Ġpresents": 8245,
    "uten": 11625,
    "Ġcous": 3438,
    "Ġtout": 17721,
    "thrasher": 25659,
    "Ġbond": 21387,
    "Ġpitches": 23905,
    "Ġosc": 2833,
    "Ġcooking": 16649,
    "Ġparacels": 13671,
    "Ġadmits": 23557,
    "ĠĠĠĠĠĠĠĠĠĠĠĠĠĠĠĠĠĠĠĠĠĠĠĠĠĠĠĠĠĠĠĠĠ": 12047,
    "Ġsu": 432,
    "Ġharpoon": 3616,
    "Ġfarthest": 23121,
    "Ġshad": 3848,
    "Ġbarber": 23792,
    "called": 6294,
    "Ġemaciated": 20641,
    "andy": 8158,
    "Ġplaster": 16088,
    "Ġskirting": 22800,
    "sincere": 16909,
    "Ġthreads": 13121,
    "inished": 17736,
    "Ġpadded": 25039,
    "Ġubiqu": 18049,
    "Ġeavesdroppers": 25964,
    "Ġpurchase": 12264,
    "Ġargue": 16785,
    "grave": 16098,
    "Ġplacid": 11830,
    "Ġ59": 24323,
    "Ġ1991": 3019,
    "i": 77,
    "Ġamateur": 22489,
    "vous": 2253,
    "Ġmutable": 23958,
    "Ġunlocking": 20708,
    "Ġreddening": 25971,
    "Ġmerits": 13197,
    "Ġoptim": 786,
    "erity": 21270,
    "Ġcart": 11586,
    "springs": 24912,
    "tossed": 10999,
    "Ġsuckling": 25998,
    "Ġmajor": 13295,
    "Ġdomineering": 23674,
    "Ġartist": 12918,
    "reserved": 13846,
    "Ġreproach": 9559,
    "Ġstarry": 16925,
    "Ġfortifications": 23622,
    "Ġtorture": 9067,
    "Ð": 145,
    "Ġstately": 9837,
    "Ġscaled": 2107,
    "Ġdwelling": 7322,
    "snow": 10726,
    "embarr": 17295,
    "Ġnailed": 10192,
    "explaining": 23147,
    "Ġjoining": 13167,
    "Ġsword": 6734,
    "Ġsatisfy": 6912,
    "Ġpolitic": 23620,
    "Ġdrows": 21438,
    "Ġglobu": 23274,
    "twilight": 23705,
    "Ġscents": 22286,
    "quis": 7870,
    "Ġtumbled": 13409,
    "Ġjam": 10953,
    "fallen": 19662,
    "direful": 25897,
    "Ġhessian": 3548,
    "abhorred": 17339,
    "beef": 18524,
    "Ġcandelab": 23852,
    "Ġimputed": 12814,
    "Ġsty": 6253,
    "pointed": 9811,
    "sulphur": 25910,
    "comp": 3814,
    "Ġspread": 5161,
    "Ġshyness": 20309,
    "Ġleads": 12101,
    "reporting": 24494,
    "Ġdrinks": 24282,
    "action": 3724,
    "Ġseeks": 14306,
    "Ġnarwhales": 24903,
    "gods": 13370,
    "okened": 15988,
    "Ġharpooned": 13265,
    "Ġglimp": 6067,
    "Ġaspect": 3099,
    "Ġegyptian": 13589,
    "qualified": 17099,
    "strength": 13983,
    "icide": 11621,
    "Ġcellar": 8059,
    "Ġcoal": 18595,
    "olera": 21837,
    "Ġguide": 3215,
    "itely": 5365,
    "Ġaccompany": 9490,
    "backed": 9869,
    "groom": 8743,
    "ppery": 10894,
    "Ġentropy": 2028,
    "Ġnerves": 2626,
    "string": 15690,
    "Ġgardiner": 3239,
    "Ġembarks": 22964,
    "Ġaccess": 9750,
    "Ġsubstantiated": 25876,
    "ull": 1432,
    "beh": 5472,
    "Ġcatch": 4439,
    "Ġwed": 7575,
    "Ġattitude": 8907,
    "requent": 3649,
    "garn": 20872,
    "pres": 16028,
    "Ġengagement": 5397,
    "Ġtook": 1856,
    "deceptive": 22153,
    "Ġexample": 5096,
    "Ġbrack": 23839,
    "Ġwords": 1323,
    "Ġproofs": 19817,
    "Ġimpetuously": 20375,
    "Ġturbulence": 26599,
    "Ġreplaced": 13075,
    "Ġxii": 11995,
    "Ġfad": 17878,
    "Ġimply": 18444,
    "ringle": 21043,
    "flesh": 13493,
    "urged": 18051,
    "Ġcanaller": 25468,
    "Ġloops": 8856,
    "inferior": 12398,
    "Ġ81": 24457,
    "Ġital": 10868,
    "olstadt": 7789,
    "Ġgettest": 23236,
    "Ġcharted": 22254,
    "Ġpads": 21477,
    "Ġfainter": 14917,
    "gh": 3798,
    "Ġplague": 11828,
    "commun": 15036,
    "Ġbreakfast": 3972,
    "Ġmighty": 4223,
    "Ġroses": 11790,
    "Ġfor": 340,
    "Ġplying": 17916,
    "neighbourhood": 10028,
    "Ġtimely": 19597,
    "Ġalleg": 14020,
    "Ġfleshy": 24615,
    "haustible": 16893,
    "iates": 13740,
    "hoist": 23716,
    "rosc": 17957,
    "Ġlearnedly": 23389,
    "Ġquill": 12863,
    "Ġundeceive": 25553,
    "readily": 19365,
    "Ġinterfere": 11821,
    "Ġawaken": 23588,
    "blades": 24130,
    "Ġcolder": 22858,
    "Ġsix": 3046,
    "court": 7511,
    "Ġlysander": 13142,
    "Ġfate": 4755,
    "uture": 1045,
    "Ġproport": 2299,
    "Ġtinted": 13825,
    "Ġinfer": 7684,
    "resum": 17763,
    "isting": 5551,
    "Ġmoustache": 20487,
    "Ġobjects": 5578,
    "Ġpsalmody": 20588,
    "Ġtorpor": 25034,
    "bons": 17489,
    "che": 3172,
    "ĠĠĠĠĠĠĠĠĠĠĠĠĠĠĠĠĠĠĠĠĠĠĠĠĠĠĠĠĠ": 19702,
    "Ġtrace": 6183,
    "algorithms": 8302,
    "Ġcharcoal": 19008,
    "Ġhappiness": 2943,
    "americ": 8156,
    "Ġoozy": 21330,
    "Ġethiopian": 26615,
    "Ġspeedily": 7712,
    "incible": 16499,
    "legs": 13185,
    "while": 2933,
    "Ġmagnanimous": 17414,
    "rium": 3135,
    "umbs": 14692,
    "Ġdelight": 2548,
    "uts": 8820,
    "Ġterra": 13120,
    "Ġpurchas": 19876,
    "Ġsquad": 22840,
    "Ġlightened": 23264,
    "Ġkettle": 26234,
    "importance": 9992,
    "anxiously": 15114,
    "opposition": 24820,
    "land": 1532,
    "Ġmoran": 9345,
    "Ġunnatural": 7190,
    "Ġfibres": 12956,
    "Ġdispleasure": 16056,
    "studied": 17152,
    "Ġcanvassed": 19938,
    "iogn": 20923,
    "barb": 10083,
    "Ġdepths": 4321,
    "ures": 837,
    "Ġsnoo": 21231,
    "erpillar": 5798,
    "Ġbro": 1431,
    "books": 8667,
    "Ġrecesses": 17263,
    "Ġ179": 19757,
    "fuller": 22490,
    "Ġpill": 7846,
    "committed": 18746,
    "Ġlethar": 21750,
    "warning": 25532,
    "Ġuseless": 7039,
    "uncle": 8159,
    "scot": 14421,
    "Ġevents": 4471,
    "Ġravings": 18647,
    "Ġtermination": 16462,
    "mers": 9613,
    "made": 4809,
    "Ġexpiration": 22626,
    "Ġwarriors": 19726,
    "Ġrespectful": 16349,
    "great": 3517,
    "Ġoars": 3895,
    "Ġbeget": 9228,
    "Ġcuts": 14609,
    "Ġthr": 5709,
    "Ġsuccession": 12106,
    "commanding": 24751,
    "21": 10075,
    "Ġgale": 5823,
    "Ġrepeat": 8000,
    "Ġsprawling": 22143,
    "warp": 17708,
    "Ġrewarding": 13440,
    "Ġthistle": 21920,
    "Ġcups": 16884,
    "Ġ89": 19715,
    "Ġpeaks": 16132,
    "Ġsimpleton": 16338,
    "Ġmiller": 19885,
    "Ġtatters": 21180,
    "Ġstraightened": 12113,
    "Ġpudding": 17918,
    "thinks": 16644,
    "Ġdig": 6137,
    "erately": 21276,
    "cheerful": 13578,
    "Ġmantle": 25275,
    "Ġskeletons": 16793,
    "every": 2809,
    "Ġresponses": 23650,
    "apprec": 22847,
    "imodal": 17450,
    "Ġpeev": 22698,
    "Ġunavailing": 26217,
    "Ġrods": 9757,
    "Ġsubstances": 24165,
    "ter": 359,
    "idated": 11664,
    "characteristic": 24686,
    "wondrous": 12342,
    "Ġcrystals": 20230,
    "Ġunconnected": 18243,
    "aven": 8210,
    "Ġage": 3894,
    "Ġhails": 21954,
    "Ġtierce": 15481,
    "Ġlic": 8437,
    "Ġignoble": 19402,
    "Ġnormal": 1203,
    "unders": 13314,
    "Ġpredefined": 20720,
    "benevolent": 15237,
    "Ġcanall": 10930,
    "passed": 8026,
    "onday": 6065,
    "Ġchanges": 2287,
    "Ġsuspicions": 9482,
    "Ġexclam": 6759,
    "Ġscaramouch": 23831,
    "Ġwherefore": 8527,
    "strongly": 24685,
    "preserving": 25305,
    "etimes": 1986,
    "ceiling": 21630,
    "lording": 24053,
    "Ġdoes": 943,
    "Ġgriev": 16637,
    "jac": 8382,
    "Ġbefitting": 15730,
    "Ġcontributed": 16013,
    "Ġtasted": 12534,
    "Ġexeget": 24085,
    "Ġlvi": 21556,
    "omet": 3079,
    "Ġperformance": 1305,
    "Ġdeficient": 18826,
    "Ġhides": 16266,
    "Ġdents": 13914,
    "Ġdissatisfied": 14259,
    "Ġorbs": 22096,
    "Ġplays": 12041,
    "effectually": 25131,
    "companies": 24895,
    "Ġmain": 810,
    "sole": 6170,
    "Ġhumility": 12988,
    "Ġninetieth": 25358,
    "Ġimpenit": 22394,
    "nine": 13764,
    "Ġjabbering": 22307,
    "Ġcommunicates": 24547,
    "iceland": 21569,
    "omination": 21645,
    "began": 6427,
    "Ġseemingly": 9321,
    "passage": 11263,
    "Ġspoil": 17009,
    "Ġusher": 22227,
    "idol": 21770,
    "allowing": 24358,
    "leagues": 21376,
    "Ġaccurately": 4569,
    "Ġmillion": 14990,
    "match": 15394,
    "zening": 21151,
    "Ġleaps": 14011,
    "Ġkindness": 4091,
    "urches": 12691,
    "Ġvent": 3993,
    "Ġkingdom": 12023,
    "fashion": 8081,
    "Ġnodded": 11974,
    "Ġpriest": 7526,
    "Ġazure": 12378,
    "reme": 2428,
    "Ġactivation": 918,
    "Ġprecipice": 19944,
    "Ġspectacle": 10499,
    "Ġtwinkle": 12327,
    "ateful": 5928,
    "sisters": 13379,
    "Ġsmo": 2699,
    "Ġimpreg": 15991,
    "darcy": 5208,
    "asional": 17962,
    "Ġtong": 4871,
    "Ġeddystone": 25736,
    "Ġaft": 5737,
    "Ġchestnut": 19675,
    "will": 1967,
    "Ġcabaco": 13170,
    "Ġsmack": 9303,
    "Ġlowest": 11124,
    "turned": 7306,
    "humoredly": 26326,
    "Ġexponential": 1062,
    "Ġinjured": 9042,
    "Ġlieu": 19567,
    "romang": 22009,
    "bered": 4503,
    "ged": 1512,
    "uine": 13802,
    "sec": 6154,
    "Ġross": 2763,
    "Ġirene": 8445,
    "Ġbut": 424,
    "Ġwired": 17788,
    "Ġkeeping": 7283,
    "Ġdevice": 1928,
    "Ġdining": 6978,
    "Ġexpressing": 12013,
    "Ġuncouth": 14550,
    "oters": 21803,
    "ady": 995,
    "Ġlogs": 16350,
    "Ġcheerily": 13311,
    "âĢĶâĢĶâĢĿ": 15943,
    "Ġuncovered": 23434,
    "Ġunhappiness": 14121,
    "Ġwarrior": 24496,
    "thoughtfully": 24047,
    "Ġwhites": 21720,
    "sinking": 17670,
    "emporary": 15802,
    "eds": 6531,
    "Ġserpentine": 11362,
    "minutes": 7512,
    "husband": 8042,
    "id": 338,
    "treasures": 26153,
    "Ġproduced": 2455,
    "ols": 2416,
    "Ġdeclare": 6617,
    "Ġbirch": 26175,
    "Ġpretended": 19315,
    "bil": 20773,
    "collect": 16566,
    "Ġgrunt": 18737,
    "Ġunfeeling": 14122,
    "Ġscheming": 23273,
    "Ġperceive": 6701,
    "Ġstud": 1552,
    "Ġtobacc": 7853,
    "Ġ98": 24594,
    "iers": 5992,
    "Ġenjoined": 18192,
    "globe": 25145,
    "Ġepistle": 24905,
    "Ġapproving": 18515,
    "Ġmorris": 18851,
    "Ġrind": 21973,
    "Ġvivacious": 19818,
    "Ġblasp": 14404,
    "Ġquest": 1999,
    "Ġoldest": 12978,
    "Ġloos": 15875,
    "allied": 7410,
    "covery": 11173,
    "Ġjonas": 20612,
    "Ġinduced": 8674,
    "Ġcork": 12574,
    "Ġfullest": 14816,
    "preserve": 25304,
    "Ġsunbeam": 23278,
    "yp": 1044,
    "Ġknelt": 12163,
    "Ġtra": 1385,
    "Ġnon": 1624,
    "Ġgazing": 5877,
    "ream": 2707,
    "Ġtreble": 16505,
    "Ġ13": 6720,
    "ided": 2783,
    "Ġpromontory": 11945,
    "Ġstumped": 24945,
    "Ġexhilar": 19686,
    "Ġinspire": 12000,
    "gazing": 12476,
    "Ġincredulity": 11313,
    "Ġconsolidation": 5060,
    "Ġwarning": 9061,
    "swiftly": 20554,
    "Ġinflamed": 13476,
    "historical": 20469,
    "Ġpumping": 25644,
    "Ġprojecting": 9988,
    "attest": 23124,
    "Ġstation": 5299,
    "arising": 17897,
    ",âĢĶ": 3171,
    "Ġcalves": 13039,
    "machines": 8385,
    "Ġmagazine": 23105,
    "Ġexposing": 11836,
    "Ġmanilla": 15963,
    "Ġincred": 5646,
    "ittarius": 22381,
    "Ġbleeds": 24397,
    "ster": 1951,
    "Ġrevolut": 3260,
    "Ġtreading": 16506,
    "Ġrail": 7226,
    "Ġbenchmarks": 15024,
    "Ġmixed": 6975,
    "Ġworst": 7444,
    "Ġrecogn": 2644,
    "Ġt": 261,
    "Ġmatters": 4974,
    "Ġtarpaul": 17732,
    "Ġshells": 20367,
    "Ġspong": 15885,
    "cial": 2647,
    "Ġgreatness": 12948,
    "Ġwolfish": 25936,
    "Ġtwisting": 18662,
    "Ġtrappings": 23088,
    "Ġerecting": 24653,
    "Ġcredit": 4820,
    "ician": 21568,
    "Ġcircum": 8258,
    "54": 15303,
    "Ġpollard": 20389,
    "upid": 6584,
    "Ġinsurance": 23684,
    "wel": 6119,
    "aston": 7408,
    "cturn": 17989,
    "Ġusually": 6265,
    "ateral": 19380,
    "Ġdefilements": 26286,
    "Ġhaste": 9006,
    "caus": 11478,
    "rab": 7597,
    "Ġprem": 3428,
    "Ġwhelmed": 26000,
    "seldom": 13790,
    "mmar": 953,
    "peter": 24300,
    "ivered": 7007,
    "nes": 6961,
    "steaks": 23964,
    "Ġsettee": 22924,
    "complexion": 14366,
    "ries": 3354,
    "heads": 4089,
    "spikes": 10343,
    "chet": 13220,
    "Ġrecollect": 8310,
    "Ġlent": 21550,
    "sn": 7140,
    "benevolently": 25601,
    "didn": 9010,
    "Ġpole": 6434,
    "Ġbawling": 25946,
    "ites": 3896,
    "Ġorgan": 2503,
    "Ġworthy": 7241,
    "Ġadds": 1808,
    "Ġobjecting": 18897,
    "ength": 2315,
    "Ġcoppers": 22589,
    "Ġsexes": 25172,
    "handle": 11192,
    "Ġnormalization": 1242,
    "rederick": 14083,
    "Ġlands": 6596,
    "appre": 14373,
    "Ġmoment": 989,
    "l": 80,
    "Ġowes": 20088,
    "kings": 17585,
    "Ġaught": 8777,
    "Ġburnt": 9931,
    "Ġpages": 15612,
    "lakeman": 13754,
    "Ġeste": 6085,
    "steel": 8298,
    "onts": 15522,
    "ond": 1164,
    "Ġpreprocess": 22237,
    "Ġunacquainted": 12782,
    "lowering": 16035,
    "tle": 2413,
    "Ġreported": 11984,
    "worm": 15456,
    "Ġsucceeding": 16763,
    "Ġintrusted": 21996,
    "Ġlawy": 9457,
    "Ġoppressive": 20458,
    "Ġjo": 2607,
    "inions": 8403,
    "Ġgenerally": 4151,
    "abilizing": 2923,
    "print": 23815,
    "ondon": 2704,
    "Ġdeformed": 14050,
    "flour": 23969,
    "Ġleisurely": 24745,
    "anxious": 15113,
    "Ġunw": 7005,
    "Ġtorrid": 25035,
    "enstein": 5800,
    "Ġpoul": 15617,
    "Ġsurmise": 12299,
    "troubled": 17113,
    "Ġgrass": 5177,
    "mr": 1901,
    "Ġflinging": 13588,
    "Ġpassive": 22844,
    "Ġunfaltering": 24112,
    "oqu": 7555,
    "iel": 11496,
    "sings": 4245,
    "Ġlot": 6680,
    "Ġbarbar": 6935,
    "Ġcontrivances": 12361,
    "Ġcont": 620,
    "Ġlucas": 3830,
    "Ġqueequeg": 2010,
    "Ġintervening": 17270,
    "penetrate": 20327,
    "Ġdisrespect": 18554,
    "Ġneurons": 978,
    "Ġho": 1931,
    "fow": 20855,
    "Ġwharf": 9562,
    "backs": 9394,
    "endless": 22222,
    "cater": 20817,
    "shire": 3024,
    "Ġresort": 18564,
    "accepting": 20138,
    "Ġadapt": 1052,
    "mag": 6509,
    "thank": 4950,
    "Ġalternating": 15033,
    "Ġejaculated": 15173,
    "police": 10586,
    "faith": 15027,
    "unexpected": 15782,
    "countryman": 24640,
    "iety": 2817,
    "Ġvintage": 26211,
    "Ġgain": 4829,
    "Ġsilver": 7464,
    "whaler": 20312,
    "ilations": 21725,
    "wrath": 23759,
    "Ġavocation": 23956,
    "andam": 10890,
    "ms": 543,
    "Ġretrogression": 26583,
    "Ġdates": 6695,
    "aret": 7417,
    "vent": 683,
    "Ġantiquity": 15234,
    "tranquil": 25871,
    "swelled": 19613,
    "Ġrush": 5926,
    "Ġhisself": 21918,
    "Ġtarshish": 12033,
    "punishment": 15149,
    "representing": 25272,
    "sort": 6799,
    "Ġroofs": 16987,
    "oid": 3129,
    "Ġiceberg": 14719,
    "Ġjoy": 3185,
    "Ġda": 5150,
    "Ġjuly": 17239,
    "Ġtraps": 23086,
    "Ġpoorly": 9858,
    "Ġcells": 13888,
    "Ġobed": 8538,
    "Ġmastiff": 23727,
    "mand": 3892,
    "ravity": 21638,
    "erne": 21272,
    "Ġfireplace": 13148,
    "Ġdoing": 3660,
    "Ġscandalous": 24880,
    "crowded": 20193,
    "bler": 11474,
    "knives": 14916,
    "perhaps": 4116,
    "Ġplun": 6283,
    "Ġgills": 17995,
    "scor": 13025,
    "Ġfaster": 3198,
    "Ġsmokes": 22564,
    "savage": 15079,
    "od": 351,
    "Ġunintelligible": 26516,
    "erde": 21271,
    "hamlet": 23265,
    "Ġfresher": 23215,
    "Ġnarrow": 5086,
    "Ġquit": 5247,
    "Ġ21": 11201,
    "Ġsomewhere": 5384,
    "Ġdusting": 24597,
    "Ġimplement": 2974,
    "present": 1139,
    "Ġdeemed": 7613,
    "ique": 8746,
    "Ġreckon": 19872,
    "affa": 23779,
    "Ġjac": 1898,
    "accompanied": 12426,
    "Ġveiled": 16204,
    "Ġ105": 24413,
    "Ġmultitudinous": 26275,
    "Ġadvantages": 9814,
    "Ġ275": 20114,
    "Ġslashing": 23174,
    "Ġstun": 11653,
    "Ġshades": 9465,
    "itors": 2911,
    "stamp": 21657,
    "Ġjapanese": 10635,
    "Ġpulpit": 7470,
    "rations": 10725,
    "desired": 9008,
    "Ġkneeling": 12147,
    "Ġconvict": 23747,
    "puted": 8850,
    "delirious": 19508,
    "without": 4848,
    "auley": 22624,
    "Ġotherwise": 4659,
    "Ġspam": 7631,
    "03": 20750,
    "Ġcaul": 10789,
    "spirit": 11315,
    "Ġdefend": 9343,
    "ail": 565,
    "Ġcarriages": 11100,
    "Ġtattoo": 7359,
    "Ġfed": 5530,
    "Ġboasting": 19939,
    "Ġdexterously": 25296,
    "Ġoutriders": 26545,
    "mad": 5281,
    "Ġrepetition": 8975,
    "Ġreasoning": 2055,
    "Ġ65": 24368,
    "Ġsol": 1104,
    "ifice": 7197,
    "Ġprefer": 6417,
    "Ġsepulch": 15288,
    "Ġwol": 15533,
    "cushion": 20823,
    "hill": 15366,
    "Ġharpoons": 5659,
    "Ġendeavouring": 8035,
    "hearing": 8404,
    "Ġunworth": 22038,
    "whims": 22243,
    "returned": 7766,
    "aff": 3105,
    "earthquakes": 24724,
    "musket": 25342,
    "Ġyarn": 10870,
    "ensive": 6281,
    "enesis": 24388,
    "Ġmole": 11795,
    "ari": 671,
    "Ġmoulton": 17438,
    "Ġende": 21937,
    "deploy": 22146,
    "Ġtools": 11612,
    "Ġamber": 7028,
    "active": 16107,
    "Ġdanes": 25160,
    "oregressive": 3426,
    "Ġbaleen": 10040,
    "Ġaverages": 2400,
    "Ġcurling": 9344,
    "unt": 2041,
    "59": 17476,
    "repaid": 24491,
    "ceived": 1963,
    "Ġpunctual": 17140,
    "beryls": 25310,
    "Ġoverboard": 6046,
    "Ġstabbing": 20306,
    "Ġsoothing": 8173,
    "ges": 2870,
    "Ġfiercely": 12957,
    "nered": 18489,
    "Ġdisagreeable": 9301,
    "mistake": 24529,
    "Ġmuscle": 14691,
    "asse": 15649,
    "ario": 14250,
    "Ġbravest": 23844,
    "ĠvertebrÃ¦": 11437,
    "Ġascertaining": 17206,
    "Ġscrut": 15949,
    "shad": 10984,
    "crew": 7544,
    "Ġreferred": 8920,
    "then": 2050,
    "for": 955,
    "Ġpals": 13921,
    "Ġfur": 990,
    "Ġprognost": 15285,
    "Ġpatronage": 17054,
    "Ġmout": 17800,
    "Ġpicturesqueness": 24480,
    "Ġmax": 2004,
    "entle": 1739,
    "hil": 8379,
    "floating": 12232,
    "ication": 977,
    "Ġextremities": 19198,
    "alcul": 15632,
    "itative": 13873,
    "ieces": 4773,
    "igating": 21702,
    "ite": 712,
    "Ġvalu": 5039,
    "sitting": 8387,
    "bearded": 18523,
    "Ġstro": 4597,
    "uther": 8821,
    "Ġcommunicate": 10580,
    "Ġfull": 2178,
    "taining": 7206,
    "Ġhipp": 21495,
    "Ġbohemian": 17136,
    "theirs": 23604,
    "Ġbackbone": 22663,
    "critters": 14778,
    "Ġadventure": 5982,
    "Ġswaths": 23061,
    "broke": 14781,
    "Ġinsol": 10183,
    "Ġbrixton": 13667,
    "Ġsubset": 9873,
    "Ġcongratulated": 19769,
    "Ġdisaster": 12893,
    "Ġhum": 1099,
    "horizon": 23617,
    "presents": 18799,
    "etition": 7382,
    "Ġflickering": 23018,
    "Ġh": 290,
    "Ġnote": 4257,
    "Ġking": 2305,
    "gathered": 13735,
    "Ġwrite": 3819,
    "đ": 210,
    "Ġstil": 15722,
    "ocris": 23711,
    "bingleys": 19637,
    "treatment": 20415,
    "Ġremarkable": 4916,
    "Ġbulk": 5591,
    "Ġwaifing": 25244,
    "F": 42,
    "occurrences": 26333,
    "seen": 2877,
    "folly": 20864,
    "sensible": 20055,
    "Ġcomforted": 19394,
    "grown": 10102,
    "itancy": 21336,
    "Ġdeceitfulness": 25734,
    "Ġpool": 5173,
    "Ġsi": 21215,
    "Ġfearfulness": 23516,
    "Ġglided": 7447,
    "Ġverbal": 19382,
    "ires": 6039,
    "Ġequalled": 13316,
    "Ġmiz": 10779,
    "Ġdashes": 21437,
    "Ġpurring": 23477,
    "sailor": 14718,
    "ultaneous": 18584,
    "Ġmake": 1284,
    "compass": 9462,
    "Ġpopulation": 16829,
    "Ġlangu": 575,
    "Ġstoop": 16313,
    "Ġconquer": 14030,
    "ingham": 21303,
    "Ġwondrous": 4736,
    "dataset": 23239,
    "Ġmassacre": 20550,
    "possesses": 24617,
    "Ġdeep": 809,
    "een": 725,
    "talk": 6659,
    "Ġripp": 11221,
    "bos": 17486,
    "ople": 2321,
    "Ġoaths": 13526,
    "Ġenvironment": 4429,
    "Ġabhorred": 9511,
    "ustry": 18358,
    "aiian": 23594,
    "Ġincognita": 26553,
    "Ġcombine": 4413,
    "Ġthoughtfully": 12983,
    "Ġne": 390,
    "moran": 24152,
    "hither": 11495,
    "fish": 3516,
    "Ġnarrowly": 16822,
    "Ġapplications": 4784,
    "Ġtechnically": 12370,
    "Ġrepl": 1592,
    "powder": 17647,
    "wild": 8771,
    "Ġfamine": 16332,
    "Ġtattooing": 15030,
    "Ġkuiperai": 10937,
    "asingly": 17963,
    "Ġheavens": 5050,
    "Ġeffeminacy": 20719,
    "osure": 5308,
    "Ġrelative": 11887,
    "Ġorganisation": 23585,
    "bill": 10079,
    "Ġmovable": 22439,
    "Ġmoody": 8201,
    "hall": 8085,
    "Ġpork": 21460,
    "Ġbasics": 13451,
    "article": 22386,
    "Ġsta": 18065,
    "wheeling": 22875,
    "ffic": 22155,
    "hear": 10149,
    "Ġeastern": 11632,
    "Ġspecies": 5112,
    "Ġunfair": 19510,
    "design": 19343,
    "edy": 2856,
    "Ġsubstitute": 16728,
    "Ġover": 555,
    "é": 170,
    "Ġconcer": 23323,
    "Ġresource": 10995,
    "Ġneskyeuna": 26461,
    "Ġmockery": 12112,
    "balls": 12309,
    "Ġfreed": 7267,
    "_).": 5888,
    "employ": 10897,
    "ihood": 20924,
    "travelling": 24338,
    "Ġincumbent": 16069,
    "or": 282,
    "Ã¦mon": 7096,
    "bright": 8992,
    "Ġvaults": 17156,
    "Ġoften": 1954,
    "reement": 15514,
    "social": 11024,
    "glory": 23855,
    "Ġattent": 4356,
    "Ġpeaked": 2297,
    "Ġdismember": 20218,
    "Ġnantucket": 2836,
    "indispensable": 14212,
    "alterable": 13627,
    "Ġforwards": 12709,
    "leaned": 21372,
    "Ġmotive": 6092,
    "Ġjago": 22303,
    "Ġsubterraneous": 20268,
    "Ġsigning": 22711,
    "Ġchildren": 3764,
    "Ġsentry": 19027,
    "Ġsanity": 24982,
    "riers": 18184,
    "Ġfortune": 4233,
    "Ġbiological": 1932,
    "ptic": 21928,
    "bohem": 19002,
    "Ġenviron": 4325,
    "Ġrumbling": 18212,
    "ested": 3479,
    "Ġspind": 18308,
    "pal": 9619,
    "Ġkeeps": 8267,
    "Ġinexper": 16982,
    "Ġlimbs": 5967,
    "ł": 259,
    "Ġiter": 2951,
    "Ġstifle": 18076,
    "Ġacknowledged": 7534,
    "Ġconvergence": 975,
    "exp": 2735,
    "Ġadult": 18292,
    "Ġunderstand": 839,
    "ieties": 19026,
    "astes": 11743,
    "Ġunmindful": 22068,
    "Ġtransparen": 10544,
    "Ġquite": 1741,
    "eddling": 11904,
    "Ġmadness": 6603,
    "Ġmankind": 6700,
    "insanity": 23071,
    "Ġwronged": 24250,
    "save": 13788,
    "declined": 25175,
    "Ġstoper": 14466,
    "Ġgrinning": 9056,
    "mouthful": 25209,
    "relig": 15515,
    "reference": 13843,
    "Ġfly": 3867,
    "tormented": 13648,
    "Ġcasket": 19727,
    "humour": 7498,
    "Ġwives": 12560,
    "Ġalabama": 14022,
    "Ġresol": 2664,
    "Ġneglect": 7942,
    "aced": 2420,
    "andish": 18156,
    "theless": 4254,
    "Ġspringing": 10521,
    "aging": 2238,
    "Ġinsp": 2102,
    "Ġcoarse": 14280,
    "utted": 15665,
    "Ġargosy": 24276,
    "Ġunexampled": 20363,
    "Ġcolony": 18768,
    "Ġrealistic": 5862,
    "Ġenlightened": 12752,
    "etrics": 21588,
    "Ġresist": 7916,
    "insufferable": 21195,
    "Ġtongue": 6349,
    "ublic": 11229,
    "contain": 18501,
    "Ġtrap": 7672,
    "Ġdevotees": 25377,
    "Ġinfluences": 14868,
    "scrape": 25699,
    "ek": 1907,
    "deck": 4499,
    "Ġsurvivors": 25732,
    "Ġcoun": 4171,
    "Ġbillows": 7502,
    "gd": 3127,
    "whatsoever": 18488,
    "jug": 17582,
    "stone": 5089,
    "Û": 156,
    "Ġplow": 21462,
    "Ġanything": 2186,
    "Ġconspicuous": 13606,
    "Ġjug": 12841,
    "discovering": 24254,
    "Ġinducement": 16845,
    "Ġclim": 8196,
    "ounding": 22397,
    "Ġtortures": 14926,
    "offer": 19060,
    "Ġfasting": 16359,
    "Ġvult": 12758,
    "smiles": 14695,
    "Ġremoval": 12122,
    "rested": 13078,
    "Ġresults": 7308,
    "myster": 16265,
    "Ġfee": 7199,
    "Ġ23": 13193,
    "Ġwitty": 21295,
    "Ġwhistles": 24625,
    "Ġnovember": 11753,
    "mystic": 25317,
    "anders": 18155,
    "Ġnewcom": 16225,
    "Ġlegit": 16474,
    "Ġclo": 6044,
    "Ġreliance": 14388,
    "pate": 21012,
    "Ġconnections": 974,
    "Ġbreaths": 14860,
    "Ġtolland": 24991,
    "Ġstilly": 25974,
    "Ġbowlines": 19323,
    "Ġ71": 24262,
    "Ġmoth": 17804,
    "Ġspilling": 22141,
    "Ġweeds": 21927,
    "Ġchoke": 22253,
    "Ġmalicious": 10560,
    "Ġbel": 1215,
    "Ġlashings": 25100,
    "bushes": 24447,
    "Ġneskye": 21534,
    "Ġgunw": 6214,
    "abulary": 4801,
    "Ġleaf": 15727,
    "Ġannihil": 10177,
    "Ġcaught": 3728,
    "plun": 15819,
    "Ġunsolved": 22035,
    "Ġenchant": 7185,
    "Ġrom": 4524,
    "Ġdiscomp": 11870,
    "Ġborn": 5224,
    "Ġwipe": 25765,
    "third": 8168,
    "ants": 1392,
    "beings": 12882,
    "ancholy": 5070,
    "concealed": 25118,
    "warks": 5004,
    "aces": 2068,
    "Ġhigher": 1821,
    "breaths": 25337,
    "Ġmilitia": 13321,
    "Ġforcing": 3223,
    "lass": 5994,
    "Ġunable": 4951,
    "Ġincommod": 25308,
    "Ġresembled": 18036,
    "Ġgeneva": 5450,
    "Ġcleat": 18949,
    "llable": 6878,
    "Ġrevered": 23736,
    "Ġpervading": 20616,
    "Ġbinding": 20422,
    "Ġsufferer": 16260,
    ").âĢĿ": 20743,
    "accomplished": 17214,
    "Ġunreasonable": 12783,
    "Ġbanish": 15574,
    "Ġvisage": 18782,
    "Ġblasphemer": 26117,
    "neying": 22453,
    "completely": 12424,
    "Ġproficiency": 19195,
    "erranean": 9337,
    "shunned": 22473,
    "traversed": 19650,
    "Ġflounders": 23017,
    "Ġacre": 22686,
    "Ġlogical": 14489,
    "Ġowned": 11880,
    "Ġtwist": 11855,
    "Ġsalary": 13297,
    "Ġfi": 933,
    "towns": 24855,
    "Ġtasselled": 25922,
    "Ġdepress": 14049,
    "hurt": 19880,
    "hills": 13739,
    "Ġdebated": 9043,
    "onted": 11570,
    "conduct": 11801,
    "âĢĶâĢľ_": 13205,
    "Â£": 4813,
    "Ġthack": 21520,
    "Ġmantelpiece": 15211,
    "naturalists": 23507,
    "Ġscroll": 14194,
    "Ġheroes": 10579,
    "Ġuncomp": 15845,
    "Ġlizz": 21560,
    "Ġreproofs": 24893,
    "Ġf": 283,
    "heavens": 19748,
    "Ġclosed": 4607,
    "jointed": 24013,
    "Ġpovelson": 26554,
    "Ġpleas": 1906,
    "Ġkilled": 4955,
    "Ġbehalf": 14511,
    "Ġcaw": 13886,
    "Ġweather": 3992,
    "Ġindulging": 16906,
    "herds": 22211,
    "iteness": 4390,
    "opposite": 19931,
    "Ġexhibit": 14959,
    "Ġarthur": 7196,
    "romising": 18234,
    "Ġidle": 8253,
    "ercely": 12555,
    "bearance": 22499,
    "Ġcigar": 9548,
    "Ġstripped": 10467,
    "Ġtapers": 11554,
    "extending": 22771,
    "Ġissued": 10602,
    "Ġsorrows": 13358,
    "Ġcorroboration": 26053,
    "Ġcharacteristically": 23693,
    "ĠĠĠĠĠĠĠĠĠĠĠĠ": 12909,
    "Ġsling": 21223,
    "bearers": 18525,
    "Í": 142,
    "ruined": 18346,
    "Ġhackney": 20436,
    "Ġbelonged": 6922,
    "https": 11688,
    "Ġsensation": 6896,
    "Ġmiriam": 25274,
    "Ġdirected": 5579,
    "Ġslide": 10396,
    "Ġcooked": 13272,
    "Ġconvulsive": 19308,
    "Ġbaronial": 23796,
    "clopÃ¦": 13060,
    "strate": 12680,
    "Ġwith": 349,
    "Ġdrawling": 19440,
    "Ġtruly": 4797,
    "Ġhole": 6080,
    "Ġundoubted": 19517,
    "Ġsmall": 893,
    "bits": 17491,
    "Ġfacial": 10608,
    "ain": 343,
    "Ġsandwiched": 26612,
    "Ġrounds": 18886,
    "Ġgrampus": 21997,
    "understood": 13219,
    "Ġdetached": 10283,
    "Ġlengthen": 15658,
    "Ġearthquake": 14630,
    "osal": 11763,
    "claim": 9838,
    "Ġ93": 24592,
    "nowledge": 10292,
    "Ġhimmale": 18335,
    "glad": 9011,
    "support": 9472,
    "Ġmerrily": 23734,
    "Ġespecial": 26412,
    "sunlight": 24852,
    "Ġbillow": 14783,
    "Ġbewitching": 25977,
    "arks": 2842,
    "Ġbr": 1074,
    "Ġable": 3084,
    "Ġindian": 4125,
    "Ġiterate": 13202,
    "omely": 21642,
    "age": 504,
    "Ġincites": 22556,
    "dared": 13706,
    "Ġmorocco": 26575,
    "Ġdarcy": 1342,
    "Ġfevers": 22208,
    "Ġunite": 9257,
    "Ġshaded": 14108,
    "Ġplates": 11009,
    "Ġcousins": 9918,
    "appearing": 14639,
    "Ġflung": 8566,
    "happ": 3107,
    "?âĢĿ": 700,
    "Ġwes": 8783,
    "Ġfolks": 14429,
    "encountered": 20396,
    "ele": 9117,
    "blown": 25202,
    "Ġlongitude": 11013,
    "izer": 2027,
    "Ġaval": 15496,
    "Ġcapricious": 20541,
    "Ġstruct": 2782,
    "Ġsparkled": 13465,
    "Ġpained": 19169,
    "fetch": 12469,
    "narrowly": 20350,
    "Ġdeficiencies": 26572,
    "tale": 10130,
    "lucky": 24545,
    "elizabeth": 1985,
    "Ġdirection": 1794,
    "Ġexploding": 2110,
    "Ġgurg": 15677,
    "Ġlengthened": 25959,
    "Ġcheapside": 23290,
    "Ġinsight": 16532,
    "Ġthyself": 6604,
    "Ġidea": 2488,
    "bunger": 20405,
    "Ġburtons": 19255,
    "Ġs": 265,
    "ca": 20795,
    "Ġfortunate": 6216,
    "increasing": 20272,
    "want": 8770,
    "highly": 24763,
    "Ġplanting": 16090,
    "Ġgu": 1328,
    "Ġillust": 8263,
    "Ġimbalance": 22178,
    "somebody": 14567,
    "acled": 16067,
    "Ġgallery": 10527,
    "Ġbraces": 14672,
    "Ġreeled": 13989,
    "Ġrob": 1304,
    "Ġstronger": 8582,
    "Ġdomin": 10464,
    "crow": 9593,
    "ously": 2492,
    "Ġpipe": 4316,
    "scoured": 22997,
    "Ġdaily": 5988,
    "âĢĶâĢĿ": 3301,
    "Ġinitial": 822,
    "Ġlou": 6822,
    "racted": 4777,
    "engthen": 14460,
    "Ġload": 14148,
    "belong": 12127,
    "Ġribbons": 24325,
    "Ġrem": 956,
    "Ġafar": 14297,
    "itions": 4141,
    "urable": 8927,
    "nin": 17610,
    "Ġholiest": 18814,
    "Ġcompared": 2229,
    "eling": 6683,
    "cordiality": 25140,
    "Ġunjustly": 17129,
    "Ġadaptively": 4511,
    "Ġk": 485,
    "Ġwhitened": 24868,
    "Ġlower": 2661,
    "Ġhappy": 2468,
    "Ġnib": 13943,
    "Ġgiant": 13971,
    "Ġblubber": 5666,
    "oon": 6366,
    "Ġascend": 9963,
    "score": 18859,
    "Ġsenior": 17174,
    "ifts": 12741,
    "Ġproxim": 3200,
    "find": 6954,
    "Ġharbors": 24902,
    "Ġcommis": 22676,
    "Ġpaddock": 25040,
    "Ġimbedded": 18333,
    "till": 6966,
    "Ġlord": 2966,
    "Ġnonce": 23237,
    "ounced": 4954,
    "Ġtablet": 19207,
    "Ġ22": 8279,
    "childhood": 16870,
    "Ġchaff": 18383,
    "Ġindulge": 10585,
    "Ġexpansion": 22627,
    "Ġholding": 4979,
    "Ġfatally": 19397,
    "quarried": 24948,
    "Ġmanners": 3787,
    "Ġallies": 18235,
    "Ġlighter": 12659,
    "ruded": 15907,
    "itical": 5802,
    "Ġpoignant": 22601,
    "Ġmid": 2614,
    "Ġreinforcement": 3242,
    "Ġtreasure": 9561,
    "Ġgaped": 13970,
    "Ġtartar": 17325,
    "Ġind": 1220,
    "farm": 15355,
    "ren": 548,
    "Ġfairly": 6327,
    "riving": 21930,
    "Ġwedding": 4817,
    "Ġhelplessness": 25074,
    "Ġforehead": 5262,
    "Ġexhibited": 9547,
    "Ġmutter": 23957,
    "Ġyanke": 18100,
    "Ġsurmisings": 26595,
    "Ġgown": 10204,
    "ule": 6801,
    "Ġdreadfully": 7726,
    "denial": 18718,
    "Ġstream": 5186,
    "Ġhatter": 4106,
    "Ġincarnation": 25574,
    "Ġlights": 8963,
    "Ġdardanelles": 26445,
    "Ġshut": 3940,
    "Ġsecretly": 13274,
    "Ġvexations": 24610,
    "alogue": 25163,
    "Ġbreaking": 6312,
    "Ġbeth": 9660,
    "Ġinfernal": 11965,
    "Ġcopying": 17069,
    "Ġintegral": 25011,
    "Ġnetworks": 596,
    "harpoon": 9494,
    "ĠÂ£": 5006,
    "Ġdaintiest": 25954,
    "Ġcompliments": 8636,
    "Ġcausal": 3412,
    "Ġfamilies": 8027,
    "gr": 2086,
    "rusted": 16509,
    "Ġhunting": 7259,
    "Ġnotes": 7189,
    "Ġpupils": 20424,
    "Ġuncertain": 4063,
    "Ġoverwhelm": 25055,
    "rocious": 21542,
    "Ġconsulting": 13432,
    "illed": 2623,
    "Ġsends": 14792,
    "Ġdeafened": 25652,
    "Ġvict": 3759,
    "Ġcompletely": 4861,
    "Ġsolicited": 20040,
    "Ġcracks": 12024,
    "Ġcrouching": 23443,
    "Ġconcrete": 20639,
    "onstrate": 17770,
    "Ġcontaining": 2232,
    "Ġdoran": 9182,
    "Ġstrolled": 16772,
    "Ġagreeable": 4553,
    "race": 11634,
    "growing": 13736,
    "itable": 5437,
    "Ġlow": 1651,
    "forming": 15919,
    "Ġappre": 5165,
    "Ġpar": 456,
    "Ġquestion": 2775,
    "jer": 12485,
    "Ġreneg": 21678,
    "Ġundisturbed": 19522,
    "ators": 7829,
    "Ġoperate": 19117,
    "Ġstands": 5259,
    "ved": 868,
    "hearts": 13348,
    "Ġartfully": 22615,
    "Ġmonitors": 3158,
    "Ġangels": 11180,
    "simply": 20673,
    "raction": 8138,
    "deliver": 19507,
    "deserted": 19344,
    "anesc": 21363,
    "Ġcru": 2822,
    "think": 3609,
    "teen": 6371,
    "rived": 5373,
    "Ġbough": 13897,
    "ousand": 2433,
    "lev": 1234,
    "Ġappal": 18363,
    "dropped": 12267,
    "Ġprognostics": 20561,
    "Ġrelate": 6875,
    "brow": 15319,
    "Ġexercised": 24800,
    "determine": 19947,
    "Ġvery": 637,
    "Ġtempered": 12929,
    "lun": 20948,
    "Ġprotested": 9937,
    "Ġflow": 1238,
    "Ġswing": 13041,
    "word": 2489,
    "Ġstalk": 12703,
    "Ġparm": 15881,
    "Ġbump": 9662,
    "elter": 21574,
    "Ġsigma": 1544,
    "account": 5330,
    "acca": 23599,
    "Ġobliging": 13247,
    "avail": 18607,
    "Ġdoor": 1740,
    "Ġconfinement": 19041,
    "Ġchill": 11756,
    "oda": 15753,
    "comput": 2067,
    "Ġsunk": 5752,
    "Ġdate": 7841,
    "Ġwash": 9706,
    "Ġmo": 629,
    "upp": 10133,
    "Ġtub": 7147,
    "friends": 8306,
    "Ġtilted": 20416,
    "hval": 20900,
    "concern": 6101,
    "erial": 4633,
    "Ġorthodox": 22099,
    "ouraged": 22857,
    "Ġgradients": 612,
    "Ġlar": 766,
    "pest": 6965,
    "Ġnever": 1020,
    "¶": 119,
    "dress": 17522,
    "drawers": 19389,
    "ists": 3996,
    "Ġapartments": 19617,
    "resolution": 17768,
    "Ġdared": 5440,
    "Ġwaist": 6892,
    "numer": 15402,
    "oso": 12837,
    "originally": 24940,
    "Ġbruised": 25773,
    "vex": 21705,
    "Ġinc": 702,
    "ums": 10275,
    "perch": 18337,
    "weakness": 16128,
    "prejudice": 25572,
    "Ġovercome": 6045,
    "Ġsignification": 19205,
    "official": 24915,
    "Ġendeavor": 16547,
    "Ġtrowsers": 9630,
    "ohn": 4562,
    "sciss": 18860,
    "levelled": 23645,
    "Ġserved": 8246,
    "would": 2354,
    "ground": 4673,
    "quarters": 24949,
    "Ġkindled": 19030,
    "gained": 20883,
    "Ġcontained": 7679,
    "fair": 10095,
    "Ġl": 303,
    "Ġindians": 14412,
    "Ġvestibule": 13539,
    "awing": 18917,
    "Ġsubsisting": 23437,
    "Ġkramm": 26235,
    "Ġhovel": 8254,
    "Ġrole": 16001,
    "Ġevaluation": 16553,
    "Ġparametric": 2397,
    "quickly": 14965,
    "osp": 6854,
    "Ġdank": 21431,
    "rench": 3964,
    "ĠĠĠĠĠĠĠĠĠĠĠĠĠĠĠĠĠĠĠĠĠĠĠĠĠĠĠĠĠĠĠ": 19703,
    "mology": 12496,
    "feeling": 6619,
    "obvious": 9360,
    "profitable": 17072,
    "Ġweapon": 7776,
    "Ġleaning": 5228,
    "etus": 21581,
    "Ġlatin": 16823,
    "mind": 4628,
    "Ġcondense": 21812,
    "Ġslaught": 23171,
    "Ġarr": 1801,
    "Ġgout": 21599,
    "Ġfringe": 17274,
    "Ġmonotonically": 3831,
    "Ġhundreds": 4323,
    "Ġaccorded": 24091,
    "ids": 21767,
    "Ġpledge": 11604,
    "Ġchristian": 6480,
    "tit": 11530,
    "erie": 21274,
    "Ġliberty": 7762,
    "oughed": 22079,
    "ĠĠĠĠĠĠĠĠĠĠĠĠĠĠĠĠĠĠĠĠĠĠĠĠĠĠĠĠĠĠĠĠĠĠĠĠĠĠĠĠĠ": 19585,
    "serv": 7451,
    "contact": 23730,
    "Ġcleanse": 24527,
    "albatross": 15634,
    "ric": 1376,
    "archbishop": 22897,
    "utes": 5915,
    "Ġcakes": 13887,
    "Ġcronies": 23442,
    "Ġaloft": 4298,
    "Ġsmaller": 1884,
    "creat": 20802,
    "stars": 18022,
    "ucket": 2485,
    "Ġaccompaniments": 24482,
    "spermaceti": 12198,
    "Ġfurlongs": 20725,
    "lying": 7175,
    "mselves": 2859,
    "Ġsenseless": 12083,
    "urg": 8142,
    "Ġcategories": 4476,
    "Ġexecutioner": 12276,
    "'(": 2981,
    "Ġboxed": 24360,
    "Ġobservation": 6599,
    "relapse": 24019,
    "Ġhearing": 4762,
    "Ġindicates": 3195,
    "Ġpolar": 9414,
    "Ġinexperienced": 26101,
    "Ġresources": 2935,
    "gen": 6504,
    "Ġdemean": 12729,
    "rises": 17657,
    "Ġconfusing": 23310,
    "the": 334,
    "Ġwhel": 15870,
    "Ġpaying": 9941,
    "contracting": 19295,
    "caut": 20814,
    "Ġmother": 2066,
    "Ġthrusting": 10555,
    "Ġtame": 17724,
    "Ġoutskirts": 17460,
    "Ġburial": 16523,
    "hever": 13834,
    "objects": 13473,
    "Ġunwillingness": 20035,
    "Ġwhenever": 5166,
    "Ġgurglings": 26467,
    "Ġproverb": 12722,
    "Ġnavigation": 9996,
    "Ġlocal": 1200,
    "Ġowen": 15098,
    "Ġactivations": 2717,
    "Ġadversity": 24305,
    "Ġvisit": 2583,
    "Ġlexicon": 25975,
    "Ġinsignificance": 20460,
    "Ġreusability": 13561,
    "Ġpoured": 8805,
    "Ġbustle": 17230,
    "Ġdeceased": 15008,
    "rever": 21238,
    "Ġrequested": 14302,
    "dial": 20827,
    "persecutor": 26531,
    "Ġ1869": 19387,
    "Ġmonster": 3791,
    "lust": 15383,
    "Ġinsurmountable": 16533,
    "ien": 10104,
    "Ġreigning": 15705,
    "Ġhon": 2538,
    "Ġbeliefs": 24583,
    "Ġupward": 9724,
    "indifferent": 14211,
    "Ġshoreless": 24297,
    "Ġesquimaux": 25154,
    "Ġexpired": 18623,
    "Ġmamma": 10051,
    "Ġcontro": 1688,
    "Ġcarbuncle": 14448,
    "Ġcirculating": 23376,
    "lorn": 12492,
    "chief": 4646,
    "Ġspend": 5306,
    "Ġimpossibility": 20649,
    "ifies": 6688,
    "prisoner": 20546,
    "f": 74,
    "ryder": 18640,
    "Ġconvert": 11847,
    "drop": 15340,
    "Ġrefined": 18705,
    "30": 20756,
    "Ġretained": 7174,
    "rages": 15685,
    "cask": 12451,
    "Ġerred": 21159,
    "Ġsteepest": 3091,
    "Ġsadly": 7302,
    "Ġfut": 15579,
    "Ġmrs": 1468,
    "Ġdragon": 14947,
    "Ġgamesome": 17292,
    "Ġaway": 1243,
    "edily": 17946,
    "Ġhug": 6980,
    "maritime": 24174,
    "Ġintrospect": 15832,
    "Ġmining": 22832,
    "Ġdeact": 18138,
    "Ġbulldog": 23862,
    "?": 35,
    "Ġobliter": 14325,
    "Ġgolden": 5337,
    "Ġmortal": 4683,
    "bs": 3772,
    "Ġgreek": 10633,
    "Ġaccording": 5508,
    "ý": 190,
    "Ġportable": 19373,
    "Ġsulkily": 25882,
    "Ġshillings": 15839,
    "Ġrenegades": 26478,
    "Ġmarvels": 11086,
    "indulged": 22379,
    "attain": 21264,
    "Ġenquired": 21945,
    "Ġindulgence": 11321,
    "Ġtiger": 11557,
    "Ġhams": 16614,
    "Ġmurderers": 16813,
    "tone": 8766,
    "Ġengineering": 3028,
    "Ġnarrowed": 24355,
    "speps": 14335,
    "whalemen": 10433,
    "Ġcontinents": 16851,
    "Ġastern": 6091,
    "Ġpolitely": 8996,
    "H": 44,
    "Ġfast": 1719,
    "Ġfrightens": 24033,
    "spe": 3560,
    "doubted": 17528,
    "Ġprofessions": 11233,
    "Ġbenjamin": 26569,
    "brated": 12031,
    "priv": 9622,
    "Ġvisual": 5741,
    "Ġclutches": 20021,
    "Ġbenches": 18783,
    "Ġmerest": 14034,
    "Ġuns": 15840,
    "ons": 709,
    "orious": 6009,
    "canoes": 16233,
    "Ġswe": 2291,
    "ited": 1750,
    "el": 306,
    "reated": 10305,
    "Ġwithhold": 18118,
    "renew": 24450,
    "joint": 24012,
    "hyena": 24255,
    "Ġeloped": 22649,
    "Ġdumbly": 24988,
    "unnatural": 15777,
    "Ġfinancier": 26585,
    "Ġ34": 16679,
    "conscientious": 19629,
    "knowledge": 7478,
    "Ġfill": 5701,
    "Ġpikes": 21481,
    "Ġtestimony": 14471,
    "Ġdistributions": 1055,
    "Ġwil": 4582,
    "transformers": 8718,
    "whe": 1075,
    "women": 15459,
    "Ġapproached": 5844,
    "orously": 8420,
    "Ġamply": 22486,
    "ipagos": 22363,
    "enc": 7574,
    "Ġships": 3712,
    "Ġroods": 22408,
    "Ġresembles": 25970,
    "hee": 10762,
    "pleased": 8857,
    "Ġrepeatedly": 9024,
    "Ġconsented": 11297,
    "Ġhoky": 17929,
    "likewise": 13108,
    "msman": 9273,
    "Ġbenefactor": 14700,
    "advantages": 11273,
    "abern": 21793,
    "Ġruled": 22789,
    "Ġvigour": 24462,
    "Ġdisastrous": 16064,
    "Ġagonies": 14254,
    "Ġimmediate": 6090,
    "Ġthereof": 22372,
    "Ġmirth": 15549,
    "headers": 23114,
    "Ġpacing": 8427,
    "Ġcame": 1298,
    "Ġconcisely": 19046,
    "Ġintervened": 25482,
    "cor": 5520,
    "pict": 8386,
    "ugn": 9381,
    "corpse": 24486,
    "ribe": 1222,
    "killed": 15380,
    "Ġbore": 5079,
    "É": 138,
    "Ġhereby": 10360,
    "Ġcounterpane": 11345,
    "Ġsuperseded": 26225,
    "iations": 11497,
    "Ġtinkling": 25213,
    "oglyph": 11017,
    "Ġrain": 5005,
    "baggage": 24927,
    "Ġcouple": 5423,
    "Ġmonuments": 22987,
    "Ġrepugnance": 19088,
    "treat": 12518,
    "Ġinmates": 15627,
    "Ġsporty": 19892,
    "endured": 22223,
    "Ġflies": 13030,
    "Ġtener": 21166,
    "Ġdummy": 25450,
    "Ġservice": 6472,
    "Ġbestir": 13113,
    "sive": 4137,
    "Ġcompares": 20169,
    "umbers": 10920,
    "Ġrocks": 6863,
    "Ġfluctuations": 5516,
    "Ġfeelingly": 23001,
    "Ġkeeled": 18810,
    "Ġdetermines": 2370,
    "somerset": 26324,
    "were": 2558,
    "bare": 12445,
    "Ġobstetrics": 24679,
    "Ġferocious": 17422,
    "Ġthump": 11614,
    "Ġding": 12605,
    "imate": 4214,
    "Ġpulse": 13118,
    "Ġfins": 9666,
    ".*": 7331,
    "Ġexec": 19495,
    "Ġwonderful": 4564,
    "regret": 16451,
    "tram": 19646,
    "approach": 24834,
    "Ġsells": 21226,
    "Ġrepose": 6743,
    "Ġformerly": 7493,
    "almost": 4943,
    "x": 92,
    "ager": 6548,
    "Ġvaliant": 9803,
    "brimming": 23579,
    "Ġresult": 4459,
    "clergy": 18936,
    "Ġdevoid": 18681,
    "Ġdemocracy": 25459,
    "igin": 3655,
    "english": 2772,
    "add": 5229,
    "Ġgreenhorn": 23771,
    "ital": 4819,
    "speckled": 23948,
    "Ġneighbor": 25804,
    "apt": 736,
    "Ġmoritz": 11910,
    "Ġabstraction": 26541,
    "exped": 16526,
    "Ġreflecting": 24750,
    "maul": 11896,
    "grad": 2567,
    "aged": 2605,
    "ensibility": 22552,
    "popular": 26141,
    "erting": 17779,
    "Ġmisfortune": 5569,
    "Ġdrank": 16538,
    "separated": 20162,
    "pleasant": 5876,
    "Åĵ": 10746,
    "Ġblew": 9048,
    "Ġdispersed": 16599,
    "sprang": 19994,
    "ulations": 6030,
    "anct": 21361,
    "dun": 17518,
    "Ġsits": 10770,
    "cils": 20816,
    "suppose": 8648,
    "Ġremarkably": 7703,
    "Ġgambler": 26192,
    "Ġessex": 20130,
    "Ġsuggest": 5417,
    "Ġpurchases": 24755,
    "Ġconsumed": 10352,
    "Ġje": 4117,
    "Ġbeech": 18085,
    "Ġfle": 3094,
    "deceit": 25557,
    "Ġwherein": 14298,
    "Ġsplit": 7993,
    "Ġconsistence": 23359,
    "Ġlighting": 13086,
    "Ġconstruct": 23344,
    "Ġscrolled": 22288,
    "º": 123,
    "È": 137,
    "pr": 3176,
    "xter": 9149,
    "Ġsignificantly": 4518,
    "Ġendurance": 23141,
    "Ġmanhandle": 22333,
    "Ġsincerely": 7964,
    "ening": 3108,
    "Ġmeanness": 22604,
    "Ġshuddered": 11302,
    "Ġsickle": 24248,
    "Ġintense": 6159,
    "Ġscratches": 22290,
    "Ġmeasures": 1206,
    "Ġpickle": 16724,
    "Ġcommonplace": 11098,
    "Ġdiana": 21439,
    "Ġmoved": 4841,
    "possession": 12226,
    "Ġarchitectures": 2906,
    "Ġmatrix": 1604,
    "presence": 18491,
    "Ġlingu": 11617,
    "eel": 11486,
    "cro": 13700,
    "consum": 12876,
    "Ġuncontrollable": 25815,
    "Ġskull": 6290,
    "Ġaccomplishments": 13382,
    "Ġchap": 5935,
    "arled": 21445,
    "unity": 4145,
    "distrustful": 26332,
    "secure": 12240,
    "Ġfem": 6136,
    "Ġconceit": 7295,
    "Ġshares": 23249,
    "ulsive": 10236,
    "arpo": 1755,
    "sa": 8760,
    "Ġly": 2269,
    "Ġdarkness": 4271,
    "Ġmoonshine": 19600,
    "money": 8753,
    "asing": 5913,
    "Ġlinn": 13956,
    "Ġwaterloo": 11985,
    "Ġprow": 6686,
    "Ġtemporary": 7981,
    "Ġtokens": 1773,
    "poled": 22911,
    "ge": 560,
    "Ġappl": 1713,
    "Ġnecessary": 4472,
    "cupboards": 25402,
    "Ġemigrant": 25860,
    "circle": 16738,
    "entreaties": 26187,
    "Ġcharms": 11132,
    "Ġalluding": 18237,
    "Ġroad": 3879,
    "Ġeventually": 8620,
    "free": 8739,
    "Ġwholesome": 16010,
    "speptic": 23949,
    "robe": 15646,
    "Ġhospit": 7514,
    "Ġdisasters": 16058,
    "Ġmalice": 7153,
    "Ġaromatic": 25926,
    "Ġcordiality": 24395,
    "volous": 18601,
    "baboon": 25517,
    "national": 21000,
    "conjectured": 25182,
    "Ġmanifested": 17160,
    "Ġrespectable": 6738,
    "Ġrobberies": 23034,
    "Ġexistence": 4708,
    "Ġstuff": 5717,
    "coward": 13704,
    "Ġthine": 7374,
    "Ġwing": 6668,
    "Ġfastidious": 14494,
    "feel": 3810,
    "stooped": 23825,
    "empty": 23636,
    "Ġpassed": 2008,
    "verse": 9691,
    "Ġinvent": 7165,
    "Ġpell": 21459,
    "Ġquieted": 23846,
    "div": 8076,
    "resting": 23240,
    "Ġnieces": 8434,
    "Ġdismissed": 12898,
    "Ġwinged": 16997,
    "ented": 4344,
    "la": 10707,
    "Ġinstance": 2545,
    "fairly": 17222,
    "Ġdeserted": 8640,
    "Ġscraped": 16905,
    "jaws": 20934,
    "Ġblessing": 11265,
    "Ġreality": 7060,
    "Ġunjust": 8486,
    "own": 747,
    "Ġwards": 17791,
    "Ġphara": 23205,
    "everywhere": 23700,
    "stern": 8446,
    "char": 3503,
    "Ġfriend": 1294,
    "bourgh": 19105,
    "Ġmusky": 19385,
    "Ġruin": 6057,
    "ta": 13792,
    "marching": 25753,
    "streets": 13398,
    "Ġbears": 6829,
    "Ġjoist": 19234,
    "erect": 20850,
    "unavoid": 14065,
    "orte": 14187,
    "symp": 14622,
    "Ġfitzwilliam": 5771,
    "scure": 22992,
    "ok": 571,
    "endure": 22221,
    "cstasy": 11447,
    "french": 9122,
    "Ġhal": 1363,
    "Ġflights": 24752,
    "Ġcom": 369,
    "Ġbelonging": 8308,
    "franch": 24286,
    "Ġsurmised": 24920,
    "Ġknock": 9976,
    "Ġjove": 9271,
    "Ġcheerfully": 12139,
    "Ġraw": 3322,
    "riot": 18183,
    "Ġblacksmith": 6597,
    "bears": 22495,
    "bred": 11471,
    "inting": 9817,
    "Ġahoy": 12189,
    "Ġflurry": 18863,
    "Ġwhipping": 21719,
    "Ġplaguy": 22612,
    "rushed": 10587,
    "Ġknives": 14840,
    "Ġfished": 21413,
    "Ã": 132,
    "below": 12126,
    "Ġpallidness": 25605,
    "tuning": 1583,
    "Ġrh": 9247,
    "Ġhoard": 23355,
    "Ġjury": 5378,
    "prairies": 20569,
    "Ġthanking": 18605,
    "goose": 19103,
    "Ġtut": 8774,
    "thrill": 25657,
    "Ġhig": 754,
    "Ġgleaming": 24996,
    "tomb": 21096,
    "Ġforbidden": 17079,
    "Ġprofits": 16491,
    "Ġfake": 5811,
    "Ġbarbaric": 10017,
    "Ġdispelling": 23883,
    "Ġsons": 10768,
    "Ġmonosyllable": 20728,
    "Ġinconsist": 17938,
    "isons": 17851,
    "pour": 17632,
    "roylott": 20030,
    "Ġwhereby": 11841,
    "Ġsteal": 16287,
    "Ġsupposition": 9820,
    "draughts": 20391,
    "sense": 11526,
    "clusion": 16308,
    "stranger": 9886,
    "Ġagency": 11810,
    "Ġgraves": 11712,
    "pigs": 17143,
    "rr": 17652,
    "pocket": 9812,
    "Ġprofund": 13156,
    "olerable": 7183,
    "Ġcyp": 21348,
    "Ġslope": 14464,
    "hatherley": 17570,
    "Ġcreation": 6440,
    "Ġwar": 5526,
    "Ġjoin": 4855,
    "Ġmeth": 1352,
    "ickory": 22674,
    "ernsey": 8905,
    "Ġtrample": 20330,
    "Ġunfrequently": 20741,
    "sh": 652,
    "delivered": 24100,
    "cures": 20807,
    "esteemed": 26010,
    "Ġwhisky": 23937,
    "Ġferoc": 14900,
    "Ġcivility": 4789,
    "Ġcode": 1723,
    "Ġstart": 3261,
    "inioned": 19288,
    "Ġsteward": 6586,
    "elt": 4109,
    "Ġamends": 14248,
    "Ġblot": 9815,
    "glances": 23856,
    "Ġpaint": 7708,
    "Ġessential": 7523,
    "Ġcitizens": 25440,
    "proachable": 23401,
    "scotch": 25852,
    "estinated": 15925,
    "Ġfeed": 2128,
    "Ġreply": 4514,
    "ariously": 18528,
    "convinced": 10625,
    "previous": 9763,
    "oided": 11511,
    "creator": 26383,
    "Ġpush": 9187,
    "hyp": 15370,
    "phant": 6289,
    "arying": 9804,
    "Ġtoken": 2036,
    "ister": 1293,
    "du": 605,
    "revolver": 25628,
    "Ġapologized": 25199,
    "Ġsulk": 15048,
    "continuance": 19721,
    "Ġdismast": 12894,
    "furthest": 19844,
    "Ġglistening": 12369,
    "Ġdecoyed": 18487,
    "Ġtuileries": 24824,
    "Ġlinguistic": 12429,
    "Ġwhip": 8453,
    "Ġsaintly": 25932,
    "shapes": 22470,
    "pregn": 18493,
    "agree": 14070,
    "Ġlxi": 21564,
    "peace": 13053,
    "Ġcourt": 4162,
    "distance": 12157,
    "Ġply": 21456,
    "Ġvaliantly": 22806,
    "Ġsl": 1498,
    "initely": 7568,
    "Ġcitations": 25438,
    "Ġaggregated": 25679,
    "respect": 6375,
    "iply": 22361,
    "deadly": 17101,
    "Ġregion": 2273,
    "illar": 5101,
    "Ġantagon": 19553,
    "Ġforce": 5092,
    "Ġpersian": 11088,
    "Ġerrand": 11087,
    "temper": 10007,
    "Ġimproper": 22741,
    "affectionate": 24922,
    "magistrate": 19865,
    "thou": 4710,
    "ise": 707,
    "Ġfunere": 22268,
    "detached": 19677,
    "beware": 16043,
    "Ġbankrupt": 16798,
    "racts": 14361,
    "Ġpursue": 6316,
    "relation": 19450,
    "Ġfishes": 11594,
    "Ġswelling": 11929,
    "wered": 2687,
    "pense": 10371,
    "Ġtwos": 18661,
    "Ġpuzzled": 7317,
    "Ġvile": 8475,
    "Ġmills": 21314,
    "urean": 18125,
    "Ġpavement": 9580,
    "Ġforbearance": 12332,
    "Ġselecting": 16683,
    "Ġwidest": 24237,
    "Ġfishers": 19357,
    "Ġbeef": 6830,
    "Ġtables": 9881,
    "consequence": 9766,
    "Ġpatiently": 19920,
    "Ġape": 21199,
    "Ġtexture": 19162,
    "Ġabroad": 8869,
    "Ġdistributing": 22684,
    "ouder": 17902,
    "wic": 21123,
    "arned": 21825,
    "E": 41,
    "Ġcalmer": 23047,
    "Ġbenediction": 18786,
    "ubines": 22962,
    "elihood": 4624,
    "Ġexhaled": 19685,
    "agonies": 21913,
    "interrupted": 11419,
    "Ġviolence": 5964,
    "Ġwinds": 5746,
    "Ġwhole": 1665,
    "enter": 7858,
    "Ġpolicy": 10459,
    "Ġgore": 17991,
    "Ġgr": 979,
    "Ġsebastian": 11702,
    "Ġsomebody": 7912,
    "Ġeyed": 12673,
    "Ġbitten": 21393,
    "anity": 9657,
    "Ġpilgr": 12185,
    "Ġ130": 24780,
    "Ġsteelkilt": 5675,
    "Ġthrill": 24541,
    "Ġexcuses": 19044,
    "absolutely": 10648,
    "Ġdood": 22246,
    "oted": 4599,
    "Ġoffending": 22744,
    "Ġperadventure": 22402,
    "restoration": 23241,
    "dear": 6557,
    "rudently": 16712,
    "dat": 1628,
    "Ġbuffalo": 11431,
    "Ġx": 2073,
    "relate": 24014,
    "(": 12,
    "Ġsucceed": 4544,
    "Ġtunnels": 24621,
    "rupt": 3210,
    "Ġcerem": 7079,
    "Ġincalcul": 16070,
    "!âĢĻâĢĿ": 16594,
    "Ġemperor": 15162,
    "Ġhandfuls": 17212,
    "person": 7746,
    "Ġmediocr": 24139,
    "bald": 16446,
    "Ġconcluding": 9860,
    "Ġsod": 11564,
    "Ġriot": 14690,
    "crack": 19843,
    "Ġriding": 14097,
    "azing": 7705,
    "Ġskil": 14355,
    "insult": 16283,
    "Ġflapp": 23012,
    "shape": 10985,
    "Ġcontemptuous": 24677,
    "Ġconsoling": 19460,
    "Ġreside": 22543,
    "Ġties": 12533,
    "ibles": 18787,
    "Ġuninter": 18247,
    "Ġcunning": 6240,
    "Ġjustine": 4970,
    "Ġcalm": 3448,
    "Ġexplanations": 15914,
    "Ġvulture": 17342,
    "Ġbloodthirst": 23804,
    "Ġconstable": 19068,
    "Ġbehind": 2806,
    "acknowledging": 25477,
    "Ġsyrian": 18355,
    "Ġlump": 21555,
    "Ġopposing": 12045,
    "Ġexpert": 18854,
    "Ġspectre": 16633,
    "Ġcastle": 14720,
    "Ġmour": 6974,
    "ensils": 22553,
    "Ġelevated": 7318,
    "Ġwane": 21291,
    "enance": 3372,
    "Ġnum": 1347,
    "mp": 3725,
    "Ġhieroglyphic": 25588,
    "Ġbran": 5252,
    "Ġspurned": 12803,
    "Ġobstructed": 24678,
    "Ġearnestness": 12130,
    "Ġsimilarly": 24310,
    "Ġconscience": 6929,
    "Ġindecision": 25782,
    "Ġancest": 12620,
    "unfortunate": 15781,
    "oce": 10716,
    "Ġcrab": 13147,
    "semicirc": 26493,
    "Ġserene": 8167,
    "Ġinquis": 19305,
    "cour": 4478,
    "pivot": 21033,
    "Ġbehavior": 8002,
    "teness": 23212,
    "Ġrun": 2357,
    "rogress": 21539,
    "Ġthunders": 15642,
    "lips": 13753,
    "ognit": 19192,
    "Ġhollows": 19744,
    "inquiries": 13580,
    "Ġtragedies": 25242,
    "cused": 15335,
    "ĠĠĠĠĠĠĠĠĠĠĠĠĠĠĠĠĠĠĠĠĠĠĠĠĠĠĠĠĠĠ": 24443,
    "Ġlazily": 11382,
    "Ġheav": 1851,
    "Ġrealism": 18985,
    "Ġunsavory": 20709,
    "Ġexpect": 2307,
    "Ġidentity": 2523,
    "Ġreceiving": 4883,
    "Ġrele": 2914,
    "Ġvap": 6837,
    "odox": 21815,
    "Ġpreface": 18368,
    "Ġnorthern": 7265,
    "Ġunsounded": 15853,
    "exclaimed": 11794,
    "varied": 23188,
    "ti": 8390,
    "Ġembracing": 14983,
    "Ġhierarchical": 1927,
    "Ġaffection": 2638,
    "Ġphantoms": 13489,
    "neural": 3069,
    "¸": 121,
    "activation": 3230,
    "Ġnomine": 26458,
    "Ġ114": 24438,
    "Ġtimbers": 14842,
    "Ġturning": 3328,
    "seeking": 17155,
    "Ġsqualidness": 25844,
    "Ġswelled": 11090,
    "uplifted": 17697,
    "Ġgreas": 17994,
    "repe": 8780,
    "assemblies": 25957,
    "rative": 17654,
    "Ġapolog": 9046,
    "nect": 662,
    "Ġgeological": 14535,
    "Ġoccasionally": 5590,
    "usage": 12839,
    "successful": 11360,
    "Ġdisturbance": 15015,
    "Ġindiscriminately": 20630,
    "eric": 3471,
    "Ġfloor": 4374,
    "Ġgovernments": 20270,
    "Ġcontract": 18476,
    "medical": 23346,
    "nineteenth": 26139,
    "Ġnest": 10191,
    "Ġclamorous": 24910,
    "Ġreject": 7386,
    "Ġring": 4450,
    "Ġfixed": 2683,
    "rudence": 7094,
    "Ġtendency": 11331,
    "Ġperusal": 14227,
    "Ġbinnacle": 8119,
    "Ġpearl": 20380,
    "forster": 16165,
    "Ġsmitten": 12908,
    "ilies": 18059,
    "lested": 14886,
    "Ġneeds": 6607,
    "is": 280,
    "paradise": 20640,
    "uring": 819,
    "Ġgarden": 3823,
    "de": 460,
    "Ġwid": 4634,
    "Ġsurve": 9877,
    "Ġechoed": 20427,
    "Ġtand": 21163,
    "Ġstoven": 23179,
    "Ġ221": 25071,
    "mis": 4520,
    "Ġquestions": 3969,
    "Ġbubble": 13537,
    "Ġprocedural": 12035,
    "unsupervised": 10891,
    "Ġabiding": 22274,
    "Ġlets": 18079,
    "ishmael": 18421,
    "Ġreceipt": 20358,
    "tottenham": 25419,
    "alongside": 19792,
    "Ġlinks": 13958,
    "shoe": 14970,
    "Ġbackwater": 18651,
    "Ġpelt": 15614,
    "Ġalike": 8147,
    "Ġlurch": 21558,
    "holmes": 4428,
    "asant": 17961,
    "Ġmanly": 22328,
    "astic": 1868,
    "ing": 273,
    "absent": 21794,
    "assed": 6422,
    "boilers": 26298,
    "Ġcompliance": 12119,
    "Ġcir": 21344,
    "Ġdin": 3625,
    "¯": 112,
    "Ġlangsdorff": 15280,
    "eman": 5636,
    "Ġlodges": 19503,
    "Ġbuoyancy": 20045,
    "itt": 570,
    "Ġthree": 1371,
    "Ġvaguely": 17369,
    "Ġshape": 5639,
    "Ġquick": 2581,
    "Ġpersuas": 23950,
    "facts": 19845,
    "Ġlesson": 7276,
    "Ġgle": 7859,
    "Ġextracts": 9368,
    "Ġghosts": 12237,
    "pening": 2830,
    "Ġwilds": 16511,
    "Ġrights": 10399,
    "Ġsupplies": 20329,
    "Ġproportions": 16469,
    "Ġtroubling": 26548,
    "rip": 9244,
    "Ġwaited": 4909,
    "bar": 7541,
    "rub": 15903,
    "Ġconvolutional": 2161,
    "Ġtomb": 8812,
    "Ġcaptioning": 23024,
    "Ġremarks": 7473,
    "Ġlocations": 12417,
    "abeth": 909,
    "Ġsocietal": 11438,
    "Ġchowders": 18386,
    "Ġflatter": 9351,
    "Ġspades": 12802,
    "Ġoptimizer": 5036,
    "Ġgrizz": 10354,
    "Ġwow": 15532,
    "canst": 22966,
    "Ġasks": 5115,
    "adoes": 11663,
    "islanders": 25443,
    "sir": 5001,
    "becoming": 18520,
    "eers": 20845,
    "Ġladyship": 5046,
    "Ġwoe": 4794,
    "trimmed": 23952,
    "married": 9952,
    "Ġexal": 10879,
    "Ġassociation": 24710,
    "Ġpositive": 2298,
    "Ġmag": 1430,
    "mmed": 7914,
    "iard": 9604,
    "Ġheel": 9687,
    "Ġensures": 3058,
    "Ġraging": 14310,
    "ters": 1574,
    "washed": 13050,
    "Ġpall": 7583,
    "Ġattractions": 12924,
    "Ġportentous": 15233,
    "pencil": 18829,
    "derick": 22171,
    "Ġaccordingly": 6622,
    "Ġcanopy": 18322,
    "Ġa": 263,
    "bethinking": 25746,
    "ience": 789,
    "cords": 25139,
    "loath": 22511,
    "Ġlifted": 6986,
    "Ġdrives": 14580,
    "Ġdread": 3164,
    "true": 2585,
    "Ġoffensive": 18693,
    "Ġmorning": 1748,
    "aton": 21261,
    "resolutions": 26165,
    "Ġmince": 22833,
    "Ġnatur": 17337,
    "extric": 22770,
    "fatal": 17089,
    "something": 4278,
    "'t": 3146,
    "Ġcalmness": 12098,
    "Ġcapacity": 10442,
    "Ġfidget": 15193,
    "slipped": 25530,
    "somers": 19371,
    "Ġchamounix": 14867,
    "Ġrepugn": 23366,
    "Ġorange": 8489,
    "Ġstagger": 10594,
    "ick": 836,
    "walks": 19724,
    "Ġbay": 9171,
    "ived": 1534,
    "Ġgordon": 26469,
    "gems": 20886,
    "Ġassumed": 9468,
    "soul": 9143,
    "Ġburden": 8611,
    "Ġtribe": 10753,
    "Ġserpent": 6739,
    "raged": 9214,
    "Ġcelest": 9904,
    "cry": 12450,
    "Ġbarbarous": 13479,
    "Ġbrow": 3984,
    "Ġshave": 22000,
    "Ġleaped": 8830,
    "Ġmuse": 13863,
    "recl": 15513,
    "Ġinvented": 17038,
    "Ġicelandic": 25887,
    "Ġslackened": 15130,
    "etics": 21584,
    "Ġsummons": 13235,
    "Ġcomprehens": 8320,
    "Ġ66": 24369,
    "tales": 17688,
    "Ġsarat": 21230,
    "honorable": 19903,
    "iguous": 18046,
    "Ġaudibly": 24770,
    "Ġmaximizing": 3170,
    "mmet": 10990,
    "Ġpines": 12623,
    "Ġchanced": 8187,
    "Ġstrands": 25575,
    "Ġattendant": 11287,
    "Ġproper": 1378,
    "Ġvultures": 25654,
    "gaffman": 26392,
    "kindred": 24052,
    "Ġaccompanied": 6781,
    "commence": 19995,
    "Ġmischie": 22763,
    "Ġarter": 22187,
    "Ġnearly": 3364,
    "Ġcomfortable": 6096,
    "thoughts": 9938,
    "Ġgenerously": 22404,
    "alizing": 17942,
    "Ġgun": 4703,
    "Ġpresided": 20210,
    "Ġinput": 610,
    "unken": 10239,
    "recklessly": 25270,
    "Ġmonsieur": 12425,
    "Ġvexation": 10589,
    "Ġscorched": 17102,
    "Ġterminating": 23514,
    "poison": 14395,
    "Ġcompute": 2902,
    "Ġdazz": 11597,
    "Ġentrance": 7233,
    "enjoyment": 17260,
    "agitation": 14071,
    "idually": 21773,
    "mbles": 23094,
    "ib": 1233,
    "Ġseemed": 1279,
    "Ġrecommended": 8671,
    "Ġwrinkled": 7264,
    "Ġlabours": 8586,
    "Ġ\"": 6121,
    "othic": 16219,
    "Ġilluminated": 20178,
    "Ġperceived": 4715,
    "Ġbye": 12744,
    "Ġdespair": 4005,
    "georgiana": 26021,
    "allic": 12819,
    "Ġtraining": 530,
    "Ġpalsy": 25779,
    "Ġscolding": 15204,
    "Ġendless": 7055,
    "Ġsitt": 21220,
    "disagreeable": 11165,
    "refusal": 24735,
    "Ġtempor": 2369,
    "Ġnowadays": 18547,
    "kingly": 20941,
    "Ġintricate": 15141,
    "Ġairth": 23321,
    "Ġleaky": 2349,
    "Ġfelt": 1746,
    "Ġdragg": 23220,
    "Ġreco": 9793,
    "instruct": 19545,
    "Ġboscombe": 8326,
    "Ġbul": 3295,
    "happiest": 19334,
    "Ġallusions": 10908,
    "Ġimple": 1783,
    "Ġobstacle": 16957,
    "Ġdidn": 4358,
    "Ġgreenness": 23770,
    "Ġraiment": 22655,
    "Ġhooped": 23358,
    "Ġprime": 10406,
    "expectations": 24279,
    "Ġamused": 11803,
    "Ġprediction": 2240,
    "Ġincompetent": 25680,
    "considered": 9583,
    "Ġothers": 2582,
    "Ġsufficient": 2001,
    "inities": 21188,
    "Ġassures": 14469,
    "circumst": 5349,
    "book": 4671,
    "gence": 876,
    "Ġputs": 19034,
    "repro": 10772,
    "Ġsounding": 8265,
    "Ġdinn": 23984,
    "Ġsurmis": 23465,
    "Ġbending": 12591,
    "Ġoutstretched": 14198,
    "Ġpost": 4266,
    "otes": 15748,
    "Ġmeasurement": 19426,
    "Ġhose": 12633,
    "typewritten": 26039,
    "Ġaloud": 6254,
    "Ġabsolutely": 4859,
    "Ġliterary": 25166,
    "Ġser": 1674,
    "Ġresiding": 16065,
    "intellig": 5321,
    "Ġdungeon": 16998,
    "Ġrepining": 23363,
    "iscre": 17852,
    "alvan": 21507,
    "Ġtraveller": 8049,
    "Ġwinding": 8236,
    "icient": 776,
    "Ġlabyrinth": 13683,
    "Ġpitiful": 13243,
    "Ġbelief": 5857,
    "Ġpoliteness": 8274,
    "overfitting": 13104,
    "invite": 25091,
    "Ġimperfectly": 25727,
    "Ġduties": 6611,
    "castle": 3350,
    "Ġjoyful": 13225,
    "spiracle": 22734,
    "Ġlirra": 21563,
    "Ġdiscovered": 4410,
    "Ġmeagre": 21817,
    "lantic": 6365,
    "inguish": 9400,
    "hatchway": 25905,
    "Ġadversary": 12178,
    "Ġprodigious": 8057,
    "lads": 20957,
    "Ġexult": 10232,
    "Ġdefile": 18825,
    "Ġincreas": 1695,
    "Ġenergies": 25460,
    "commencement": 26350,
    "precious": 12077,
    "Ġperception": 9753,
    "Ġsimple": 1621,
    "atra": 17773,
    "atics": 15526,
    "Ġyellowish": 24430,
    "Ġpagans": 16924,
    "worth": 8630,
    "Ġcomparative": 10545,
    "getic": 12971,
    "Ġhabits": 6926,
    "Ġtrailing": 23085,
    "Ġcognitive": 13637,
    "Ġmine": 3180,
    "sank": 17664,
    "Ġquenched": 22421,
    "Ġph": 1551,
    "Ġmaybe": 12954,
    "guilty": 19486,
    "up": 1283,
    "Ġshakes": 10906,
    "Ó": 148,
    "unquiet": 21885,
    "Ġmodeling": 2096,
    "Ġwomen": 4751,
    "Ġ63": 24366,
    "erable": 1917,
    "Ġakin": 15498,
    "call": 8726,
    "Ġmyst": 4046,
    "Ġinattention": 17934,
    "ally": 531,
    "contriv": 19294,
    "Ġgulf": 10638,
    "Ġunderwent": 23243,
    "Ġsheep": 10928,
    "icirc": 15660,
    "Ġenrolled": 21942,
    "txt": 12520,
    "clay": 18933,
    "Ġcore": 13881,
    "Ġfulfilment": 20190,
    "Ġquarrel": 7292,
    "consciously": 19628,
    "Ġdrowned": 9555,
    "Ġwarehouses": 20421,
    "Ġhunted": 7453,
    "neck": 14237,
    "Ġrecumbent": 22738,
    "india": 22375,
    "Ġclad": 12846,
    "da": 17516,
    "iracle": 11246,
    "Ġhappier": 10361,
    "Ġostentatious": 25737,
    "Ġfid": 10805,
    "Ġpurchased": 12265,
    "anum": 17837,
    "vice": 15452,
    "affording": 23780,
    "Ġoriginal": 6104,
    "Ġisolation": 17153,
    "Ġfinally": 4668,
    "Ġexhausting": 24709,
    "gust": 6362,
    "inquir": 9539,
    "ic": 304,
    "ating": 663,
    "Ġreverber": 19871,
    "Ġadvis": 9813,
    "Ġvertu": 23893,
    "etence": 21580,
    "Ġapplying": 13095,
    "ksome": 10107,
    "Ġlaboratory": 13615,
    "vember": 10857,
    "hammer": 14491,
    "istered": 14147,
    "Ġyet": 1028,
    "Ġwildly": 9417,
    "Ġvillainous": 25134,
    "Ġtoo": 1167,
    "contrad": 19293,
    "Ġcomplacency": 19451,
    "Ġperem": 12938,
    "Ġfads": 21419,
    "acup": 14262,
    "ropes": 7903,
    "Ġmadame": 13153,
    "toed": 18580,
    "Ġnat": 12651,
    "Ġheadsman": 13277,
    "Ġthursday": 12650,
    "mou": 10710,
    "boo": 16354,
    "Ġfinery": 23130,
    "Ġdisquis": 22531,
    "Ġhorr": 3191,
    "Ġfrancisco": 26065,
    "Ġawoke": 7286,
    "Ġtending": 17726,
    "Ġdecency": 18484,
    "Ġlearn": 365,
    "Ġmississippi": 20727,
    "Ġimpl": 7195,
    "Ġfabric": 25948,
    "Ġeels": 21623,
    "yield": 13812,
    "eous": 13715,
    "Ġlunatic": 24993,
    "Ġwindigate": 18912,
    "Ġcontortions": 18477,
    "Ġrequ": 795,
    "vap": 13806,
    "Ġmanagement": 8193,
    "Ġseer": 21963,
    "Ġexplanatory": 22207,
    "cc": 473,
    "Ġpauper": 26180,
    "gather": 20877,
    "Ġimputable": 22177,
    "Ġshank": 22001,
    "Ġful": 4292,
    "Ġskill": 6872,
    "Ġconsequence": 5542,
    "irksome": 18175,
    "Ġshabby": 14114,
    "sad": 11523,
    "supervised": 1873,
    "larking": 17596,
    "Ġlouisa": 13548,
    "dorff": 15241,
    "Ġimpartial": 15223,
    "Ġcommunications": 16358,
    "included": 19210,
    "Ġaccur": 3910,
    "laden": 14932,
    "inserted": 18888,
    "Ġwasted": 9707,
    "Ġsomnambul": 26578,
    "Ġmountainous": 16601,
    "glit": 23853,
    "Ġwarped": 25038,
    "Ġnin": 10190,
    "Ġunsuccessful": 18258,
    "Ġflail": 23011,
    "Ġpervers": 11787,
    "Ġimperial": 9484,
    "postp": 24635,
    "Ġgoblet": 25824,
    "Ġcrest": 12946,
    "Ġlonger": 3360,
    "Ġculprit": 26173,
    "Ġluxuriant": 20398,
    "Ġarches": 14165,
    "Ġsailors": 4270,
    "Ġkentuckian": 26344,
    "asons": 6016,
    "Ġglac": 9349,
    "Ġusages": 15927,
    "Ġcatherine": 2812,
    "tete": 10734,
    "Ġlaug": 3627,
    "Ġbalanced": 12993,
    "guest": 19485,
    "ĠâĢĺ": 1633,
    "given": 8377,
    "reading": 12084,
    "Ġecc": 11631,
    "whal": 10942,
    "kempt": 20943,
    "Ġoblong": 14324,
    "Ġcontent": 5034,
    "ampton": 18147,
    "iries": 18172,
    "surf": 24215,
    "nights": 16449,
    "Ġappo": 8501,
    "augmented": 26288,
    "Ġtriumphantly": 11289,
    "Ġravines": 25833,
    "surpr": 5998,
    "incidentally": 20542,
    "Ġnic": 7376,
    "Ġling": 7377,
    "Ġallusion": 7626,
    "largely": 19577,
    "angible": 22106,
    "Ġunrelieved": 20548,
    "Ġtok": 1245,
    "Ġskirt": 18731,
    "Ġstory": 2898,
    "terns": 21826,
    "antly": 1987,
    "Ġreports": 19086,
    "Ġumbrell": 13653,
    "oh": 1578,
    "Ġgoes": 3851,
    "Ġefficient": 1031,
    "Ġgiants": 25961,
    "Ġadmin": 23556,
    "Ġextraordinary": 5414,
    "bott": 9109,
    "Ġshrew": 22004,
    "lur": 13750,
    "nerable": 16280,
    "Ġushered": 18361,
    "friend": 3860,
    "Ġreputation": 11643,
    "university": 25984,
    "%": 9,
    "Ġalman": 21785,
    "Ġzero": 1202,
    "Ġset": 1176,
    "Ġcrows": 24034,
    "Ġchronic": 9932,
    "Ġblacks": 23391,
    "extreme": 11031,
    "Ġmor": 1248,
    "operations": 19978,
    "Ġaffirmative": 15226,
    "iform": 2200,
    "urance": 10859,
    "Ġdropping": 7483,
    "Ġwhitt": 18057,
    "Ġadopt": 10634,
    "Ġretiring": 16284,
    "Ġinstinct": 6576,
    "thest": 11657,
    "topic": 10530,
    "gave": 7800,
    "mblance": 7323,
    "rann": 21047,
    "Ġdictate": 20154,
    "Ġfavoring": 2347,
    "tinted": 17685,
    "Ġv": 399,
    "vishnoo": 21122,
    "Ġrespected": 11957,
    "Ġ112": 24437,
    "centred": 25020,
    "Ġpondered": 15170,
    "Ġsenses": 8252,
    "iles": 2858,
    "Ġseverity": 15824,
    "raint": 18318,
    "capt": 3834,
    "Ġrecollected": 8311,
    "skin": 10571,
    "Ġpalm": 10516,
    "Ġwhereupon": 14299,
    "Ġfant": 9176,
    "Ġpersisted": 13040,
    "Ġhoe": 23354,
    "Ġinstantly": 3592,
    "Ġuntutored": 19168,
    "Ġshare": 1661,
    "light": 3020,
    "1": 21,
    "Ġscriptures": 26237,
    "pot": 10120,
    "Ġhidden": 1375,
    "Ġfreshet": 25704,
    "Ġsiam": 13841,
    "Ġstretch": 6994,
    "rep": 5525,
    "Ġyork": 11668,
    "Ġbud": 10171,
    "unwillingly": 21888,
    "consuming": 25675,
    "Ġregularization": 1177,
    "Ġhelped": 7459,
    "Ġlays": 15993,
    "Ġtravell": 5576,
    "alled": 5912,
    "Ġperplexity": 2752,
    "Ġpotent": 12068,
    "acon": 10684,
    "Ġgriff": 22809,
    "Ġinadequate": 17939,
    "fireside": 24693,
    "ves": 696,
    "Ġsofa": 10273,
    "Ġuses": 1209,
    "Ġlate": 3378,
    "Ġmortification": 12099,
    "distinction": 19574,
    "Ġcologne": 13666,
    "Ġunwritten": 22036,
    "adjust": 21763,
    "vil": 2730,
    "announce": 24561,
    "Ġequal": 4129,
    "Ġpenalty": 1840,
    "Ġ100": 14362,
    "Ġbranches": 6777,
    "sleepers": 24729,
    "strained": 21661,
    "Ġmuster": 16126,
    "Ġauthors": 10417,
    "belt": 24038,
    "Ġdraws": 19439,
    "Ġunex": 11717,
    "Ġinconstant": 21499,
    "irresist": 21916,
    "naturedly": 24841,
    "Ġirreparable": 20002,
    "Ġcigaret": 16978,
    "Ġphilosophy": 7105,
    "Ġbes": 2659,
    "Ġcottage": 4735,
    "conducted": 25573,
    "Ġce": 3034,
    "Ġcomprehension": 15090,
    "Ġoccur": 1083,
    "Ġassailed": 23181,
    "Ġdictionary": 15116,
    "Ġhurry": 4914,
    "Ġexquis": 9702,
    "satisfaction": 9995,
    "start": 7599,
    "Ġfalling": 6915,
    "Ġwhatsoever": 18456,
    "ourable": 4967,
    "Ġexchange": 15758,
    "Ġrol": 3555,
    "Ġbur": 2696,
    "Ġdishonoured": 20394,
    "Ġintrepidity": 25551,
    "impressed": 12697,
    "Ġmetallic": 19074,
    "their": 2541,
    "load": 12886,
    "direction": 17526,
    "Ġde": 363,
    "prodigious": 17469,
    "utral": 12669,
    "heedful": 20576,
    "Ġblank": 5952,
    "vable": 10135,
    "Ġarranged": 9880,
    "Ġdelivery": 18977,
    "ĠĠĠĠĠĠĠĠĠĠĠĠĠĠĠĠĠĠĠĠĠĠ": 16229,
    "Ġglow": 7171,
    "Ġjew": 9470,
    "kind": 3861,
    "Ġspeculations": 23002,
    "Ġsuggests": 12205,
    "Ġquadr": 8200,
    "Ġconfident": 11140,
    "Ġvulgar": 13607,
    "100": 11466,
    "wherefore": 19110,
    "Ġsubstituting": 26328,
    "Ġhaunt": 18198,
    "Ġimproving": 1210,
    "Ġovercame": 9749,
    "Ġwerter": 15243,
    "izers": 18145,
    "Ġrattled": 15070,
    "masts": 19428,
    "calling": 12454,
    "jud": 4480,
    "unwillingness": 25803,
    "Ġapparently": 6779,
    "fordshire": 4678,
    "Ġsixteen": 8283,
    "Ġcrevice": 22726,
    "Ġneedle": 8275,
    "Ġancho": 15607,
    "withdrawn": 23029,
    "biqu": 17500,
    "Ġexactness": 23606,
    "¡": 99,
    "recollection": 25349,
    "Ġfurn": 3708,
    "Ġmounting": 19980,
    "Ġsample": 3179,
    "Ġanalyze": 1612,
    "prov": 16426,
    "raltar": 24236,
    "flying": 13724,
    "Ġsides": 4581,
    "Ġimper": 4500,
    "natural": 2252,
    "Ġedges": 3824,
    "Ġextent": 7656,
    "Ġincivility": 18574,
    "seven": 8466,
    "Ġsecurely": 16804,
    "log": 18536,
    "hens": 3935,
    "Ġallowed": 4054,
    "Ġappointment": 10649,
    "Ĳ": 243,
    "Ġnav": 5819,
    "ertion": 12043,
    "iards": 17576,
    "erred": 6377,
    "Ġnaked": 8127,
    "Ġfaultless": 24540,
    "Ġtolerably": 8068,
    "quitted": 21855,
    "opinion": 10986,
    "Ġshot": 4543,
    "nearest": 16026,
    "eth": 611,
    "Ġ[\"": 19933,
    "discrimin": 19611,
    "Ġincor": 2608,
    "machine": 1015,
    "tiness": 21074,
    "Ġvote": 21951,
    "Ġers": 15463,
    "Ġpredicts": 2593,
    "Ġconnect": 800,
    "hypothe": 25906,
    "five": 6358,
    "Ġsiamese": 20486,
    "bug": 17495,
    "wreat": 21130,
    "Ġstopping": 2747,
    "itud": 2929,
    "-": 17,
    "Ġconcealed": 7495,
    "header": 11937,
    "leisure": 21374,
    "Ġidentify": 12018,
    "zeal": 16270,
    "countenance": 6925,
    "inople": 13832,
    "Ġlivid": 14992,
    "Ġindef": 9192,
    "Ġliberal": 12195,
    "Ġhosea": 17334,
    "Ġplanets": 24059,
    "helpless": 16792,
    "Ġtombed": 25164,
    "Ġexhibiting": 19841,
    "Ġhideousness": 16917,
    "Ġ1807": 26084,
    "Ġgracechurch": 12203,
    "sufficiently": 14984,
    "object": 6884,
    "fisher": 7547,
    "Ġlikely": 3598,
    "Ġ56": 24320,
    "Ġunlucky": 10053,
    "Ġtart": 12532,
    "Ġspirits": 3696,
    "game": 11493,
    "Ġdecomp": 3809,
    "pshire": 21026,
    "Ġmaggie": 26293,
    "Ġserves": 4670,
    "county": 25397,
    "Ġmoderation": 12825,
    "Ġsuffocated": 20730,
    "Ġannouncement": 14836,
    "Ġmild": 4140,
    "Ġlanguages": 1570,
    "Ġheap": 12684,
    "Ġrecover": 9794,
    "Ġclaimed": 14205,
    "Ġviolently": 6457,
    "analysis": 26174,
    "Ġgold": 3281,
    "rivial": 9437,
    "exceeded": 25002,
    "Ġended": 7950,
    "Ġspoon": 22138,
    "lesson": 22775,
    "Ġmes": 17798,
    "Ġodor": 12154,
    "Ġtake": 1579,
    "Ġheeded": 13406,
    "Ġwand": 4337,
    "Ġisol": 8838,
    "Ġsleep": 2402,
    "remediable": 26296,
    "trying": 15441,
    "Ġsperm": 1843,
    "Ġabsent": 7016,
    "complete": 15037,
    "Ġsweeter": 23921,
    "Ġruddy": 17128,
    "Ġsoul": 2724,
    "Ġheat": 5453,
    "Ġsen": 9159,
    "Ġtranquo": 14846,
    "Ġunstructured": 3007,
    "Ġ82": 24458,
    "Ġcongealed": 25982,
    "Ġarmy": 11745,
    "Ġsailor": 3536,
    "ĠĠĠĠĠĠĠĠĠĠĠĠĠĠĠĠĠĠĠĠĠĠĠĠĠĠĠĠĠĠĠĠĠĠĠĠĠĠ": 16527,
    "hid": 13737,
    "Ġinvitation": 5188,
    "Ġendued": 14080,
    "Ġrippling": 17280,
    "Ġ14": 9326,
    "Ġfond": 4756,
    "Ġpartners": 11857,
    "Ġwafted": 14500,
    "Ġapprehensions": 13407,
    "Ġoverlapping": 26240,
    "hopes": 15373,
    "triumph": 15443,
    "Ġgrammar": 1064,
    "Ġreminisc": 18727,
    "Ġdeserts": 10510,
    "Ġhealed": 21686,
    "Ġnameless": 7700,
    "Ġfiner": 13057,
    "Ġvindictiveness": 25739,
    "Ġrepresented": 8941,
    "roots": 15647,
    "Ġtease": 18802,
    "inform": 10146,
    "yn": 7819,
    "possessed": 9531,
    "mistress": 14908,
    "Ġwritten": 4161,
    "Ġhailed": 6408,
    "Ġthemselves": 3254,
    "Ġbeasts": 10620,
    "Ġbroom": 18908,
    "Ġstumble": 26484,
    "Ġhumans": 8933,
    "Ĩ": 233,
    "taken": 7560,
    "wound": 21129,
    "Ġfocuses": 8653,
    "adow": 18090,
    "Ġvancouver": 26567,
    "recollected": 25348,
    "Ġtranspointed": 22444,
    "going": 6315,
    "Ġconsecrate": 26491,
    "Ġdesperado": 19822,
    "ensation": 22550,
    "Ġhit": 7164,
    "drunk": 24660,
    "ctuous": 9208,
    "els": 1765,
    "Ġwearisome": 19798,
    "Ġpermanent": 13634,
    "Ġcemet": 20683,
    "Ġseals": 11701,
    "Ġdelineate": 26058,
    "henomena": 20275,
    "Ġfootman": 8288,
    "Ġheathen": 10568,
    "Ġremember": 2676,
    "tps": 11537,
    "Ġglimmer": 15145,
    "preced": 10308,
    "generous": 16571,
    "Ġheightened": 8652,
    "lemency": 21377,
    "rid": 5137,
    "generations": 23788,
    "urday": 13998,
    "Ġn": 300,
    "beaten": 20318,
    "Ġinstincts": 16988,
    "Ġchoked": 9267,
    "dough": 15338,
    "Ġadmiring": 16482,
    "Ġmaterially": 12196,
    "Ġbeware": 8832,
    "Ġjuncture": 17132,
    "Ġreport": 6193,
    "Ġtun": 6000,
    "Ġmachine": 784,
    "knowing": 10439,
    "Ġsuav": 22086,
    "rossing": 18641,
    "Ġknife": 7309,
    "itations": 17819,
    "ents": 1897,
    "Ġfreemason": 23216,
    "Ġharvard": 24574,
    "Ġbody": 2439,
    "shame": 16029,
    "omin": 4704,
    "Ġbanker": 8670,
    "Ġintimidated": 24802,
    "Ġmult": 1023,
    "Ġfeathers": 15123,
    "Ġno": 509,
    "odious": 21814,
    "Ġintervene": 25481,
    "comfortableness": 24525,
    "Ġoffend": 16148,
    "Ġcra": 2334,
    "ifully": 13187,
    "Ġhistor": 3392,
    "oniously": 21260,
    "Ġelimin": 16111,
    "ductive": 23939,
    "Ġperplexed": 23660,
    "Ġinterrupting": 19560,
    "Ġpatron": 7462,
    "pressed": 6589,
    "Ġfuneral": 10286,
    "ountain": 2917,
    "Ġindications": 14634,
    "Ġcrowd": 6338,
    "Ġhomeless": 23390,
    "inking": 6711,
    "Ġbohem": 8529,
    "leaning": 10792,
    "ateness": 15523,
    "anel": 21360,
    "Ġsumm": 3356,
    "Ġinform": 996,
    "athered": 6973,
    "Ġconstitutes": 13555,
    "Ġcables": 15562,
    "event": 8077,
    "Ġstaircase": 20099,
    "Ġcrammed": 16472,
    "greeting": 24554,
    "significant": 25085,
    "Ġcrazed": 19177,
    "reflection": 13458,
    "Ġcurious": 3361,
    "Ġadorn": 12798,
    "Ġpomp": 12628,
    "Ġshan": 9252,
    "barrels": 15044,
    "Ġdefines": 1742,
    "Ġexamples": 2603,
    "Ġboneless": 19608,
    "standard": 22435,
    "Ġadmit": 7711,
    "addressing": 24401,
    "Ġinmost": 17933,
    "deduction": 23670,
    "examine": 25478,
    "Ġrese": 2219,
    "Ġapo": 9633,
    "Ġsweeping": 8988,
    "Ġstrongly": 5657,
    "Ġslaughter": 20732,
    "Ġplainpalais": 20739,
    "tipt": 25086,
    "Ġwant": 1119,
    "Ġtrifling": 10605,
    "rrh": 26145,
    "Ġhalloa": 13320,
    "Ġexcavating": 23318,
    "Ġbowels": 9433,
    "Ġdrove": 4984,
    "Ġremembering": 14612,
    "lasting": 8011,
    "forbearance": 22796,
    "Ġwire": 13855,
    "ered": 1685,
    "swift": 14855,
    "speaks": 19722,
    "Ġrobots": 11085,
    "Ġaustral": 12177,
    "elius": 13290,
    "Ġicicles": 25265,
    "Ġmoss": 9287,
    "Ġcreeping": 18683,
    "Ġperfection": 19221,
    "Ġroll": 5381,
    "Ġanxious": 4517,
    "Ġproperly": 7945,
    "Ġobedient": 20108,
    "Ġcalled": 1971,
    "Ġtwopence": 18664,
    "Ġtwitched": 20447,
    "occupations": 24967,
    "savagery": 25028,
    "yes": 985,
    "li": 1189,
    "Ġspermacetti": 19051,
    "Ġjavelin": 26105,
    "Ġmagnetic": 17243,
    "qual": 8157,
    "Ġper": 587,
    "Ġacquies": 11099,
    "inst": 4290,
    "Ġunhappy": 5640,
    "Ġfacet": 15589,
    "writing": 7721,
    "goin": 23406,
    "Ġineff": 12640,
    "Ġrestricted": 19029,
    "imagine": 19934,
    "Ġrejoiced": 8687,
    "simp": 17667,
    "fury": 17549,
    "Ġabundantly": 17159,
    "Ġsuperflu": 14555,
    "Ġmonogra": 22985,
    "driver": 14924,
    "Ġprospect": 4707,
    "Ġoccupied": 5273,
    "Ġout": 542,
    "Ġrepresenting": 4056,
    "Ġapplies": 11961,
    "Ġpig": 5705,
    "Ġprocured": 8680,
    "Ġhed": 7387,
    "Ġmistaking": 23721,
    "Ġdressed": 5081,
    "Ġleathern": 15053,
    "Ġnorthward": 13325,
    "Ġintru": 15831,
    "Ġsecurity": 8980,
    "Ġunder": 1637,
    "Ġdigging": 14941,
    "Ġdavis": 25953,
    "Ġskul": 22799,
    "Ġtangle": 25761,
    "brought": 7285,
    "speeches": 25240,
    "Ġgrease": 26191,
    "Ġshar": 9253,
    "poured": 17639,
    "sized": 15431,
    "Ġcring": 15556,
    "Ġthrice": 10578,
    "Ġgames": 11629,
    "view": 5897,
    "related": 24015,
    "Ġfronted": 23260,
    "Ġnative": 4642,
    "Ġparent": 14647,
    "Ġflu": 3280,
    "sed": 4169,
    "Ġportcull": 23866,
    "Ġdist": 679,
    "Ġexpose": 10330,
    "Ġkin": 15908,
    "Ġlink": 8130,
    "Ġsm": 704,
    "Ġcoldness": 23762,
    "Ġemperors": 15163,
    "Ġcamp": 9167,
    "Ġexpectation": 6904,
    "Ġflanks": 11919,
    "Ġfervent": 14899,
    "walked": 10573,
    "Ġprofessors": 14728,
    "Ġdiscrimin": 2546,
    "Ġsmoothe": 23657,
    "orus": 10803,
    "Ġcope": 17832,
    "dismay": 19156,
    "Ġmarvelled": 18875,
    "bitious": 16672,
    "Ġstir": 5824,
    "Ġalternate": 19989,
    "Ġimpressions": 9556,
    "Ġbarbary": 24219,
    "Ġtechnical": 17194,
    "Ġdirecting": 16303,
    "Ġblade": 11897,
    "heart": 4525,
    "Ġambiguous": 20167,
    "left": 6976,
    "Ġla": 5914,
    "Ġyelled": 9697,
    "felix": 10656,
    "makers": 20984,
    "fol": 4863,
    "Ġprojects": 9514,
    "Ġlips": 3987,
    "velope": 17703,
    "few": 8205,
    "Ġlip": 6534,
    "Ġlegend": 14577,
    "forever": 22523,
    "station": 10846,
    "Ġaffords": 16736,
    "Ġpitched": 9447,
    "izon": 18144,
    "commendation": 26351,
    "christmas": 20258,
    "ue": 1180,
    "3": 23,
    "Ġ125": 24470,
    "Ġduplicity": 25332,
    "Ġsumatra": 15290,
    "Ġbutchers": 18273,
    "pool": 16211,
    "viating": 14581,
    "lessly": 4557,
    "Ġlakes": 8131,
    "ce": 313,
    "Ġaugmentation": 20119,
    "Ġtoward": 17949,
    "accomp": 10457,
    "pos": 15413,
    "question": 5418,
    "Ġbulwarks": 5592,
    "Ġrecl": 16143,
    "Ġunsur": 22024,
    "Ġlimits": 3454,
    "Ġdair": 17891,
    "Ġseparating": 16684,
    "Ġpropriet": 9553,
    "gunpowder": 25340,
    "Ġfree": 3376,
    "Ġcomput": 603,
    "Ġpine": 8801,
    "Ġwint": 15536,
    "Ġmiguel": 25767,
    "ounted": 5030,
    "Ġlectures": 17181,
    "Ġexped": 7651,
    "Ġencircling": 26273,
    "atical": 10773,
    "rosings": 15648,
    "produce": 20285,
    "Ġparty": 3510,
    "asters": 8435,
    "una": 21873,
    "Ġjingling": 26018,
    "Ġhistory": 4003,
    "Ġpedro": 15066,
    "irra": 15789,
    "Ġquaff": 22418,
    "Ġsympathised": 14865,
    "weep": 22689,
    "Ġhump": 5855,
    "geor": 15982,
    "Ġungrateful": 14124,
    "Ġtrod": 15029,
    "han": 12477,
    "Ġdiab": 10614,
    "lemag": 21375,
    "por": 2148,
    "Ġmarrying": 6179,
    "Ġorganize": 8994,
    "Ġsulky": 13517,
    "Ġawkward": 7075,
    "Ġdeuteronomy": 15764,
    "Ġhenceforth": 19645,
    "Ġruthless": 15289,
    "Ġascent": 19621,
    "Ġfrom": 434,
    "Ġanguish": 5583,
    "Ġmethodology": 2094,
    "Ġensued": 11396,
    "Ġranging": 8481,
    "Ġcase": 1940,
    "Ġabsorbed": 12335,
    "ounder": 11748,
    "Ġspecial": 2104,
    "Ġangrily": 9410,
    "Ġscrutin": 26015,
    "Ġinformed": 6719,
    "Ġdiffident": 23786,
    "athy": 14326,
    "Ġlatter": 3985,
    "Ġderbyshire": 6588,
    ")": 13,
    "Ġ10": 5250,
    "Ġvaried": 11852,
    "Ġdata": 518,
    "ivery": 17574,
    "Ġtho": 21517,
    "etieth": 21587,
    "Ġacts": 2296,
    "Ġy": 341,
    "Ġrequires": 997,
    "xible": 13811,
    "Ġgoose": 5939,
    "Ġpom": 21455,
    "Ġbusks": 23342,
    "Ġportra": 9012,
    "Ġimmensities": 25331,
    "leviathan": 7785,
    "Ġexpans": 18622,
    "anced": 1339,
    "Ġfarthing": 14457,
    "Ġvertebra": 20184,
    "Ġ1000": 3120,
    "inridge": 11563,
    "oam": 8755,
    "Ġri": 3396,
    "Ġsubur": 12961,
    "U": 57,
    "Ġclin": 14204,
    "Ġassur": 6075,
    "Ġimprisonment": 22393,
    "Ġshaping": 22007,
    "iliating": 12701,
    "Ġrevel": 9217,
    "Ġheartfelt": 18969,
    "Ġentity": 10345,
    "va": 4744,
    "buoy": 7761,
    "proceeded": 25191,
    "Ġwitt": 17785,
    "bpp": 20774,
    "windows": 19537,
    "ĠĠĠĠĠĠĠĠĠĠĠĠĠĠĠĠĠĠĠĠĠĠĠĠĠĠĠĠ": 9978,
    "Ġbount": 15572,
    "Ġvial": 10251,
    "Ġvapory": 17008,
    "ense": 2049,
    "Ġamendment": 26025,
    "Ġwhirlpool": 20657,
    "Ġnothing": 1359,
    "cloth": 11941,
    "Ġbeams": 14633,
    "Ġnut": 12652,
    "Ġinsensibly": 20079,
    "Ġsignificance": 13283,
    "onds": 13000,
    "Ġstrictest": 17043,
    "Ġtink": 9151,
    "espe": 3498,
    "Ġaccident": 5380,
    "Ġcur": 1244,
    "cra": 6356,
    "Ġvagueness": 25738,
    "Ġmary": 3842,
    "Ġdirector": 18922,
    "þ": 191,
    "Ġembod": 14413,
    "Ġdra": 1591,
    "Ġoak": 6130,
    "Ġinoffensive": 21501,
    "Ġnice": 6678,
    "Ġstowing": 18074,
    "Ġtheatre": 21281,
    "fit": 6648,
    "chance": 6827,
    "Ġdiscovering": 13361,
    "waste": 21137,
    "Ġinvol": 1058,
    "lutions": 20952,
    "Ġado": 7627,
    "sullen": 17671,
    "Ġbaby": 6639,
    "Ġjot": 11767,
    "Ġquies": 18465,
    "capital": 15092,
    "Ġnovelty": 13466,
    "Ġdisposed": 7085,
    "cing": 1012,
    "Ġrevolutions": 23845,
    "Ġinherent": 4593,
    "Ġlieutenant": 15265,
    "k": 79,
    "Ġfreshe": 13073,
    "Ġconcernment": 23646,
    "endom": 15922,
    "Ġconsuming": 22795,
    "aunt": 8370,
    "function": 4240,
    "Ġrequiring": 2920,
    "gold": 9123,
    "Ġconfidence": 6592,
    "ivable": 10912,
    "Ġverily": 16605,
    "isation": 13896,
    "Ġprepare": 8650,
    "Ġ45": 14773,
    "owners": 16091,
    "Ġsaints": 20677,
    "Ġessence": 13408,
    "Ġgeneral": 1862,
    "quest": 4537,
    "altogether": 12645,
    "gressive": 2751,
    "Ġedge": 5189,
    "Ġconsternation": 9862,
    "Ġdestined": 7975,
    "wicked": 24449,
    "hued": 20913,
    "organic": 25947,
    "ipotent": 10961,
    "wilful": 25152,
    "Ġabruptness": 25300,
    "Ġplaced": 3445,
    "gent": 7131,
    "Ġspies": 22132,
    "Ġridiculous": 10631,
    "deprived": 19900,
    "Ġrisk": 8039,
    "emotions": 15801,
    "odd": 21813,
    "Ġpunctures": 25136,
    "Ġasiatic": 20433,
    "gainst": 25144,
    "Ġcoefficient": 2880,
    "myst": 9825,
    "Ġworshipper": 25693,
    "Ġlashes": 17969,
    "Ġalfred": 21790,
    "gments": 12474,
    "Ġgamb": 18000,
    "pent": 3493,
    "Ġyielded": 14875,
    "Ġint": 410,
    "atherley": 7220,
    "ĕ": 214,
    "Ġfounder": 17885,
    "Ġnurse": 9520,
    "Ġripple": 25505,
    "Ġsteadfastly": 10654,
    "Ġscener": 10951,
    "Ġpray": 3897,
    "Ġmoses": 21318,
    "azed": 9402,
    "ular": 713,
    "ago": 14068,
    "devilish": 17083,
    "james": 15376,
    "Ġwish": 2099,
    "Ġutilize": 4799,
    "Ġcannot": 1669,
    "Ġunbroken": 18251,
    "Ġthese": 820,
    "Ġline": 1850,
    "Ġuniversity": 13125,
    "Ġdependent": 14292,
    "Ġused": 2059,
    "Ġaright": 11744,
    "^{": 15308,
    "Ġturtle": 4196,
    "gus": 13728,
    "Ġcrutch": 23446,
    "Ġbouton": 17870,
    "rising": 7557,
    "Ġ**": 4722,
    "Ġcompact": 2263,
    "ylon": 24978,
    "lances": 15387,
    "Ġleg": 2337,
    "Ġemb": 1230,
    "Ġirritation": 20269,
    "Ġquietly": 4568,
    "ĠĠĠĠĠĠĠĠĠĠĠĠĠĠĠĠĠĠĠĠĠĠĠĠ": 5322,
    "Ġpatagonian": 20537,
    "roused": 16655,
    "Ġtingling": 15096,
    "Ġalgorith": 567,
    "orily": 15577,
    "Ġapprehension": 7115,
    "Ġguided": 10462,
    "Ġkentuck": 19893,
    "Ġadduced": 26526,
    "Ġscenari": 22291,
    "supposed": 13319,
    "Ġspear": 9317,
    "Ġaccord": 4021,
    "Ġstake": 14006,
    "Ġsurveying": 25326,
    "reproof": 25433,
    "Ġsurpassing": 20471,
    "orange": 21403,
    "Ġparamet": 608,
    "Ġconvenient": 8346,
    "imaux": 21715,
    "Ġtowards": 1730,
    "run": 10723,
    "inction": 6663,
    "Ġannoyed": 17202,
    "Ġrelapses": 26280,
    "iftings": 23229,
    "Ġmemories": 14557,
    "û": 188,
    "particular": 5757,
    "Ġbang": 17856,
    "Ġexquisite": 12386,
    "Ġwater": 1947,
    "sing": 5138,
    "pp": 384,
    "Ġleather": 7607,
    "Ġmodels": 761,
    "Ġintimately": 24801,
    "Ġscript": 18399,
    "Ġdifferent": 1429,
    "bey": 10316,
    "Ġwreath": 25937,
    "Ġfoundering": 21422,
    "Ġgrope": 17997,
    "Ġstaple": 26200,
    "Ġquicker": 16510,
    "Ġprincely": 24148,
    "Ġaudible": 19883,
    "Ġdignity": 5704,
    "Ġadieus": 25113,
    "Ġcommonplaces": 16292,
    "Ġunconquerable": 22065,
    "Ġunsupervised": 2338,
    "Ġpeaceable": 14726,
    "many": 5251,
    "Ġstaff": 14009,
    "quarter": 11390,
    "Ġtransactions": 18482,
    "Ġcollateral": 20075,
    "Ġcaut": 6522,
    "Ġinjection": 3467,
    "ker": 5792,
    "Ġmushroom": 13240,
    "Ġloathing": 15071,
    "Ġans": 1649,
    "shoes": 14244,
    "Ġholy": 6593,
    "roofed": 26185,
    "impat": 11204,
    "Ġequival": 4785,
    "orph": 21402,
    "Ġstorm": 4296,
    "Ġintensified": 17020,
    "Ġaccidents": 10298,
    "destroyed": 15264,
    "Ġwrecks": 16820,
    "Ġpedd": 17912,
    "virt": 15454,
    "Ġcasks": 7521,
    "Ġdundee": 16999,
    "mbly": 9790,
    "Ġinhuman": 13932,
    "Ġmeant": 3550,
    "Ġblindly": 12114,
    "Ġidler": 16407,
    "Ġoffice": 4965,
    "wheels": 14384,
    "sham": 9764,
    "occ": 4483,
    "Ġdismantled": 20219,
    "Ġprovide": 7750,
    "Ġwine": 6811,
    "agation": 1256,
    "mort": 10712,
    "Ġfurs": 18739,
    "Ġg": 310,
    "Ġproposals": 10616,
    "Ġunprejudiced": 18270,
    "good": 2896,
    "Ġlad": 2367,
    "Ġbraz": 19361,
    "Ġolive": 12570,
    "Ġunimaginable": 15250,
    "Ġsimpl": 1580,
    "aned": 5147,
    "reeable": 3612,
    "following": 10575,
    "rey": 12543,
    "ded": 2754,
    "Ġstupidity": 15052,
    "Ġvenom": 24241,
    "Ġbricks": 13565,
    "Ġtapering": 8775,
    "Ġaccidentally": 9508,
    "Ġmalay": 24391,
    "Ġcharitable": 23272,
    "specim": 23947,
    "Ġgpus": 3730,
    "Ġplaus": 22607,
    "names": 16535,
    "Ġjust": 1240,
    "impress": 18054,
    "Ġslam": 13062,
    "Ġdrown": 6816,
    "Ġlounged": 19957,
    "Ġcontinue": 5398,
    "antique": 18289,
    "Ġsanguine": 25929,
    "Ġthoroughfare": 16946,
    "alescing": 23869,
    "Ġprocessions": 18434,
    "Ġwhispering": 14948,
    "lipped": 16220,
    "Ġadd": 630,
    "Ġrestrictions": 20638,
    "Ġagree": 7647,
    "edged": 15635,
    "pile": 17631,
    "Ġhats": 14620,
    "lane": 10708,
    "Ġfurnished": 6476,
    "onian": 17769,
    "Ġowing": 6006,
    "Ġserving": 14488,
    "apped": 5395,
    "Ġmyself": 1454,
    "Ġscowl": 22289,
    "isf": 2438,
    "Ġbosom": 6939,
    "Ġtot": 4179,
    "Ġfoss": 9854,
    "jep": 20928,
    "ri": 389,
    "Ġinforming": 18742,
    "Ġvirgin": 7328,
    "rix": 1575,
    "delirium": 14787,
    "dz": 4740,
    "Ġcurled": 8226,
    "Ġadvert": 10574,
    "Ġinvader": 23480,
    "values": 4973,
    "Ġtepid": 26414,
    "nervous": 16281,
    "gratitude": 16818,
    "prevailed": 17348,
    "ato": 17771,
    "pre": 649,
    "pictures": 15094,
    "drowned": 17372,
    "represent": 9640,
    "convul": 24884,
    "Ġstagnant": 24655,
    "Ġthrills": 24542,
    "Ġimpaling": 22389,
    "Ġcomprise": 18585,
    "sequence": 2853,
    "until": 6598,
    "Ġindifferent": 6176,
    "irable": 5776,
    "Ġlandscape": 12421,
    "Ġlbs": 11618,
    "Ġalley": 15740,
    "Ġearly": 2078,
    "Ġwhit": 7178,
    "Ġbegone": 11921,
    "earnest": 12403,
    "described": 18896,
    "ext": 925,
    "ike": 5000,
    "concent": 19483,
    "Ġhelmsman": 10507,
    "afterwards": 7484,
    "Ġmountains": 4424,
    "Ġput": 1800,
    "Ġfloundered": 18864,
    "Ġshriek": 6640,
    "Ġfagged": 17884,
    "Ġromans": 16761,
    "Ġfeedforward": 2329,
    "tre": 8764,
    "unfearing": 21896,
    "Ġbackground": 18650,
    "Ġroasted": 18461,
    "Ġschoolboys": 24481,
    "shaped": 10312,
    "Ġeternities": 19946,
    "Ġunceasing": 20361,
    "Ġhulls": 13929,
    "Ġmeasureless": 14713,
    "Ġgallop": 19558,
    "Ġwaste": 9237,
    "Ġoriginally": 7304,
    "Ġapples": 22228,
    "Ġtormented": 8678,
    "insurance": 18889,
    "nlp": 8754,
    "Ġinf": 1756,
    "gg": 1994,
    "Ġepic": 15032,
    "Ġresolute": 19247,
    "inable": 11558,
    "Ġflood": 7716,
    "Ġdiddled": 22672,
    "Ġbuckle": 17034,
    "Ġhereafter": 9333,
    "Ġtechn": 9369,
    "Ġrelev": 1716,
    "chop": 21691,
    "Ġsums": 2899,
    "Ġdiffered": 22714,
    "Ġmorbid": 16240,
    "Ġcomposing": 16074,
    "Ġensuring": 11193,
    "Ġvilest": 20104,
    "zz": 4288,
    "Ġadded": 2714,
    "Ġconveniently": 20082,
    "otherwise": 7671,
    "Ġevolved": 9895,
    "Ġexertions": 13413,
    "owing": 7602,
    "Ġdissu": 18551,
    "Ġevince": 24295,
    "Ġconvent": 11671,
    "irious": 15790,
    "Ġinsatiate": 19272,
    "Ġrigging": 5601,
    "disgraceful": 26077,
    "record": 16923,
    "lod": 15382,
    "repid": 11567,
    "Ġeleg": 6194,
    "Ġshall": 1145,
    "Ġpunishment": 9959,
    "Ġgrip": 11630,
    "Ġdiscover": 4719,
    "Ġseasoned": 24405,
    "Ġvacantly": 16817,
    "Ġrecorded": 11295,
    "client": 18934,
    "Ġaltitude": 26204,
    "Ġtoiling": 15639,
    "Ġvapors": 19910,
    "Ġheart": 1593,
    "Ġcrew": 2497,
    "Ġpainful": 6463,
    "Ġdefy": 11901,
    "neath": 12872,
    "Ġadapts": 3815,
    "bearing": 9768,
    "icacy": 15662,
    "dangerous": 20243,
    "Ġhopkins": 23134,
    "yd": 21145,
    "Ġmutually": 23960,
    "Ġchil": 11755,
    "Ġscared": 14192,
    "covering": 15337,
    "Ġnursing": 12219,
    "Ġpolice": 4676,
    "enari": 21284,
    "Ġwon": 1668,
    "ace": 716,
    "oar": 12502,
    "Ġminimizes": 2044,
    "Ġbachelor": 7787,
    "Ġpalmy": 19502,
    "fam": 5990,
    "Ġtightly": 13536,
    "Ġoccurrence": 14385,
    "bones": 8372,
    "required": 17031,
    "Ġsemicirc": 16396,
    "ĠĠĠĠĠĠĠĠĠĠĠĠĠĠĠĠĠĠĠĠĠĠĠĠĠĠĠĠĠĠĠĠĠĠĠĠĠĠĠĠĠĠĠ": 12159,
    "wedding": 12526,
    "Ġfurlong": 18740,
    "tomorrow": 25915,
    "Ġfrequented": 16588,
    "Ġcurse": 7667,
    "Ġshadow": 5596,
    "Ġeverywhere": 9799,
    "degree": 12807,
    "Ġtriumph": 5143,
    "Ġsaintsbury": 26374,
    "impe": 21711,
    "summoned": 26593,
    "04": 10682,
    "wherein": 19109,
    "Ġimpertinent": 9080,
    "Ġ177": 13415,
    "polar": 24584,
    "Ġladen": 19179,
    "Ġrugged": 18721,
    "Ġellenborough": 26155,
    "ounds": 4150,
    "Ġhomeward": 9395,
    "Ġfile": 13906,
    "Ġtoilet": 13940,
    "searching": 25106,
    "Ġcontemptuously": 19836,
    "Ġessays": 19747,
    "ifiable": 18166,
    "cav": 17510,
    "Ġjobs": 24833,
    "Ġdelivered": 11118,
    "Ġitems": 9695,
    "Ġflorida": 20661,
    "Ġboston": 22644,
    "Ġmourning": 13481,
    "Ġbegun": 7243,
    "prof": 7699,
    "calabash": 22898,
    "Ġschoolmasters": 19723,
    "Ġprejudiced": 24806,
    "cracy": 24691,
    "Ġfive": 2834,
    "ga": 17552,
    "cated": 20805,
    "boast": 23255,
    "batross": 9096,
    "Ġdipping": 15596,
    "Ġmurmured": 7480,
    "eral": 9162,
    "burgh": 6774,
    "Ġjovial": 19236,
    "dutch": 17221,
    "oc": 2832,
    "Ġstooped": 14467,
    "Ġpit": 3422,
    "Ġkeepers": 23541,
    "ius": 5789,
    "ĠâĢľâĢĶ": 9737,
    "freighted": 14895,
    "Ġ126": 24471,
    "Ġyoungster": 23183,
    "Ġmachinations": 25768,
    "company": 9463,
    "Ġworked": 6585,
    "Ġgenuine": 14888,
    "Ġsprinkled": 19500,
    "leading": 15566,
    "Ġpunchbowl": 20234,
    "sorts": 21063,
    "Ġsuccessful": 9926,
    "Ġslightly": 7293,
    "Ġcontributes": 15254,
    "professor": 17252,
    "ivity": 1644,
    "ipp": 10105,
    "iary": 15374,
    "tables": 19760,
    "Ġdisk": 22526,
    "Ġ96": 24593,
    "leo": 21367,
    "Ġbaling": 17861,
    "chorus": 19814,
    "mentioning": 24886,
    "Ġrecommendation": 17027,
    "irene": 15918,
    "Ġmisconduct": 22761,
    "creatures": 7517,
    "Ġtiara": 26417,
    "Ġignor": 4007,
    "Ġslice": 23164,
    "indust": 18436,
    "Ġinsult": 6749,
    "derer": 4602,
    "intimate": 22940,
    "rule": 15904,
    "Ġlikes": 9411,
    "impatience": 25501,
    "early": 20122,
    "Ġdistillation": 16047,
    "Ġdir": 21424,
    "apple": 22845,
    "squee": 15433,
    "ief": 2043,
    "Ġmim": 3109,
    "Ġscruples": 15082,
    "Ġsuperb": 16444,
    "Ġstupid": 7604,
    "Ġpatagon": 14505,
    "okers": 18442,
    "Ġrepeated": 3829,
    "Ġgallied": 19559,
    "mael": 6725,
    "Ġchinks": 22255,
    "ationally": 15709,
    "Ġfailing": 12142,
    "frost": 15110,
    "Ġwis": 3726,
    "family": 7324,
    "Ġlouisiana": 25079,
    "Ġhearty": 9849,
    "Ġch": 511,
    "Ġdescrib": 2716,
    "Ġjealously": 24124,
    "Ġunprincipled": 20710,
    "Ġbeats": 21756,
    "osh": 18389,
    "Ġhell": 5019,
    "kily": 20939,
    "orient": 2875,
    "Ġscrewing": 20211,
    "Ġinqu": 2965,
    "miserably": 24213,
    "Ġproducts": 5198,
    "Ġsending": 8779,
    "Ġ60": 14878,
    "Ġirretrie": 23377,
    "Ġke": 1155,
    "Ġcomprehensiveness": 25075,
    "Ġardour": 8043,
    "Ġfreedom": 9085,
    "Ġbrazier": 26322,
    "etymology": 14704,
    "atmospheric": 17778,
    "voices": 21120,
    "assistance": 20374,
    "Ġ50": 24315,
    "Ġdisconsol": 18558,
    "Ġemm": 18005,
    "torture": 26152,
    "warrant": 21140,
    "Ġhid": 1317,
    "Ġshrieks": 12204,
    "zar": 11550,
    "Ġordinarily": 20651,
    "Ġpeeled": 14321,
    "Ġfrighten": 13281,
    "fil": 12467,
    "tracks": 19649,
    "Ġderision": 16312,
    "sebastian": 21823,
    "Ġdamp": 8264,
    "Ġriddle": 14822,
    "Ġyaw": 18097,
    "Ġsolicit": 22889,
    "Ġjoint": 12038,
    "Ġspreading": 13381,
    "Ġnautical": 17389,
    "Ġappalling": 8502,
    "whalers": 17266,
    "Ġbarricade": 14662,
    "eled": 2361,
    "Ġbundle": 13429,
    "Ġvalue": 2085,
    "Ġwants": 5742,
    "girls": 12323,
    "join": 12118,
    "Ġalice": 1484,
    "Ġenjoyed": 8008,
    "ques": 2838,
    "ienced": 5685,
    "Ġpiled": 8426,
    "Ġlines": 4533,
    "------": 12138,
    "Ġbeautiful": 3671,
    "Ġplaything": 19240,
    "arctic": 12616,
    "Ġsuperglue": 23458,
    "Ġceremonious": 24838,
    "cork": 20798,
    "oration": 2209,
    "Ġbreakers": 12059,
    "Ġones": 3023,
    "Ġsharks": 4496,
    "Ġmultiplication": 2868,
    "Ġsaxon": 25469,
    "ho": 2855,
    "Ġmartyr": 26362,
    "Ġsombre": 18862,
    "reputable": 15520,
    "rucastle": 22192,
    "Ġsplice": 19310,
    "Ġadvise": 7936,
    "olly": 3224,
    "Ġcontemplated": 13467,
    "Ġcondescension": 10621,
    "Ġpaddington": 17096,
    "Ġsires": 21229,
    "ugnance": 12371,
    "Ġabhorrence": 9055,
    "Ġstalked": 20432,
    "kward": 6958,
    "Ġscales": 4851,
    "gest": 5426,
    "Ġcavity": 20491,
    "iliation": 10862,
    "Ġreverence": 12063,
    "Ġseventh": 18207,
    "Ġundertone": 23244,
    "etian": 13962,
    "Ġgunwales": 12245,
    "Ġwester": 25156,
    "Ġcandour": 14675,
    "Ġconstru": 19069,
    "asets": 2311,
    "cu": 10086,
    "Ġpreventing": 884,
    "Ġdais": 24372,
    "Ġparents": 6754,
    "lesc": 11040,
    "Ġsideboard": 10389,
    "contrast": 25595,
    "Ġpatched": 16375,
    "avings": 12027,
    "bit": 3930,
    "shadows": 25480,
    "Ġolder": 9330,
    "Ġalliance": 18236,
    "Ġputting": 5327,
    "Ġhyperborean": 26341,
    "Ġmis": 916,
    "Ġsinging": 7724,
    "mot": 17598,
    "Ġbutton": 10270,
    "mits": 13759,
    "Ġtrousers": 12419,
    "Ġdented": 17893,
    "Ġsuspicious": 9483,
    "Ġglobe": 6077,
    "narrated": 25622,
    "Ġdreaded": 8289,
    "broken": 8020,
    "traces": 24336,
    "Ġentreaties": 9038,
    "tasted": 17689,
    "je": 11498,
    "mouth": 9133,
    "Ġeffectual": 18734,
    "Ġann": 4488,
    "Ġimbecile": 17395,
    "inkers": 22618,
    "izure": 21845,
    "Ġpresumption": 10548,
    "meeting": 11021,
    "Ġdearer": 14052,
    "egypt": 15353,
    "Ġdimens": 3151,
    "ses": 3030,
    "emb": 11693,
    "iled": 1766,
    "marest": 20982,
    "Ġcondemned": 7779,
    "Ġworth": 4414,
    "Ġrestrain": 8967,
    "magnitude": 17251,
    "Ġhieroglyph": 11975,
    "Ġevermore": 18813,
    "animal": 16980,
    "accomplishments": 25327,
    "ornament": 23490,
    "Ġincomplete": 17211,
    "Ġtwinkling": 12328,
    "dro": 6647,
    "Ġstirring": 10582,
    "lest": 5290,
    "Ġirresolution": 24916,
    "Ġphilosoph": 19654,
    "Ġloosed": 22116,
    "Ġundressed": 19516,
    "Ġpursuits": 12081,
    "gage": 13726,
    "Ġcompan": 2173,
    "Ġobtru": 18676,
    "ently": 1474,
    "Ġtimber": 13353,
    "Ġtop": 2473,
    "Ġreview": 18033,
    "Ġsheets": 9725,
    "Ġfreer": 23214,
    "Ġglobal": 2372,
    "argue": 21447,
    "Ġignorant": 5344,
    "Ġjenkinson": 11433,
    "Ġtracks": 18891,
    "dÃ¦mon": 17529,
    "gabriel": 15364,
    "Ġcontradicted": 20214,
    "Ġmorals": 22980,
    "congenial": 25400,
    "Ġmuchness": 18708,
    "Ġfol": 1287,
    "itably": 10784,
    "Ġnear": 1720,
    "Ġbil": 15569,
    "Ġthink": 986,
    "anks": 3915,
    "Ġmen": 1435,
    "Ġstated": 9692,
    "Ġcommissionaire": 17002,
    "laughing": 15183,
    "Ġwheel": 9721,
    "Ġusual": 3941,
    "Ġforeign": 9875,
    "Ġplutarch": 22611,
    "Ġcringing": 25942,
    "Ġscope": 15947,
    "Ġdazed": 15600,
    "Ġrising": 4351,
    "Ġbold": 5293,
    "Ġspit": 22128,
    "Ġconsummate": 25311,
    "Ġdevilish": 11230,
    "Ġdischarged": 15224,
    "Ġrefer": 18703,
    "Ġmatrimonial": 25490,
    "Ġstrata": 26028,
    "Ġglories": 16244,
    "Ġinitialized": 3946,
    "Ġattending": 3287,
    "Ġgerman": 6143,
    "now": 547,
    "Ġunctuousness": 17237,
    "Ġcoiled": 11824,
    "Ġbun": 6008,
    "Ġnarration": 13506,
    "ithing": 11652,
    "Ġcastles": 16642,
    "marvell": 24173,
    "urer": 18124,
    "Ġsuppression": 23004,
    "Ġcastors": 23979,
    "once": 5905,
    "Ġbask": 8117,
    "pale": 13775,
    "Ġiv": 4040,
    "Ġfrig": 13084,
    "Ġcollins": 2181,
    "Ġtranspired": 16786,
    "niece": 20997,
    "repent": 15516,
    "heavy": 10577,
    "Ġviol": 2070,
    "loud": 11503,
    "Ġantilles": 24180,
    "follow": 5680,
    "otently": 21804,
    "Ġbrother": 2746,
    "Ġ{": 21155,
    "bun": 12442,
    "heav": 5694,
    "Ġrare": 7038,
    "cheeked": 19342,
    "overcoat": 19053,
    "north": 14617,
    "Ġglo": 1715,
    "Ġallowance": 14392,
    "Ġhorizontally": 17014,
    "luded": 4221,
    "Ġconj": 8462,
    "Ġceti": 24772,
    "Ġmark": 2333,
    "Ġparis": 8179,
    "nment": 20992,
    "Ġdowncast": 18652,
    "Ġball": 3623,
    "Ġsoles": 22089,
    "Ġcommercial": 22679,
    "constant": 11326,
    "Ġrecently": 11865,
    "Ġprofoundly": 16861,
    "Ġminuteness": 19140,
    "Ġthence": 8885,
    "Ġbeggars": 20632,
    "Ġstudents": 23208,
    "Ġrue": 11871,
    "alog": 8809,
    "detective": 24383,
    "Ġfiver": 22779,
    "Ġbacked": 12932,
    "ung": 2743,
    "Ġelsewhere": 7713,
    "Ġinjustice": 9193,
    "wet": 15455,
    "phur": 16157,
    "Ġcheap": 13092,
    "Ġsinks": 19552,
    "valued": 2850,
    "Ġdisplaying": 16968,
    "Ġmeditations": 25016,
    "Ġcaptiv": 16258,
    "leads": 21373,
    "ichron": 22172,
    "Ġuncommonly": 7760,
    "butt": 15998,
    "dep": 6787,
    "enormous": 26167,
    "Ġimperilled": 19581,
    "ocr": 10470,
    "Ġweak": 5098,
    "Ġinterests": 14571,
    "surprising": 16921,
    "perpet": 14161,
    "noticed": 14344,
    "Ġkilburn": 18352,
    "Ġabomin": 8189,
    "izar": 14053,
    "pounds": 21027,
    "Ġmember": 8465,
    "Ġjoll": 11769,
    "kick": 20938,
    "fights": 20867,
    "appointment": 24062,
    "grand": 7970,
    "Ġvul": 10250,
    "olet": 13769,
    "alone": 10186,
    "Ġrabb": 4157,
    "acific": 4960,
    "Ġwave": 7576,
    "Ġarguing": 25471,
    "Ġcopy": 10166,
    "poles": 16212,
    "diversity": 25898,
    "nourished": 26400,
    "set": 3863,
    "Ġreign": 13988,
    "Ġsadder": 24054,
    "Ġignited": 25072,
    "Ġmansfield": 25939,
    "Ġenabled": 9299,
    "Ġspatial": 2728,
    "Ġdotted": 16794,
    "Ġhousehold": 8571,
    "Ġtil": 12529,
    "Ġbernard": 20687,
    "Ġluff": 15657,
    "Ġdepose": 22593,
    "Ġskylight": 24074,
    "Ġmitigating": 1618,
    "Ġreproof": 24891,
    "Ġrace": 5848,
    "Ġostr": 21328,
    "Ġpron": 6452,
    "Ġtalents": 15047,
    "hide": 10705,
    "amore": 21847,
    "Ġantics": 24179,
    "Ġsimplicity": 2922,
    "stones": 11639,
    "Ġsax": 10931,
    "Ġuncivilized": 25499,
    "¾": 127,
    "diligence": 26111,
    "cous": 8725,
    "guarded": 13298,
    "Ġsynthe": 26008,
    "modesty": 22854,
    "Ġbroiled": 18910,
    "hands": 5968,
    "Ġsaucer": 20608,
    "Ġpry": 11603,
    "Ġelevates": 24503,
    "Ġgover": 2464,
    "Ġbring": 3325,
    "Ġaven": 10761,
    "nui": 21002,
    "Ġtransf": 22441,
    "Ġcombination": 22865,
    "P": 52,
    "Ġdyspeps": 16507,
    "Ġdesirous": 8945,
    "giving": 8742,
    "Ġme": 352,
    "Ġours": 4614,
    "Ġworthless": 19568,
    "Ġunconditional": 15848,
    "Ġsqueezing": 25009,
    "interest": 5421,
    "Ġinterested": 6459,
    "Ġostent": 13587,
    "Ġdow": 17888,
    "imly": 12693,
    "memory": 13620,
    "Ġcreated": 2705,
    "outside": 12810,
    "express": 4896,
    "Ġexploitation": 2350,
    "Ġnewspapers": 17189,
    "Ġcreatures": 4131,
    "fork": 20859,
    "Ġhereabouts": 12981,
    "Ġ20": 8617,
    "Ġkith": 22197,
    "dire": 15339,
    "Ġdesisted": 22983,
    "pire": 9138,
    "Ġgone": 2108,
    "Ġveins": 8935,
    "Ġsolemn": 4094,
    "ring": 1752,
    "Ġgoodness": 6060,
    "Ġwail": 21289,
    "imens": 1747,
    "Ġaugmented": 15109,
    "Ġvagabond": 20206,
    "Ġpious": 11602,
    "Ġdearest": 5457,
    "Ġvivid": 8058,
    "unpardonable": 21894,
    "Ġblemish": 19682,
    "Ġhundredth": 16520,
    "collins": 6916,
    "ciousness": 20819,
    "stretching": 20502,
    "settle": 16664,
    "Ġivory": 4475,
    "Ġdetective": 14419,
    "Ġsem": 1878,
    "Ġbuttoned": 25369,
    "Ġmodes": 22219,
    "fitzwilliam": 11354,
    "Ġcontact": 9284,
    "+": 15,
    "Ġpatterns": 1213,
    "honest": 17005,
    "Ġpriv": 4176,
    "Ġcommons": 22677,
    "Ġabreast": 18395,
    "reel": 21236,
    "destro": 13313,
    "Ġmodular": 12823,
    "Ġdefiance": 11070,
    "limbs": 20194,
    "Ġglared": 13023,
    "method": 17287,
    "Ġupbra": 22158,
    "Į": 239,
    "distinctive": 25726,
    "Ġhurrah": 9872,
    "Ġadvance": 5484,
    "Ġconjectured": 10000,
    "Ġworsh": 13004,
    "Ġveteran": 17453,
    "violets": 23546,
    "Ġeluc": 16112,
    "Ġdegree": 3702,
    "Ġetc": 7086,
    "Ġcable": 11583,
    "wonderful": 16962,
    "proceed": 8979,
    "stolen": 13985,
    "rayed": 23565,
    "tout": 21068,
    "nantucketer": 24975,
    "Ġclosing": 11776,
    "Ġcurrent": 13015,
    "Ġconsecut": 18114,
    "Ġben": 1110,
    "Ġhighlands": 22777,
    "Ġreckless": 13461,
    "actually": 14300,
    "Ġsinking": 7307,
    "collinses": 19925,
    "manif": 14376,
    "sharpening": 22472,
    "gris": 8260,
    "Ġshook": 4467,
    "Ġrad": 4962,
    "Ġerrone": 14433,
    "excepting": 19709,
    "harpooneers": 8693,
    "Ġtalks": 23373,
    "Ġquarrelling": 13501,
    "Ġremembrance": 8318,
    "Ġabsurdities": 24879,
    "ingale": 21302,
    "iam": 2509,
    "Ġhired": 10180,
    "Ġsorely": 17259,
    "Ġranks": 21976,
    "allows": 15911,
    "Ġthreat": 5154,
    "Ġmachines": 1777,
    "Ġannihilation": 15169,
    "Ġheroines": 19754,
    "b": 70,
    "admit": 18093,
    "heading": 5487,
    "Ġmalays": 19680,
    "orter": 4249,
    "Ġausten": 5882,
    "laying": 19775,
    "peare": 18913,
    "Ġconfining": 23309,
    "Ġcharming": 6631,
    "Ġpreyed": 18367,
    "Ġimbued": 17458,
    "rained": 5162,
    "batt": 20780,
    "Ġoutside": 5554,
    "pil": 15411,
    "Ġresignation": 18567,
    "Ġsemicircular": 26069,
    "cham": 10855,
    "Ġpistols": 17332,
    "desolate": 25717,
    "cod": 12448,
    "isely": 4487,
    "Ġriverside": 25248,
    "allowed": 5728,
    "ishnoo": 10957,
    "Ġcolumbus": 26566,
    "off": 1887,
    "Ġdigest": 24648,
    "Ġtough": 13818,
    "Ġcruelly": 13378,
    "blot": 20785,
    "remains": 10401,
    "paid": 15417,
    "expressive": 24307,
    "Ġcaves": 15558,
    "unusually": 15784,
    "mency": 18928,
    "office": 16399,
    "Ġswarming": 16277,
    "Ġcultiv": 13559,
    "Ġoh": 2176,
    "hur": 6651,
    "Ġork": 18285,
    "Ġtreacherous": 13557,
    "Ġbrightest": 13229,
    "lingly": 9776,
    ",--âĢľ": 19199,
    "Ġxv": 23409,
    "digger": 24312,
    "genteel": 19952,
    "Ġenticements": 26035,
    "Ġfalsely": 20585,
    "aside": 10194,
    "Ġgiddy": 20500,
    "deserving": 17248,
    "Ġbrute": 8930,
    "Ġsunrise": 9376,
    "Ġreaders": 18916,
    "Ġresolve": 13173,
    "right": 2767,
    "Ġturnpike": 23030,
    "Ġdaint": 15597,
    "except": 5383,
    "Ġimport": 1054,
    "mighty": 9469,
    "roads": 17960,
    "Ġha": 400,
    "iew": 2449,
    "Ġrushes": 20511,
    "Ġintentions": 10610,
    "Ġthro": 5818,
    "Ġepoch": 26473,
    "Ġinstituted": 18698,
    "Ġpiqu": 21480,
    "Ġ166": 25007,
    "Ġconjugal": 25104,
    "en": 271,
    "Ġpersuasions": 16634,
    "Ġdimly": 9491,
    "Ġ11": 5319,
    "othed": 16513,
    "Ġanimate": 23425,
    "Ġassemblage": 26354,
    "¢": 100,
    "Ġwatches": 11083,
    "rem": 1521,
    "Ġgovernor": 16492,
    "Ġcinque": 20489,
    "Ġentit": 22745,
    "Ġcommenting": 25229,
    "Ġendowed": 18925,
    "Ġbristles": 25845,
    "flung": 16641,
    "Ġforemast": 12010,
    "ben": 4927,
    "Ġsavage": 4006,
    "Ġbeings": 2491,
    "audible": 17135,
    "unte": 21877,
    "utarch": 15666,
    "Ġsick": 4694,
    "Ġinsufferable": 13934,
    "Ġimaginary": 11188,
    "Ġklux": 22200,
    "Ġcaged": 21355,
    "Ġappropriated": 23486,
    "istrate": 7406,
    "used": 3263,
    "Ġgrate": 12969,
    "Ġpowdered": 24240,
    "Ġstiff": 6993,
    "fo": 5279,
    "sor": 7352,
    "Ġattraction": 18626,
    "Ġpure": 6139,
    "Ġjudges": 14687,
    "Ġamours": 22485,
    "Ġoutlast": 22317,
    "lo": 681,
    "dance": 17521,
    "cim": 8723,
    "Ġgathering": 14981,
    "Ġ_": 840,
    "whiskers": 12315,
    "cause": 7796,
    "ck": 436,
    "Ġbo": 799,
    "Ġsteps": 2860,
    "sixty": 24853,
    "Ġspending": 10925,
    "Ġreplace": 14480,
    "Ġontario": 26206,
    "ight": 403,
    "take": 4578,
    "correct": 24483,
    "rical": 11521,
    "Ġstarted": 4143,
    "Ġlatitudes": 9499,
    "Ġprocedures": 9415,
    "yielded": 25757,
    "Ġrepair": 11983,
    "Ġskeleton": 5514,
    "level": 2652,
    "Ġachieved": 13169,
    "farmer": 25900,
    "size": 15428,
    "league": 17846,
    "Ġtherein": 11780,
    "sufficient": 6638,
    "wear": 22688,
    "quadrille": 20598,
    "Ġdup": 21430,
    "nt": 922,
    "Ġconvivial": 16550,
    "Ġdrag": 6186,
    "Ġquant": 6425,
    "Ġhours": 2818,
    "Ġagrees": 22520,
    "Ġruff": 14352,
    "Ġpout": 17908,
    "ú": 187,
    "harm": 13738,
    "ĺ": 251,
    "Ġweaver": 11691,
    "85": 13685,
    "Ġdescending": 8906,
    "interested": 9509,
    "progra": 9398,
    "Ġtribes": 20484,
    "Ġsavesoul": 26229,
    "ead": 2598,
    "breakfast": 8691,
    "pronouncing": 25194,
    "Ġmightier": 18732,
    "pul": 8757,
    "Ġguardians": 14946,
    "coming": 3562,
    "Ġwoeful": 19622,
    "Ġcrosses": 23065,
    "ibank": 6880,
    "Ġcamel": 25350,
    "ect": 381,
    "A": 37,
    "Ġsociety": 3974,
    "Ġtugged": 17291,
    "Ġlearnt": 7615,
    "Ġspray": 7894,
    "Ġgallon": 24185,
    "Ġprivileged": 20116,
    "icle": 10836,
    "Ġthick": 3779,
    "inquire": 16934,
    "vy": 21110,
    "Ġdescribe": 2764,
    "Ġsustaining": 25334,
    "Ġmagnificence": 20635,
    "you": 1004,
    "Ġactively": 18655,
    "Ġliable": 14231,
    "Ġas": 374,
    "process": 11150,
    "encounter": 20395,
    "Ġhen": 3502,
    "result": 12048,
    "Ġministers": 22835,
    "Ġloom": 7629,
    "Ġfiend": 4409,
    "Ġpane": 21466,
    "Ġundoubtedly": 8313,
    "tent": 21067,
    "Ġhooded": 12410,
    "Ġpencils": 23201,
    "veh": 12687,
    "Ġmere": 2711,
    "remembered": 17354,
    "furnished": 20244,
    "Ġvicious": 24403,
    "Ġfanatic": 23395,
    "87": 20759,
    "âĢĶ.": 11759,
    "reasonable": 7752,
    "ror": 7351,
    "paus": 13776,
    "quently": 9705,
    "Ġpurch": 6601,
    "cerem": 15682,
    "isition": 11589,
    "Ġadaptive": 1390,
    "Ġmassachusetts": 24025,
    "Ġjames": 6420,
    "Ġvector": 1970,
    "Ġthrow": 3780,
    "Ġmuskets": 17057,
    "Ġdiggings": 24650,
    "Ġdoorway": 14499,
    "pleasanter": 24050,
    "Ġweary": 5635,
    "Ġghostliness": 24652,
    "Ġadvertising": 25390,
    "wich": 11546,
    "ipelag": 12848,
    "Ġsad": 3865,
    "Ġcorpulence": 24509,
    "apan": 6860,
    "Ġimpudence": 26243,
    "highest": 20411,
    "coach": 23562,
    "Ġcried": 1487,
    "Ġknots": 15011,
    "gi": 17553,
    "swim": 16781,
    "beheaded": 22498,
    "Ġrecurring": 23235,
    "Ġsayest": 22778,
    "per": 478,
    "Ġorganizations": 12318,
    "egyptians": 25899,
    "Ġvineyarder": 25607,
    "closed": 23158,
    "acting": 22634,
    "Ġinspecting": 24614,
    "nets": 9135,
    "Ġarrives": 23609,
    "Ġbetokened": 18798,
    "Ġrelationship": 2317,
    "ilib": 4111,
    "uvier": 9071,
    "baden": 25616,
    "gon": 17554,
    "singular": 12193,
    "Ġpresentation": 14483,
    "osa": 22263,
    "Ġsubdued": 11032,
    "oundered": 14167,
    "Ġmechanisms": 1577,
    "uttle": 6249,
    "Ġrobustness": 18895,
    "Ġnaturalists": 10365,
    "Ġfuel": 13907,
    "rel": 3751,
    "Ġscept": 15506,
    "Ġinvestment": 24332,
    "those": 4494,
    "Ġunspeakable": 10059,
    "Ġoaken": 13868,
    "Ġconcepts": 4552,
    "ence": 391,
    "usive": 8192,
    "ots": 3296,
    "Ġabuse": 18393,
    "Ġwrote": 5011,
    "ained": 3068,
    "Ġpicture": 4858,
    "Ġargument": 7100,
    "Ġreconsidered": 21676,
    "Ġrapturously": 24889,
    "Ġliked": 5265,
    "Ġga": 4444,
    "thought": 3847,
    "idity": 8835,
    "shut": 10983,
    "Ġsurp": 9637,
    "Ġserm": 9636,
    "Ġspake": 18309,
    "intosh": 22943,
    "proportions": 22852,
    "gue": 12472,
    "bodily": 17318,
    "hopper": 23717,
    "prospect": 23399,
    "Ġphrensy": 25127,
    "Ġgratification": 24098,
    "Ġoct": 10161,
    "Ġuser": 15926,
    "Ġflutter": 16250,
    "Ġgrazed": 15837,
    "ats": 4247,
    "prodig": 16430,
    "Ġopen": 1555,
    "Ġjagged": 18408,
    "bloom": 24690,
    "persuade": 13535,
    "Ġbeh": 1803,
    "Ġbra": 3257,
    "Ġspectrum": 4473,
    "Ġtrag": 13044,
    "Ġcrater": 16438,
    "irection": 2390,
    "Ġexalted": 12416,
    "Ġposted": 16726,
    "Ġendangered": 16306,
    "Ġburgl": 13176,
    "legra": 10791,
    "Ġfath": 7364,
    "Ġirons": 7696,
    "Ġconquered": 14029,
    "ommod": 13980,
    "wand": 10740,
    "Ġscoundrel": 13674,
    "fool": 9050,
    "Ġparade": 18302,
    "Ġsch": 13838,
    "Ġscholars": 26113,
    "Ġspot": 4148,
    "ordinate": 12881,
    "ford": 2821,
    "ricade": 13043,
    "Ġunfit": 14789,
    "Ġcynical": 25771,
    "ne": 646,
    "Ġmarines": 16263,
    "coburg": 13601,
    "Ġobjection": 6587,
    "Ġpallor": 13518,
    "Ġaltered": 7393,
    "iquet": 17577,
    "ctic": 8443,
    "oun": 483,
    "arm": 1357,
    "jury": 15377,
    "Ġpatroness": 13512,
    "Ġinfamy": 14503,
    "Ġbreathed": 11222,
    "recollect": 17226,
    "Ġmission": 13010,
    "Ġnasty": 17446,
    "Ġabruptly": 15154,
    "Ġweap": 6157,
    "ppers": 7618,
    "imental": 16536,
    "cture": 15669,
    "Ġfundamental": 3017,
    "ith": 330,
    "verbally": 25361,
    "Ġunfinished": 19512,
    "Ġhanover": 20589,
    "Ġstr": 757,
    "Ġcol": 1068,
    "Ġsafely": 9028,
    "Ġconflict": 17276,
    "amed": 4446,
    "iscuits": 24667,
    "Ġlumps": 21559,
    "cular": 15331,
    "Ġinvade": 19144,
    "willingness": 24754,
    "Ġsorts": 6887,
    "Ġmig": 13859,
    "Ġsurrounding": 12167,
    "Ġthrust": 5084,
    "Ġimpossible": 3543,
    "chase": 11648,
    "Ġasylum": 13670,
    "undant": 14794,
    "poster": 11058,
    "Ġnerve": 16344,
    "scattered": 22999,
    "Ġbol": 6243,
    "conc": 3945,
    "perform": 15898,
    "!_âĢĿ": 11378,
    "Ġhaws": 21955,
    "Ġstren": 15724,
    "connections": 14431,
    "Ġfancies": 10426,
    "Ġtantalizing": 20417,
    "Ġmiscell": 16153,
    "Ġsight": 2112,
    "desirable": 23813,
    "attery": 18507,
    "skill": 24487,
    "Ġelapsed": 7653,
    "Ġauthentic": 20538,
    "Ġungracious": 18259,
    "Ġsoup": 7069,
    "Ġsloping": 11943,
    "circum": 16739,
    "Ġbagging": 24539,
    "reds": 12756,
    "shabb": 18500,
    "flight": 15356,
    "Ġsap": 18324,
    "Ġlog": 1678,
    "wal": 10136,
    "Ġmatrimony": 13638,
    "Ġnotions": 14102,
    "Ġhauling": 14090,
    "Ġbright": 3213,
    "settled": 10509,
    "Ġconsequences": 11337,
    "Ġimprec": 14222,
    "Ġenjoys": 19453,
    "etency": 21585,
    "Ġtag": 15471,
    "Ġheightens": 24154,
    "Ġextract": 1530,
    "retrospect": 23144,
    "tstone": 21087,
    "Ġrich": 2996,
    "ologist": 22838,
    "Ġsphere": 15886,
    "Ġbetween": 794,
    "Ġfreshets": 25705,
    "orne": 17874,
    "cases": 12452,
    "wife": 8101,
    "ioneer": 15636,
    "admiration": 11389,
    "Ġdistressing": 12223,
    "Ġintellect": 8170,
    "ately": 1745,
    "ilet": 12835,
    "resnet": 4065,
    "Ġembeddings": 2097,
    "Ġdest": 2237,
    "loving": 18539,
    "Ġvernal": 23891,
    "Ġdelirium": 10407,
    "Ġfountain": 7365,
    "Ġconfl": 11139,
    "thickness": 25368,
    "Ġfixing": 13159,
    "Ġfolds": 12211,
    "Ġmusket": 12300,
    "Ġfeast": 10280,
    "Ġcharge": 5325,
    "Ġsor": 4139,
    "Ġlighten": 23262,
    "Ġnature": 2539,
    "Ġsun": 1722,
    "Ġsubdiv": 16163,
    "resent": 10771,
    "Ġgirls": 4273,
    "painting": 17047,
    "pious": 17635,
    "row": 1069,
    "Ġtwilight": 16125,
    "icha": 11742,
    "farintosh": 24553,
    "ientious": 11694,
    "app": 1040,
    "Ġpause": 5707,
    "Ġfortunes": 12183,
    "Ġimmersed": 19488,
    "_)": 9105,
    "Ġineffect": 13933,
    "Ġhold": 2245,
    "Ġwharves": 13508,
    "Ġcausing": 16361,
    "befriend": 22497,
    "Ġxavier": 2852,
    "Ġgracefully": 13394,
    "built": 16827,
    "tallow": 21088,
    "hit": 20891,
    "Ġbought": 8417,
    "Ġabove": 2934,
    "doublo": 24661,
    "alle": 1292,
    "Ġsucceeded": 6107,
    "evinced": 19928,
    "._": 3219,
    "Ġ1671": 25008,
    "appropri": 22846,
    "Ġedward": 19153,
    "Ġdesolation": 12273,
    "Ġholland": 10368,
    "Ġmyth": 18221,
    "Ġdeserving": 14756,
    "Ġminim": 1322,
    "ateg": 1360,
    "Ġplucked": 15117,
    "Ġspeaking": 4022,
    "Ġsuavely": 26525,
    "Ġstraits": 7994,
    "Ġcritic": 19123,
    "watches": 14950,
    "attempts": 17193,
    "Ġsche": 1705,
    "Ġchann": 15939,
    "Ġperpendicular": 7209,
    "pequod": 7054,
    "twist": 23704,
    "Ġswitching": 23060,
    "Ġsands": 14951,
    "ographical": 16788,
    "Ġgrow": 2857,
    "Ġshipmates": 6722,
    "Ġtrail": 16286,
    "stuff": 15692,
    "hatchet": 24819,
    "government": 25407,
    "violent": 14582,
    "Ġtick": 8109,
    "Ġmerited": 23733,
    "aried": 10989,
    "oysius": 14368,
    "ities": 1827,
    "forth": 9325,
    "Ġuncounted": 19118,
    "atural": 936,
    "Ġ106": 24414,
    "helped": 18927,
    "dissemble": 23494,
    "abond": 15745,
    "ellect": 7381,
    "ially": 9249,
    "Ġ}": 21156,
    "Ġreclining": 26034,
    "azz": 8262,
    "com": 1014,
    "Ġwoes": 23989,
    "keen": 12788,
    "Ġthirdly": 24143,
    "Ġtalked": 4418,
    "Ġsne": 6373,
    "Ġlowly": 11123,
    "Ġrequisition": 22637,
    "itty": 3554,
    "Ġtongues": 14866,
    "Ġparticle": 18675,
    "_âĢĶ": 11469,
    "ortunity": 4401,
    "ke": 429,
    "pit": 3979,
    "Ġnightfall": 23135,
    "Ġweep": 7620,
    "Ġsurging": 19135,
    "Ġtested": 23197,
    "tro": 15436,
    "sprinkling": 24913,
    "flame": 16640,
    "Ġamusement": 8056,
    "Ġruss": 18720,
    "Ġpoets": 11825,
    "Ġbestowing": 16973,
    "Ġintegr": 7969,
    "friendship": 24051,
    "dislike": 23496,
    "vari": 1516,
    "Ġgrecian": 26297,
    "Ġreliability": 22883,
    "proble": 9397,
    "scene": 14423,
    "inarticulate": 21198,
    "Ġextraction": 11254,
    "Ġimmense": 4952,
    "beauty": 20107,
    "Ġflows": 13014,
    "Ġfanciful": 24787,
    "Ġdiligently": 11407,
    "Ġbiggest": 24567,
    "unusual": 21883,
    "instances": 13323,
    "Ġsatin": 12992,
    "Ġfirmament": 19474,
    "ackinaw": 22429,
    "Ġexcited": 5580,
    "Ġissuing": 16950,
    ",âĢĶâĢĺ": 23805,
    "anelles": 26436,
    "Ġshores": 8852,
    "Ġimprobable": 9795,
    "Ġbill": 4036,
    "Ġconge": 15750,
    "Ġpunctilious": 26355,
    "Ġstraw": 9432,
    "Ġcontinuous": 1565,
    "Ġpigeon": 9519,
    "consp": 18503,
    "Ġluck": 4881,
    "Ġinputs": 843,
    "Ġcomrades": 9236,
    "wake": 11548,
    "dening": 22784,
    "ñ": 178,
    "Ġwhaleman": 4656,
    "europe": 20668,
    "rubbery": 17345,
    "bolt": 25138,
    "went": 6513,
    "oury": 22308,
    "brandy": 19203,
    "Ġspokes": 18314,
    "j": 78,
    "Ġhop": 1461,
    "Ġelbows": 18637,
    "Ġdismay": 11813,
    "Ġembellish": 25849,
    "Ġtars": 21167,
    "darkness": 9515,
    "Ġpo": 739,
    "field": 3075,
    "Ġdesperation": 19821,
    "Ġthinner": 24183,
    "Ġexcessive": 3890,
    "Ġsurgeons": 23466,
    "hies": 17562,
    "adieu": 26202,
    "Ġcomputes": 4769,
    "powerful": 24848,
    "Ġequivalent": 4803,
    "quod": 2164,
    "Ġneat": 7000,
    "Ġsoph": 1611,
    "queens": 22900,
    "european": 26373,
    "Ġimprinted": 22395,
    "overed": 2851,
    "83": 13684,
    "Ġenem": 4709,
    "sharks": 14243,
    "Ġdull": 6385,
    "derbyshire": 18323,
    "Ġattach": 14296,
    "bbings": 19278,
    "Ġgives": 5018,
    "Ġwhoa": 22424,
    "Ġprocure": 9513,
    "Ġeffemin": 18519,
    "urch": 3989,
    "Ġassert": 7122,
    "really": 6972,
    "knell": 24555,
    "enses": 10997,
    "scythes": 26404,
    "Ġembarked": 17137,
    "Ġstraight": 3701,
    "iring": 1707,
    "trembling": 17145,
    "get": 1022,
    "shuff": 18496,
    "ensities": 22551,
    "Ġpictures": 5503,
    "Ġcarving": 14446,
    "ws": 7355,
    "lot": 3207,
    "Ġdemon": 7869,
    "Ġtroops": 24899,
    "Ġdiffer": 18678,
    "urried": 21707,
    "Ġmutiny": 13263,
    "Ġcreases": 22724,
    "Ġirritated": 17244,
    "Ġproximity": 3218,
    "Ġexploring": 4300,
    "happily": 14659,
    "Ġstartling": 14673,
    "Ġfoolish": 5981,
    "Ġjournal": 15222,
    "Ġpainting": 13144,
    "Ġsomehow": 4843,
    "Ġsandwich": 19831,
    "Ġoperated": 14548,
    "ourselves": 9014,
    "Ġgem": 21597,
    "fowl": 17551,
    "moonlight": 25376,
    "Ġblo": 2732,
    "Ġknow": 633,
    "Ġsnaky": 23744,
    "Ġbrimming": 22871,
    "Ġenjoyments": 24021,
    "Ġ75": 19615,
    "----âĢĻ": 24099,
    "Ġstreaming": 19676,
    "Ġheaving": 7601,
    "Ġumb": 11649,
    "philosophy": 13583,
    "influ": 9544,
    "Ġyounge": 16291,
    "Ġposit": 1303,
    "eked": 16405,
    "Ġbed": 2150,
    "occup": 7753,
    "hom": 12478,
    "Ġtemples": 18639,
    "Ġhaunted": 10256,
    "Ġworse": 4720,
    "Ġnorris": 23209,
    "Ġsibbald": 21233,
    "eridge": 15529,
    "Ġfacts": 2290,
    "Ġburton": 23654,
    "Ġenraptured": 26502,
    "Ġhanding": 16134,
    "Ġplate": 8902,
    "Ġ32": 19492,
    "Ġcoer": 22585,
    "heric": 15916,
    "Ġincidents": 9302,
    ",âĢĿ": 579,
    "Ġdepos": 11006,
    "Ġreadability": 2722,
    "Ġconfiding": 19040,
    "Ġafrica": 12349,
    "Ġnarrative": 6217,
    "ª": 108,
    "ourse": 8873,
    "e": 73,
    "Ġmeditative": 25017,
    "shake": 22463,
    "Ġpince": 21474,
    "Ġflaming": 8567,
    "Ġtiar": 21170,
    "Ġsuccessive": 10503,
    "Ġ85": 24460,
    "Ġjura": 14195,
    "Ġinterposed": 20622,
    "Ġreminiscences": 26271,
    "Ġ94": 17719,
    "Ġ-": 1944,
    "stout": 21648,
    "odecimoes": 25319,
    "Ġbleeding": 14883,
    "Ġdisconcerted": 18563,
    "Ġstood": 2551,
    "zen": 5140,
    "Ġfrog": 23925,
    "Ġaided": 17747,
    "Ġ64": 24367,
    "Ġsaturation": 2061,
    "versed": 9828,
    "Ġneedles": 11186,
    "Ġwithdra": 6399,
    "Ġoper": 2121,
    "Ġringing": 13335,
    "Ġsharing": 3477,
    "Ġlieuten": 13330,
    "intellect": 18823,
    "chair": 5918,
    "seamen": 13629,
    "Ġpeaking": 22695,
    "Ġregain": 22583,
    "cring": 20813,
    "Ġcauses": 2561,
    "Ġgallows": 12150,
    "ino": 15482,
    "Ġcoron": 4463,
    "Ġcoloured": 11047,
    "Ġnormalizing": 1822,
    "ht": 376,
    "Ġdrow": 21429,
    "conclude": 24069,
    "gree": 10703,
    "placed": 7878,
    "Ġitself": 2521,
    "Ġmightiest": 12966,
    "Ġtrip": 16790,
    "prince": 23818,
    "Ġrelations": 5854,
    "Ġstreat": 15725,
    "usal": 7639,
    "_âĢĿ": 20763,
    "Ġprison": 5403,
    "Ġsqueezed": 20039,
    "fri": 20856,
    "Ġlengths": 19208,
    "Ġmargaret": 10379,
    "Ġinches": 5846,
    "ĠĠĠĠĠĠĠĠĠĠĠĠĠĠ": 22568,
    "olds": 9314,
    "Ġcetacea": 20556,
    "wer": 8396,
    "Ġyourself": 2592,
    "aples": 20770,
    "Ġidentified": 19152,
    "weaving": 18670,
    "particip": 23618,
    "Ġyea": 8919,
    "metic": 14987,
    "since": 5896,
    "ctu": 5088,
    "Ġsharpened": 17368,
    "Ġstaggered": 9542,
    "Ġdirest": 22710,
    "harpoone": 6109,
    "faced": 8080,
    "Ġbrightness": 16579,
    "Ġneedn": 19231,
    "Ġsaith": 14158,
    "Ġlavater": 20499,
    "Ġget": 1623,
    "Ġtransient": 18481,
    "ulgent": 18152,
    "plain": 1358,
    "Ġbrand": 16190,
    "Ġgour": 21601,
    "Ġsquee": 7929,
    "ache": 8520,
    "Ġslappin": 18945,
    "civil": 7797,
    "Ġunconsc": 6554,
    "Ġaverage": 3141,
    "Ġgush": 10205,
    "adventurous": 25362,
    "Ġhenry": 5197,
    "Ġthieves": 15640,
    "representation": 20199,
    "Ġmatter": 1734,
    "Ġflesh": 5970,
    "nest": 10116,
    "Ġmistifying": 23722,
    "Ġconstitution": 20112,
    "Ġdangerous": 6616,
    "Ġjutting": 22305,
    "Ġlies": 5297,
    "Ġseeking": 7037,
    "mentioned": 10626,
    "uch": 877,
    "grim": 19108,
    "Ġunderstanding": 1845,
    "Ġc": 277,
    "Ġgracious": 8851,
    "Ġbids": 24646,
    "ading": 5091,
    "Ġunwarrant": 19936,
    "just": 1700,
    "nobody": 16146,
    "attent": 9362,
    "led": 580,
    "Ġzoology": 22822,
    "ivial": 15863,
    "Ġbluish": 23651,
    "Ġenticing": 22747,
    ";âĢĶ": 3747,
    "emason": 18189,
    "Ġfluctuating": 24417,
    "pass": 4285,
    "Ġpreced": 6041,
    "fun": 3836,
    "equal": 14996,
    "screen": 23000,
    "Ġscarlet": 13227,
    "somewhat": 11162,
    "Ġdisappearance": 9300,
    "bucket": 17496,
    "Ġpred": 673,
    "idation": 5022,
    "Ġinconceivable": 17940,
    "sis": 1841,
    "output": 4399,
    "Ġcomplexity": 1696,
    "Ġtranced": 18422,
    "Ġprice": 10405,
    "conjecturing": 20137,
    "Ġrickety": 26507,
    "Ġrollicking": 24451,
    "Ġpierced": 12286,
    "Ġbreach": 11978,
    "Ġcoll": 8221,
    "Ġmovements": 24359,
    "Ġfashion": 4293,
    "Ġtestament": 23198,
    "._]]": 5335,
    "nelson": 25621,
    "jumping": 20248,
    "wondering": 19847,
    "========": 2314,
    "Ġflattering": 13034,
    "particulars": 11317,
    "degrad": 22147,
    "Ġwholly": 4445,
    "Ġmiserable": 3634,
    "Ġsquatted": 25843,
    "Ġplanning": 14754,
    "inea": 7624,
    "Ġmetal": 9391,
    "ct": 309,
    "asked": 8915,
    "Ġsavoury": 23880,
    "Ġflee": 7081,
    "Ġquaint": 18466,
    "Ġgladness": 16593,
    "Ġwoof": 14724,
    "ality": 2512,
    "dually": 3286,
    "Ġdoctor": 5067,
    "Ġparchment": 13655,
    "Ġheadstrong": 14391,
    "kindled": 16663,
    "Ġbrushed": 15575,
    "Ġdevotion": 22721,
    "Ġsymptoms": 8708,
    "Ġvesuvius": 26503,
    "Ġintermediate": 18590,
    "Ġwillingness": 24911,
    "Ġtormenting": 15108,
    "tured": 13798,
    "Ġadroit": 26001,
    "Ġheard": 1402,
    "extraordinary": 9098,
    "Ġgas": 8133,
    "Ġhighness": 22776,
    "Ġargued": 13632,
    "teous": 16175,
    "Ġhopes": 4227,
    "saturday": 14861,
    "Ġnail": 9198,
    "Ġwrapt": 24596,
    "Ġunob": 22017,
    "Ġglowed": 24865,
    "Ġanecdote": 26356,
    "Ġchiefly": 5766,
    "ibid": 18842,
    "peculiarities": 13474,
    "Ġaccomplish": 14879,
    "Ġintelligently": 4548,
    "contrasted": 17309,
    "Ġwashington": 17205,
    "Ġnodes": 1966,
    "truth": 9922,
    "deav": 2672,
    "Ġchimneys": 16974,
    "Ġder": 1499,
    "Ġpositively": 13035,
    "athan": 2956,
    "na": 13763,
    "Ġgash": 15675,
    "Ġwashes": 21865,
    "arious": 10319,
    "halfway": 24313,
    "looked": 6084,
    "Ġtacit": 21177,
    "Ġ124": 24469,
    "Ġchink": 15936,
    "Ġoft": 9197,
    "Ġmultiple": 1188,
    "Ġfluke": 14676,
    "Ġdrowning": 19906,
    "Ġbully": 23859,
    "Ġsequences": 1751,
    "amusement": 15286,
    "Ġletter": 2197,
    "Ġwhilst": 9221,
    "Ġalchemists": 26489,
    "Ġclerical": 25569,
    "iverse": 13119,
    "Ġwanderings": 20146,
    "Ġloo": 22114,
    "sm": 3437,
    "Ġthrough": 604,
    "readiness": 19366,
    "Ġtarred": 23611,
    "Ġexamining": 8006,
    "Ġsolar": 22887,
    "Ġexternal": 8365,
    "Ġchivalrous": 20518,
    "Ġsore": 10766,
    "tempest": 16961,
    "Ġdesired": 4666,
    "Ġservant": 5764,
    "Ġfurious": 10356,
    "phr": 18714,
    "Ġmayhew": 12955,
    "Ġerudite": 26353,
    "feelings": 5674,
    "Ġcro": 4874,
    "breath": 15166,
    "labours": 16619,
    "Ġimplac": 24875,
    "Ġund": 4113,
    "Ġguernsey": 9354,
    "gain": 8740,
    "flag": 14714,
    "Ġirksome": 13115,
    "itatingly": 25278,
    "Ġointment": 21329,
    "Ġinnermost": 12165,
    "arson": 22754,
    "Ġincul": 22554,
    "Ġrowing": 10303,
    "Ġdefects": 12337,
    "allow": 5104,
    "Ġrussian": 14353,
    "Ġlined": 15654,
    "continuing": 24479,
    "desp": 6094,
    "Ġcage": 17827,
    "iding": 3845,
    "Ġentertaining": 16928,
    "Ġvainly": 9927,
    "directly": 13712,
    "Ġdisadvantage": 12896,
    "subst": 12169,
    "Ġmystical": 12137,
    "Ġforbidding": 17080,
    "Ġassure": 4416,
    "ineffectual": 26509,
    "utmost": 21591,
    "Ġrandom": 1588,
    "Ġdanger": 3520,
    "answering": 26005,
    "Ġendured": 6074,
    "patched": 17645,
    "Ġphaet": 16322,
    "anish": 2615,
    "Ġhanded": 8217,
    "Ġodorous": 19569,
    "Ġyesterday": 5333,
    "outer": 9671,
    "Ġcrisp": 12007,
    "dances": 17523,
    "trucks": 25420,
    "Ġremotest": 10055,
    "Ġmysteriously": 24602,
    "added": 11662,
    "Ġsnows": 14729,
    "Ġdines": 21426,
    "Ġgratitude": 5599,
    "¨": 106,
    "bowed": 10687,
    "Ġcountrymen": 23597,
    "stall": 21649,
    "Ġimmort": 19487,
    "Ġthirty": 4944,
    "proportion": 16186,
    "Ġprobabilities": 4966,
    "Ġrank": 6260,
    "Ġoxford": 11373,
    "Ġalmost": 1660,
    "Ġreason": 1382,
    "Ġsixpence": 19318,
    "Ġhookah": 16972,
    "Ġcrosswise": 18887,
    "intim": 22937,
    "Ġentreaty": 10532,
    "osition": 1374,
    "ind": 566,
    "Ġworaciousness": 22932,
    "Ġrinal": 21981,
    "aloft": 8811,
    "Ġidiot": 11976,
    "ojo": 7349,
    "Ġpod": 15608,
    "Ġwantest": 18791,
    "provoke": 26072,
    "Ġloathsome": 13530,
    "ivorous": 22084,
    "Ġpupp": 10822,
    "ssing": 3807,
    "Ġstatistical": 11106,
    "Ġbrist": 14381,
    "ee": 1663,
    "Ġthumb": 6982,
    "Ġemails": 13110,
    "Ġwag": 10777,
    "Ġcliffs": 15974,
    "lady": 4431,
    "gate": 12471,
    "mish": 17600,
    "cook": 8270,
    "Ġmil": 4248,
    "ieth": 10706,
    "loops": 12888,
    "metallic": 19882,
    "Ġjoky": 18407,
    "Ġconfessed": 8009,
    "Ġvari": 832,
    "Ġnuts": 17954,
    "Ġflower": 16235,
    "Ġinterior": 8899,
    "endent": 15921,
    "Ġpractised": 23338,
    "mbling": 3346,
    "Ġtraffic": 23089,
    "Ġgirl": 3089,
    "Ġcompensated": 17404,
    "unforeseen": 21892,
    "Ġdecayed": 22826,
    ",âĢĿâĢĶ": 14218,
    "Ġ(_": 3734,
    "Ġmice": 13862,
    "Ġnur": 5710,
    "Ġsingers": 23774,
    "Ġmurdered": 6465,
    "Ġthrob": 21521,
    "Ġprair": 7747,
    "chess": 16576,
    "Ġuseful": 3558,
    "eng": 1488,
    "Ġridicule": 13514,
    "Ġcogent": 14279,
    "Ġinside": 5448,
    "tut": 15437,
    "Ġhovered": 12637,
    "omically": 13979,
    "immediately": 10052,
    "Ġrightly": 13069,
    "Ġearthy": 23715,
    "Ġfaithfully": 14890,
    "Ġgar": 10840,
    "Ġinstability": 3811,
    "Ġpanting": 11606,
    "Ġoutline": 15958,
    "Ġsecured": 6747,
    "Ġtransparent": 9492,
    "Ġarched": 10934,
    "Ġwreck": 7314,
    "hailed": 17567,
    "Ġstrings": 11833,
    "ă": 196,
    "dling": 15343,
    "Ġshaft": 18230,
    "reflections": 24734,
    "Ġrows": 10563,
    "Ġsuburban": 17349,
    "entials": 22662,
    "Ġgrind": 18736,
    "fes": 20853,
    "Ġspiteful": 19525,
    "peculiarity": 23115,
    "Ġvision": 1658,
    "onsible": 22566,
    "Ġindex": 17050,
    "abated": 14023,
    "oin": 17619,
    "Ġbumping": 25281,
    "Ġundo": 15844,
    "10": 17475,
    "Ġobeying": 13417,
    "elfare": 11781,
    "Ġlisten": 4675,
    "Ġdemi": 25549,
    "Ġlondon": 2837,
    "rate": 2426,
    "flies": 19427,
    "Ġdiscourage": 3119,
    "Ġsoften": 23128,
    "itics": 13875,
    "Ġreveren": 13198,
    "Ġcounsell": 25385,
    "Ġtents": 13821,
    "archangel": 18792,
    "Ġwheeled": 14141,
    "Ġspoken": 4838,
    "Ġbale": 7838,
    "urpation": 16304,
    "Ġold": 1061,
    "Ġloving": 8176,
    "harpooneer": 8692,
    "twenty": 6609,
    "stud": 8824,
    "Ġchisel": 20371,
    "_.âĢĿ": 5887,
    "Ġdisappo": 4504,
    "Ġproudly": 19745,
    "Ġdelicately": 24125,
    "class": 4090,
    "pow": 10719,
    "Ġwithstand": 10228,
    "hy": 4741,
    "Ġunthink": 18248,
    "Ġelud": 22647,
    "ament": 2442,
    "Ġthorough": 6247,
    "Ġquadruped": 20618,
    "Ġslumbering": 25702,
    "ball": 7793,
    "Ġtaurus": 21181,
    "Ġfaithfulness": 24446,
    "Ġavowed": 16636,
    "suffered": 24330,
    "Ġwitnessed": 14847,
    "Ġfashions": 17887,
    "Ġjewel": 9945,
    "Ġcountry": 2531,
    "attendants": 25496,
    "Ġcapable": 5054,
    "Ġseries": 7062,
    "Ġdears": 18139,
    "Ġwhere": 787,
    "amp": 2604,
    "Ġignominy": 15089,
    "elly": 17982,
    "amused": 21850,
    "umns": 14150,
    "Ġblossom": 26313,
    "swallowed": 14856,
    "fthand": 26388,
    "Ġface": 1724,
    "obser": 11101,
    "Ġcomplement": 23712,
    "Ġmistaken": 4986,
    "Ġreadily": 5254,
    "Ġprincip": 5600,
    "uiperai": 10666,
    "Ġthirds": 16710,
    "Ġsuffers": 2973,
    "Ġcruising": 6913,
    "Ġdenomin": 12072,
    "Ġadversarial": 5607,
    "Ġaust": 4872,
    "ĠâĢĺ_": 11119,
    "fr": 4805,
    "sul": 15424,
    "Ġ9": 5902,
    "Ġperiod": 3999,
    "Ġinfancy": 10411,
    "Ġnostrils": 10945,
    "Ġpassing": 4310,
    "Ġglistened": 20175,
    "Ġoccasion": 3249,
    "surd": 6934,
    "ad": 337,
    "watch": 6120,
    "text": 1972,
    "Ġagents": 9769,
    "Ġexpecting": 10438,
    "Ġbatt": 13902,
    "Ġdefect": 8557,
    "Ġsymptom": 13486,
    "Ġeasterly": 25963,
    "ft": 912,
    "Ġwinter": 5220,
    "acceler": 23600,
    "Ġtet": 21160,
    "!âĢĿ": 846,
    "composed": 14743,
    "Ġdrops": 9035,
    "liament": 16221,
    "Ġhandles": 22700,
    "bble": 17487,
    "Ġdisabled": 18562,
    "dense": 18717,
    "ootiful": 17376,
    "Ġ107": 24415,
    "Ġinsensibility": 17111,
    "Ġwounds": 17792,
    "Ġinjuries": 11279,
    "making": 2572,
    "Ġlegitimate": 20644,
    "rubbed": 22194,
    "hosmer": 25903,
    "Ġpresum": 4839,
    "ethics": 8881,
    "sword": 10728,
    "separ": 9233,
    "Ġindic": 2883,
    "Ġstrove": 9960,
    "Ġgetting": 4061,
    "Ġerskine": 17435,
    "erringly": 16215,
    "Ġtraits": 23081,
    "accept": 8893,
    "Ġsensational": 16395,
    "cure": 11476,
    "Ġ500": 24324,
    "Ġidol": 7467,
    "Ġclue": 7022,
    "unctuous": 21886,
    "Ġresp": 2495,
    "Ġhideous": 5984,
    "impression": 15715,
    "Ġbush": 23340,
    "Ġdiminish": 14748,
    "rec": 6005,
    "Ġoffences": 18692,
    "Ġswearing": 16466,
    "Ġbuzz": 24000,
    "Ġenl": 18190,
    "orts": 2555,
    "youth": 11879,
    "nearer": 22454,
    "accustomed": 13160,
    "networks": 2410,
    "Ġjon": 15952,
    "?âĢĻâĢĿ": 23644,
    "Ġcentury": 8291,
    "Ġtreacle": 14597,
    "stock": 13226,
    "Ġswap": 23055,
    "Ġobligations": 12097,
    "intention": 10370,
    "Ġhappily": 9334,
    "Ġdesires": 9459,
    "rings": 10724,
    "doubtful": 24790,
    "Ġjoker": 22302,
    "Ġport": 3311,
    "salesman": 20674,
    "Ġtypewritten": 16425,
    "Ġrapidly": 3362,
    "Ġaccommodate": 20520,
    "Ġcollar": 11883,
    "Ġthigh": 10189,
    "lestrade": 9659,
    "verted": 10220,
    "alliance": 22205,
    "Ġpulverize": 23396,
    "Ġsaviour": 20715,
    "Ġregular": 938,
    "fortunate": 4793,
    "blue": 13697,
    "Ġinsolent": 13603,
    "Ġperson": 2371,
    "Ġfamiliarly": 11305,
    "Ġunravel": 26216,
    "Ġthroughout": 8880,
    "Ġrestless": 10415,
    "Ġfastening": 16360,
    "Ġoverbearing": 12850,
    "Ġoccurrences": 11052,
    "Ġtakes": 5007,
    "Ġapartment": 6636,
    "Ġinquiry": 6485,
    "twinkle": 23706,
    "Ġworried": 22929,
    "Ġcanvas": 7784,
    "Ġcorridor": 10674,
    "condem": 16347,
    "Ġthews": 21280,
    "conspicuous": 26249,
    "Ġvolley": 24145,
    "ivates": 18277,
    "Ġdissimilar": 22535,
    "nuee": 17433,
    "ret": 1477,
    "coarse": 16489,
    "jane": 4481,
    "Ġbrandy": 11051,
    "Ġgrowing": 6752,
    "Ġash": 4834,
    "Ġexempt": 21832,
    "Ġgrudge": 20696,
    "Ġcouldn": 7649,
    "uel": 6967,
    "grees": 20888,
    "Ġdevil": 3613,
    "Ġcomparing": 14270,
    "Ġstruggled": 9908,
    "Ġtrans": 632,
    "Ġstoke": 10398,
    "Ġincisive": 18572,
    "Ġfrost": 6097,
    "Ġbars": 13900,
    "Ġboy": 3025,
    "Ġmeditating": 20046,
    "bl": 4135,
    "Ġreckoning": 14982,
    "Ġpict": 3499,
    "Ġbeautifully": 13270,
    "Ġvirtuous": 14758,
    "Ġcabinet": 23864,
    "Ġinferences": 17937,
    "ribs": 23368,
    "Ġenchanting": 17040,
    "Ġsocial": 7009,
    "Ġpersonified": 19180,
    "unsuitable": 21897,
    "stupid": 12682,
    "Ġcheever": 23286,
    "Ġaccounting": 14575,
    "Ġdeliverer": 11954,
    "Ġfo": 1655,
    "gers": 8376,
    "Ġfam": 1586,
    "Ġsoliloqu": 11889,
    "interruption": 20115,
    "Ġstirred": 12222,
    "Ġlongbourn": 3508,
    "Ġcumulative": 4204,
    "bern": 20777,
    "Ġsuch": 797,
    "Ġparamore": 22126,
    "pets": 17638,
    "inhab": 10759,
    "crooked": 25747,
    "Ġtoad": 21513,
    "execut": 13658,
    "Ġdespaired": 14671,
    "arter": 17895,
    "Ġdiverged": 23596,
    "Ġdolphin": 17315,
    "Ġsashes": 21228,
    "influence": 13581,
    "Ġbarriers": 23797,
    "Ġstings": 21738,
    "Ġchecking": 23288,
    "Ġsubsequent": 7659,
    "Ġsluggish": 25891,
    "Ġjupiter": 17459,
    "Ġneighbourhood": 5126,
    "ulia": 18151,
    "Ġestimable": 23875,
    "Ġenorm": 5304,
    "conclusive": 25674,
    "division": 20052,
    "Ġdashing": 8800,
    "Ġjune": 10291,
    "Ġpatagonia": 25858,
    "Ġrecognition": 2978,
    "://": 11467,
    "Ġprovoked": 13329,
    "Ġassizes": 11110,
    "ellation": 12755,
    "Ġamph": 18511,
    "Ġunlock": 18244,
    "Ġturks": 14600,
    "Ġclattered": 22356,
    "fat": 8079,
    "Ġwhirling": 12253,
    "Ġintuitions": 17344,
    "Ġcolon": 18767,
    "]": 65,
    "iag": 20918,
    "infernal": 24663,
    "Ġwrithed": 17107,
    "sigma": 3005,
    "Ġunparalleled": 15857,
    "appin": 18760,
    "astonished": 15035,
    "Ġdisconnected": 22529,
    "stalk": 21653,
    "ckets": 6843,
    "rap": 21631,
    "raised": 15683,
    "ultural": 22573,
    "large": 6628,
    "Ġconcerning": 4064,
    "stick": 15689,
    "Ġceasing": 23760,
    "build": 12192,
    "Ġburned": 8634,
    "Ġbony": 12593,
    "Ġsalutation": 12401,
    "ĠĠĠĠĠĠĠĠĠĠĠĠĠĠĠĠĠĠĠĠĠĠĠĠĠĠĠĠĠĠĠĠĠĠĠĠĠĠĠĠ": 4516,
    "lanterns": 17432,
    "Ġpossibilities": 18978,
    "achines": 1725,
    "Ġplaned": 24058,
    "Ġusage": 9733,
    "Ġreasonably": 11093,
    "Ġknights": 15153,
    "Ġformations": 18750,
    "Ġmultitude": 9328,
    "Ġinnoc": 3792,
    "Ġprudential": 17922,
    "Ġbern": 17860,
    "Ġinfallibly": 10044,
    "Ġmottled": 20681,
    "air": 1002,
    "unks": 15779,
    "Ġkicks": 19771,
    "Ġafternoon": 6054,
    "Ġspeed": 2450,
    "Ġchace": 14179,
    "Ġvisits": 8224,
    "bishop": 13698,
    "bless": 22316,
    "Ġhoars": 19079,
    "sun": 7141,
    "miles": 10714,
    "spout": 7922,
    "Ġthing": 1642,
    "Ġgrapes": 15219,
    "procure": 23400,
    "Ġchips": 14182,
    "Ġnecessitates": 23933,
    "Ġjib": 14196,
    "Ġrighted": 23182,
    "Ġadvice": 4902,
    "Ġwhich": 503,
    "Ġdigress": 24649,
    "Ġinevitable": 15171,
    "Ġconsume": 12963,
    "perseus": 26006,
    "Ġdiscriminative": 4322,
    "Ġinstrum": 6056,
    "Ġgift": 10842,
    "narwhale": 17321,
    "Ġgushed": 21610,
    "Ġescape": 2646,
    "ifers": 15786,
    "Ġminority": 18754,
    "Ġglaring": 11913,
    "op": 657,
    "Ġpianoforte": 15277,
    "Ġcareful": 2610,
    "chors": 11647,
    "ilburn": 18062,
    "Ġprofusion": 23570,
    "Ġingenuity": 17166,
    "Ġattention": 1182,
    "Ġjoyous": 14666,
    "Ġoverhear": 15979,
    "dy": 4070,
    "enit": 17781,
    "shells": 26057,
    "oped": 6048,
    "Ġcorrob": 16268,
    "Ġextort": 22739,
    "Ġattached": 5392,
    "Ġsutherland": 10151,
    "Ġarticles": 7110,
    "Ġstru": 2170,
    "beth": 13692,
    "Ġembedding": 2105,
    "Ġthy": 2513,
    "Ġbat": 10797,
    "Ġtrough": 15967,
    "vengeance": 13360,
    "Ġworsted": 19998,
    "Ġupheld": 22156,
    "Ġcuriously": 13016,
    "critical": 19499,
    "Ġfavourite": 5271,
    "Ġemployment": 8632,
    "ah": 1833,
    "Ġtrance": 12845,
    "hope": 5991,
    "Ġknocked": 9503,
    "stand": 624,
    "lleg": 20953,
    "ĠĠĠĠĠĠĠĠĠĠĠĠĠĠĠĠĠĠĠ": 22953,
    "hus": 5072,
    "Ġrespectively": 23251,
    "ather": 742,
    "Ġenjoy": 3757,
    "\":": 9584,
    "Ġparticip": 16135,
    "ither": 1550,
    "Ġpenalties": 10414,
    "confusion": 13373,
    "Ġexaggerated": 25651,
    "Ġmutinous": 23961,
    "Ġ118": 19701,
    "arming": 8954,
    "uguese": 20734,
    "Ġmarvell": 7248,
    "Ġbanquet": 15244,
    "pursue": 24976,
    "Ġsire": 15504,
    "Ġnecks": 18186,
    "ave": 980,
    "pede": 19932,
    "Ġtranque": 14203,
    "daughters": 13469,
    "Ġforegoing": 23450,
    "study": 15121,
    "sentence": 2937,
    "rene": 5379,
    "Ġweb": 9243,
    "yset": 21148,
    "Ġhumbled": 16200,
    "Ġvirtual": 11242,
    "reclining": 20577,
    "Ġshrivelled": 19706,
    "mine": 5618,
    "Ġcompar": 4772,
    "circumstantial": 24444,
    "Ġdependence": 18620,
    "Ġmasses": 10506,
    "ittle": 812,
    "Ġloomed": 12305,
    "Ġstandard": 14498,
    "drive": 8686,
    "aste": 4603,
    "Ġcowardice": 17033,
    "otion": 4946,
    "Ġcommitted": 7431,
    "Ġspeeches": 22661,
    "agon": 7871,
    "know": 2320,
    "Ġribs": 7103,
    "Ġhairs": 13234,
    "Ġmarshy": 20221,
    "complain": 14363,
    "Ġeluded": 12928,
    "hem": 6666,
    "sculptured": 26047,
    "âĢĻ!âĢĿ": 18170,
    "inate": 6235,
    "Ġsign": 2496,
    "Ġhas": 824,
    "sacrifice": 13495,
    "Ġbott": 3150,
    "Ġascertain": 9709,
    "Ġcle": 1510,
    "abling": 1080,
    "inav": 15486,
    "Ġfell": 1975,
    "Ġcritics": 23444,
    "adr": 6995,
    "Ġgild": 15673,
    "Ġhadn": 9722,
    "Ġbewil": 11660,
    "Ġwitnesses": 9489,
    "gently": 13731,
    "Ġprices": 15616,
    "Ġconnection": 5479,
    "Ġplaid": 22608,
    "Ġbeam": 2876,
    "ault": 2308,
    "column": 19331,
    "Ġimpotently": 22396,
    "Ġlumber": 13955,
    "romised": 14115,
    "Ġcrystal": 17217,
    "ulent": 21866,
    "Ġtransc": 12869,
    "Ġjealousy": 13579,
    "widows": 25345,
    "Ġestim": 3349,
    "functions": 11239,
    "Ġinquirer": 24964,
    "Ġsurmount": 20004,
    "Ġstages": 14007,
    "believing": 19465,
    "Ġ117": 19700,
    "Ġviciously": 24404,
    "Ġdragged": 6889,
    "Ġinquiring": 9002,
    "ese": 4442,
    "sales": 17669,
    "uger": 21106,
    "Ġintellectual": 11403,
    "Ġexpressive": 8985,
    "Ġafric": 8909,
    "vanished": 15063,
    "itten": 3442,
    "Ġbou": 17854,
    "Ġalighted": 18106,
    "Ġglu": 15672,
    "Ġwhiteness": 5920,
    "miseries": 16759,
    "post": 6063,
    "Ġroundabout": 23064,
    "aits": 20768,
    "uctive": 17698,
    "Ġdollar": 25284,
    "host": 5869,
    "reg": 2184,
    "Ġmarlings": 23039,
    "Ġsignifies": 19206,
    "Ġdeplored": 20508,
    "Ġranged": 10260,
    "ushing": 5731,
    "Ġpassengers": 13679,
    "Ġbull": 7839,
    "Ġobsequ": 14323,
    "Ġflorid": 17138,
    "Ġbedrooms": 19973,
    "commission": 22829,
    "Ġgoblets": 20522,
    "enough": 6810,
    "udding": 11869,
    "Ġwander": 9034,
    "Ġpangs": 15619,
    "circumspect": 26087,
    "Ġploughed": 22613,
    "seek": 8841,
    "Ġcollected": 2609,
    "Ġenthr": 22748,
    "Ġreference": 2565,
    "Ġlivelihood": 24773,
    "Ġturner": 7051,
    "Ġeagerly": 4990,
    "Ġflank": 8229,
    "Ġwantonly": 22895,
    "Ġirresistible": 13116,
    "iling": 3096,
    "pad": 13771,
    "Ġaccidental": 16850,
    "vacancies": 25920,
    "cruising": 12284,
    "Ġagatha": 6866,
    "empt": 2617,
    "Ġhogshead": 26369,
    "omon": 10209,
    "Ġseason": 5238,
    "Ġproud": 5654,
    "Ġinspiring": 19114,
    "cutting": 23787,
    "jar": 17579,
    "arrangement": 17418,
    "Ġinert": 15626,
    "Ġsallied": 12542,
    "adm": 7609,
    "Ġimposing": 11785,
    "Ġwayward": 22876,
    "weekly": 25685,
    "Ġstature": 10865,
    "itation": 1781,
    "wra": 11544,
    "Ġteaching": 10367,
    "wanted": 10745,
    "Ġarchly": 22767,
    "Ġdrawing": 3916,
    "replied": 11568,
    "Ġcommand": 3323,
    "Ġseap": 15821,
    "brilliancy": 26078,
    "ersman": 11705,
    "Ġpositional": 2596,
    "Ġfilial": 16622,
    "Ġpaces": 13922,
    "itic": 11581,
    "please": 8177,
    "Ġspoiled": 11365,
    "Ġmonomania": 17086,
    "Ġtight": 8108,
    "Ġmam": 8406,
    "Ġpythag": 26450,
    "Ġrecovered": 5481,
    "Ā": 193,
    "learned": 8604,
    "strils": 10460,
    "Ġshetland": 22163,
    "Ġowns": 22825,
    "pistol": 17644,
    "Ġexhausted": 8697,
    "Ġsubstantial": 14812,
    "causes": 20346,
    "Ġsin": 1513,
    "Ġporch": 19683,
    "each": 7335,
    "Ġscore": 9741,
    "Ġattested": 22632,
    "stay": 9684,
    "Ġmaledictions": 26430,
    "Ġmart": 10781,
    "Ġinfat": 14501,
    "Ġeuroc": 14962,
    "Ġdeceive": 12728,
    "ĠĠĠĠĠĠĠĠĠĠĠĠĠĠĠĠĠĠĠĠĠĠĠĠĠ": 24442,
    "Ġpagoda": 19791,
    "Ġdynam": 3248,
    "ù": 186,
    "Ġportion": 7492,
    "lucases": 20213,
    "wis": 12523,
    "philips": 20038,
    "Ġimbu": 15895,
    "wling": 11547,
    "act": 788,
    "Ġmagnificent": 9846,
    "july": 20478,
    "Ġfirmness": 11240,
    "cab": 7333,
    "greek": 25405,
    "duodecimo": 16006,
    "Ġthan": 738,
    "misrepresented": 24214,
    "Ġnarwhale": 12297,
    "imod": 15714,
    "ancial": 21365,
    "Ġyounger": 5253,
    "Ġbrooks": 25701,
    "taking": 5689,
    "Ġtak": 15473,
    "Ġowners": 7662,
    "Ġclank": 15971,
    "Ġdisgu": 8206,
    "Ġawed": 23587,
    "Ġreal": 1636,
    "inary": 3277,
    "Ġbeast": 7180,
    "rece": 21237,
    "Ġbaboon": 19696,
    "Ġphysiognomical": 25612,
    "Ġlingo": 24904,
    "Ġfishy": 16525,
    "inkled": 5477,
    "Ġconvul": 13204,
    "Ġviv": 6158,
    "bohemia": 20733,
    "conject": 8883,
    "opotam": 22483,
    "Ġidentical": 10436,
    "Ġsupported": 9821,
    "stood": 4110,
    "Ġel": 803,
    "similar": 13456,
    "whether": 5320,
    "Ġrattle": 10901,
    "ĠâĢĶâĢľ_": 17720,
    "sooner": 14780,
    "Ġfondness": 16782,
    "Ġrefinement": 18706,
    "careful": 14869,
    "Ġimmediately": 3367,
    "Ġweighty": 16036,
    "inclined": 10642,
    "ĠdÃ¦mon": 7844,
    "Ġalongside": 6313,
    "Ġmasoned": 20254,
    "majesty": 26282,
    "Ġhonorable": 16878,
    "Ġcurios": 18848,
    "cape": 13701,
    "force": 12964,
    "Ġxiv": 23410,
    "ugal": 19023,
    "aboard": 21798,
    "Ġshorter": 4497,
    "whereby": 23420,
    "Ġflourished": 15129,
    "Ġbewit": 15732,
    "Ġmanhat": 22331,
    "Ġgeorge": 3746,
    "Ġhumiliation": 16202,
    "avish": 22603,
    "Ġtiresome": 26157,
    "miniature": 16767,
    "Ġthre": 2057,
    "Ġspout": 3285,
    "Ġpreserving": 19799,
    "Ġheaped": 18040,
    "Ġdiscerned": 25006,
    "Ġscra": 5841,
    "Ġsplendidly": 25328,
    "Ġmute": 19419,
    "embraces": 25806,
    "Ġwall": 3841,
    "Ġ113": 19699,
    "incredible": 16500,
    "million": 25752,
    "Ķ": 247,
    "Ġsuppressing": 23005,
    "if": 375,
    "Ġabstra": 22275,
    "live": 7550,
    "Ġflann": 23016,
    "despatched": 19804,
    "Ĵ": 245,
    "hundred": 8331,
    "Ġtram": 11094,
    "Ġvalid": 1718,
    "ised": 1067,
    "Ġdeb": 4765,
    "Ġduly": 13354,
    "Ġcobweb": 22590,
    "infidel": 24664,
    "Ġinex": 6529,
    "Ġrudimental": 25111,
    "Ġeveryday": 22774,
    "sembled": 7263,
    "Ġtul": 21162,
    "Ġsacr": 7194,
    "Ġundet": 16703,
    "ĠâĢľ_": 6698,
    "Ġlapl": 19780,
    "sweeping": 24619,
    "grasping": 20642,
    "Ġcontain": 1557,
    "Ġeag": 2967,
    "Ġauger": 21206,
    "Ġblasphemy": 26116,
    "Ġfairy": 14629,
    "Ġchild": 2261,
    "Ġrecent": 7436,
    "osity": 14188,
    "Ġfrenzy": 13625,
    "trip": 21094,
    "invari": 21187,
    "Ġform": 1024,
    "mistaken": 12215,
    "Ġeagerness": 6610,
    "Ġdusk": 12331,
    "Ġaristocratic": 20516,
    "delight": 5345,
    "leagued": 26437,
    "Ġprovides": 1929,
    "chant": 4252,
    "str": 2577,
    "Ġcomp": 722,
    "Ġdoleful": 18377,
    "linearity": 1654,
    "barbs": 20240,
    "Ġcruc": 16537,
    "Ġbluff": 16519,
    "Ġenlivened": 26209,
    "Ġvesture": 20065,
    "tenderly": 20534,
    "atlantic": 15527,
    "compassion": 12372,
    "astron": 22173,
    "feels": 22516,
    "Ġminimax": 5860,
    "Ġclustered": 25234,
    "Ġhither": 4760,
    "Ġduplicate": 17218,
    "Ġpython": 1071,
    "Ġdy": 2536,
    "system": 4377,
    "Ġterror": 5124,
    "Ġpauses": 14817,
    "Ġgums": 21614,
    "Ġchapters": 10475,
    "rendered": 22342,
    "Ġeternity": 12283,
    "lege": 17843,
    "rush": 7012,
    "Ġflattered": 10377,
    "Ġmechanis": 1185,
    "Ġtops": 14588,
    "Ġimagination": 5759,
    "stige": 21664,
    "adel": 15733,
    "seventh": 12720,
    "inence": 15484,
    "icken": 6713,
    "Ġinto": 648,
    "uneasiness": 23689,
    "Ġjacket": 6490,
    "Ġsolemnisation": 24113,
    "Ġgrievances": 20650,
    "Ġfet": 5808,
    "alter": 10828,
    "crawling": 16960,
    "mingled": 14716,
    "Ġsumat": 14132,
    "Ġpermit": 9752,
    "Ġtant": 12530,
    "Ġindistinct": 17411,
    "exact": 7910,
    "Ġcheese": 9380,
    "Ġger": 21594,
    "ondency": 15273,
    "Ġvest": 8163,
    "Ġthom": 21519,
    "ulating": 10889,
    "isome": 17850,
    "wretchedness": 17255,
    "Ġbestowed": 6595,
    "lacings": 26135,
    "ears": 20847,
    "Ġillustrious": 17110,
    "Ġcreativity": 2886,
    "Ġhalf": 1672,
    "robotics": 11308,
    "Ġrider": 24186,
    "blow": 9107,
    "nursery": 26401,
    "Ġfolio": 11922,
    "Ġsecrecy": 7316,
    "Ġscr": 11764,
    "slee": 17171,
    "civilized": 17076,
    "Ġtist": 21165,
    "_),": 7127,
    "İ": 241,
    "Ġinfinity": 23284,
    "cess": 539,
    "intern": 23738,
    "Ġintercepted": 25828,
    "Ġhawk": 15177,
    "offices": 19061,
    "rance": 5995,
    "Ġfade": 21410,
    "Ġcoop": 14276,
    "Ġbanking": 19633,
    "credit": 12453,
    "Ġsec": 2075,
    "Ġwrench": 12562,
    "izzy": 3098,
    "ies": 582,
    "thomas": 18220,
    "Ġboth": 1659,
    "Ġhall": 4177,
    "Ġmogul": 12868,
    "Ġsudden": 1997,
    "Ġpile": 8425,
    "Ġwalks": 8969,
    "prom": 6510,
    "sl": 5794,
    "Ġpartaking": 22702,
    "Ġpleasures": 11144,
    "Ġfanned": 19101,
    "Ġcott": 3707,
    "Ġcorps": 13037,
    "Ġmatrices": 4969,
    "Ġjetted": 24431,
    "Ġcocoanuts": 26364,
    "Ġevenings": 18755,
    "Ġinsincere": 26601,
    "Ġ[": 6968,
    "gal": 15359,
    "plunging": 25988,
    "Ġrecourse": 22737,
    "Ġshine": 12772,
    "Ġremoved": 5275,
    "several": 5544,
    "ade": 880,
    "Ġlacey": 10200,
    "Ġpertin": 18450,
    "hammad": 23266,
    "Ġamid": 4959,
    "onomy": 12552,
    "Ġgri": 17990,
    "Ġdeserve": 8309,
    "Ġwondering": 7971,
    "semble": 1524,
    "Ġpeak": 16130,
    "Ġminiatures": 20324,
    "Ġsmoke": 4717,
    "Ġepisode": 26349,
    "impenetrable": 26198,
    "Ġscramble": 24579,
    "Ġentreated": 9954,
    "caves": 20818,
    "Ġtragic": 15259,
    "Ġrounded": 14441,
    "Ġchronicled": 25329,
    "arat": 9183,
    "Ġhval": 21491,
    "culous": 11142,
    "vial": 17699,
    "Ġcrav": 19175,
    "Ġcapst": 8599,
    "Ġhogshe": 20495,
    "ĠĠĠĠĠĠĠĠĠĠĠĠĠĠĠĠĠĠĠĠĠĠĠĠĠĠĠĠĠĠĠĠĠĠĠĠĠĠĠĠĠĠĠĠ": 12158,
    "Ġconcept": 677,
    "Ġembarr": 7446,
    "Ġprovision": 14827,
    "hound": 20897,
    "arity": 1300,
    "flakes": 23971,
    "Ġintelligence": 553,
    "Ġdetect": 1251,
    "coff": 9112,
    "ighbour": 3390,
    "rential": 22922,
    "ulate": 5233,
    "Ġtahiti": 13622,
    "Ġcatholic": 20684,
    "Ġimmeas": 18331,
    "Ġattentive": 9036,
    "omuch": 21643,
    "Ġnominal": 15172,
    "Ġcanals": 22166,
    "Ġoblivion": 26032,
    "Ġdaresay": 14707,
    "Ġundergo": 23242,
    "Ġ88": 19714,
    "scans": 22993,
    "fright": 9598,
    "conce": 8513,
    "Ġscene": 3101,
    "Ġbegg": 16255,
    "note": 14343,
    "Ġhe": 318,
    "itioned": 22459,
    "appalled": 18762,
    "capitals": 25083,
    "cre": 4244,
    "Ġneighbour": 3806,
    "otent": 8836,
    "ints": 3419,
    "Ġaggreg": 12890,
    "cific": 10088,
    "Ġbulls": 23861,
    "Ġlarboard": 11011,
    "quickness": 19853,
    "beside": 19879,
    "Ġrover": 18457,
    "Ġstartled": 7084,
    "Ġdish": 6138,
    "Ġtechnique": 2289,
    "Ġdis": 694,
    "Ġeyelids": 26108,
    "adventures": 20259,
    "Ġheavenly": 12089,
    "fanning": 20868,
    "Ġvillains": 14752,
    "Ġarrows": 18342,
    "Ġsplinter": 23750,
    "Ġadvanced": 1548,
    "thole": 21990,
    "Ġrandomly": 1921,
    "dipped": 20839,
    "mal": 6795,
    "Ġarchy": 14349,
    "colonel": 8285,
    "Ġappellation": 22232,
    "Ġdoctrine": 24199,
    "Ġconsciousness": 9951,
    "rugg": 15906,
    "Ġgreater": 3040,
    "Ġneg": 1332,
    "between": 5071,
    "Ġsav": 3357,
    "trees": 10733,
    "Ġticklish": 25037,
    "Ġvex": 5950,
    "business": 5610,
    "same": 5362,
    "hint": 12480,
    "Ġrepentance": 15164,
    "fatigue": 20660,
    "apolog": 22336,
    "future": 13720,
    "Ġsimil": 2530,
    "Ġexpedite": 24956,
    "superstitious": 17283,
    "._)": 10483,
    "Ġpiny": 21473,
    "ically": 853,
    "crated": 16685,
    "Ġgrain": 15835,
    "help": 1479,
    "Ġblend": 14402,
    "Ġpowerful": 1491,
    "Ġleaping": 8341,
    "Ġut": 2280,
    "'s": 2472,
    "Ġreck": 6539,
    "Ġfishery": 4168,
    "Ġupstairs": 5837,
    "Ġdepicted": 14281,
    "Ġdearly": 10404,
    "Ġfra": 1807,
    "Ġcertain": 1561,
    "Ġlost": 2634,
    "lections": 4753,
    "Ġchancery": 20718,
    "Ġinconveniences": 24942,
    "Ġvalleys": 14922,
    "harpooned": 24288,
    "accurately": 25862,
    "Ġadvantage": 4311,
    "flinging": 20870,
    "Ġacting": 10993,
    "aration": 12613,
    "Ġallow": 1129,
    "Ġdim": 4758,
    "Ġbec": 1348,
    "Ġtraditions": 11445,
    "zors": 21150,
    "Ġannouncing": 16756,
    "uning": 1310,
    "sets": 17662,
    "Q": 53,
    "Ġusurpation": 18362,
    "Ġenraged": 10247,
    "Ġrag": 18642,
    "Ġmast": 2897,
    "Ġduke": 7756,
    "Ġinsensible": 12329,
    "iastic": 12484,
    "Ġregiment": 6433,
    "Ġgrego": 18964,
    "itance": 13871,
    "wont": 21135,
    "Ġhoney": 12638,
    "ľ": 255,
    "Ġtyrant": 24766,
    "Ġvolat": 24144,
    "streamed": 25967,
    "Ġsilly": 7686,
    "Ġhunts": 23162,
    "ustom": 3786,
    "Ġacknowledgment": 16959,
    "Ġgans": 5822,
    "Ġordinary": 6098,
    "Ġerection": 24004,
    "ission": 6458,
    "Ġcalmly": 7734,
    "suspicious": 25391,
    "Ġdisguises": 25058,
    "Ġcurving": 16239,
    "net": 1195,
    "afford": 14656,
    "Ġpoor": 1709,
    "Ġseven": 4541,
    "Ġplaintiffs": 13612,
    "exercise": 17462,
    "battering": 20788,
    "Ġperv": 15994,
    "Ġoce": 3033,
    "enial": 17782,
    "Ġcorpusants": 13681,
    "Ġtrusted": 10520,
    "Ġlamps": 14793,
    "ĥ": 230,
    "Ġcomical": 11683,
    "Ġmortally": 23920,
    "Ġmccarthy": 5145,
    "aths": 22704,
    "Ġsalmon": 24064,
    "news": 23137,
    "being": 3912,
    "brary": 5755,
    "glo": 8741,
    "Ġprometheus": 15296,
    "Ġclasses": 4050,
    "Ġeurope": 8062,
    "Ġnephew": 6406,
    "wearing": 22692,
    "Ġlifetime": 13605,
    "Ġwhis": 3504,
    "Ġmove": 5107,
    "Ġstructured": 2972,
    "lay": 5892,
    "omnipotent": 25965,
    "Ġdestiny": 8986,
    "Ġdismasted": 15255,
    "Ġcane": 10929,
    "wil": 8769,
    "Ġcomment": 9235,
    "ersburgh": 18216,
    "Ġexaggerate": 25650,
    "Ġ199": 3012,
    "Ġhotels": 19539,
    "Ġsquares": 11171,
    "Ġen": 394,
    "brain": 13691,
    "Ġclutched": 13521,
    "ilty": 6395,
    "Ġguise": 14435,
    "Ġvalley": 5852,
    "Ġinnocence": 6478,
    "tru": 10731,
    "Ġcorners": 18876,
    "Ġplanisp": 24060,
    "Ġattend": 5035,
    "Ġwishes": 4796,
    "urously": 18053,
    "keeping": 8638,
    "Ġshe": 466,
    "Ġgloves": 8578,
    "Ġremonstrate": 22798,
    "Ġgifts": 21615,
    "Ġheld": 3586,
    "overs": 17623,
    "Ġinclud": 1511,
    "aye": 3659,
    "Ġpirates": 9076,
    "naturalist": 23506,
    "button": 10968,
    "bingley": 4928,
    "Ġintelligible": 15945,
    "Ġlandsmen": 11353,
    "Ġ": 225,
    "Ġdevotedly": 24749,
    "inces": 13831,
    "Ġtones": 8401,
    "Ġbrill": 8552,
    "igned": 5656,
    "uer": 21103,
    "Ġlaughed": 5059,
    "Ġrevellers": 21681,
    "Ġstalls": 25648,
    "Ġslate": 11942,
    "Ġstrain": 6025,
    "Ġsnodhead": 19303,
    "Ġintent": 6410,
    "Ġcuriosities": 26291,
    "Ġhighland": 18712,
    "sounded": 12271,
    "Ġ72": 19614,
    "engines": 18930,
    "ance": 479,
    "Ġperseverance": 13600,
    "Ġgoing": 2065,
    "Ġsincere": 11138,
    "Ġeducation": 5128,
    "Ġwhimsical": 20431,
    "Ġworm": 9165,
    "Ġattractive": 25576,
    "Ġeclips": 20699,
    "society": 9975,
    "Ġcarn": 17823,
    "Ġlamented": 24994,
    "wrinkles": 16558,
    "mews": 22717,
    "Ġpattering": 18653,
    "Ġcoincidences": 26365,
    "compan": 7301,
    "unvarying": 21891,
    "Ġbreathe": 9015,
    "Ġdefection": 22945,
    "Ġecon": 9680,
    "Ġbrightened": 23832,
    "Ġpartial": 2129,
    "prevented": 20377,
    "Ġabused": 22273,
    "evident": 25521,
    "Ġstays": 16564,
    "acet": 5474,
    "ignity": 4370,
    "Ġlose": 5028,
    "Ġcomprehending": 24445,
    "Ġbrawn": 10484,
    "C": 39,
    "muring": 17603,
    "outward": 22164,
    "Ġby": 383,
    "Ġcompens": 14269,
    "Ġimaginations": 16518,
    "Ġits": 706,
    "Ġdevoted": 6575,
    "Ġam": 659,
    "fulfil": 16039,
    "greenland": 10024,
    "Ġcollect": 7237,
    "vicinity": 20483,
    "foolish": 12351,
    "ospit": 22266,
    "gered": 9279,
    "Ġtell": 1469,
    "Ġtrick": 7020,
    "Ġhart": 17924,
    "Ġrelent": 18775,
    "Ġkick": 5838,
    "tide": 11535,
    "Ġmarchant": 14788,
    "Ġchair": 3661,
    "Ġallured": 14116,
    "unguarded": 23668,
    "Ġincorporate": 20457,
    "Ġskrimshander": 22802,
    "brance": 7284,
    "Ġfather": 1451,
    "Ġindicate": 23725,
    "hering": 12821,
    "Ġgigantic": 5916,
    "Ġfrequencies": 4790,
    "12": 20751,
    "pl": 401,
    "abby": 14024,
    "Ġtresses": 21178,
    "Ġpia": 21467,
    "Ġbroadened": 23988,
    "Ġinterrupt": 4355,
    "neighbouring": 19967,
    "ibility": 2392,
    "Ġmont": 8562,
    "fainting": 20476,
    "Ġxxxi": 24969,
    "Ġinvests": 14871,
    "Ġsog": 22088,
    "full": 7420,
    "Ġmill": 6669,
    "Ġporing": 21470,
    "mountain": 10715,
    "Ġbower": 15571,
    "Ġsar": 21216,
    "Ġanchor": 7368,
    "flo": 6116,
    "Ġbreat": 3461,
    "carry": 19529,
    "Ġfairest": 20466,
    "Ġread": 1447,
    "Ġtex": 15475,
    "Ġthereupon": 18435,
    "Ġsurm": 7476,
    "Ġmate": 3706,
    "Ġdiscompose": 25580,
    "Ġheavily": 6742,
    "Ġperdition": 15996,
    "Ġwintry": 17437,
    "Ġappertain": 22229,
    "Ġconversations": 9428,
    "ird": 2431,
    "sion": 8094,
    "Ġtipt": 21176,
    "Ġreus": 8826,
    "Ġcostly": 23586,
    "Ġfighting": 12202,
    "Ġribbed": 16806,
    "Ġforged": 12710,
    "Ġprovinces": 24191,
    "cas": 20796,
    "Ú": 155,
    "Ġvoices": 7876,
    "ther": 482,
    "ÿ": 192,
    "Ġpedestrian": 25884,
    "Ġforge": 8458,
    "Ġdispute": 16060,
    "Ġcautious": 12258,
    "Ġperilous": 7769,
    "sheet": 16289,
    "Ġjacobians": 2890,
    "shoulders": 16587,
    "âĢĶâĢĻâĢĿ": 20067,
    "Ġalso": 1343,
    "Ġreadiness": 13054,
    "Ġcareer": 11120,
    "considerably": 13448,
    "faint": 17547,
    "Ġcheer": 4062,
    "alas": 8808,
    "iting": 2156,
    "vocabulary": 25088,
    "uction": 15446,
    "Ġlaugh": 4107,
    "Ġprayed": 16670,
    "smart": 23910,
    "Ġproved": 4885,
    "Ġdus": 8424,
    "Ġproceeds": 12082,
    "Ġoverlooking": 22364,
    "Ġtore": 6532,
    "Ġmin": 1026,
    "_.": 2212,
    "iasm": 8061,
    "Ġchallenges": 13633,
    "Ġhel": 3783,
    "Ġbre": 1914,
    "skirted": 24489,
    "Ġlasting": 18793,
    "wr": 3031,
    "des": 3173,
    "Ġimpro": 899,
    "Ġunusually": 15850,
    "Ġundaunted": 24119,
    "Ġqueen": 3212,
    "arms": 10176,
    "Ġmusical": 23896,
    "Ġcirculation": 16420,
    "pits": 15415,
    "likes": 18816,
    "Ġeyebrows": 23519,
    "Ġrenounce": 19471,
    "Ġalacrity": 15741,
    "course": 6106,
    "Ġnovels": 15933,
    "Ġcrowded": 8012,
    "Ġsuffusing": 23032,
    "eagerly": 17319,
    "ishment": 3505,
    "rified": 15422,
    "Ġsimultaneous": 22596,
    "front": 12175,
    "Ġgermans": 25785,
    "rmsprop": 4521,
    "Ġoppose": 16521,
    "reas": 988,
    "Ġinstruct": 2861,
    "Ġsurviving": 24637,
    "fted": 9121,
    "Ġprivilege": 11421,
    "Ġsanctioned": 26352,
    "Ġmultipl": 2789,
    "plainly": 11092,
    "Ġ(": 594,
    "Ġassisting": 13261,
    "tomahawk": 25916,
    "Ġbreathing": 9448,
    "Ġsom": 1276,
    "Ġstep": 752,
    "Ġlizard": 12660,
    "Ġoverflow": 10295,
    "ust": 497,
    "Ġdavy": 25952,
    "ceed": 1077,
    "smoke": 17225,
    "orders": 12880,
    "Ġornamented": 20365,
    "Ġstrange": 2274,
    "Ġpopulous": 16828,
    "ĠĠĠĠĠĠĠĠĠĠĠĠĠĠĠĠĠĠĠĠĠĠĠĠĠĠĠĠĠĠĠĠĠĠĠĠĠĠĠĠĠĠĠĠĠĠĠĠĠĠĠĠĠ": 20043,
[...]
