{
  "metadata": {
    "vocab_size": 26616,
    "algorithm": "BPE",
    "created_at": "2026-08-16 02:57:55",
    "special_tokens": [
      "<PAD>",
      "<SOS>",
      "<EOS>",
      "<UNK>",
      "<MASK>"
    ]
  },
  "vocab": {
    "Ġmotions": 8281,
    "Ġjoints": 12039,
    "thereby": 14450,
    "Ġseason": 5237,
    "perquisites": 26532,
    "last": 3803,
    "Ġextravagance": 17282,
    "Ġeyelids": 26108,
    "Ġilluminate": 17195,
    "anean": 7443,
    "Ġbestowed": 6595,
    "Ġspoiled": 11364,
    "Ġexulting": 20261,
    "Ġlake": 5227,
    "anyth": 5438,
    "prop": 1036,
    "Ġlouis": 8357,
    "sus": 6230,
    "jump": 10106,
    "Ġjudgment": 5765,
    "Ġpresentiment": 18990,
    "Ġattended": 5391,
    "ult": 722,
    "Ġlurk": 13387,
    "remarks": 23192,
    "legged": 10468,
    "Ġexerted": 15761,
    "therly": 18337,
    "Ġproposals": 10616,
    "Ġthimble": 15641,
    "Ġwindlass": 7256,
    "Ġpupella": 20425,
    "kine": 15379,
    "Ġodor": 12154,
    "eck": 20846,
    "ĠĠĠĠĠĠĠĠĠĠĠĠĠĠĠĠĠĠĠĠĠĠĠĠĠĠĠĠĠĠĠĠĠ": 12047,
    "ote": 4598,
    "umbent": 12094,
    "squall": 13525,
    "ourably": 14380,
    "higher": 20410,
    "snow": 10726,
    "reasonable": 7752,
    "Ġrob": 1266,
    "Ġoft": 9197,
    "Ġcarpenter": 4686,
    "Ġcontr": 1915,
    "Ġindications": 14634,
    "instr": 12536,
    "Ġstroll": 13357,
    "Ġmorals": 22975,
    "ived": 1533,
    "Ġshiver": 12772,
    "Ġnoise": 1071,
    "osp": 6854,
    "Ġsurvivors": 25732,
    "mo": 861,
    "Ġdynamically": 4174,
    "Ġnicely": 8712,
    "inions": 8403,
    ",âĢĶ": 3169,
    "Ġgenteel": 19984,
    "Ġgraceful": 11297,
    "Ġregularly": 7658,
    "rig": 7556,
    "muttered": 13762,
    "Ġcorridor": 10674,
    "Ġde": 363,
    "adm": 7609,
    "ratches": 20128,
    "begin": 8887,
    "Ġlodge": 5779,
    "Ġtigris": 25760,
    "impatience": 25501,
    "Ġholder": 6726,
    "Ġwharf": 9562,
    "intolerable": 22941,
    "vitality": 20482,
    "Ġcaress": 16341,
    "Ġlim": 2380,
    "fifty": 12356,
    "Ġbery": 13901,
    "Ġjourneying": 25565,
    "Ġwild": 2599,
    "Ġwondered": 11125,
    "Ġsallow": 12541,
    "Ġsplash": 16551,
    "Ġtribute": 15478,
    "pots": 11515,
    "iscient": 17853,
    "ellig": 524,
    "wam": 10138,
    "Ġabandonment": 25604,
    "scrape": 25699,
    "fulfilment": 26026,
    "thodox": 21992,
    "Ġhabitation": 14806,
    "Ġperiods": 13308,
    "rises": 17657,
    "collected": 13217,
    "andering": 21871,
    "Ġfinding": 3265,
    "Ġscattered": 6857,
    "Ġdepressed": 10883,
    "drowned": 17372,
    "alleging": 23027,
    "lightning": 16554,
    "âĢĺ": 940,
    "Ġeagle": 13206,
    "Ġbohemian": 17136,
    "Ġstuffed": 13413,
    "Ġ[_": 15464,
    "Ġflann": 23017,
    "day": 1860,
    "Ġserenity": 10031,
    "Ġmaterials": 11289,
    "Ġstating": 15726,
    "Ġbarrel": 23793,
    "Ġundu": 15841,
    "Ġgrowth": 14631,
    "ari": 671,
    "whip": 22241,
    "Ġstepmother": 16093,
    "Ġappre": 5165,
    "Ġcrumpled": 16440,
    "Ġprovoking": 16745,
    "Ġrever": 6538,
    "prises": 23816,
    "Ġuntrodden": 23523,
    "Ġboards": 14304,
    "combination": 25487,
    "Ġvit": 10248,
    "Ġconsisted": 10421,
    "represent": 9640,
    "lights": 13209,
    "onial": 11568,
    "Ġreynolds": 10212,
    "Ġeat": 4645,
    "sound": 6800,
    "Ġvows": 15812,
    "Ġindist": 14414,
    "Ġproducing": 11904,
    "ë": 172,
    "Ġexerc": 6834,
    "Ġascended": 8669,
    "free": 8739,
    "Ġfeigned": 22212,
    "Ġoverbearing": 12849,
    "lyph": 10853,
    "Ġcoffin": 4430,
    "Ġdenote": 19335,
    "Ġannoyed": 17202,
    "Ġleaving": 3904,
    "Ġenergies": 25460,
    "Ġnightgown": 23134,
    "Ġsupplies": 20329,
    "Ġlegitimate": 20644,
    "thickness": 25368,
    "Ġelbowed": 16113,
    "Ġagitation": 6865,
    "Ġhermits": 22078,
    "Ġgardens": 16453,
    "else": 6535,
    "Ġimperfect": 13344,
    "zes": 11550,
    "Ġdelight": 2546,
    "_.âĢĻâĢĿ": 17482,
    "sent": 761,
    "Ġworrying": 22930,
    "cousins": 20121,
    "Ġmists": 14632,
    "ice": 589,
    "Ġalche": 21787,
    "lives": 12490,
    "Ġ69": 19664,
    "Ġlivid": 14992,
    "Ġdrooping": 9423,
    "Ġendeavor": 16547,
    "likelihood": 4992,
    "Ġcompanies": 14559,
    "beaten": 20318,
    "Ġcleared": 6076,
    "Ġunclasp": 26513,
    "Ġlunacy": 20031,
    "doubted": 17528,
    "promising": 24725,
    "Ġattempts": 10493,
    "Ġerecting": 24653,
    "affection": 7487,
    "hound": 20897,
    "Ġerrand": 11086,
    "Ġstatue": 23150,
    "Ġensued": 11395,
    "Ġcomprehensive": 15091,
    "Ġrussian": 14351,
    "sing": 5138,
    "Ġdefects": 12337,
    "fra": 8375,
    "best": 6113,
    "Ġcomparing": 14267,
    "nt": 922,
    "Ġtid": 8107,
    "according": 12032,
    "Ġcabinets": 23865,
    "Ġunce": 11715,
    "Ń": 260,
    "Ġreject": 7386,
    "awn": 3835,
    "ision": 1855,
    "Ġhappily": 9334,
    "Ġplatform": 17134,
    "Ġdisappeared": 5645,
    "Ġgratify": 19506,
    "Ġunctuousness": 17237,
    "Ġadopted": 15182,
    "Ġimmensities": 25331,
    "Ġconsent": 5372,
    "reeling": 21247,
    "Ġwant": 1120,
    "Ġinterior": 8898,
    "Ġcologne": 12981,
    "ologies": 18785,
    "ī": 236,
    "Ġcandle": 8292,
    "Ġstig": 14005,
    "Ġsword": 6734,
    "Ġpack": 5444,
    "performed": 18341,
    "Ġascertaining": 17206,
    "Ġolive": 12570,
    "four": 6115,
    "Ġexpansion": 22630,
    "appalling": 22848,
    "my": 1314,
    "lady": 4434,
    "ihood": 20924,
    "Ġexecute": 7505,
    "Ġsentences": 2683,
    "resolved": 9642,
    "Ġthw": 21518,
    "hued": 20913,
    "Ġkept": 3346,
    "Ġconcre": 16390,
    "insanity": 23070,
    "resum": 17763,
    "Ġpossibilities": 18977,
    "Ġswords": 19899,
    "osque": 22266,
    "Ġcomplacency": 19451,
    "Ġointment": 21329,
    "denial": 18716,
    "Ġgenerally": 4156,
    "Ġshade": 6552,
    "Ġdismally": 20217,
    "engines": 18930,
    "Ġfidget": 15193,
    "axing": 18547,
    "dorff": 15241,
    "Ġdisgu": 8206,
    "Ġignited": 25072,
    "human": 7090,
    "cream": 15334,
    "faith": 15027,
    "commanding": 24751,
    "Ġcounters": 24143,
    "Ġsneezing": 12252,
    "Ġproprietor": 12377,
    "bergs": 18698,
    "Ġmightier": 18731,
    "simon": 16975,
    "Ġrainbows": 19651,
    "Ġhatches": 12049,
    "Ġconsulting": 13433,
    "Ġcalms": 23044,
    "Ġexchanged": 10879,
    "Ġthomson": 26456,
    "Ġrequired": 7223,
    "Ġclung": 10960,
    "Ġcoll": 8222,
    "punctual": 26357,
    "Ġalow": 18102,
    "scorn": 22989,
    "up": 1283,
    "Ġtroop": 24898,
    "extric": 22757,
    "Ġbrooded": 23106,
    "iop": 20921,
    "Ġicebergs": 23978,
    "opposition": 24820,
    "ositories": 22268,
    "apothe": 22338,
    "Ġjavan": 24999,
    "uttering": 12667,
    "Ġparchment": 13656,
    "lounged": 26134,
    "Ġenormity": 19698,
    "Ġgush": 10205,
    "Ġcoffins": 13255,
    "solving": 3099,
    "Ġmaterially": 12196,
    "Ġwires": 21298,
    "Ġisle": 8837,
    "Ġcoronation": 13338,
    "Ġlistening": 6320,
    "action": 3728,
    "Ġcopper": 7425,
    "imaux": 21715,
    "Ġshooting": 11163,
    "Ġdamn": 11159,
    "league": 17846,
    "Ġspotted": 12143,
    "Ġriverside": 25248,
    "rucastle": 22192,
    "utes": 5915,
    "Ġmanipulation": 10661,
    "Ġbelief": 5857,
    "Ġunguarded": 15854,
    "94": 4804,
    "Ġgleams": 17313,
    "Ġethiopian": 26615,
    "Ġassum": 4065,
    "bur": 4688,
    "Ġtightly": 13537,
    "iable": 3334,
    "sprang": 19994,
    "Ġstood": 2549,
    "Ġsubjects": 7074,
    "undant": 14795,
    "Ġexplain": 544,
    "any": 3338,
    "Ġpreparation": 13532,
    "Ġdetermination": 9822,
    "xes": 21143,
    "Ġounce": 15276,
    "races": 21633,
    "stay": 9684,
    "collecting": 26082,
    "Ġneuron": 1810,
    "Ġsplashing": 16552,
    "Ġangles": 23590,
    "rep": 5525,
    "Ġverdure": 10615,
    "les": 1016,
    "Ġgild": 15673,
    "Ġplague": 11828,
    "charmed": 21699,
    "Ġfrequented": 16588,
    "Ġtrampling": 25493,
    "Ġtongues": 14866,
    "chron": 21697,
    "Ġcrocod": 19631,
    "formed": 2552,
    "archangel": 18788,
    "Ġare": 526,
    "stalls": 26475,
    "Ġsuccessfully": 19432,
    "atherley": 7220,
    "Ġparc": 10921,
    "riumph": 4920,
    "gain": 8740,
    "chers": 11318,
    "Ġcoals": 16079,
    "Ġyarman": 12710,
    "mael": 6725,
    "Ġy": 341,
    "yours": 7695,
    "Ġsplin": 8622,
    "respective": 19848,
    "Ġenrapt": 21943,
    "illings": 14145,
    "Ġplate": 8902,
    "linked": 17595,
    "Ġmund": 21321,
    "Ġsold": 6004,
    "Ġrouted": 24908,
    "Ġchains": 8251,
    "Ġgreat": 896,
    "Ġauxiliary": 26420,
    "aciousness": 18607,
    "aky": 18412,
    "ofs": 11834,
    "Ġaristocratic": 20516,
    "Ġ(_": 3738,
    "Ġdegenerated": 20509,
    "Ġrepublican": 17415,
    "Ġazores": 20196,
    "Ġdissipate": 13637,
    "rote": 4594,
    "trying": 15441,
    "however": 4374,
    "Ġoccasion": 3247,
    "shells": 26057,
    "fears": 18529,
    "Ġrasc": 21978,
    "charm": 13993,
    "Ġcou": 5288,
    "Ġreckless": 13462,
    "protest": 24812,
    "Ġfetching": 16898,
    "Ġframework": 2068,
    "Ġstubbs": 23298,
    "itering": 17820,
    "Ġannealing": 1557,
    "Ġenvironmental": 24094,
    "imes": 1299,
    "orting": 9738,
    "istered": 14147,
    "Ġscar": 3212,
    "Ġenviron": 3975,
    "entieth": 17981,
    "cork": 20798,
    "Ġcarelessly": 11120,
    "voices": 21120,
    "Ġtypewriting": 16424,
    "Ġhandkerchief": 8917,
    "Ġdefe": 21839,
    "Ġmoderately": 22220,
    "Ġformation": 2942,
    "Ġabsent": 7016,
    "Ġremain": 1875,
    "Ġwisdom": 11234,
    "Ġmorality": 22976,
    "eties": 10839,
    "Ġprender": 22239,
    "cherries": 19759,
    "uncle": 8159,
    "Ġhave": 445,
    "Ġspokes": 18314,
    "Ġwhispered": 5338,
    "urred": 8451,
    "Ġsing": 3073,
    "Ġfrequent": 3287,
    "lier": 20951,
    "Ġtore": 6532,
    "tranquil": 25871,
    "balls": 12309,
    "miles": 10714,
    "distraction": 24203,
    "Ġbedfellow": 16441,
    "render": 10293,
    "Ġcemeteries": 26377,
    "mill": 13757,
    "Ġga": 4447,
    "Ġaffl": 14389,
    "Ġalice": 1481,
    "Ġcarpet": 9359,
    "Ġnap": 8813,
    "Ġgenerously": 22399,
    "americ": 8156,
    "Ġsanely": 24983,
    "Ġestablished": 9072,
    "Ġdisdained": 15012,
    "monsters": 19173,
    "Ġreally": 2159,
    "gent": 7131,
    "Ġcloud": 3911,
    "leagued": 26437,
    "Ġgrand": 3593,
    "etite": 21582,
    "esty": 4305,
    "orously": 8420,
    "unt": 2042,
    "Ġcomforters": 25801,
    "iday": 8834,
    "Ġswitzerland": 10382,
    "Ġrecovery": 11442,
    "Ġshrunk": 16720,
    "Ġbeak": 18082,
    "Ġsmells": 8893,
    "Ġkrem": 9729,
    "Ġbraw": 23837,
    "dozen": 23381,
    "Ġsensations": 5260,
    "whe": 1074,
    "Ġsurprised": 3830,
    "Ġpian": 13920,
    "Ġvindict": 13609,
    "Ġlamentations": 17077,
    "Ġthread": 14541,
    "Ġheartless": 13077,
    "Ġheiress": 20700,
    "aux": 14292,
    "Ġexploration": 2336,
    "Ġmister": 22764,
    "Ġidleness": 11144,
    "treas": 17681,
    "Ġbubbles": 11399,
    "wise": 2573,
    "inquiry": 15146,
    "oing": 15404,
    "Ġquieted": 23845,
    "precaution": 23825,
    "Ġdrinks": 24282,
    "Ġwhere": 782,
    "Ġresort": 18564,
    "Ġbars": 13900,
    "Ġdollar": 25284,
    "Ġbegg": 16257,
    "delay": 16697,
    "nel": 11506,
    "rian": 10244,
    "Ġcategories": 4479,
    "Ġ104": 24412,
    "Ġintelligent": 1676,
    "Ġmassa": 19457,
    "Ġentreated": 9954,
    "Ġhus": 3092,
    "convers": 6569,
    "Ġgeography": 23375,
    "Ġgreenness": 23769,
    "Ġacquisition": 18901,
    "į": 240,
    "led": 581,
    "sharpening": 22463,
    "Ġoccupied": 5273,
    "perceive": 12814,
    "Ġte": 1140,
    "Ġherself": 1568,
    "Ġconcerning": 4069,
    "Ġelasticity": 19561,
    "Ġexposes": 22628,
    "racts": 14374,
    "Ġhandsome": 4907,
    "tland": 21076,
    "Ġdeveloped": 16340,
    "named": 9894,
    "Ġunbecoming": 22068,
    "Ġclient": 5556,
    "Ġmult": 1022,
    "Ġgermany": 25786,
    "Ġremember": 2679,
    "Ġcompetent": 11820,
    "Ġmab": 12565,
    "Ġaffirmative": 15226,
    "connection": 18869,
    "Ġfully": 6344,
    "unned": 21882,
    "Ġmonomaniac": 9571,
    "Ġfalls": 14646,
    "knowing": 10439,
    "violence": 16480,
    "Ġmanned": 9273,
    "Ġharpoone": 2910,
    "crowded": 20193,
    "apprec": 22847,
    "?": 35,
    "missed": 11210,
    "Ġpotential": 3621,
    "Ġbree": 5012,
    "Ġintrospective": 20603,
    "Ġcrate": 19121,
    "ickory": 22672,
    "vously": 23506,
    "interruption": 20115,
    "Ġfashionable": 19547,
    "Ġbanqu": 12593,
    "pede": 19932,
    "ullen": 8235,
    "embow": 21935,
    "crucible": 24843,
    "term": 3759,
    "spirit": 11314,
    "Ġsearched": 15820,
    "destro": 13314,
    "accepting": 20138,
    "icles": 17975,
    "omach": 11637,
    "Ġxli": 14543,
    "Ġirksome": 13116,
    "rench": 3966,
    "repeating": 20132,
    "shunned": 22464,
    "Ġscared": 14194,
    "Ġsquaring": 22843,
    "mish": 17600,
    "Ġsufferable": 16261,
    "Ġborrowed": 17232,
    "Ġwoke": 21292,
    "Ġprevious": 2089,
    "Ġfrenchman": 11284,
    "Ġirresistible": 13117,
    "mason": 17604,
    "disappointment": 11426,
    "Ġvector": 1971,
    "Ġeager": 3571,
    "swaying": 25911,
    "ipotent": 10961,
    "contrary": 23731,
    "Ġsaturday": 6453,
    "Ġcorps": 13038,
    "Ġsolution": 9808,
    "Ġdemonstrate": 24997,
    "hurt": 19880,
    "proposal": 18757,
    "ho": 2857,
    "midnight": 14905,
    "Ġloath": 7890,
    "Ġfanning": 23393,
    "uccas": 21109,
    "Ġconjured": 25102,
    "freely": 16856,
    "patched": 17645,
    "Ġeyebrows": 23517,
    "prosper": 19102,
    "Ġfit": 3686,
    "Ġfat": 3464,
    "Ġfever": 6560,
    "bitter": 11242,
    "vour": 17701,
    "flung": 16641,
    "concent": 19483,
    "Ġencl": 16170,
    "changing": 10855,
    "burning": 25081,
    "behaved": 24463,
    "Ġconsoled": 18115,
    "Ġsaintsbury": 26374,
    "journey": 8748,
    "Ġsolving": 2478,
    "rified": 15422,
    "your": 1985,
    "Ġdairy": 20689,
    "\":": 9584,
    "Ġgloom": 4201,
    "ssed": 3736,
    "Ġabiding": 22274,
    "Ġunsettled": 14126,
    "Ġwounding": 19589,
    "bular": 15317,
    "Ġintending": 11709,
    "probably": 10023,
    ";": 31,
    "Ġpra": 4347,
    "Ġnotes": 7189,
    "Ġcurb": 16247,
    "ually": 2771,
    "Ġgall": 4352,
    "Ġ1894": 5196,
    "animate": 12582,
    "Ġonly": 787,
    "Ġfierc": 18717,
    "Ġoverjoyed": 17461,
    "Ġbubb": 12589,
    "Ġmicroscopic": 26375,
    "Ġtoiling": 15639,
    "Ġlike": 668,
    "Ġunimag": 12780,
    "Ġwell": 901,
    "accompan": 11453,
    "hap": 17561,
    "Ġpasture": 14544,
    "Ġmadness": 6603,
    "Ġincorrect": 2730,
    "Ġdestroyed": 5272,
    "Ġpreacher": 18370,
    "industrious": 26241,
    "Ġintersect": 22579,
    "Ġsinners": 18952,
    "Ġluck": 4881,
    "Ġpronouncing": 16971,
    "Ġdrops": 9035,
    "Ġpillow": 10041,
    "ishmael": 18421,
    "angered": 16182,
    "Ġalas": 5923,
    "anc": 6380,
    "Ġsouthern": 7689,
    "Ġheire": 18039,
    "meditated": 19072,
    "Ġcircumstances": 3926,
    "Ġmachinations": 25768,
    "guilty": 19486,
    "Ġpracticable": 19041,
    "Ġdecayed": 22829,
    "Ġaccomplice": 24376,
    "hideous": 25408,
    "Ġignorantly": 19498,
    "Ġexert": 5722,
    "Ġberth": 8683,
    "Ġguessed": 11283,
    "ost": 5361,
    "Ġcared": 8787,
    "Ġxxx": 7767,
    "Ġfinny": 23129,
    "Ġtipt": 21176,
    "Ġdisclose": 16160,
    "make": 5793,
    "Ġguardians": 14946,
    "Ġfloats": 9416,
    "Ġtoilet": 13940,
    "Ġcau": 13884,
    "phil": 7924,
    "Ġshook": 4470,
    "Ġwithin": 2163,
    "ware": 3935,
    "Ġblame": 6447,
    "Ġreasoned": 23088,
    "running": 6798,
    "Ġfry": 17881,
    "Ġcivilised": 24247,
    "tled": 3460,
    "generous": 16571,
    "surface": 10533,
    "Ġchamber": 6215,
    "suspect": 9543,
    "Ġquebec": 24135,
    "confirm": 16809,
    "Ġothers": 2581,
    "impregnable": 26483,
    "brink": 23578,
    "origin": 7582,
    "nyder": 16687,
    "Ġminute": 4277,
    "Ġsequel": 14358,
    "Ġcows": 15557,
    "Ġconstruct": 23344,
    "Ġdefiance": 11069,
    "Ġlaurel": 20656,
    "ief": 2044,
    "Ġfooting": 14485,
    "Ġnavy": 14919,
    "Ġsphynx": 20714,
    "ai": 2524,
    "Ġruth": 14096,
    "inquir": 9539,
    "mews": 22717,
    "furnished": 20244,
    "Ġstories": 10866,
    "hidden": 17374,
    "ht": 376,
    "Ġcelebrate": 26359,
    "neglected": 25670,
    "Ġexhilarating": 26339,
    "Ġcoiling": 12910,
    "sky": 12515,
    "enthus": 17980,
    "Ġhe": 318,
    "Ġexpectantly": 23526,
    "times": 8099,
    "pers": 4337,
    "Ġfundamentals": 14637,
    "Ġpursuits": 12081,
    "Ġmanipulated": 25179,
    "Ġinteresting": 4326,
    "Ġpractice": 2695,
    "immed": 9220,
    "aged": 2604,
    "Ġsummar": 3527,
    "marked": 9051,
    "relatively": 24017,
    "Ġtransparency": 10679,
    "Ġlob": 7628,
    "iss": 2176,
    "pool": 16211,
    "Ġlegendary": 20540,
    "vessel": 11378,
    "Ġhistorical": 3647,
    "Ġcotton": 17382,
    "Ġattendant": 11286,
    "decided": 13219,
    "acher": 6868,
    "Ġconstant": 6311,
    "Ġchann": 15939,
    "ger": 1107,
    "nervous": 16280,
    "Ġdeclining": 23967,
    "ien": 10104,
    "Ġbeds": 14553,
    "achusetts": 20712,
    "ulled": 14059,
    "boscombe": 26122,
    "represented": 20198,
    "ural": 507,
    "Ġparting": 9786,
    "Ġtyphoons": 20237,
    "Ġbowsprit": 16562,
    "inn": 5364,
    "constable": 24606,
    "Ġviolence": 5964,
    "Ġplayfulness": 23638,
    "Ġbarbaric": 10017,
    "ague": 3906,
    "boast": 23255,
    "button": 10967,
    "Ġquivers": 22417,
    "Ġcapture": 3386,
    "Ġawaken": 23588,
    "orters": 21404,
    "rived": 5373,
    "Ġawkwardness": 13491,
    "Ġspeedy": 11173,
    "Ġcentre": 5123,
    "sharp": 10309,
    "Ġcallest": 17834,
    "Ġpinched": 17036,
    "tinted": 17685,
    "Ġberths": 20118,
    "Ġunfolded": 10641,
    "Ġconfederate": 17356,
    "Ġspilling": 22142,
    "uesday": 8590,
    "Ġrevisit": 21673,
    "Ġscott": 22300,
    "tube": 20414,
    "Ġcran": 12005,
    "Ġinfatuated": 20537,
    "Ġinadequate": 17939,
    "Ġeasily": 3891,
    "Ġlargest": 6284,
    "Ġsog": 22079,
    "Ġpace": 9185,
    "ï": 176,
    "race": 11634,
    "Ġsurround": 4619,
    "Õ": 150,
    "Ġ[": 6968,
    "Ġfastidious": 14494,
    "Ġseams": 12129,
    "Ġemploys": 19434,
    "Ġshaggy": 13574,
    "consequ": 18507,
    "Ġdrows": 21438,
    "insupportable": 21196,
    "Ġclinched": 17397,
    "Ġwing": 6668,
    "lan": 15381,
    "Ġclaimed": 14205,
    "Ġsmiting": 12903,
    "shattered": 22458,
    "Ġoffensive": 18691,
    "idered": 4555,
    "Ġwreath": 25937,
    "Ġwrought": 11948,
    "irious": 15790,
    "Ġlacepede": 20498,
    "tained": 4407,
    "rarely": 21637,
    "hogs": 20085,
    "order": 1959,
    "Ġmake": 1284,
    "Ġadjusting": 3415,
    "Ġprobabilities": 4966,
    "Ġeagerness": 6610,
    "Ġupdating": 2691,
    "Ġdog": 4192,
    "Ġquestions": 3971,
    "Ġcircumspection": 25885,
    "Ġgentlemanlike": 12071,
    "Ġunfitted": 24111,
    "rant": 11518,
    "Ġprecipices": 12282,
    "Ġconfirmed": 11140,
    "Ġabhorrence": 9055,
    "abern": 21793,
    "Ġfails": 13318,
    "Ġnorton": 12654,
    ".âĢĻâĢĿ": 6741,
    "bly": 6112,
    "Ġrationally": 18214,
    "Ġconductor": 24010,
    "Ġfoes": 11955,
    "Ġprairies": 20024,
    "philosophers": 25253,
    "isle": 13895,
    "impatiently": 20474,
    "Ġslow": 2379,
    "Ġincantation": 26259,
    "Ġcoarse": 14277,
    "Ġordained": 19448,
    "Ġcase": 1940,
    "unfortunate": 15781,
    "Ġneglect": 7942,
    "viating": 14581,
    "earn": 10698,
    "Ġparent": 14647,
    "Ġcompleted": 9000,
    "Ġtradesman": 20076,
    "Ġevinced": 7102,
    "Ġstarboard": 7605,
    "Ġfitzwilliam": 5771,
    "Ġcarpenters": 16754,
    "Ġhorr": 3189,
    "Ġsimpleton": 16336,
    "Ġeel": 18004,
    "Ġfoster": 18992,
    "application": 12367,
    "Ġpal": 4042,
    "india": 22375,
    "Ġdisordered": 16059,
    "guilt": 24072,
    "Ġdis": 693,
    "Ġstricken": 9779,
    "Ġgene": 15676,
    "Ġridiculous": 10631,
    "sartain": 25623,
    "Ġact": 690,
    "Ġobsequious": 17407,
    "Ġtheirs": 7026,
    "unworthy": 18164,
    "attentions": 13578,
    "heading": 5487,
    "Ġdiffer": 18675,
    "Ġauthentic": 20538,
    "Ġtowed": 11266,
    "Ġdeed": 7868,
    "Ġwallow": 19469,
    "aked": 2015,
    "Ġblandly": 20326,
    "Ġoscillations": 2897,
    "Ġguilt": 6181,
    "Ġcollection": 8223,
    "office": 16399,
    "Ġforeheads": 23449,
    "fellows": 12278,
    "##": 2317,
    "Ġbaling": 17861,
    "Ġsqualid": 14371,
    "Ġwhelm": 25999,
    "Ġfurthermore": 1173,
    "idy": 21768,
    "Ġcuriosities": 26291,
    "Ġseize": 8166,
    "cheerful": 13579,
    "Ġge": 1979,
    "Ġolfactories": 26172,
    "condemned": 26061,
    "ical": 753,
    "knell": 24555,
    "Ġissuing": 16950,
    "Ġpertin": 18451,
    "iling": 3093,
    "aths": 22702,
    "Ġtravelling": 11308,
    "full": 7420,
    "itect": 1006,
    "whom": 8185,
    "dark": 5614,
    "Ġpoultry": 17444,
    "Ġensuing": 12313,
    "Ġresp": 2490,
    "Ġinvitation": 5188,
    "vacancies": 25920,
    "vain": 15450,
    "igate": 8827,
    "tiger": 13800,
    "Ġtransfer": 2220,
    "Ġparamet": 607,
    "Ġsy": 491,
    "ordinary": 4409,
    "Ġeloquence": 11846,
    "Ġlimped": 19183,
    "americans": 25045,
    "Ġele": 1962,
    "Ġsharing": 3479,
    "Ġrepublic": 14533,
    "ay": 355,
    "Ġjoking": 12841,
    "seated": 11674,
    "history": 15017,
    "Ġsuffer": 4723,
    "ryder": 18648,
    "uteronomy": 15668,
    "seventy": 10877,
    "Ġelements": 2668,
    "Ġkilburn": 18352,
    "Ġfancy": 3747,
    "spoutings": 25004,
    "scap": 22988,
    "arded": 5029,
    "Ġwhims": 12697,
    "Ġtend": 6122,
    "Ġrepelled": 19087,
    "Ġproducts": 5198,
    "unwho": 21881,
    "Ġrounds": 18886,
    "Ġreview": 18033,
    "nihil": 9853,
    "commend": 19996,
    "Ġasserted": 16951,
    "conscientious": 19629,
    "Ġgrow": 2859,
    "Ġ]": 15462,
    "Ġcass": 13882,
    "ingale": 21302,
    "Ġdey": 11678,
    "Ġsuicide": 12794,
    "Ġconsequence": 5542,
    "Ġfewer": 16228,
    "extra": 8219,
    "shavings": 22462,
    "Ġubiqu": 18049,
    "Ġreserved": 7515,
    "Ġstrength": 4258,
    "Ġhousekeeping": 18946,
    "oused": 6558,
    "bedded": 12447,
    "ift": 1606,
    "Ġwedding": 4817,
    "honor": 19902,
    "alizing": 17942,
    "gin": 4931,
    "Ġfactor": 19013,
    "Ġgreece": 17070,
    "unts": 12736,
    "Ġbehalf": 14510,
    "Ġundesired": 12784,
    "Ġdet": 509,
    "Ġbake": 21385,
    "baggage": 24927,
    "Ġstabbed": 25457,
    "featured": 24093,
    "Ġscholars": 26113,
    "Ġdictator": 20156,
    "f": 74,
    "Ġdelirium": 10407,
    "Ġagreement": 18540,
    "Ġconfirms": 23311,
    "ground": 4673,
    "sets": 17662,
    "commencement": 26350,
    ".âĢĶâĢľ": 20749,
    "ifying": 5252,
    "Ġperceived": 4715,
    "Ġmouldings": 24736,
    "Ġpropag": 16350,
    "harpooneers": 8693,
    "Ġworst": 7444,
    "Ġbowls": 23772,
    "Ġmanifold": 13564,
    "Ġspies": 22133,
    "Ġpounds": 5368,
    "prints": 23815,
    "omited": 21644,
    "Ġpoem": 22592,
    "Ġ270": 25133,
    "Ġwhalers": 8048,
    "Ġweeps": 24950,
    "fair": 10095,
    "nineteenth": 26139,
    "Ġcruelty": 9972,
    "Ġpatter": 827,
    "Ġapo": 9633,
    "previously": 17210,
    "Ġannoy": 17201,
    "billiard": 25335,
    "Ġkuiperai": 10936,
    "Ġparm": 15881,
    "towing": 17691,
    "Ġcoinc": 11002,
    "Ġrespected": 11956,
    "Ġwarb": 17789,
    "c": 71,
    "Ġeggs": 12346,
    "Ġul": 6828,
    "Ġflee": 7081,
    "Ġchalk": 15937,
    "footed": 19692,
    "Ġisa": 14028,
    "tremendous": 20676,
    "Ġjurors": 17347,
    "imprudent": 14653,
    "sc": 1258,
    "trap": 24334,
    "Ġscratches": 22305,
    "Ġprofundities": 20456,
    "Ġmanhandle": 22333,
    "comb": 11037,
    "young": 7321,
    "Ġcove": 22585,
    "Ġfashioned": 13325,
    "Ġmallet": 17812,
    "vius": 23544,
    "Ġblaming": 22933,
    "Ġsisters": 3642,
    "Ġafore": 10760,
    "imely": 14001,
    "Ġartist": 12917,
    "Ġing": 5284,
    "famous": 16918,
    "Ġenglish": 3616,
    "Ġmapp": 2082,
    "Ġhereditary": 10667,
    "Ġswelled": 11088,
    "foundered": 20869,
    "Ġflies": 13030,
    "crawling": 16960,
    "Ġsandwic": 24665,
    "Ġallowed": 4059,
    "ittle": 813,
    "Ġwhispering": 14948,
    "yl": 7818,
    "Ġmaw": 15544,
    "ladyship": 14832,
    "arted": 2202,
    "Ġinco": 14262,
    "orses": 6053,
    "Ġanswerable": 23472,
    "Ġcalling": 5662,
    "Ġascending": 14857,
    "Ġbarbarians": 19590,
    "Ġgrave": 5100,
    "Ġchurchyard": 16779,
    "oso": 12835,
    "Ġsquatted": 25843,
    "Ġpalms": 8647,
    "Ġcharmingly": 24224,
    "Ġcalmed": 16269,
    "Ġmapple": 11151,
    "Ġtresses": 21178,
    "Ġhot": 4256,
    "extensive": 18703,
    "Ġresidence": 8207,
    "oura": 1062,
    "Ġsorrow": 4630,
    "Ġconcern": 2657,
    "sphere": 22731,
    "ggling": 19098,
    "gage": 13726,
    "Ġunreason": 15846,
    "purposes": 25024,
    "discovering": 24254,
    "Ġrecommending": 24333,
    "equally": 19901,
    "Ġblotting": 25314,
    "Ġpromote": 23196,
    "Ġdared": 5440,
    "ish": 549,
    "home": 7341,
    "opement": 10314,
    "Ġlanguages": 1569,
    "Ġdesolation": 12273,
    "Ġmortifying": 13250,
    "Ġwood": 2290,
    "Ġquaff": 22418,
    "Ġunwilling": 7886,
    "Ġstopped": 5958,
    "safe": 10057,
    "Ġsphy": 18312,
    "oundering": 11746,
    "Ġtangled": 13830,
    "Ġcompos": 22573,
    "Ġaffairs": 6877,
    "itzerland": 9998,
    "Ġflour": 8947,
    "onah": 3337,
    "Ġleaders": 16630,
    "Ġrenegades": 26478,
    "iary": 15374,
    "separated": 20162,
    "ies": 584,
    "Ġexposed": 8525,
    "specific": 10500,
    "Ġinestim": 15628,
    "cc": 471,
    "compass": 9463,
    "âĢĿ;": 11673,
    "prom": 6510,
    "regiment": 16452,
    "racted": 4777,
    "Ġconsecrated": 26490,
    "?âĢĶ": 3470,
    "Ġjacobians": 2892,
    "Ġsal": 3938,
    "suitable": 18634,
    "Ġparticle": 18672,
    "succeed": 10331,
    "Ġexotic": 21836,
    "Ġwandering": 8657,
    "likeness": 19481,
    "Ġdeserts": 10510,
    "Ġpublisher": 24068,
    "Ġattics": 22624,
    "equal": 14996,
    "Ġincluding": 2850,
    "noted": 22751,
    "shake": 22454,
    "Ġintervals": 5598,
    "non": 9614,
    "Ġaft": 5737,
    "Ġmix": 7577,
    "ohog": 9847,
    "jury": 15377,
    "Ġroofs": 16987,
    "Ġgale": 5823,
    "throt": 25660,
    "Ġmyself": 1454,
    "bone": 5612,
    "quietude": 24656,
    "aculate": 16086,
    "Ġfanc": 6745,
    "Ġeconomical": 25288,
    "Ġspir": 2427,
    "poverty": 22911,
    "Ġprediction": 2154,
    "Ġabund": 8868,
    "Ġconstrained": 19242,
    "Ġcod": 8413,
    "Ġploughed": 22609,
    "riages": 10245,
    "Ġdisturbed": 8675,
    "Ġdarkness": 4276,
    "Ġcask": 5527,
    "Ġinfiltrated": 23286,
    "!âĢĶâĢĻ": 23567,
    "Ġhang": 9190,
    "buoy": 7761,
    "etwork": 444,
    "Ġthrew": 3972,
    "endless": 22230,
    "Ġshared": 10266,
    "Ġvect": 1226,
    "Ġrepugnant": 26592,
    "Ġworker": 23052,
    "Ġtemporary": 7981,
    "atha": 6574,
    "elfare": 11781,
    "Ġsequ": 979,
    "Ġeuroc": 14962,
    "andy": 8158,
    "Ġexhibit": 14959,
    "Ġcreation": 6440,
    "Ġhog": 13927,
    "erial": 4633,
    "Ġcrozetts": 19632,
    "nels": 12500,
    "judging": 24204,
    "saddest": 25528,
    "Ġdragged": 6889,
    "bestow": 16931,
    "Ġresurrection": 12899,
    "tolerably": 21098,
    "Ġsupports": 3051,
    "alas": 8808,
    "Ġnoteworthy": 24165,
    "somewhere": 12017,
    "increas": 10456,
    "Ġash": 4834,
    "taffrail": 15445,
    "daughters": 13470,
    "ignific": 11960,
    "danger": 10092,
    "Ġengra": 7874,
    "Ġdispirited": 23885,
    "icacy": 15662,
    "Ġhal": 1364,
    "morn": 20978,
    "ashing": 4826,
    "detached": 19677,
    "Ġelder": 7224,
    "Ġevident": 6615,
    "Ġjoyous": 14666,
    "august": 11072,
    "ires": 6039,
    "Ġsteak": 9833,
    "strikes": 24671,
    "Ġacquainted": 5179,
    "ede": 21509,
    "Ġasph": 21902,
    "erred": 6377,
    "Ġfurnace": 19443,
    "â": 163,
    "âĢľ_": 5720,
    "Ġrailway": 15023,
    "ġ": 226,
    "Ġarticles": 7110,
    "Ġeludes": 26556,
    "Ġescape": 2647,
    "Ġpartake": 18671,
    "ify": 1340,
    "jets": 20930,
    "Ġinconven": 7587,
    "Ġfriesland": 26444,
    "Ġprelimin": 8864,
    "Ġfiles": 21416,
    "cursed": 23847,
    "Ġdeceitfulness": 25734,
    "Ġflood": 7716,
    "Ġrecommended": 8671,
    "onom": 9161,
    "Ġdella": 21442,
    "Ġshirt": 8853,
    "transformers": 8718,
    "Ġdil": 6384,
    "Ġoffence": 12949,
    "Ġlongitude": 11012,
    "Ġcanes": 22167,
    "t": 88,
    "ario": 14250,
    "greg": 6650,
    "itan": 10162,
    "fetch": 12469,
    "Ġgrie": 3584,
    "pass": 4290,
    "gg": 1996,
    "zwilliam": 5074,
    "pay": 10720,
    "Ġexactness": 23606,
    "Ġramsgate": 18646,
    "Ġfe": 490,
    "Ġelopement": 10332,
    "Ġbeheld": 4495,
    "Ġsincere": 11137,
    "Ġbr": 1073,
    "shine": 9291,
    "awful": 23117,
    "seek": 8841,
    "ceptibly": 22349,
    "Ġsporting": 17001,
    "Ġconfirm": 9859,
    "coal": 12029,
    "whilst": 18372,
    "Ġashamed": 6404,
    "generations": 23787,
    "Ġsteed": 13045,
    "00": 1609,
    "Ġcelerity": 17439,
    "Ġaudibly": 24770,
    "âĢĻ": 378,
    "Ġimpression": 5732,
    "Ġfates": 15582,
    "Ġgeneration": 2180,
    "Ġcombination": 22863,
    "Ġclay": 7021,
    "Ġprinc": 4199,
    "all": 486,
    "recover": 24623,
    "om": 315,
    "hedge": 22503,
    "score": 18852,
    "Ġmatrix": 1605,
    "Ġimpulse": 10027,
    "elf": 564,
    "traced": 19648,
    "imperturbable": 25791,
    "ills": 1627,
    "classification": 4388,
    "jack": 7344,
    "unforeseen": 21892,
    "Ġidentical": 10436,
    "Ġimbu": 15890,
    "winding": 16722,
    "Ġrepentance": 15164,
    "Ġmeth": 1488,
    "Ġaccompanying": 11305,
    "Ġsmitten": 12904,
    "orders": 12879,
    "ables": 7892,
    "Ġproves": 14041,
    "Ġlimb": 9405,
    "Ġduncan": 13465,
    "Ġgesture": 11400,
    "Ġbelieved": 4369,
    "ogy": 22715,
    "Ġbloodthirst": 23803,
    "Ġpleasantness": 24141,
    "Ġthrees": 23404,
    "Ġhandsomely": 25498,
    "Ġclients": 19735,
    "Ġbend": 9173,
    "Ġheroes": 10579,
    "Ġattorney": 18621,
    "Ġ43": 14772,
    "Ġice": 3605,
    "Ġimmortal": 8018,
    "Ġgodfrey": 15297,
    "frisco": 16789,
    "constant": 11325,
    "Ġdrawing": 3918,
    "Ġpenalties": 10414,
    "Ġenvied": 19299,
    "Ġacquired": 13049,
    "Ġblemish": 19682,
    "Ġindefinite": 17179,
    "Ġquite": 1741,
    "Ġswear": 6462,
    "Ġcompared": 2228,
    "maid": 8556,
    "Ġnapoleons": 25886,
    "glimmer": 26323,
    "Ġunfulfilled": 26511,
    "Ġflowers": 8943,
    "Ġlion": 9678,
    "lever": 2930,
    "Ġprovocation": 24194,
    "noble": 7923,
    "Ġbalancing": 2429,
    "Ġmace": 21312,
    "Ġrascally": 26508,
    "Ġthat": 335,
    "Ġfrig": 13085,
    "Ġprudential": 17920,
    "weave": 22688,
    "Ġsake": 4091,
    "Ġunmingled": 18264,
    "Ġnets": 21527,
    "affected": 10478,
    "Ġsinusoid": 4782,
    "Ġentranced": 25835,
    "motives": 26138,
    "Ġcalendar": 18878,
    "Ġtargets": 4204,
    "relations": 14736,
    "Ġflaming": 8567,
    "infernal": 24663,
    "Ġcandour": 14675,
    "Ġemir": 23353,
    "Ġrelations": 5854,
    "Ġbestirred": 20454,
    "Ġstigma": 25792,
    "Ġrejection": 19987,
    "Ġspot": 4153,
    "Ġgreedily": 18966,
    "Ġwrecked": 9969,
    "Ġscru": 8192,
    "Ġfreshets": 25705,
    "Ġsabbath": 17257,
    "Ġgam": 11626,
    "sideways": 14572,
    "Ġmissionary": 25697,
    "Ġblotted": 20220,
    "ridge": 9500,
    "Ġawhile": 13833,
    "Ġgrove": 12151,
    "nameless": 19905,
    "ales": 3317,
    "attempted": 20177,
    "Ġanimals": 8981,
    "Ġalways": 1697,
    "Ġarray": 12815,
    "penny": 22948,
    "Ġmilk": 6486,
    "Ġ81": 24457,
    "Ġinequal": 21500,
    "Ġsealed": 15819,
    "Ġrazors": 22657,
    "performances": 26007,
    "Ġoperation": 12003,
    "Ġflannel": 26579,
    "Ġcautiously": 16979,
    "omin": 4704,
    "Ġlory": 12657,
    "Ġvaried": 11852,
    "upp": 10133,
    "niest": 18979,
    "Ġresponded": 13642,
    "naturally": 14576,
    "Ġaudacious": 13464,
    "bre": 3978,
    "ĠĠĠĠĠĠĠĠĠĠĠĠĠĠĠĠĠĠĠĠĠĠĠĠĠĠĠĠĠĠĠĠĠĠĠĠĠĠĠĠĠĠĠĠĠĠĠĠ": 7989,
    "phere": 21021,
    "Ġcharming": 6631,
    "Ġunprofitable": 18268,
    "Ġpipe": 4322,
    "Ġheal": 21684,
    "Ġposter": 14278,
    "land": 1531,
    "wat": 6233,
    "Ġvan": 1086,
    "rid": 5137,
    "Ġpassion": 4559,
    "Ġharpooneer": 3772,
    "Ġmediocr": 24142,
    "Ġreminisc": 18725,
    "Ġsubsiding": 23436,
    "ulation": 5458,
    "Ġgrasp": 4665,
    "happy": 4426,
    "trimmed": 23952,
    "activity": 22635,
    "Ġgrinned": 16859,
    "excited": 13384,
    "rippling": 24712,
    "wherever": 13123,
    "Ġswung": 6450,
    "Ġoptimizers": 18629,
    "intention": 10370,
    "itchen": 7788,
    "protected": 19923,
    "Ġalchemists": 26489,
    "lob": 22510,
    "superior": 9528,
    "cherish": 24552,
    "Ġlandlessness": 23383,
    "ĠĠĠĠĠĠĠĠĠĠĠĠĠĠĠĠĠĠĠĠĠĠĠĠĠĠĠĠĠĠĠĠ": 2740,
    "Ġclosest": 16765,
    "Ġmelbourne": 24291,
    "Ġhatred": 8612,
    "sheets": 14445,
    "semic": 21824,
    "zed": 8104,
    "Ġyourselves": 9031,
    "Ġsamuel": 10036,
    "Ġsheep": 10927,
    "travelling": 24338,
    "Ġser": 1669,
    "Ġmonkey": 8226,
    "Ġbarbed": 14838,
    "Ġpitched": 9447,
    "fore": 686,
    "Ġdiffident": 23785,
    "skirted": 24489,
    "anthrop": 17385,
    "Ġconference": 15751,
    "abez": 10225,
    "Ġtwelve": 4963,
    "Ġtennessee": 26598,
    "Ġranks": 21976,
    "oil": 7805,
    "Ġrifle": 18213,
    "Ġthese": 820,
    "Ġallowing": 2174,
    "gy": 2096,
    "Ġprimal": 17108,
    "Ġportion": 7492,
    "Ġchivalrous": 20518,
    "Ġfountain": 7365,
    "Ġutter": 3973,
    "inks": 6869,
    "concealed": 25118,
    "doesn": 19823,
    "Ġwal": 6518,
    "Ġpound": 12621,
    "schoolmaster": 15165,
    "Ġlearned": 2023,
    "urons": 3130,
    "ilege": 22262,
    "Ġinterested": 6459,
    "Ġan": 286,
    "Ġfavourably": 16367,
    "Ġjavelin": 26105,
    "eds": 6531,
    "claps": 23154,
    "Ġdogs": 7742,
    "Ġtablets": 13159,
    "Ġforthwith": 16620,
    "Ġdisgust": 6707,
    "Ġninetieth": 25358,
    "Ġcircumspect": 15088,
    "Ġlun": 7856,
    "Ġhermit": 15861,
    "malice": 17605,
    "algorithm": 3706,
    "Ġneskye": 21534,
    "Ġcrews": 8993,
    "nurtured": 25525,
    "ex": 620,
    "irs": 14074,
    "eted": 7592,
    "Ġwait": 4908,
    "concerns": 24070,
    "Ġfolks": 14429,
    "Ġprincipal": 6497,
    "Ġvapor": 8703,
    "prevented": 20377,
    "enth": 6682,
    "Ġtist": 21165,
    "Ġunhe": 22014,
    "Ġmarried": 3410,
    "Ġbrotherhood": 23672,
    "Ġpassed": 2010,
    "Ġagainst": 1698,
    "Ġmaled": 21317,
    "Ġchips": 14184,
    "Ġpeered": 18669,
    "Ġfavourites": 16647,
    "Ġdimension": 3242,
    "yourselves": 24959,
    "Ġcompare": 9305,
    "forget": 11033,
    "cry": 12450,
    "Ġlobsters": 13520,
    "mine": 5618,
    "vol": 727,
    "Ġlad": 2364,
    "Ġbuilding": 8063,
    "Ġsuperlatively": 26076,
    "estone": 18362,
    "Ġjetted": 24431,
    "Ġstur": 15721,
    "inc": 2518,
    "Ġslack": 8958,
    "Ġlining": 13954,
    "Ġirrad": 19095,
    "oky": 8198,
    "Ġthackeray": 26457,
    "Ġoscill": 2856,
    "smeer": 26148,
    "Ġpregn": 22236,
    "ä": 165,
    "raged": 9214,
    ":": 30,
    "ontory": 10461,
    "Ġdiagon": 24739,
    "Ġbust": 10170,
    "uend": 21104,
    "Ġincognit": 22558,
    "Ġwrapped": 8342,
    "Ġinvestigated": 25387,
    "lost": 8891,
    "whatsoever": 18488,
    "Ġ68": 24370,
    "Ġaristotle": 25818,
    "Ġdissembling": 26256,
    "igner": 21705,
    "Ġwarm": 2424,
    "arius": 14251,
    "Ġsideways": 6183,
    "Ġdecreasing": 2441,
    "Ġcompromising": 22577,
    "Ġcolumns": 14379,
    "Ġparagraph": 17457,
    "Ġtepid": 26414,
    "Ġpondering": 17007,
    "Ġsteadily": 8052,
    "aying": 15754,
    "ann": 5803,
    "ourse": 8873,
    "Ġunwaning": 24830,
    "Ġstrictly": 12289,
    "Ġreleased": 2978,
    "slackened": 26095,
    "ascribed": 24707,
    "Ġdaw": 21432,
    "Ġraved": 22651,
    "Ġspirit": 3726,
    "Ġnarrations": 24352,
    "Ġinherit": 25353,
    "Ġbetake": 22909,
    "Ġmal": 5221,
    "Ġepoch": 26474,
    "Ġ2026": 12339,
    "Ġunion": 6839,
    "Ġrent": 11642,
    "loo": 10322,
    "ojo": 7349,
    "igned": 5656,
    "nuts": 15401,
    "Ġrobots": 11080,
    "Ġmince": 22834,
    "Ġeyelashes": 26107,
    "Ġaids": 12233,
    "Ġswiftly": 5670,
    "rolling": 9063,
    "Ġprospects": 9962,
    "Ġvivacious": 19818,
    "Ġpacket": 14896,
    "Ġmounts": 17808,
    "Ġhumiliation": 16202,
    "Ġfulf": 6773,
    "eringly": 23008,
    "aid": 1923,
    "ilst": 8144,
    "Ġvacantly": 16817,
    "inf": 6234,
    "Ġprobable": 5570,
    "Ġguise": 14435,
    "wont": 21135,
    "Ġvulgarity": 25364,
    "Ġheave": 7600,
    "Ġthin": 4348,
    "Ġattentively": 9953,
    "Ġquantization": 19856,
    "Ġleague": 6540,
    "Ġhistory": 4007,
    "ĠĠĠĠĠĠĠĠĠĠĠĠĠĠĠĠĠĠĠĠĠĠĠĠĠĠĠĠĠĠĠĠĠĠĠĠĠĠĠĠĠ": 19585,
    "Ġpassengers": 13679,
    "Ġjud": 3359,
    "Ġdonkey": 23231,
    "expedition": 26079,
    "Ġimplore": 24872,
    "mblance": 7323,
    "Ġquickly": 4240,
    "Ġundiscernible": 22072,
    "Ġrejoicing": 13425,
    "Ġelev": 5536,
    "Ġreconcile": 25292,
    "Ġpoetry": 15084,
    "ority": 8419,
    "Ġgroaned": 11267,
    "icip": 6390,
    "ended": 1836,
    "Ġdirector": 18922,
    "Ġnarrowly": 16822,
    "Ġ131": 24781,
    "Ġeh": 6988,
    "position": 15416,
    "Ġcusack": 26435,
    "Ġcorrected": 10450,
    "blow": 9107,
    "fr": 4805,
    "arking": 16129,
    "boone": 23256,
    "Ġmethinks": 10395,
    "Ġcarrying": 6073,
    "Ġglared": 13019,
    "Ġlodges": 19503,
    "appearing": 14639,
    "described": 18896,
    "Ġjog": 18400,
    "Ġwalked": 3139,
    "Ġmay": 924,
    "Ġcutting": 4983,
    "garious": 17560,
    "Ġmanners": 3791,
    "Ġsubstitute": 16728,
    "Ġplacing": 8904,
    "Ġriding": 14097,
    "Ġjelly": 22294,
    "insult": 16282,
    "Ġrod": 9283,
    "send": 15426,
    "Ġindependent": 9019,
    "Ġharrow": 17928,
    "Ġrecollections": 10515,
    "Ġunderwent": 23241,
    "athies": 22703,
    "ection": 4948,
    "igh": 2028,
    "Ġas": 374,
    "Ġevils": 9023,
    "Ġperemptorily": 17370,
    "respectable": 19849,
    "Ġindomitableness": 26573,
    "Ġoffice": 4965,
    "Ġbeen": 626,
    "taller": 26151,
    "Ġcreaking": 14330,
    "igning": 12686,
    "asis": 12655,
    "untarily": 6314,
    "Ġmathematical": 3350,
    "mph": 20974,
    "Ġimposs": 16618,
    "Ġbalance": 2020,
    "wed": 5796,
    "thing": 1478,
    "valuable": 8248,
    "bildad": 9589,
    "laborers": 23919,
    "Ġstoried": 18075,
    "Ġpurchasing": 19877,
    "Ġinterruption": 9476,
    "Ġmeek": 21813,
    "Ġangel": 4854,
    "zening": 21151,
    "seals": 21821,
    "whatever": 6696,
    "Ġcoverage": 4286,
    "Ġmotionless": 8324,
    "phew": 6369,
    "Ġcleans": 18950,
    "ographical": 16788,
    "playing": 19660,
    "Ġfootmen": 23799,
    "Ġgrunted": 16171,
    "rat": 8759,
    "Ġvagabond": 20206,
    "velled": 9879,
    "Ġnavel": 24577,
    "Ġplayfully": 19241,
    "osely": 9268,
    "Ġexceedingly": 4616,
    "isome": 17850,
    "Ġ1839": 20463,
    "corners": 17371,
    "comes": 5394,
    "Ġvor": 15810,
    "Ġlittle": 865,
    "Ġfiled": 15584,
    "Ġentreat": 4512,
    "degrad": 22147,
    "immedi": 8452,
    "Ġprobability": 1128,
    "hue": 20901,
    "Ġbern": 17860,
    "Ġundeniable": 26512,
    "tail": 8765,
    "Ġunderstand": 831,
    "cies": 1815,
    "liking": 22927,
    "Ġbackpropagation": 1261,
    "Ġpunchbowl": 20234,
    "Ġhumorous": 10363,
    "Ġrecover": 9795,
    "Ġturkish": 12266,
    "allions": 22202,
    "Ġorphan": 12387,
    "Ġcomb": 1063,
    "scar": 9819,
    "Ġpartial": 2127,
    "Ġtime": 689,
    "Ġanytime": 12890,
    "def": 1452,
    "ahead": 12438,
    "tenderly": 20534,
    "often": 6167,
    "vil": 2733,
    "influ": 9544,
    "case": 5206,
    "Ġunobserved": 18250,
    "Ġwaits": 23282,
    "Ġcatastrophe": 10486,
    "Ġbomb": 17869,
    "ĠĠĠĠĠĠĠ": 7633,
    "Ġsheet": 6264,
    "Ġfull": 2177,
    "forest": 22521,
    "diversity": 25898,
    "Ġscrawled": 24581,
    "Ġvoice": 2191,
    "Ġhas": 825,
    "Z": 62,
    "Ġtokens": 1771,
    "Ġshad": 3850,
    "Ġdavis": 25953,
    "Ġsuperior": 2754,
    "rugg": 15906,
    "jah": 17583,
    "Ġwashing": 9708,
    "Ġmeaning": 1416,
    "Ġarose": 7360,
    "constit": 24605,
    "Ġsplitting": 4384,
    "Ġspans": 18305,
    "Ġabstra": 22275,
    "gno": 13730,
    "late": 11500,
    "Ġkra": 18349,
    "Ġfiends": 14831,
    "Ġleaning": 5228,
    "Ġstead": 5650,
    "Ġdeficiency": 14407,
    "Ġparac": 12800,
    "indul": 22374,
    "merry": 16539,
    "liberal": 26283,
    "attacked": 23124,
    "dearest": 11739,
    "fiend": 13665,
    "Ġwives": 12560,
    "Ġross": 2766,
    "Ġintermix": 25827,
    "mighty": 9469,
    "Ġdisconsol": 18557,
    "dancing": 12459,
    "Ġduration": 20356,
    "Ġalien": 14021,
    "Ġcannon": 14156,
    "Ġapothecary": 13663,
    "Ġindelicacy": 25696,
    "Ġwarmed": 12028,
    "Ġantiqu": 12149,
    "Ġroll": 5381,
    "Ġbitterly": 8315,
    "Ġdemean": 12728,
    "ubb": 1648,
    "greek": 25405,
    "specim": 23947,
    "Ġpraise": 6487,
    "speaking": 12103,
    "Ġreplaced": 13076,
    "Ġrebell": 21672,
    "mitted": 5213,
    "Ġcross": 1374,
    "Ġforemost": 12009,
    "Ġreb": 15695,
    "erns": 8782,
    "themselves": 6542,
    "Ġalleviated": 26205,
    "Ġunbroken": 18251,
    "interesting": 12206,
    "Ġarrangements": 16517,
    "Ġtranspired": 16786,
    "ortations": 22261,
    "Ġwhiteness": 5920,
    "mature": 20969,
    "Ġmarvelled": 18874,
    "Ġwhisker": 23938,
    "pus": 3417,
    "lydia": 6826,
    "observing": 25495,
    "Ġperplexity": 2756,
    "Ġmincing": 18752,
    "ess": 410,
    "Ġtrim": 15966,
    "Ġwolfish": 25936,
    "Ġarter": 22187,
    "Ġforget": 2634,
    "Ġhoary": 23357,
    "Ġelevating": 19732,
    "Ġdirected": 5579,
    "quid": 18149,
    "ceased": 21629,
    "Ġfired": 16158,
    "Ġsmiles": 6708,
    "Ġcanterbury": 22171,
    "Ġfare": 5810,
    "Ġsometimes": 2167,
    "Ġadroit": 26001,
    "Ġtranquill": 6633,
    "\"": 6,
    "worse": 14693,
    "de": 459,
    "magn": 10613,
    "Ġjust": 1239,
    "achable": 14140,
    "finger": 10096,
    "Ġat": 395,
    "ocris": 23711,
    "ssip": 14082,
    "Ġportcullis": 26605,
    "Ġ71": 24262,
    "atra": 17773,
    "Ġmarrying": 6179,
    "meetings": 20381,
    "knives": 14916,
    "Ġmalays": 19680,
    "simply": 20673,
    "Ġmem": 2164,
    "Ġcivilities": 14851,
    "asting": 12812,
    "incible": 16499,
    "Ġsteals": 23086,
    "Ġinferior": 8366,
    "Ġmont": 8562,
    "Ġrushing": 7403,
    "atched": 6376,
    "Ġtried": 3649,
    "Ġapprehending": 26092,
    "Ġrelinqu": 12988,
    "Ġintelligence": 559,
    "Ġ38": 24081,
    "Ġpist": 12620,
    "Ġpreferred": 14969,
    "Ġgratification": 24101,
    "asy": 5296,
    "Ġresources": 2936,
    "Ġhastening": 19338,
    "Ġanatomical": 15080,
    "Ġfarewell": 9523,
    "Ġdismantled": 20219,
    "Ġsubdiv": 16163,
    "you": 1004,
    "truth": 9922,
    "Ġreads": 23115,
    "Ġpurch": 6601,
    "apparatus": 26565,
    "alive": 10829,
    "sigma": 3003,
    "Ġsoda": 25535,
    "Ġrevolt": 24504,
    "brave": 19826,
    "ropy": 1104,
    "Ġoutsk": 15960,
    "Ġheld": 3586,
    "Ġbennet": 1575,
    "Ġhappened": 3715,
    "smote": 23913,
    "incom": 21184,
    "iments": 4945,
    "ently": 1438,
    "Ġminded": 23233,
    "fs": 17537,
    "voice": 7816,
    "Ġenl": 18190,
    ".]": 15302,
    "flame": 16640,
    "Ġsynd": 22214,
    "usal": 7639,
    "ing": 273,
    "irements": 22216,
    "Ġconvenience": 11332,
    "imen": 12691,
    "Ġbast": 21382,
    "Ġsqueaking": 26276,
    "Ġhartshorn": 26182,
    "Ġrept": 13986,
    "same": 5362,
    "acceptable": 25185,
    "ships": 5486,
    "ospit": 22267,
    "enjoyments": 25434,
    "mangled": 20983,
    "akers": 9743,
    "Ġfren": 10807,
    "arness": 11675,
    "Ġportions": 19372,
    "Ġpathways": 11154,
    "Ġtam": 7821,
    "agon": 7871,
    "Ġvital": 9246,
    "Ġarmitage": 23583,
    "avast": 8900,
    "abbering": 21800,
    "amidst": 25653,
    "Ġancho": 15607,
    "Ġcontinuation": 22921,
    "Ġsky": 3968,
    "Ġthews": 21280,
    "Ġoptimal": 1857,
    "estate": 12826,
    "Ġemblaz": 16230,
    "Ġburglar": 17357,
    "Ġleg": 2335,
    "shortly": 12263,
    "process": 11149,
    "Ġshipping": 14107,
    "Ġrepining": 23363,
    "comp": 3816,
    "Ġstrait": 23752,
    "Ġexpressive": 8985,
    "Ġrepugn": 23366,
    "Ġslipping": 13365,
    "acey": 7650,
    "ugl": 23292,
    "earnestly": 17316,
    "ta": 13792,
    "venant": 22631,
    "eryton": 4093,
    "solid": 16384,
    "endar": 18365,
    "wanted": 10745,
    "Ġhad": 443,
    "cary": 10693,
    "favour": 9552,
    "Ġpaddle": 20062,
    "Ġmantle": 25275,
    "Ġforging": 18096,
    "amb": 5723,
    "Ġsodden": 25536,
    "ques": 2841,
    "ø": 185,
    "irted": 14075,
    "Ġdiscre": 2416,
    "Ġrucastles": 18721,
    "br": 2474,
    "Ġpencil": 11947,
    "Ġzealand": 12354,
    "Ġankles": 17901,
    "Ġasyl": 12739,
    "Ġadmin": 23555,
    "Ġlip": 6534,
    "Ġhazarded": 25655,
    "Ġexult": 10233,
    "Ġxerxes": 23413,
    "Ġargemone": 24277,
    "consequence": 9766,
    "amples": 1823,
    "Ġshallow": 14398,
    "Ġmischie": 22769,
    "Ġmonarch": 14418,
    "Ġhusband": 3622,
    "Ġdiffused": 12073,
    "Ġwaned": 17793,
    "iriously": 18174,
    "Ġab": 528,
    "Ġasleep": 6836,
    "Ġbooks": 4677,
    "but": 592,
    "Ġpieces": 7369,
    "Ġeth": 17718,
    "many": 5250,
    "Ġvocabulary": 4995,
    "tend": 17676,
    "Ġdrawling": 19440,
    "delights": 19704,
    "judged": 14834,
    "Ġdeformity": 11679,
    "Ġlassitude": 20590,
    "Ġbal": 1134,
    "Ġscot": 5643,
    "cring": 20813,
    "listener": 24931,
    "Ġgoblets": 20522,
    "Ġnarwhales": 24903,
    "cracy": 24691,
    "quarter": 11389,
    "cal": 1122,
    "hardly": 6492,
    "Ġtrem": 6662,
    "âĢĶâĢĻâĢĿ": 20067,
    "Ġcasks": 7521,
    ".": 18,
    "discoveries": 25386,
    "Ġgeorgia": 23889,
    "Ġtest": 1584,
    "devoted": 20020,
    "gradually": 12920,
    "Ġreality": 7059,
    "Ġpencils": 23198,
    "Ġturban": 23615,
    "Ġbeer": 10222,
    "Ġcomplaisance": 19452,
    "cabin": 8363,
    "narrative": 17322,
    "Ġuns": 15840,
    "circumspect": 26087,
    "Ġcap": 2362,
    ")(": 2981,
    "built": 16827,
    "date": 17519,
    "pencil": 18830,
    "Ġincalcul": 16067,
    "Ġembodiment": 20531,
    "iers": 5992,
    "Ġcommenting": 25229,
    "Ġjail": 22288,
    "Ġfreely": 7058,
    "Ġnuptials": 20497,
    "inois": 17740,
    "prior": 21035,
    "Ġskull": 6290,
    "Ġ1991": 3015,
    "Ġsatisfy": 6912,
    "turner": 19544,
    "Ġnations": 8814,
    "cat": 15327,
    "tra": 5002,
    "erson": 7003,
    "Ġloveliest": 20264,
    "went": 6513,
    "Ġsubstit": 19543,
    "record": 16923,
    "Ġconceived": 8150,
    "rog": 15644,
    "fam": 5990,
    "solitary": 14507,
    "Ġvigil": 9510,
    "Ġreckoning": 14982,
    "Ġintrepid": 11710,
    "get": 1021,
    "Ġnavies": 16902,
    "Ġpoetic": 17104,
    "Ġinj": 4761,
    "Ġhogshead": 26369,
    "Ġprofited": 19193,
    "Ġnecess": 3478,
    "Ġscheduling": 2349,
    "Ġilliterate": 26596,
    "Ġcontributed": 16013,
    "giving": 8742,
    "Ġdistrict": 10321,
    "duty": 20242,
    "Ġmind": 1617,
    "Ġropes": 10750,
    "Ġrecommendation": 17027,
    "asc": 6387,
    "mention": 7214,
    "ancing": 1758,
    "Ġsoothed": 10032,
    "Ġtreading": 16507,
    "Ġdesire": 3719,
    "word": 2483,
    "itative": 13873,
    "Ġneighbor": 25806,
    "Ġpuzzling": 14901,
    "elizabeth": 1987,
    "Ġundertake": 14482,
    "Ġbart": 17859,
    "oned": 4632,
    "mankind": 14377,
    "Ġimpetuously": 20375,
    "}": 97,
    "Ġlurks": 11291,
    "Ġbridal": 14957,
    "Ġsimpl": 1579,
    "Ġencoun": 4514,
    "ties": 2760,
    "asburgh": 15651,
    "carries": 19530,
    "closed": 23155,
    "Ġluggage": 25958,
    "Ġposition": 1953,
    "doors": 19096,
    "Ġworaciousness": 22932,
    "Ġintegr": 7969,
    "iocr": 20925,
    "Ġliterary": 25166,
    "Ġappearing": 9844,
    "Ġcouch": 12576,
    "achel": 7034,
    "Ġbaleen": 10040,
    "impression": 15715,
    "uries": 6149,
    "Ġmatted": 22917,
    "Ġjoined": 4566,
    "leg": 2814,
    "Ġmeadow": 17154,
    "Ġricher": 12764,
    "Ġdiabol": 11454,
    "Ġneighbour": 3808,
    "Ġrevealing": 3925,
    "Ġembattled": 26289,
    "snowy": 20286,
    "mistak": 16880,
    "Ġimpossibility": 20649,
    "Ġporpoises": 13386,
    "buff": 15322,
    "Ġlogs": 16349,
    "dogs": 25403,
    "Ġwave": 7576,
    "Ġcuriously": 13025,
    "Ġaction": 5797,
    "Ġsleepers": 13153,
    "Ġinvis": 6902,
    "Ġclaw": 22354,
    "Ġshocking": 10437,
    "Ġreplay": 5047,
    "Ġdreary": 10410,
    "Ġchronic": 9932,
    "sitting": 8387,
    "Ġwhitting": 18058,
    "Ġunho": 18246,
    "Ġfearfulness": 23514,
    "Ġunholy": 26220,
    "Ġchallenges": 13634,
    "amused": 21850,
    "Ġundertaken": 18988,
    "Ġont": 18121,
    "Ġdelivered": 11116,
    "Ġexpressions": 7706,
    "Ġmiss": 1231,
    "Ġchances": 9266,
    "threatened": 25463,
    "Ġoutright": 18413,
    "not": 910,
    "Ġuniformity": 23485,
    "Ġnegative": 1463,
    "itor": 12571,
    "terr": 8154,
    "strangely": 17279,
    "Ġtreated": 7082,
    "Ġdisinterested": 16061,
    "riv": 3109,
    "round": 3370,
    "Ġsupply": 6068,
    "Ġheedless": 14906,
    "hear": 10149,
    "oniously": 21260,
    "Ġbrew": 23347,
    "Ġve": 1108,
    "Ġfeel": 1260,
    "Ġfail": 4147,
    "Ġseeking": 7037,
    "Ġfads": 21419,
    "adamite": 20596,
    "unte": 21877,
    "aments": 12730,
    "Ġstubborn": 10416,
    "hunter": 10558,
    "quarters": 24949,
    "fo": 5279,
    "Ġsmile": 4270,
    "Ġintricacies": 15142,
    "Ġdir": 21424,
    "Ġstarlight": 24627,
    "invested": 17120,
    "ames": 2954,
    "peace": 13054,
    "Ġroared": 7025,
    "pin": 13770,
    "Ġexp": 779,
    "Ġexposure": 16103,
    "furniture": 20245,
    "Ġvari": 833,
    "Ġindividually": 22962,
    "Ġspoils": 24805,
    "heavens": 19748,
    "Ġdedicated": 19204,
    "vinegar": 25421,
    "Ġbelike": 18832,
    "Ġbaw": 15573,
    "understand": 1094,
    "Ġfilling": 13412,
    "Ġbuffalo": 11430,
    "Ġchanging": 11757,
    "paid": 15417,
    "Ġslaught": 23169,
    "Ġacceptable": 16746,
    "Ġauthority": 7749,
    "Ġsecond": 1883,
    "Ġhorses": 6386,
    "Ġbleeds": 24397,
    "Ġpoll": 12034,
    "Ġloud": 4702,
    "Ġthanks": 6709,
    "Ġphantoms": 13490,
    "pick": 17636,
    "speptic": 23949,
    "Ġtrifling": 10605,
    "Ġ&": 6514,
    "Ġcommonplace": 11097,
    "unwholesome": 26499,
    "Ġpreparing": 8651,
    "Ġpublished": 11243,
    "X": 60,
    "gigantic": 15363,
    "Ġmixed": 6975,
    "Ġdreaded": 8289,
    "Ġrenew": 6147,
    "shoes": 14242,
    "didst": 19352,
    "reds": 12753,
    "Ġheaven": 3366,
    "coloured": 7291,
    "Ġdetection": 3432,
    "inished": 17736,
    "Ġassur": 6075,
    "Ġtand": 21163,
    "Ġsunday": 7270,
    "allic": 12818,
    "Ġcakes": 13887,
    "Ġbol": 6243,
    "Ġfifth": 11258,
    "Ġ1846": 26085,
    "instrument": 15242,
    "Ġmeditations": 25016,
    "consciously": 19628,
    "deliberated": 26119,
    "Ġtalking": 3858,
    "Ġpersistence": 3217,
    "Ġconcealed": 7495,
    "Ġcomely": 21852,
    "Ġgilder": 21616,
    "butt": 15998,
    "Ġbough": 13897,
    "Ġbarricade": 14662,
    "spond": 5567,
    "ecess": 17534,
    "Ġcable": 11582,
    "Ġpiping": 23222,
    "hes": 1400,
    "Ġdocuments": 10026,
    "estab": 14173,
    "Ġattempting": 14699,
    "Ġjoll": 11768,
    "impotence": 23763,
    "Ġprocessions": 18434,
    "Ġunwe": 15842,
    "precedented": 15178,
    "Ġintentions": 10610,
    "watery": 19829,
    "osing": 3691,
    "Ġtort": 5903,
    "Ġlacey": 10200,
    "Ġaud": 6664,
    "Ġarsacides": 17297,
    "critters": 14778,
    "Ġinfant": 11965,
    "ucumber": 19060,
    "Ġimpertinent": 9080,
    "hours": 9127,
    "anelles": 26436,
    "Ġreserves": 19673,
    "Ġslung": 23170,
    "Ġimplies": 24873,
    "acknowled": 10976,
    "Ġpolluted": 25594,
    "Ġmast": 2899,
    "Ġincurable": 22556,
    "Ġcompliance": 12119,
    "Ġwind": 1434,
    "Ġtone": 4040,
    "Ġintimately": 24801,
    "Ġsensationalism": 26067,
    "Ġproud": 5654,
    "regularization": 3516,
    "Ġcorpus": 13037,
    "Ġharpooneers": 4733,
    "Ġunerring": 15851,
    "anging": 3552,
    "hammer": 14491,
    "Ġgard": 2190,
    "cup": 10694,
    "Ġlowers": 23244,
    "Ġdav": 15594,
    "mbly": 9790,
    "Ġcorroded": 18877,
    "angry": 18295,
    "Ġhearty": 9851,
    "Ġsophisticated": 1545,
    "Ġinvaluable": 10185,
    "ouement": 21451,
    "Ġallev": 18103,
    "Ġajar": 21205,
    "che": 3170,
    "Ġentertained": 10001,
    "Ġlamps": 14794,
    "Ġere": 3687,
    "Ġfought": 12598,
    "Ġtows": 19565,
    "moor": 22705,
    "Ġmany": 1106,
    "vicious": 21121,
    "Ġalter": 6544,
    "Ġringing": 13336,
    "Ġprofuse": 23568,
    "llable": 6878,
    "inu": 1118,
    "bering": 18697,
    "Ġbuoyed": 20044,
    "Ġservant": 5764,
    "Ġslanting": 23174,
    "Ġindependence": 12109,
    "Ġchronicled": 25329,
    "Ġshell": 11740,
    "ription": 5676,
    "anders": 18155,
    "sensible": 20055,
    "onstrate": 17770,
    "Ġdesperately": 24657,
    "exe": 11793,
    "Ġgreenwich": 19323,
    "Ġconfining": 23308,
    "Ġperemptory": 25741,
    "Ġperished": 11788,
    "Ġemblem": 20501,
    "Ġtraged": 9355,
    "Ġkrusenstern": 26379,
    "philosop": 9570,
    "stir": 12678,
    "william": 4564,
    "church": 8140,
    "Ġwhereas": 3855,
    "response": 25763,
    "Ġmythologies": 26215,
    "Ġsqueezing": 25009,
    "enesis": 24388,
    "Ġpolitical": 19226,
    "Ġohio": 19130,
    "Ġpanelled": 19657,
    "Ġmainmast": 9782,
    "mild": 15395,
    "Ġconfinement": 19038,
    "Ġdes": 1250,
    "âĢĻâĢĶ": 12741,
    "Ġscruple": 25051,
    "Ġappeal": 16317,
    "Ġcomprise": 18584,
    "Ġvoid": 14089,
    "swim": 16781,
    "flutter": 23974,
    "Ġunjustly": 17129,
    "ific": 489,
    "Ġslouched": 13064,
    "Ġremainder": 9861,
    "groom": 8743,
    "plun": 15823,
    "cules": 12395,
    "jected": 22713,
    "Ġfoe": 7680,
    "anybody": 12087,
    "Ġtelegra": 11895,
    "Ġwidest": 24237,
    "Ġapologize": 15132,
    "Ġutterly": 6102,
    "Ġfirst": 937,
    "Ġturbul": 23614,
    "Ġrecumbent": 22739,
    "Ġwards": 17791,
    "child": 5538,
    "ropes": 7903,
    "Ġano": 11598,
    "ably": 1848,
    "heeded": 13837,
    "reflect": 19867,
    "floated": 24644,
    "Ġprior": 11319,
    "Ġbaggy": 24538,
    "puff": 21024,
    "silenced": 24423,
    "Ġhitting": 21490,
    "Ġapparelled": 20440,
    "Ġemerg": 13428,
    "osition": 1375,
    "Ġcondemn": 13448,
    "length": 7136,
    "Ġtrous": 10957,
    "ferent": 4194,
    "Ġbennett": 16326,
    "Ġtasks": 1789,
    "Ġrequire": 886,
    "Ġsuppl": 11079,
    "Ġsmote": 18575,
    "Ġeducation": 5128,
    "ladies": 9532,
    "previous": 9764,
    "Ġunperceived": 22041,
    "Ġis": 347,
    "Ġmagician": 25061,
    "Ġepit": 18009,
    "Ġcanopy": 18323,
    "Ġcloudless": 16671,
    "Ġneurons": 974,
    "Ġsoon": 1229,
    "Ġpicturesque": 14897,
    "Ġsuperstitious": 13523,
    "Ġshipmates": 6722,
    "pres": 16032,
    "Ġbaffled": 12407,
    "Ġcrooked": 11282,
    "Ġinterp": 16073,
    "Ġperpetual": 12307,
    "Ġagency": 11809,
    "Ġportra": 9012,
    "Ġstandpoint": 23280,
    "Ġfig": 3626,
    "Ġwrites": 23201,
    "strils": 10460,
    "Ġlively": 5449,
    "Ġpockets": 8899,
    "Ġgramm": 8171,
    "enit": 17781,
    "Ġprognost": 15285,
    "retaining": 21248,
    "rist": 10125,
    "Ġgenerative": 5644,
    "Ġtumbled": 13410,
    "overfitting": 13106,
    "Ġflattening": 26049,
    "Ġwhether": 2000,
    "rit": 21038,
    "Ġmarry": 4419,
    "Ġelimin": 16111,
    "wr": 3029,
    "Ġpilgrimage": 17311,
    "Ġdomineer": 23648,
    "loving": 18538,
    "ories": 4754,
    "Ġthoughtless": 16196,
    "Ġmovements": 24359,
    "Ġseventeen": 26212,
    "ru": 483,
    "glory": 23855,
    "Ġcobbling": 20526,
    "Ġvoices": 7876,
    "Ĥ": 229,
    "Ġsweetness": 9449,
    "Ġghosts": 12237,
    "Ġrigging": 5601,
    "Ġclearly": 6897,
    "acted": 11011,
    "uger": 21106,
    "Ġantelope": 24183,
    "rubber": 12817,
    "Ġstanders": 19015,
    "sailors": 9925,
    "dressing": 11483,
    "Ġswaths": 23061,
    "reflected": 24732,
    "Ġfrom": 434,
    "vishnoo": 21122,
    "fingers": 17373,
    "joke": 20932,
    "Ġeighty": 19479,
    "Ġexec": 19495,
    "Ġlocks": 11728,
    "Ġvaluable": 5608,
    "posted": 24636,
    "Ġnar": 7375,
    "Ġenc": 965,
    "urry": 13997,
    "Ġrefreshment": 17242,
    "ids": 21767,
    "Ġpoints": 5248,
    "Ġcon": 348,
    "Ġsultanism": 25889,
    "Ġunav": 18241,
    "Ġclear": 1948,
    "Ġmarvell": 7248,
    "ages": 829,
    "Ġminutest": 14561,
    "act": 783,
    "biscuit": 17503,
    "arer": 3967,
    "uracy": 1064,
    "Ġlabourers": 23335,
    "Ġsmelling": 16070,
    "dar": 20826,
    "Ġsupplying": 19801,
    "Ġunprejudiced": 18270,
    "ples": 6845,
    "Ġoverflowing": 17240,
    "Ġgold": 3279,
    "initely": 7568,
    "ambition": 13415,
    "romed": 10906,
    "books": 8667,
    "Ġhackney": 20436,
    "Ġgranting": 18736,
    "Ġmuslin": 19386,
    "itiousness": 21337,
    "natured": 7112,
    "Ġtimidity": 24688,
    "pens": 17634,
    "ulations": 6030,
    "Ġpersuade": 5874,
    "Ġhav": 12759,
    "uth": 3018,
    "Ġbehold": 5049,
    "caterpillar": 26385,
    "Ġcomplying": 18585,
    "Ġartful": 22613,
    "Ġthreaten": 24374,
    "Ġfright": 3797,
    "Ġforgo": 21777,
    "preserve": 25304,
    "itic": 11580,
    "Ġinhaled": 25452,
    "Ġdefined": 11902,
    "hav": 20899,
    "Ġcredit": 4820,
    "Ġ21": 11199,
    "Ġguid": 2638,
    "Ġprodig": 6029,
    "inces": 13831,
    "Ġsplendid": 17216,
    "Ġdegrees": 7294,
    "Ġmonarchs": 25851,
    "Ġmagnet": 10392,
    "ploy": 2065,
    "Ġchatting": 24746,
    "Ġrepetition": 8975,
    "Ġpositively": 13035,
    "Ġwalker": 23312,
    "pitch": 13303,
    "Ġentit": 22742,
    "Ġsensibly": 14515,
    "Ġgazing": 5877,
    "Ġcalmness": 12098,
    "bber": 4570,
    "matters": 14877,
    "¤": 102,
    "Ġgrasped": 8034,
    "Ġslyness": 25267,
    "bons": 17489,
    "cked": 2764,
    "Ġviolin": 16431,
    "Ġsweep": 8266,
    "accept": 8901,
    "Ġrevenge": 5452,
    "Ġwhales": 1829,
    "Ġcompose": 12907,
    "lean": 21368,
    "Ġmoose": 22437,
    "Ġgrant": 11877,
    "Ġbeauty": 3770,
    "Ġfugitives": 25635,
    "Ġdexterously": 25296,
    "Ġcontribute": 12866,
    "Ġimbecile": 17394,
    "Ġeuroclydon": 15300,
    "Ġwrist": 8243,
    "Ġnorthumbria": 24174,
    "Ġunfortunate": 5376,
    "Ġinjured": 9042,
    "eks": 4729,
    "brew": 11474,
    "Ġconceive": 8463,
    "angle": 22108,
    "âĢĿâĢĶ": 5721,
    "ulum": 21867,
    "sweeping": 24619,
    "Ġhurst": 5582,
    "Ġdeliberation": 19972,
    "roots": 15647,
    "Ġsmiled": 5942,
    "Ġpartly": 6715,
    "Ġauthent": 14509,
    "lamps": 25261,
    "Ġidiot": 11976,
    "Ġnomine": 26458,
    "Ġcombines": 1169,
    "Ġinvolves": 1087,
    "Ġsermon": 12380,
    "Ġelapsed": 7653,
    "credit": 12453,
    "Ġconj": 8462,
    "Ġraises": 11847,
    "dog": 10696,
    "far": 5787,
    "Ġperchance": 15995,
    "Ġrepairing": 25590,
    "Ġalt": 18101,
    "Ġagonized": 25373,
    "Ġrucastle": 5176,
    "Ġcontextually": 11957,
    "Ġoutfits": 22325,
    "Ġimpending": 22388,
    "Ġexclaimed": 4684,
    "maritime": 24176,
    "Ġir": 1993,
    "riers": 18184,
    "Ġgradual": 20604,
    "Ġserve": 9371,
    "onings": 21255,
    "Ġrevolutions": 23844,
    "isc": 6241,
    "utely": 8132,
    "Ġjewelled": 20186,
    "investigations": 25534,
    "ividual": 5463,
    "Ġsinging": 7724,
    "Ġdistingu": 2511,
    "Ġuse": 828,
    "Ġglue": 15678,
    "Ġdoctor": 5067,
    "Ġsoph": 1541,
    "Ġmug": 21315,
    "Ġbeacon": 21760,
    "stump": 21656,
    "\"]": 17473,
    "hum": 3779,
    "income": 15489,
    "separately": 25228,
    "ĠarchÃ¦": 22798,
    "Ġmanilla": 15963,
    "Ġsince": 1797,
    "Ġskilful": 25839,
    "dimly": 15350,
    "orter": 4254,
    "cordiality": 25140,
    "Ġturned": 2131,
    "Ġcrew": 2492,
    "Ġrecovering": 11866,
    "Ġwalton": 14975,
    "obvious": 9360,
    "distinct": 13340,
    "au": 778,
    "Ġsole": 3298,
    "produce": 20285,
    "Ċ": 203,
    "accountable": 7111,
    "Ġcell": 6239,
    "Ġcivilly": 19606,
    "Ġtrucks": 19515,
    "scattered": 22993,
    "Ġrack": 9315,
    "shall": 4552,
    "olets": 21010,
    "etting": 21583,
    "Ġscraggy": 24580,
    "recur": 4438,
    "Ġsand": 6237,
    "Ġdesponding": 25869,
    "food": 12468,
    "Ġarched": 10933,
    "mark": 5282,
    "Ġmiseries": 10348,
    "Ġpiteous": 17918,
    "Ġwomen": 4751,
    "Ġdecisive": 18486,
    "Ġconsec": 21809,
    "U": 57,
    "Ġclout": 22350,
    "Ġborder": 10172,
    "Ġswelling": 11929,
    "Ġgreas": 17994,
    "ricade": 13043,
    "Ġbuy": 8300,
    "Ġscare": 18406,
    "Ġagonising": 25374,
    "Ġbroiled": 18910,
    "Ġdeliciousness": 24129,
    "Ġlock": 5929,
    "Ġimpass": 15989,
    "Ġwrest": 11573,
    "Ġnoted": 15834,
    "Ġfronts": 19003,
    "Ġsub": 949,
    "irement": 18356,
    "a": 69,
    "Ġdependence": 18628,
    "lement": 10169,
    "idelburgh": 10564,
    "injury": 25214,
    "answers": 22127,
    "Ġben": 1109,
    "Ġpepper": 9784,
    "Ġdedication": 3001,
    "Ġimbued": 17458,
    "Ę": 217,
    "Ġindiam": 22958,
    "Ġfeedback": 23435,
    "Ġmeddling": 21323,
    "eral": 9162,
    "Ġinvention": 19956,
    "Ġpiqu": 21479,
    "Ġpatted": 16362,
    "abiding": 21797,
    "Ġintrodu": 1926,
    "auley": 22627,
    "acing": 2719,
    "Ġbetray": 7442,
    "Ġdodo": 9075,
    "Ġroof": 6566,
    "trop": 15439,
    "Ġboldness": 24428,
    "Ġwhichever": 14003,
    "Ġflirt": 14426,
    "Ġfavoring": 2344,
    "Ġpat": 1738,
    "Ġattacking": 24465,
    "castle": 3349,
    "fully": 2203,
    "Ġshine": 12771,
    "Ġobstin": 14956,
    "Ġshoals": 13138,
    "Ġsab": 10764,
    "erie": 21274,
    "Ġdetermined": 2222,
    "Ġarisen": 11750,
    "largely": 19577,
    "Ġeligible": 10673,
    "Ġhardy": 8569,
    "Ġhedgehog": 10647,
    "leviathan": 7785,
    "Ġconception": 10316,
    "Ġdecorum": 16025,
    "impressed": 12696,
    "Ġordered": 5833,
    "alot": 15630,
    "Ġunlock": 18244,
    "Ġgrieve": 14710,
    "Ġlatest": 16824,
    "Ġthrust": 5084,
    "Ġintent": 6410,
    "R": 54,
    "may": 3681,
    "mont": 19171,
    "Ġvertically": 19383,
    "Ġderivatives": 2370,
    "Ġtechni": 1695,
    "enances": 10156,
    "Ġvote": 21949,
    "Ġ20": 8617,
    "Ġfacetious": 20587,
    "acting": 22634,
    "eli": 3874,
    "Ġblocked": 19225,
    "Ġfifty": 4625,
    "Ġcling": 11775,
    "Ġhumph": 22884,
    "Ġunderneath": 16339,
    "Ġdisposition": 5409,
    "Ġdeaf": 12726,
    "Ġinfamous": 16370,
    "considerably": 13449,
    "therefore": 5955,
    "Ġezekiel": 26194,
    "Ġbarbs": 10534,
    "boat": 3363,
    "astern": 8585,
    "buttoned": 13636,
    "Ġmassachusetts": 24025,
    "Ġrecurring": 23234,
    "Ġsurpassed": 25268,
    "Ġmistifying": 23722,
    "Ġspiced": 22138,
    "Ġaccounted": 10297,
    "repressed": 21246,
    "Ġfearless": 9878,
    "Ġvicinity": 7315,
    "cast": 2926,
    "Ġcaliforn": 14434,
    "yesterday": 10355,
    "Ġpianoforte": 15277,
    "Ġdeified": 18140,
    "walls": 25346,
    "Ġheavily": 6742,
    "Ġovers": 14208,
    "Ġtarquin": 23612,
    "Ġcertainly": 2493,
    "keep": 3851,
    "vo": 11541,
    "Ġborrow": 10173,
    "Ġwish": 2097,
    "spouter": 22732,
    "Ġsquires": 16186,
    "unmistakable": 21899,
    "rule": 15904,
    "urp": 1471,
    "Ġ-": 1944,
    "sheet": 16289,
    "Ġsust": 7009,
    "Ġdup": 21430,
    "reement": 15514,
    "Ġjustly": 11908,
    "Ġvexation": 10589,
    "glass": 9912,
    "remorse": 14470,
    "Ġlinear": 3435,
    "Ġintrusion": 12770,
    "Ġargu": 10935,
    "Ġdeparted": 5564,
    "lux": 14229,
    "Ġabridged": 26542,
    "Ġfresher": 23212,
    "ignorantly": 25190,
    "arest": 4004,
    "fitting": 1507,
    "Ġpositive": 2295,
    "Ġprincess": 23228,
    "Ġnonce": 23237,
    "olic": 14044,
    "wis": 12523,
    "Ġdeal": 3609,
    "Ġpor": 5225,
    "Î": 143,
    "Ġane": 9184,
    "Ġencompassed": 15257,
    "Ġreminding": 19800,
    "elag": 12663,
    "actually": 14298,
    "mir": 20965,
    "ak": 538,
    "Ġpetticoat": 15299,
    "Ġcand": 3277,
    "Ġanew": 11431,
    "Ġwee": 21923,
    "Ġhunt": 6185,
    "Ġe": 312,
    "Ġobtain": 8918,
    "Ġsevere": 6033,
    "Ġrefres": 14339,
    "taste": 10132,
    "Ġstrangers": 8314,
    "eh": 13713,
    "Ġnile": 21524,
    "Ġyard": 5922,
    "Ġmountain": 3374,
    "Ġabuse": 18393,
    "Ġvine": 8474,
    "Ġexisted": 15759,
    "spersed": 22733,
    "twill": 21077,
    "rot": 21535,
    "eel": 11485,
    "Ġornam": 15868,
    "Ġcontextual": 3744,
    "Ġannoyance": 20664,
    "Ġwear": 6032,
    "lit": 9608,
    "Ġeffectually": 16172,
    "Ġunabated": 15856,
    "Ġunnear": 22032,
    "Ġloading": 15878,
    "Ġunsocial": 18257,
    "Ġhunters": 6302,
    "Ġsovereign": 10065,
    "Ġincensed": 18572,
    "ciousness": 20819,
    "onts": 15522,
    "Ġdarcy": 1344,
    "Ġfounder": 17885,
    "Ġcomforts": 14696,
    "Ġmetropolis": 17277,
    "atived": 21265,
    "Ġunjustifiable": 25112,
    "Ġkindest": 23296,
    "Ġwarrant": 17796,
    "lungs": 26136,
    "staff": 21659,
    "Ġhandsomer": 20336,
    "Ġawaited": 17075,
    "uel": 6967,
    "result": 12048,
    "Ġcanv": 7011,
    "species": 13261,
    "Ġlegible": 23534,
    "Ġconcocted": 26300,
    "pretending": 17042,
    "Ġpugn": 21482,
    "Ġcastaways": 19431,
    "gratitude": 16818,
    "Ġworry": 18817,
    "Ġcharacteristics": 8613,
    "Ġinvent": 7165,
    "Ġinarticulate": 21503,
    "ishment": 3507,
    "osen": 6855,
    "Ġclink": 22352,
    "Ġridic": 7508,
    "Ġsong": 5904,
    "ĠlinnÃ¦us": 15279,
    "Ġharbors": 24902,
    "throwing": 11707,
    "Ġtant": 12530,
    "Ġannounced": 9037,
    "Ġgrinning": 9056,
    "bs": 3776,
    "Ġclerks": 17298,
    "pper": 3209,
    "clair": 18935,
    "Ġdimin": 3872,
    "Ġscale": 1552,
    "Ġstreaming": 19676,
    "Ġlament": 7857,
    "ifiable": 18166,
    "v": 90,
    "Ġjollies": 20372,
    "Ġgr": 975,
    "Ġfors": 21775,
    "she": 1399,
    "Ġbushes": 16403,
    "Ġadjusts": 8983,
    "Ġlass": 15652,
    "Ġdestruction": 6602,
    "Ġrelationships": 2924,
    "Ġbrimming": 22870,
    "Ġstole": 7953,
    "inuating": 16206,
    "Ġdivergence": 2729,
    "mblings": 19783,
    "Ġupstairs": 5837,
    "seam": 10875,
    "G": 43,
    "Ġwandered": 6930,
    "into": 3682,
    "Ġpestilent": 25778,
    "Ġmarched": 18872,
    "who": 2443,
    "Ġcroquet": 9965,
    "Ġmortar": 19396,
    "Ġse": 401,
    "Ġcreases": 22724,
    "Ġanswer": 2596,
    "Ġunkindness": 22046,
    "agement": 4188,
    "Ġmedd": 15543,
    "ĠâĢĶ_": 3461,
    "Ġmirth": 15549,
    "ourage": 2448,
    "Ġdeceased": 15008,
    "elastic": 17983,
    "Ġbelongs": 8015,
    "Ġvelvet": 12402,
    "madly": 24420,
    "Ġappals": 22223,
    "proud": 9907,
    "eyeing": 14949,
    "zek": 16275,
    "Ġbritannica": 24681,
    "concern": 6101,
    "Ġrav": 14308,
    "ery": 1269,
    "alty": 17941,
    "state": 13982,
    "Ġpervers": 11787,
    "puzz": 17642,
    "Ġwithdraw": 16966,
    "Ġcleaned": 23184,
    "onist": 21253,
    "requent": 3651,
    "Ġnecessitated": 23932,
    "uguese": 20734,
    "pop": 17633,
    "Ġeducated": 16787,
    "weather": 7229,
    "speak": 5504,
    "ades": 5631,
    "Ġcorporeally": 25729,
    "dwelt": 23874,
    "Ġsweetest": 13252,
    "frankenstein": 11392,
    "Ġprank": 23223,
    "qualified": 17099,
    "Ġsqueeze": 10042,
    "Ġsteeple": 19289,
    "Ġdefault": 3039,
    "Ġstrictest": 17043,
    "Ġroods": 22408,
    "glance": 16589,
    "Ġmorocc": 22977,
    "gloves": 25146,
    "Ġdisquis": 22531,
    "Ġmust": 844,
    "streamed": 25967,
    "fortunately": 9453,
    "Ġif": 698,
    "find": 6954,
    "glo": 8741,
    "Ġprogress": 5023,
    "Ġwarehouses": 20421,
    "Ġchiefly": 5766,
    "Ġconsider": 2567,
    "Ġtelescopes": 25691,
    "Ġgen": 5298,
    "Ġrearing": 12682,
    "orne": 17874,
    "Ġtinge": 25090,
    "Ġbetokened": 18797,
    "ouse": 1194,
    "ĠĠĠĠĠĠĠĠĠĠĠĠĠĠĠĠĠĠĠĠĠĠĠĠĠĠĠĠĠĠĠĠĠĠĠĠĠ": 14617,
    "Ġtrophy": 20010,
    "mun": 20964,
    "Ġvigilance": 12375,
    "Ġkindled": 19029,
    "Ġspace": 1526,
    "unk": 4541,
    "Ġprovoke": 14829,
    "boats": 6206,
    "resist": 8276,
    "Ġskirting": 22801,
    "elfth": 22373,
    "aly": 1112,
    "gpt": 5356,
    "gans": 11491,
    "Ġrecollecting": 17114,
    "Ġforbade": 15218,
    "rud": 4190,
    "Ġcomprehended": 11295,
    "Ġkeener": 22919,
    "sav": 8097,
    "Ġconcerns": 11972,
    "Ġfluttered": 16253,
    "Ġdriver": 16476,
    "owing": 7602,
    "icts": 22406,
    "Ġtempor": 2366,
    "spite": 16141,
    "Ġincorruption": 26310,
    "Ġornament": 11724,
    "Ġallusion": 7626,
    "tern": 4223,
    "bed": 3492,
    "ortment": 22260,
    "Ġconveyed": 8335,
    "Ġdespise": 14668,
    "Ġtaller": 16689,
    "Ġconsequent": 18113,
    "bottom": 11427,
    "Ġexample": 5096,
    "horn": 8086,
    "Ġtyros": 26102,
    "Ġincorporate": 20457,
    "Ġpang": 15609,
    "Ġhemis": 21687,
    "opolising": 25677,
    "valley": 16218,
    "Ġdependen": 1830,
    "ashtego": 4101,
    "Ġintroduce": 3203,
    "finish": 24384,
    "Ġinert": 15626,
    "Ġdesert": 6728,
    "Ġacquiring": 2768,
    "Ġwithal": 18116,
    "Ġminor": 12973,
    "happiness": 6470,
    "Ġdevil": 3615,
    "Ġphysical": 7522,
    "ĠĠĠĠĠĠĠĠĠĠĠĠĠĠĠĠĠĠĠĠĠĠĠĠĠĠ": 13392,
    "Ġdears": 18139,
    "mons": 17602,
    "Ġdeposit": 17271,
    "disp": 7977,
    "Ġinterview": 9773,
    "yra": 8103,
    "stochastic": 3774,
    "met": 6655,
    "Ġautomation": 13243,
    "Ġviewing": 19266,
    "Ġrich": 2993,
    "Ġskul": 22800,
    "Ġpon": 10178,
    "Ġbitter": 4171,
    "Ġdrive": 5055,
    "ard": 465,
    "teringly": 21827,
    "induce": 22378,
    "Ġpronounced": 8351,
    "above": 8148,
    "Ġslay": 16309,
    "err": 1141,
    "Ġbambooz": 26120,
    "starbuck": 6020,
    "nment": 20992,
    "Ġtemperature": 1003,
    "pair": 21014,
    "Ġprogen": 14042,
    "Ġfriday": 14490,
    "lightened": 12069,
    "Ġinflex": 20637,
    "Ġmiscellaneous": 17465,
    "destiny": 16701,
    "queness": 18150,
    "icil": 17974,
    "Ġreser": 5170,
    "Ġvariety": 8533,
    "alogies": 25162,
    "Ġinvite": 14564,
    "Ġaffect": 1385,
    "Ġcultiv": 13560,
    "modern": 1165,
    "kovoko": 20672,
    "clergy": 18936,
    "Ġwhittling": 20702,
    "serpent": 16295,
    "Ġclifford": 22360,
    "iii": 14779,
    "moran": 24155,
    "Ġcasual": 11410,
    "aisance": 15078,
    "Ġput": 1800,
    "!": 5,
    "sympathy": 20545,
    "sebastian": 21823,
    "Ġbarb": 4533,
    "Ġrendered": 5773,
    "Ġprophe": 13083,
    "thin": 14100,
    "Ġpomp": 12627,
    "oll": 5456,
    "Ġapplied": 6188,
    "angles": 18296,
    "Ġphantom": 8710,
    "Ġgleaming": 24996,
    "Ġshutters": 9940,
    "ext": 915,
    "Ġmutineer": 19421,
    "Ġaccordance": 19501,
    "Ġinfrequent": 3824,
    "Ġinhabited": 12190,
    "Ġlic": 8437,
    "Ġxxxix": 24971,
    "Ġchained": 16391,
    "cases": 12452,
    "Ġvishnoo": 12756,
    "ament": 2437,
    "Ġby": 383,
    "Ġsubstituting": 26328,
    "Ġpinioned": 21485,
    "Ġqu": 605,
    "Ġproduct": 3535,
    "ancy": 4395,
    "reach": 17759,
    "commence": 19995,
    "ampling": 12731,
    "Ġcorners": 18876,
    "ctuous": 9208,
    "Ġleave": 2454,
    "Ġjiff": 22290,
    "Ġbegun": 7243,
    "Ġvib": 8165,
    "aming": 5829,
    "detained": 24382,
    "Ġunreliable": 3929,
    "Ġhorse": 4726,
    "Ġtype": 2019,
    "talk": 6659,
    "odecimo": 11445,
    "Ġforbearing": 25101,
    "Ġ34": 16679,
    "cils": 20816,
    "Ġmillar": 13864,
    "Ġmortified": 14697,
    "daugh": 6789,
    "Ġpulling": 5864,
    "Ġvoluntary": 14802,
    "Ġarrange": 3120,
    "Ġechoed": 20427,
    "satisfaction": 9995,
    "iterranean": 15554,
    "Ñ": 146,
    "Ġthy": 2508,
    "Ġdupl": 9957,
    "Ġthursday": 12649,
    "Ġnovelist": 24776,
    "Ġhunter": 5401,
    "Ġhousemaid": 14468,
    "Ġshocks": 16460,
    "Ġinflicted": 11366,
    "Ġexasperate": 20101,
    "Ġfancying": 12117,
    "Ġdistributed": 18662,
    "Ġcrad": 21352,
    "Ġrueful": 25582,
    "Ġvide": 10253,
    "conclusions": 25673,
    "Ġevening": 2653,
    "Ġinspiring": 19114,
    "Ġbeamed": 23724,
    "Ġinno": 1423,
    "Ġdinah": 9456,
    "hab": 1078,
    "Ġunspeak": 8854,
    "Ġimpenet": 14221,
    "Ġalliance": 18236,
    "Ġembodied": 25848,
    "contrad": 19293,
    "ravity": 21638,
    "Ġfortunate": 6216,
    "Ġmilky": 9950,
    "hill": 15366,
    "Ġpatriot": 23281,
    "ober": 15409,
    "Ġdesk": 11911,
    "the": 334,
    "Ġending": 18924,
    "Ġjer": 6268,
    "german": 11493,
    "Ġparcels": 25466,
    "contains": 16034,
    "Ġshameful": 19854,
    "Ġbrix": 12588,
    "Ġsepar": 3998,
    "Ġdirections": 1970,
    "formal": 14169,
    "cor": 5520,
    "ira": 3957,
    "Ġassuming": 16694,
    "Ġyour": 635,
    "ousand": 2428,
    "Ġpatience": 2640,
    "Ġpanic": 11287,
    "Ġpositional": 2595,
    "Ġnumerous": 6920,
    "Ġbequeathed": 20704,
    "Ġhelp": 1638,
    "writ": 16555,
    "fle": 7130,
    "consc": 4842,
    "Ġfa": 4821,
    "Ġhypothesis": 14787,
    "desperate": 17360,
    "Ġdod": 6675,
    "istics": 1628,
    "Ġhither": 4760,
    "ornamented": 26597,
    "Ġmic": 17799,
    "Ġportent": 12086,
    "buried": 14852,
    "Ġexpressly": 16454,
    "gods": 13371,
    "Ġcautious": 12258,
    "Ġgang": 9210,
    "Ġanxiety": 5408,
    "Ġgraces": 18226,
    "Ġfanny": 23394,
    "Ġseverest": 14093,
    "perquis": 22185,
    "Ġbath": 9661,
    "Ġarchangel": 8546,
    "Ġsqueezed": 20039,
    "Ġcleaning": 23182,
    "Ġtwain": 16123,
    "draw": 23903,
    "Ġtalker": 23374,
    "enormous": 26167,
    "aud": 8524,
    "adequately": 20322,
    "Ġtrusted": 10520,
    "Ġprofessor": 11231,
    "itch": 10163,
    "Ġabominate": 20068,
    "Ġcasement": 25095,
    "Ġbug": 11591,
    "izers": 18145,
    "Ġhos": 4942,
    "impulse": 20647,
    "elve": 4643,
    "arding": 22161,
    "ag": 377,
    "Ġmarlings": 23038,
    "Ġatrocious": 21947,
    "Ġforgot": 4685,
    "Ġrefresh": 10347,
    "Ġglimmer": 15145,
    "irene": 15918,
    "Ġwidow": 8666,
    "Ġcouldn": 7649,
    "Ġmicrosc": 20679,
    "understanding": 1115,
    "nal": 1902,
    "ppery": 10893,
    "regarded": 12012,
    "Ġamphitheat": 26254,
    "Ġarg": 4767,
    "Ġsultan": 15188,
    "iguous": 18047,
    "ceptible": 10958,
    "Ġdescended": 7428,
    "Ġproceedings": 9910,
    "Ġsubs": 2128,
    "Ġwatching": 4856,
    "dued": 7909,
    "placidity": 25989,
    "repe": 8780,
    "hearty": 14837,
    "Ġcommercial": 22677,
    "Ġinvol": 1042,
    "Ġdrowned": 9555,
    "Ġcargo": 16293,
    "Ġbeat": 4494,
    "Ġtrains": 10948,
    "sit": 13783,
    "Ġsquire": 16185,
    "Ġcravat": 26308,
    "blog": 19842,
    "ense": 2050,
    "Ġstates": 1853,
    "atively": 2697,
    "utting": 17987,
    "model": 4316,
    "soc": 5175,
    "Ġunite": 9257,
    "Ġplowdon": 26449,
    "smart": 23910,
    "damp": 15347,
    "Ġ26": 10472,
    "ells": 5305,
    "Ġsill": 10767,
    "Ġfuneral": 10285,
    "Ġrevelation": 25223,
    "Ġscience": 1556,
    "Ġstraw": 9432,
    "Ġsoaked": 15864,
    "waters": 11334,
    "Ġrights": 10399,
    "hunters": 16835,
    "Ġenumerating": 15248,
    "glue": 17558,
    "Ġperadventure": 22403,
    "atigable": 15274,
    "ellations": 21952,
    "Ġsermons": 20197,
    "istic": 967,
    "conclude": 24069,
    "Ġselect": 3997,
    "Ġpatterns": 1216,
    "Ġpredict": 679,
    "Ġinstances": 5568,
    "daw": 17524,
    "Ġbespe": 19244,
    "arrow": 4180,
    "corner": 13401,
    "ĠĠĠĠĠĠĠĠĠĠĠĠĠĠĠĠĠĠĠĠĠĠĠĠĠĠĠ": 14889,
    "icient": 789,
    "Ġextracts": 9372,
    "cating": 20804,
    "gloomy": 25147,
    "Ġexceptionable": 25504,
    "dissemble": 23494,
    "Ġbritish": 11338,
    "Ġvortex": 26210,
    "Ġgreenhorn": 23770,
    "keenest": 25662,
    "hil": 8379,
    "erated": 21273,
    "Ġentreaties": 9038,
    "arent": 4248,
    "Ġsemantic": 1958,
    "Ġneg": 1331,
    "umbria": 23898,
    "mal": 6795,
    "Ġblade": 11897,
    "Ġtech": 1641,
    "got": 6955,
    "âĢĶ_": 3199,
    "Ġsuperflu": 14555,
    "Ġhundreds": 4329,
    "Ġlifts": 25359,
    "Ġuncivil": 11156,
    "lic": 17589,
    "intervals": 10640,
    "Ġacted": 7422,
    "Ġache": 18664,
    "istan": 22112,
    "Ġhaws": 21955,
    "....": 11317,
    "Ġardently": 9501,
    "Ġverily": 16605,
    "Ġprinces": 23227,
    "Ġslo": 15509,
    "Ġsculpture": 26019,
    "sort": 6799,
    "Ġbanners": 24859,
    "Ġ29": 23732,
    "Ġdivision": 19447,
    "tish": 17679,
    "Ġestim": 3348,
    "Ġtracks": 18892,
    "Ġplu": 8803,
    "Ġsap": 18329,
    "Ġuniversal": 2233,
    "Ġfearful": 6199,
    "vap": 13806,
    "Ġdece": 6997,
    "Ġstammered": 26201,
    "Ġgrapple": 25812,
    "Ġrods": 9756,
    "Ġtrough": 15967,
    "Ġkne": 4265,
    "Ġplaced": 3447,
    "university": 25984,
    "Ġtables": 9881,
    "Ġmart": 10781,
    "wl": 17704,
    "victim": 25531,
    "frequented": 25901,
    "inaw": 21186,
    "chemical": 23810,
    "uation": 17696,
    "Ġconsiderably": 7715,
    "Ġhypothe": 4074,
    "Ġrelevance": 5184,
    "plain": 1360,
    "Ġfancied": 7326,
    "Ġinattention": 17934,
    "Ġignor": 4011,
    "Ġassistance": 6335,
    "Ġdazz": 11596,
    "eon": 8733,
    "Ġquietly": 4569,
    "following": 10575,
    "rison": 13782,
    "Ġprovinc": 16744,
    "Ġeconomically": 25289,
    "ened": 1388,
    "Ġpenalty": 1842,
    "depths": 25664,
    "Ġdraw": 3673,
    "Ġheadland": 22900,
    "Ġdistrustful": 25057,
    "goose": 19103,
    "cnns": 3623,
    "Ġpigs": 19750,
    "Ġxx": 5492,
    "Ġende": 21936,
    "Ġsolve": 4196,
    "Ġsizes": 1520,
    "inement": 11559,
    "repent": 15516,
    "Ġoctober": 17229,
    "inv": 8402,
    "Ġoutskirts": 17460,
    "Ġoftentimes": 20158,
    "tailed": 17687,
    "gle": 20871,
    "acks": 11792,
    "continue": 16863,
    "Ġbarbara": 24815,
    "Ġunrival": 22051,
    "Ġbroadened": 23988,
    "Ġsperm": 1844,
    "oke": 1861,
    "Ġoriginated": 24125,
    "Ġimpunity": 14218,
    "Ġhappiest": 11886,
    "amuse": 14055,
    "Ġdiv": 3733,
    "Ġceti": 24772,
    "Ġunprotected": 22071,
    "Ġunworthy": 11719,
    "Ġcumulative": 4210,
    "Ġbeside": 5192,
    "edding": 4367,
    "ni": 1621,
    "Ġpassionate": 11274,
    "Ġvol": 4189,
    "tolerable": 17690,
    "Ġaccomplishment": 19668,
    "ripp": 6405,
    "Ġincessant": 15101,
    "Ġexcluded": 16388,
    "Ġdrow": 21429,
    "ishments": 9276,
    "ref": 6516,
    "Ġwashington": 17205,
    "Ġgestures": 13539,
    "Ġcornelius": 13577,
    "Ġinstrum": 6056,
    "ssing": 3809,
    "omas": 12676,
    "Ġshunned": 17296,
    "Ġpattered": 19017,
    "Ġoppressively": 25711,
    "Ġpricking": 23226,
    "ifting": 6547,
    "Ġworried": 22929,
    "Ġsympathetic": 17362,
    "Ġdiminished": 16668,
    "Ġtornado": 24622,
    "Ġstreams": 12197,
    "Ġnerves": 2627,
    "rants": 13781,
    "correspond": 13402,
    "Ġdict": 9178,
    "Ġmout": 17800,
    "perch": 18338,
    "elephant": 12355,
    "slow": 7810,
    "Ġanchor": 7368,
    "Ġcapst": 8599,
    "Ġnothing": 1361,
    "compar": 14361,
    "Ġelaborate": 18638,
    "Ġlabelled": 23333,
    "Ġfacil": 16964,
    "Ġmine": 3178,
    "Ġmors": 17803,
    "few": 8203,
    "presbyter": 20621,
    "Ġpit": 3422,
    "Ġdreadful": 4921,
    "hard": 4691,
    "Ġcompatibility": 2959,
    "man": 1055,
    "Ġemperor": 15162,
    "Ġpairs": 4182,
    "Ġluxur": 12345,
    "Ġfelicity": 7260,
    "Ġungracious": 18259,
    "strade": 5065,
    "Ġhilarity": 20300,
    "Ġrim": 21969,
    "Ġanatomy": 12324,
    "design": 19343,
    "Ġquadr": 8200,
    "sk": 5521,
    "Ġblankness": 24611,
    "rages": 15685,
    "astes": 11743,
    "Ġdied": 4110,
    "irmed": 9242,
    "Ġtal": 7564,
    "Ġdepended": 9780,
    "Ġcuts": 14610,
    "Ġenquired": 21944,
    "Ġcre": 888,
    "cond": 1660,
    "Ġintently": 8169,
    "Ġdripping": 13151,
    "Ġinterruptions": 24189,
    "ouching": 13181,
    "Ġancestors": 25643,
    "Ġwreck": 7314,
    "arranged": 19321,
    "Ġliberty": 7762,
    "Ġbet": 1135,
    "nikin": 23235,
    "Ġmultimodal": 18749,
    "Ġiii": 7861,
    "deceiving": 22148,
    "Ġapprovingly": 26252,
    "iza": 6257,
    "Ġgathering": 14981,
    "useless": 14596,
    "pounds": 21027,
    "zers": 21149,
    "namely": 23695,
    "Ġwhaleman": 4656,
    "avery": 13687,
    "Ġfaithful": 9506,
    "Ġskill": 6872,
    "pad": 13771,
    "ivance": 22085,
    "Ġavail": 11227,
    "englishman": 23679,
    "Ġoverhanging": 22369,
    "Ġknee": 7095,
    "Ġapolog": 9046,
    "deception": 22149,
    "Ġbreath": 4792,
    "Ġdear": 1540,
    "Ġbun": 6008,
    "Ġvex": 5950,
    "Ġduplicate": 17218,
    "Ġjudiciously": 23881,
    "cowardly": 25750,
    "Ġpurpose": 2710,
    "Ġkitchen": 8498,
    "Ġign": 8295,
    "utarch": 15666,
    "Ġseparately": 13307,
    "Ġad": 442,
    "Ġman": 543,
    "osal": 11763,
    "Ġvernal": 23891,
    "Ġliberally": 16832,
    "Ġbristol": 14383,
    "spades": 14334,
    "tles": 10732,
    "cent": 8073,
    "Ġboast": 7036,
    "Ġforgetfulness": 14609,
    "Ġcuba": 25098,
    "Ġsat": 1133,
    "Ġretribution": 16284,
    "brain": 13691,
    "cutting": 23786,
    "otam": 21802,
    "consternation": 16914,
    "Ġdines": 21426,
    "pity": 17629,
    "á": 162,
    "Ġsanity": 24982,
    "itia": 11581,
    "Ġreceived": 2951,
    "th": 407,
    "Ġgodly": 19082,
    "Ġqueens": 16705,
    "quet": 6835,
    "Ġunlo": 22016,
    "Ġpreliminaries": 25177,
    "val": 1172,
    "Ġdried": 7367,
    "Ġtheology": 21279,
    "Ġbecame": 2692,
    "actions": 8910,
    "Ġsane": 21224,
    "Ġparacels": 13671,
    "hero": 21207,
    "Ġflo": 2587,
    "Ġhussey": 7725,
    "wind": 4251,
    "Ġsolomon": 11053,
    "Ġparticularly": 5056,
    "Ġhoe": 23354,
    "Ġun": 423,
    "Ġherein": 16194,
    "Ġpled": 17907,
    "Ġcuff": 17831,
    "falgar": 26131,
    "Ġsleeping": 6321,
    "Ġwreak": 16819,
    "Ġhuge": 4701,
    "Ġlashed": 9201,
    "tur": 5688,
    "Ġthoughtful": 16195,
    "ousness": 10277,
    "shows": 22455,
    "Ġdiscontented": 16063,
    "Ġwreaths": 25938,
    "vapor": 25756,
    "soles": 18685,
    "Ġsorts": 6887,
    "Ġcarbuncle": 14448,
    "plete": 10920,
    "mrs": 3746,
    "tempestuous": 26098,
    "Ġpuffed": 14980,
    "mentioning": 24886,
    "Ġpersonality": 16479,
    "clinging": 20824,
    "ver": 331,
    "aspect": 10196,
    "Ġspires": 11735,
    "Ġdummy": 25450,
    "necessary": 5883,
    "Ġbas": 6381,
    "Ġpantheistic": 26337,
    "quer": 11683,
    "prehens": 9292,
    "Ġoverwhel": 8197,
    "Ġindef": 9192,
    "Ġstreat": 15725,
    "._": 3221,
    "alongside": 19792,
    "erness": 6435,
    "Ġherb": 15860,
    "Ġplaned": 24058,
    "Ġgash": 15675,
    "Ġtang": 13817,
    "weep": 22687,
    "Ġpuzzled": 7317,
    "weekly": 25685,
    "itten": 3444,
    "Ġson": 2983,
    "question": 5418,
    "riptions": 14798,
    "poles": 16212,
    "ica": 10201,
    "hit": 20891,
    "written": 7995,
    "Ġaudacity": 19884,
    "Ġgossiping": 26245,
    "Ġcharged": 9857,
    "fering": 17544,
    "deploy": 22146,
    "cott": 8074,
    "Ġbeggar": 9352,
    "Ġmilitary": 11259,
    "Ġarab": 7823,
    "Ġremained": 3140,
    "tray": 21080,
    "difficulty": 12394,
    "Ġthunder": 4825,
    "Ġjulia": 22296,
    "past": 8090,
    "Ġinnumerable": 13356,
    "jub": 20931,
    "convalescence": 24885,
    "Ġchose": 7413,
    "Ġbennets": 9809,
    "Ġmerrily": 23734,
    "Ġju": 10288,
    "Ġdetained": 18373,
    "Ġsweat": 13144,
    "Ġisolated": 13563,
    "Ġmanoir": 22335,
    "braid": 17497,
    "Ġequator": 7461,
    "Ġendwise": 23138,
    "fered": 5560,
    "stoke": 18025,
    "hau": 17564,
    "Ġdisquiet": 18552,
    "eddling": 11903,
    "Ġnetwork": 451,
    "fic": 20854,
    "Ġrapture": 13499,
    "Ġdictionary": 15116,
    "uits": 21107,
    "Ġwise": 6812,
    "þ": 191,
    "intentions": 22942,
    "liv": 9610,
    "Ġply": 21455,
    "Ġabutted": 22279,
    "la": 10707,
    "Ġacquiescence": 20333,
    "Ġchap": 5935,
    "Ġembrace": 16992,
    "Ġcheery": 16373,
    "isition": 11588,
    "Ġreigned": 13990,
    "Ġcords": 14882,
    "Ġdelay": 5748,
    "jep": 20928,
    "atory": 6127,
    "Ġhammer": 6095,
    "wondered": 17118,
    "Ġkings": 7197,
    "Ġunwarrantable": 26346,
    "Ġserpent": 6739,
    "Ġworshipping": 22931,
    "just": 1699,
    "enged": 23148,
    "Ġdarkly": 19116,
    "Ġjanuary": 13657,
    "Ġclim": 8196,
    "Ġingenious": 12352,
    "Ġsepul": 14092,
    "Ġriver": 5411,
    "tar": 8098,
    "Ġshuddering": 9054,
    "air": 1002,
    "leisure": 21374,
    "Ġderives": 16311,
    "B": 38,
    "Ġrefinement": 18696,
    "Ġgradu": 15836,
    "Ġbulldog": 23862,
    "Ġspiteful": 19525,
    "rupt": 3211,
    "isol": 17848,
    "Ġsplashed": 23750,
    "Ġinconsiderable": 21498,
    "off": 1888,
    "allows": 15911,
    "recogn": 13429,
    "fishers": 24929,
    "eed": 20843,
    "ches": 2146,
    "circle": 16738,
    "Ġclerval": 4655,
    "uncont": 15778,
    "Ġgoblet": 25824,
    "Ġamaze": 22487,
    "beneath": 9538,
    "Ġquarrel": 7292,
    "Ġkicks": 19771,
    "Ġunshored": 25814,
    "Ġrefusal": 10346,
    "sory": 17661,
    "Ġnam": 17951,
    "Ġsummer": 4791,
    "Ġbulky": 13233,
    "bel": 3836,
    "Ġcarr": 23093,
    "Ġdiscipline": 26563,
    "Ġflank": 8229,
    "lemency": 21377,
    "Ġdiana": 21439,
    "Ġ40": 14771,
    "op": 658,
    "aimed": 3952,
    "buckets": 26124,
    "Ġidly": 16406,
    "nature": 5360,
    "Ġstrewed": 23424,
    "these": 3243,
    "Ġsummit": 7731,
    "Ġearning": 23944,
    "Ġlimit": 10445,
    "Ġanomalously": 25639,
    "gging": 7697,
    "Ġstory": 2900,
    "cific": 10088,
    "rapidly": 15247,
    "Ġener": 10897,
    "Ġplunging": 14955,
    "Ġbreeds": 23351,
    "Ġregain": 22582,
    "Ġoccasionally": 5590,
    "Ġdependent": 14300,
    "Ġcollections": 22859,
    "Ġverdict": 13479,
    "rael": 21632,
    "Ġemerging": 24613,
    "ipher": 18428,
    "aples": 20770,
    "stat": 21647,
    "events": 12321,
    "Ġimprovements": 14516,
    "Ġtip": 15474,
    "Ġcyl": 15561,
    "Ġrending": 19470,
    "Ġdiscussing": 5202,
    "Ġimplement": 2709,
    "hither": 11494,
    "ogr": 18676,
    "Ġeveryday": 22773,
    "Ġensigns": 23691,
    "Ġsho": 2245,
    "ppo": 18178,
    "Ġdeductions": 19736,
    "Ġdischarge": 18556,
    "Ġpossible": 2583,
    "Ġtie": 10752,
    "doublo": 24661,
    "Ġremoving": 12121,
    "networks": 2404,
    "Ġfle": 3091,
    "Ġback": 823,
    "Ġendeavours": 8621,
    "Ġpond": 13919,
    "Ġdead": 2171,
    "alle": 1292,
    "terror": 18131,
    "brevi": 24076,
    "Ġenemy": 5605,
    "Ĳ": 243,
    "Ġingenuity": 17166,
    "metic": 14987,
    "mb": 882,
    "Ġath": 15805,
    "Ġrelig": 8553,
    "frequent": 15357,
    "Ġsquad": 22840,
    "ertain": 1210,
    "Ġtwinkled": 14315,
    "tempted": 26405,
    "Ġmaddened": 17246,
    "soul": 9143,
    "apse": 14201,
    "S": 55,
    "Ġswims": 12124,
    "Ġunful": 22015,
    "Ġling": 7377,
    "vely": 3867,
    "injured": 15136,
    "underneath": 23790,
    "Ġlodgings": 8312,
    "Ġmight": 963,
    "Ġcommunicative": 24548,
    "Ġlaboratory": 13616,
    "iqu": 7803,
    "Ġflorida": 20661,
    "fisher": 7547,
    "Ġentered": 2845,
    "sleeping": 13458,
    "illing": 8175,
    "ishing": 1146,
    "Ġcalculus": 23986,
    "Ġalone": 2564,
    "loaded": 22515,
    "Ġavoided": 13263,
    "hearse": 17750,
    "Ġimprecations": 25821,
    "Ġsucking": 12793,
    "uing": 17695,
    "Ġeastward": 13394,
    "fed": 11489,
    "igin": 3657,
    "Ġintellectual": 11402,
    "Ġzodiac": 16178,
    "astic": 1870,
    "assistant": 25568,
    "acceler": 23600,
    "Ġofficial": 7083,
    "é": 170,
    "Ġregularization": 1177,
    "if": 375,
    "Ġmirror": 12382,
    "Ġopposition": 16523,
    "Ġsalisbury": 24066,
    "Ġextravag": 11254,
    "iscreet": 20685,
    "Ġlunatic": 24993,
    "ha": 3980,
    "Ġdub": 13912,
    "Ġneeded": 7718,
    "Ġhyp": 3873,
    "Ġconvent": 11671,
    "Ġbrack": 23838,
    "Ġbourgh": 5069,
    "Ġflashed": 11918,
    "allest": 5485,
    "Ġdens": 21427,
    "Ġshave": 22000,
    "Ġturk": 6605,
    "Ġconsisting": 8974,
    "Ġfedallah": 6110,
    "whispered": 20037,
    "opening": 10315,
    "fitted": 17546,
    "|": 96,
    "Ġanim": 2112,
    "Ġaddition": 1148,
    "Ġinsatiable": 19274,
    "Ġengine": 1921,
    "Ġbanking": 19633,
    "fen": 20852,
    "impul": 16558,
    "Ġharsh": 9524,
    "Ġasia": 11686,
    "gor": 553,
    "Ġwaxed": 21300,
    "Ġpurely": 12236,
    "incing": 15488,
    "Ġsweatings": 25709,
    "idable": 8146,
    "Ġstudious": 23202,
    "Ġvehicle": 20141,
    "Ġvouch": 15813,
    "national": 21000,
    "Ġmuff": 8114,
    "exagger": 22432,
    "lances": 15387,
    "Ġdisturbing": 19949,
    "Ġplatonian": 25121,
    "by": 1159,
    "canoes": 16234,
    "simple": 13456,
    "drawn": 9916,
    "Ġliked": 5265,
    "Â·": 21152,
    "Ġperformer": 18756,
    "consp": 18505,
    "Ġheavy": 3745,
    "Ġattends": 19653,
    "Ġunseen": 3525,
    "Ġillustrate": 25068,
    "Ġlately": 6388,
    "picture": 11408,
    "Ġvultures": 25654,
    "ife": 1025,
    "Ġshriek": 6640,
    "Ġru": 947,
    "invol": 12535,
    "Ġyounger": 5253,
    "extrem": 18702,
    "·": 120,
    "Ġapparition": 8067,
    "Ġh": 290,
    "ceptive": 15969,
    "spark": 18687,
    "Ġconverts": 2806,
    "Ġalcoves": 26488,
    "interview": 19301,
    "Ġseethings": 26505,
    "vengeance": 13361,
    "Ġgrasping": 12170,
    "asol": 21543,
    "Ġbolted": 12249,
    "Ġdug": 21433,
    "Ġimmemorially": 25384,
    "Ġscotland": 6642,
    "Ġslumbering": 25702,
    "Ġgaily": 16750,
    "ording": 9767,
    "Ġberkshire": 16886,
    "daggoo": 13710,
    "Ġapplies": 11964,
    "Ġstratag": 26029,
    "Ġfixing": 13160,
    "Ġpatagonian": 20536,
    "Ġpals": 13921,
    "airs": 2221,
    "Ġnought": 21525,
    "Ġpolitics": 19227,
    "rim": 7139,
    "Ġsuperglue": 23458,
    "Ġvehicles": 10662,
    "Ġclank": 15972,
    "hailed": 17567,
    "instinct": 19546,
    "pertaining": 22183,
    "strike": 14952,
    "ivation": 3110,
    "Ġharmless": 9968,
    "Ġeyford": 10644,
    "brandy": 19202,
    "monograph": 23527,
    "acles": 8522,
    "Ġmaria": 7126,
    "Ġloathed": 15879,
    "output": 4403,
    "Ġmathemat": 3201,
    "Ġcler": 11774,
    "Ġamusing": 11804,
    "Ġsubsequently": 16164,
    "penn": 18829,
    "Ġinflu": 4910,
    "Ġprocessing": 890,
    "scorched": 25698,
    "necessity": 13372,
    "Ġcircumference": 13548,
    "sorts": 21063,
    "Ġsimulation": 2753,
    "feren": 765,
    "Ġcolle": 8928,
    "Ġhierarchical": 1928,
    "ouraged": 22861,
    "Ġpropose": 9856,
    "Ġroyals": 19535,
    "cable": 20799,
    "Ġunthinkingly": 26222,
    "Ġsubordinate": 18722,
    "warmly": 25029,
    "residence": 19265,
    "Ġattention": 1158,
    "Ġshirr": 18232,
    "Ġrus": 14095,
    "Ġtattooed": 11379,
    "Ġchart": 10946,
    "Ġused": 2058,
    "oars": 9617,
    "Ġcondescended": 19959,
    "Ġlatitudes": 9499,
    "doub": 6225,
    "only": 3308,
    "Ġbells": 19604,
    "igating": 21703,
    "contain": 18503,
    "pat": 10119,
    "Ġbarrels": 9439,
    "Ġguards": 16270,
    "Ġdiction": 8799,
    "pret": 7212,
    "asable": 21544,
    "Ġsailing": 5324,
    "ration": 2004,
    "Ġlancaster": 26342,
    "ne": 647,
    "veh": 12684,
    "Ġreproachfully": 25252,
    "sters": 6392,
    "Ġweeping": 11690,
    "Ġfitted": 6245,
    "erde": 21271,
    "ney": 2489,
    "dil": 11479,
    "endeav": 7151,
    "sided": 17666,
    "mar": 4336,
    "Ġrepute": 18037,
    "hall": 8085,
    "Ġprofanely": 23572,
    "Ġoverlook": 10962,
    "Ġimpassable": 20615,
    "Ġsatir": 18795,
    "mechanical": 25579,
    "Ġtash": 13823,
    "rons": 21042,
    "Ġdenny": 9004,
    "Ġkidn": 20208,
    "python": 4693,
    "storied": 18027,
    "Ġinhabitant": 19758,
    "officers": 10630,
    "Ġboun": 21383,
    "Ġsculpt": 15957,
    "Ġscraped": 16905,
    "Ġshrivelled": 19706,
    "Ġsnap": 11201,
    "Ġlogical": 14489,
    "Ġlingu": 11616,
    "Ġstrings": 11833,
    "delight": 5345,
    "Ġwipe": 25765,
    "Ġhath": 12633,
    "Ġmost": 1020,
    "practised": 20250,
    "chooses": 23676,
    "Ġcritically": 23445,
    "Ġcous": 3440,
    "Ġdeficient": 18827,
    "Ġimmemorial": 10513,
    "Ġwhitish": 24867,
    "izens": 18146,
    "Ġneighbours": 8303,
    "Ġhaven": 8476,
    "Ġtougher": 21179,
    "abst": 21792,
    "Ġchoke": 22253,
    "Ġpity": 4941,
    "Ġbroad": 3641,
    "Ġmob": 16021,
    "Ġowe": 8115,
    "Ġardu": 22188,
    "ispiece": 19728,
    "atum": 21262,
    "Ġadvancement": 24475,
    "Ġintroduces": 3269,
    "Ġpatients": 24810,
    "Ġcomforted": 19394,
    "prep": 9762,
    "Ġtiles": 17728,
    "scor": 13021,
    "Ġgrassy": 24379,
    "Ġsignifies": 19206,
    "Ġresembling": 4097,
    "Ġengraving": 17081,
    "Ġinconstant": 21499,
    "Ġbale": 7838,
    "distinguish": 19575,
    "constantly": 24607,
    "Ġbeats": 21756,
    "Ġincul": 22553,
    "reporting": 24494,
    "Ġcrotch": 9966,
    "Ġpadd": 9672,
    "Ġplanet": 14753,
    "objections": 19918,
    "Ġsymbolize": 24963,
    "Ġestimable": 23875,
    "Ġemerged": 8688,
    "Ġgaping": 13972,
    "Ġragged": 11848,
    "descend": 23087,
    "spikes": 10343,
    "Ġendeav": 2955,
    "Ġexceptions": 13234,
    "Ġpurporting": 19184,
    "Ġdolph": 12384,
    "Ġpacifics": 24373,
    "bent": 15315,
    "Ġmonsie": 11448,
    "Ġgrampus": 21997,
    "Ġundergone": 18987,
    "Ġaided": 17747,
    "Ġadmirable": 8269,
    "prejudiced": 17300,
    "body": 2309,
    "tons": 7559,
    "boards": 23257,
    "Ġbash": 12591,
    "Åĵuvre": 25888,
    "lashed": 20956,
    "mod": 1056,
    "Ġacquitted": 18900,
    "Ġinterpretation": 19719,
    "Ġsavages": 9915,
    "Ġcrowder": 19459,
    "Ġcreeping": 18683,
    "uture": 1090,
    "Ġproper": 1379,
    "game": 11492,
    "arches": 10818,
    "cannibals": 25585,
    "octial": 20008,
    "atically": 2650,
    "Ġkith": 22196,
    "expressive": 24307,
    "Ġcab": 2633,
    "oken": 4306,
    "osures": 22265,
    "Ġhideous": 5984,
    "Ġunsavory": 20709,
    "Ġunnatural": 7190,
    "Ġwra": 5907,
    "tumult": 12426,
    "Ġsuperstition": 15057,
    "Ġprints": 16333,
    "Ġstupidity": 15052,
    "Ġfollows": 7673,
    "studied": 17152,
    "Ġelegant": 7532,
    "]": 65,
    "Ġanecdote": 26356,
    "have": 2056,
    "Ġdevilish": 11229,
    "Ġdaintiest": 25954,
    "surd": 6934,
    "Ġredu": 1355,
    "questioning": 16852,
    "Ġhighlands": 22776,
    "ower": 1030,
    "independent": 26022,
    "Ġgrenadier": 21619,
    "pening": 2832,
    "Ġtrag": 13044,
    "Ġsurpassing": 20471,
    "sul": 15424,
    "sterdam": 19091,
    "ek": 1907,
    "wilful": 25152,
    "life": 4933,
    "lot": 3207,
    "gings": 7549,
    "engineer": 23149,
    "Ġpartiality": 9401,
    "Ġferguson": 17472,
    "Ġimpersonal": 17399,
    "mmet": 10989,
    "isen": 10794,
    "cription": 20820,
    "they": 1881,
    "Ġturkey": 19222,
    "Ġsurplus": 26304,
    "eronomy": 15528,
    "Ġstructure": 862,
    "eline": 2274,
    "ounder": 11744,
    "ustom": 3790,
    "Ġdanger": 3521,
    "Ġshuttle": 12131,
    "Ġsuccor": 25663,
    "eldest": 22806,
    "Ġpeculiarly": 8287,
    "Ġsubstance": 5510,
    "ì": 173,
    "Ġflight": 6582,
    "Ġlikeness": 11180,
    "vanity": 24977,
    "Ġstat": 1489,
    "Ġ11": 5319,
    "smitten": 23912,
    "Ġrecklessly": 16985,
    "Ġintricate": 15141,
    "Ġeaten": 14848,
    "ication": 984,
    "Ġtot": 4186,
    "offered": 14521,
    "Ġundeserving": 18269,
    "shell": 16290,
    "Ġacquaint": 13050,
    "Ġplainly": 4382,
    "plentiful": 21966,
    "athom": 12944,
    "Ġworld": 1596,
    "Ġlogger": 11958,
    "Ġfronted": 23260,
    "proachable": 23401,
    "Ġreputed": 18038,
    "Ġbeau": 9227,
    "Ġcoffee": 6761,
    "Ġmemorand": 23461,
    "Ġimpressed": 8199,
    "Ġapproxim": 1220,
    "Ġdespite": 19356,
    "Ġintimate": 6551,
    "Ġmargaret": 10379,
    "Ġboldly": 9504,
    "ign": 1702,
    "Ġinwards": 15625,
    "Ġtarget": 2821,
    "Ġattacks": 12209,
    "Ġinfluenced": 19635,
    "Ġcall": 2074,
    "Ġ179": 19757,
    "Ġbaby": 6639,
    "Ġyale": 21783,
    "Ġsure": 1867,
    "Ġseveral": 2674,
    "Ġsmoking": 6430,
    "Ġhorner": 8961,
    "Ġcomputing": 2219,
    "plumed": 21965,
    "humanity": 24840,
    "Ġmonuments": 22982,
    "Ġnatur": 17337,
    "acity": 5735,
    "promontory": 24727,
    "Ġmerry": 5870,
    "Ġpretext": 22233,
    "Ġcombat": 16189,
    "Ġrough": 7187,
    "Ġshol": 21999,
    "Ġnoble": 3443,
    "Ġsulk": 15048,
    "Ġdecoding": 3081,
    "Ġjaw": 3319,
    "Ġcomfortable": 6096,
    "tains": 10963,
    "Ġquarrelling": 13502,
    "Ġchis": 11754,
    "Ġmanagement": 8193,
    "ogany": 18678,
    "Ġweary": 5635,
    "arily": 4125,
    "Ġelusive": 22650,
    "Ġdisgracing": 26257,
    "Ġbully": 23859,
    "Ġthroughout": 8880,
    "Ġgust": 21600,
    "Ġvindictiveness": 25739,
    "Ġcloak": 9537,
    "Ġstare": 10865,
    "egypt": 15353,
    "dead": 8180,
    "Ġvessels": 6757,
    "Ġfortitude": 9888,
    "ĠĠĠĠĠĠĠĠĠĠĠĠĠĠĠĠĠĠĠĠĠĠĠĠĠĠĠĠĠĠĠĠĠĠĠĠĠĠĠ": 19261,
    "Ġyoungster": 23181,
    "lled": 10110,
    "Ġpotent": 12068,
    "Ġdisdain": 8360,
    "Ġwafted": 14501,
    "fugitive": 26132,
    "Ġclaim": 5106,
    "Ġsworn": 14438,
    "arch": 1117,
    "Ġpatron": 7462,
    "hastening": 24448,
    "Ġscreaming": 13427,
    "Ġambergris": 8709,
    "Ġhearken": 21688,
    "Ġmockery": 12112,
    "Ġbring": 3324,
    "bearded": 18520,
    "Ġbesee": 19245,
    "Ġknotted": 17021,
    "persu": 8028,
    "encing": 21285,
    "Ġestab": 6317,
    "Ġtravel": 5954,
    "hyme": 19612,
    "calculation": 25689,
    "Ġchewing": 23288,
    "Ġgenerate": 1486,
    "Ġsunrise": 9376,
    "Ġscant": 22299,
    "floor": 14939,
    "Ġjav": 7901,
    "georgiana": 26021,
    "telesc": 22821,
    "among": 6258,
    "handled": 19263,
    "Ġremonstrate": 22795,
    "Ġrecurrent": 1805,
    "Ġadaptively": 4462,
    "uff": 2732,
    "okingly": 22385,
    "Ġwheelbarrow": 17207,
    "Ġfreshness": 23991,
    "Ġmermaid": 17815,
    "ors": 854,
    "Ġvincent": 15287,
    "Ġassumpt": 5415,
    "Ġeternal": 5977,
    "Ġusher": 22228,
    "billows": 20239,
    "Ġperfume": 25666,
    "Ġprecipice": 19944,
    "Ġwaif": 9378,
    "Ġdistant": 5387,
    "Ġafghan": 22633,
    "anct": 21361,
    "Ġunconditional": 15848,
    "Ġfettered": 24569,
    "biting": 20783,
    "Ġcomstock": 21855,
    "Ġscimet": 22307,
    "attending": 18918,
    "Ġmadly": 16487,
    "luent": 16002,
    "Ġlandless": 23382,
    "tling": 9145,
    "Ġobservable": 25129,
    "Ġepis": 19985,
    "Ġlaw": 3656,
    "baden": 25616,
    "uncomfortable": 18163,
    "separ": 9233,
    "Ġlooks": 4164,
    "Ġtwilight": 16125,
    "Ġhandspikes": 12943,
    "Ġmisgivings": 15295,
    "Ġtwin": 12933,
    "liest": 6296,
    "uded": 6287,
    "Ġmonosy": 18847,
    "conscience": 14863,
    "Ġconsulted": 13434,
    "Ġconve": 5455,
    "Ġimpud": 18445,
    "Ġcleansed": 26295,
    "Ġbouton": 17870,
    "Ġmysteriously": 24602,
    "Ġbridge": 8349,
    "comput": 1975,
    "Ó": 148,
    "mber": 5850,
    "Ġonset": 12716,
    "Ġchamp": 18382,
    "comprehend": 14362,
    "12": 20751,
    "Ġrippling": 17280,
    "Ġplacid": 11830,
    "assist": 11771,
    "brilliancy": 26078,
    "Ġpower": 1241,
    "proceed": 8979,
    "abled": 12799,
    "Ġend": 1472,
    "Ġcontempl": 6703,
    "rosings": 15648,
    "400": 20757,
    "dish": 12457,
    "K": 47,
    "masterly": 24530,
    "classes": 12140,
    "Ġjoke": 8871,
    "Ġwitnesses": 9489,
    "Ġresource": 10994,
    "ock": 15405,
    "Ġhousehold": 8571,
    "Ġforest": 9874,
    "Ġharbour": 19983,
    "Ġpacific": 5153,
    "didn": 9010,
    "ientious": 11695,
    "uteness": 17988,
    "proble": 9397,
    "Ġremot": 8545,
    "Ġsigh": 10339,
    "Ġultimately": 17167,
    "aneously": 4060,
    "Ġravings": 18644,
    "Ġresearch": 3204,
    "honest": 17005,
    "Ġgangway": 20161,
    "introduce": 25187,
    "Ġinv": 2224,
    "mind": 4628,
    "Ġgourmand": 26468,
    "aited": 12439,
    "Ġmorphology": 3010,
    "Ġprofile": 16490,
    "ruding": 9727,
    "rubbed": 22194,
    "interest": 5421,
    "private": 13586,
    "thousands": 16874,
    "mushroom": 26397,
    "Ġissued": 10602,
    "ining": 3222,
    "Ġdictionaries": 12344,
    "Ġfeathers": 15123,
    "Ġbumpkins": 25282,
    "unbounded": 21889,
    "Ġloveliness": 13612,
    "Ġimpulsively": 24881,
    "destruction": 11256,
    "rannical": 26403,
    "Ġvalue": 2085,
    "Ġdev": 884,
    "bastian": 10676,
    "Ġinteraction": 7424,
    "Ġpeering": 8537,
    "Ġcolony": 18768,
    "Ġmethodic": 23189,
    "eminently": 25108,
    "Ġwealth": 7621,
    "don": 3545,
    "passed": 8026,
    "Ġspaces": 3111,
    "Ġbatch": 889,
    "Ġsurprising": 14599,
    "Ġsoldier": 16922,
    "Ġastir": 14642,
    "Ġmitigates": 3052,
    "rmsprop": 4524,
    "Ġarcher": 22189,
    "annica": 24562,
    "Ġtimes": 2302,
    "Ġsprained": 15888,
    "crew": 7544,
    "Ġcontour": 18475,
    ";âĢĻ": 15306,
    "Ġlamb": 8817,
    "Ġtransports": 24280,
    "Ġlid": 6984,
    "jacket": 12296,
    "girls": 12323,
    "baby": 25516,
    "Ġhaunt": 18198,
    "Ġvagueness": 25738,
    "Ġtubs": 11371,
    "itarian": 21340,
    "ra": 314,
    "Ġfaded": 10811,
    "Ġperu": 14225,
    "Ġabhor": 5467,
    "Ġfavourable": 7959,
    "Ġgame": 3630,
    "Ġespe": 21158,
    "Ġagatha": 6866,
    "Ġseven": 4544,
    "Ġflesh": 5970,
    "horner": 23616,
    "study": 15121,
    "Ġgained": 4537,
    "Ġhandfuls": 17212,
    "Ġrely": 8825,
    "lizzy": 6654,
    "miseries": 16759,
    "Ġmarble": 7669,
    "utored": 15667,
    "geons": 15983,
    "pronounce": 25193,
    "Ġworsted": 19998,
    "Ġphilipses": 24452,
    "Ġmississippi": 20727,
    "mut": 17597,
    "bruary": 15239,
    "Ġ182": 13241,
    "Ġappointed": 20106,
    "Ġselling": 21227,
    "Ġarms": 3965,
    "Ġofficers": 4427,
    "Ġinhale": 20303,
    "beards": 22495,
    "Ġcourtiers": 24139,
    "Ġassailants": 20452,
    "claim": 9838,
    "Ġmon": 1251,
    "raltar": 24236,
    "ifference": 5632,
    "Ġded": 2485,
    "encoun": 12302,
    "Ġabatement": 22280,
    "cottagers": 20051,
    "Ġwill": 678,
    "neys": 23584,
    "Ġcyp": 21348,
    "Ġsleepless": 14584,
    "Ġsliding": 9366,
    "big": 13689,
    "whew": 22872,
    "Ġhorizont": 6937,
    "Ġattendance": 12186,
    "Ġladen": 19179,
    "Ġcomplimented": 14907,
    "Ġvivid": 8058,
    "Ġsunk": 5752,
    "fain": 13718,
    "brary": 5755,
    "kingly": 20941,
    "afric": 19181,
    "Ġlionel": 25287,
    "Ġinvulnerable": 19148,
    "its": 1151,
    "liable": 3818,
    "Ġashes": 7617,
    "reel": 21236,
    "uer": 21103,
    "Ġdecided": 5471,
    "Ġcorrid": 9827,
    "waistcoat": 17364,
    "Ġstockings": 20000,
    "Ġcoincidence": 25484,
    "Ġlens": 8439,
    "spell": 22730,
    "tent": 21067,
    "Ġpicturesqueness": 24480,
    "Ġdew": 14046,
    "rah": 8137,
    "Ġalco": 21786,
    "Ġblow": 3376,
    "weaknesses": 26031,
    "silver": 19693,
    "Ġdisliked": 12896,
    "intim": 22937,
    "Ġnormalizing": 1822,
    "Ġendowed": 18925,
    "inese": 12884,
    "Ġenveloped": 12213,
    "albatross": 15634,
    "Ġathirst": 20601,
    "bounded": 13443,
    "ther": 479,
    "receive": 12547,
    "Ġlaunched": 14929,
    "Ġlord": 2966,
    "Ġexpect": 2305,
    "paralleled": 14518,
    "Ġmentioned": 4330,
    "offic": 7466,
    "Ġthickly": 12120,
    "Ġtig": 13816,
    "eat": 11484,
    "Ġpainfully": 13146,
    "Ġfinds": 6301,
    "Ġassid": 18947,
    "Ġty": 6660,
    "Ġfunction": 588,
    "Ġchas": 18380,
    "Ġunprincipled": 20710,
    "Ġbecoming": 4399,
    "Ġheadlands": 22901,
    "Ġfathoms": 9086,
    "bted": 7794,
    "Ġimpaling": 22387,
    "ans": 457,
    "Ġburgl": 13177,
    "Ġmidday": 23634,
    "sust": 15425,
    "Ġimmersed": 19488,
    "aches": 6572,
    "aces": 2069,
    "Ġsepulch": 15288,
    "Ġrow": 5245,
    "volume": 18588,
    "hello": 13368,
    "Ġsparing": 22134,
    "Ġbreakfast": 3974,
    "Ġdiversity": 25285,
    "ician": 21568,
    "Ġcheek": 8581,
    "ivided": 22088,
    "Ġbarber": 23791,
    "Ġguns": 16778,
    "Ġsay": 931,
    "northern": 23669,
    "Ġsponge": 26005,
    "ieces": 4773,
    "Ġaboriginal": 14191,
    "Ġadjac": 18293,
    "Ġspatial": 2731,
    "tese": 21086,
    "ivities": 22087,
    "Ġchanced": 8187,
    "war": 6803,
    "Ġpeaked": 2294,
    "Ġhood": 10825,
    "Ģ": 227,
    "Ġembra": 6580,
    "Ġweakness": 9970,
    "Ġfrocks": 23926,
    "Ġfleeting": 19329,
    "sinking": 17670,
    "covenant": 23564,
    "Ġwon": 1663,
    "Ġglare": 13018,
    "Ġbrave": 6331,
    "Ġchocks": 13350,
    "avoiding": 25237,
    "isters": 11923,
    "oices": 7348,
    "Ġmons": 10159,
    "lished": 8383,
    "rey": 12543,
    "Ġruddy": 17128,
    "Ġseries": 7062,
    "Ġcoldness": 23761,
    "Ġlurked": 11292,
    "Ġdefendants": 15144,
    "Ġcoincidences": 26365,
    "Ġshri": 5375,
    "Ġadvertised": 17250,
    "sadly": 25527,
    "abby": 14024,
    "innocence": 15187,
    "Ġdesc": 771,
    "Ġcompletely": 4861,
    "Ġcommerce": 11016,
    "Ġexclamation": 8702,
    "Ġshovel": 23493,
    "Ġjumbled": 22291,
    "Ġstubb": 1787,
    "Ġangry": 5498,
    "Ġphotography": 24684,
    "Ġwhy": 1759,
    "ĠĠĠĠĠĠĠĠĠĠĠĠĠĠĠĠĠ": 22954,
    "large": 6628,
    "Ġmeasures": 1209,
    "Ġhelplessness": 25074,
    "prob": 7071,
    "Ġchaldee": 26236,
    "days": 7688,
    "mysteries": 26051,
    "ulity": 10887,
    "least": 8789,
    "Ġlonger": 3361,
    "Ġeach": 892,
    "Ġhostile": 19943,
    "Ġadaptation": 3154,
    "pond": 21015,
    "yd": 21145,
    "Ġfriendship": 7246,
    "Ġdaboll": 25951,
    "complacency": 19916,
    "Ġgowns": 25360,
    "Ġa": 263,
    "Ġbrushed": 15575,
    "Ġlethar": 21750,
    "nament": 11508,
    "Ġcucumber": 21359,
    "Ġsustained": 13486,
    "ĥ": 230,
    "hurried": 11354,
    "Ġcobweb": 22589,
    "path": 10121,
    "Ġpyramid": 8806,
    "onness": 21257,
    "conceive": 16033,
    "erable": 1917,
    "foremost": 14255,
    "Ġmeantime": 6208,
    "Ġdusk": 12331,
    "copyright": 5278,
    "erest": 10699,
    "Ġpeaking": 22693,
    "capting": 24042,
    "Ġkeenly": 9488,
    "Ġgardiner": 3239,
    "Ġopal": 23627,
    "specul": 23946,
    "lanter": 15391,
    "uish": 5431,
    "Ġinterpreted": 1711,
    "Ġtoiled": 12647,
    "Ġmil": 4253,
    "shott": 11798,
    "der": 468,
    "achment": 5464,
    "ernally": 22622,
    "Ġhabits": 6926,
    "ble": 541,
    "Ġmastery": 23996,
    "Ġbeget": 9228,
    "Ġmy": 412,
    "Ġresolves": 23652,
    "Ġfiss": 21415,
    "Ġbernard": 20687,
    "sacrifice": 13496,
    "houn": 20895,
    "ĠmanÅĵuv": 18417,
    "Ġextravagant": 17281,
    "Ġimpressive": 15001,
    "isher": 2876,
    "Ġdismasted": 15255,
    "Ġmou": 13858,
    "Ġpaint": 7708,
    "Ġsquid": 11882,
    "Ġexcessive": 3892,
    "Ġrobust": 1334,
    "Ġspat": 2666,
    "laughed": 20284,
    "Ġpane": 21465,
    "pile": 17631,
    "Ġdifferen": 935,
    "Ġreference": 2563,
    "Ġpays": 13301,
    "aston": 7408,
    "married": 9952,
    "ikes": 8087,
    "Ġsaving": 15893,
    "bound": 6222,
    "Ġasp": 15785,
    "Ġceremonious": 24838,
    "Ġactively": 18655,
    "Ġconclusions": 10556,
    "Ġlod": 4043,
    "Ġgipsies": 12429,
    "Ġexeget": 24086,
    "Ġhap": 18196,
    "Ġtransl": 2830,
    "Ġattached": 5392,
    "Ġcetacean": 25879,
    "Ġshoved": 23492,
    "Ġsoftware": 18920,
    "comfort": 5647,
    "looks": 12022,
    "enstein": 5800,
    "without": 4848,
    "Ġstops": 3165,
    "Ġopium": 8997,
    "procure": 23400,
    "suggested": 17302,
    "Ġinnovative": 1620,
    "Ġeasiness": 23539,
    "ougher": 18278,
    "Ġinst": 913,
    "convinced": 10625,
    "special": 14708,
    "Ġgambler": 26192,
    "Ġcaroline": 7255,
    "Ġrhone": 25231,
    "Ġallies": 18235,
    "Ġwinds": 5746,
    "ulgent": 18152,
    "Ġsupplication": 25492,
    "expect": 4770,
    "Ġcanoe": 9726,
    "Ġgas": 8133,
    "came": 4572,
    "unusual": 21883,
    "Ġwisely": 13277,
    "Ġumbrell": 13654,
    "scho": 8763,
    "someone": 14565,
    "Ġstaying": 8284,
    "Ġspeaker": 19150,
    "dry": 13707,
    "Ġshrine": 19534,
    "Ġbulls": 23861,
    "Ġstaggered": 9542,
    "exciting": 19671,
    "Ġ17": 5740,
    "Ġpollard": 20389,
    "Ġventure": 7740,
    "otted": 14027,
    "Ġstrive": 23696,
    "Ġcocoanuts": 26364,
    "Ġkentuckian": 26344,
    "conda": 18994,
    "Ġshed": 8181,
    "Ġcond": 3875,
    "rates": 21041,
    "Ġblacks": 23391,
    "roof": 17956,
    "Ġay": 15494,
    "Ġrandomly": 1922,
    "lutions": 20952,
    "Ġpotency": 14648,
    "rably": 21636,
    "wil": 8769,
    "Ġemper": 9864,
    "Ġredress": 23754,
    "Ġreckoned": 24743,
    "elopement": 23160,
    "ts": 958,
    "lowering": 16037,
    "Ġpredefined": 20719,
    "Ġobscure": 9557,
    "suffered": 24330,
    "something": 4283,
    "Ġhyper": 19742,
    "links": 20960,
    "hoisting": 23719,
    "Ġglow": 7171,
    "Ġvery": 637,
    "¨": 106,
    "Ġhuzza": 12638,
    "Ġsort": 1505,
    "Ġroy": 4227,
    "Ġblot": 9815,
    "thumb": 18219,
    "theast": 21752,
    "three": 5238,
    "Ġtools": 11611,
    "Ġgolden": 5337,
    "aret": 7417,
    "Ġwhatsoever": 18461,
    "culine": 19065,
    "Ġhooks": 14971,
    "Ġcolours": 12980,
    "Ġgems": 9211,
    "Ġshakespeare": 20310,
    "Ġgouldings": 26189,
    "rods": 21541,
    "Ġturns": 4981,
    "jumped": 20249,
    "Ġtags": 20574,
    "Ġrecursive": 4783,
    "Ġgently": 7172,
    "Ġrivers": 9445,
    "laughing": 15183,
    "Ġadult": 18290,
    "Ġretreated": 13437,
    "orton": 11760,
    "Ġeveryone": 8921,
    "Ġsentiments": 7961,
    "ela": 21572,
    "ught": 2752,
    "Ġfretfully": 25448,
    "utmost": 21591,
    "Ġunlabeled": 3800,
    "Ġtransaction": 22443,
    "Ġ5": 4935,
    "Ġdotted": 16794,
    "Ġnever": 1019,
    "Ġoh": 2175,
    "Ġlist": 2365,
    "Ġshiny": 14109,
    "him": 1939,
    "usoid": 4768,
    "Ġpleasanter": 19067,
    "Ġdiverged": 23596,
    "antucket": 2644,
    "Ġhinting": 19652,
    "Ġthief": 11612,
    "Ġindebted": 8711,
    "umbs": 14692,
    "ut": 308,
    "Ġmorris": 18846,
    "aset": 10834,
    ".âĢĶ": 4247,
    "Ġcalmer": 23045,
    "Ġcliffs": 15975,
    "principle": 10653,
    "Ġfervent": 14899,
    "Ġbrook": 13053,
    "Ġtossed": 5816,
    "Ġfable": 15581,
    "77": 15304,
    "thomas": 18220,
    "frost": 15110,
    "Ġpublicly": 13327,
    "itation": 1780,
    "Ġgrammars": 11403,
    "Ġcurt": 18854,
    "Ġhieroglyphics": 17306,
    "Ġmusty": 22683,
    "Ġcorpora": 26582,
    "Ġsuccessive": 10503,
    "Ġweig": 7619,
    "Ġthink": 982,
    "wives": 15458,
    "Ġcongregation": 12333,
    "Ġacre": 22684,
    "companions": 15026,
    "Ġchamounix": 14867,
    "agrad": 2748,
    "thrown": 8483,
    "Ġflag": 7242,
    "Ġpeas": 8536,
    "Ġregardless": 19326,
    "Ġpassages": 12975,
    "bitterly": 20340,
    "Ġspind": 18308,
    "expense": 22433,
    "Ġimpelled": 11786,
    "Ġsense": 3251,
    "Ġemerge": 14931,
    "priv": 9622,
    "Ġfanciful": 24787,
    "contrasted": 17309,
    "within": 6732,
    "Ġcollecting": 12290,
    "Ġsalt": 8017,
    "Ġempty": 5354,
    "terrific": 25043,
    "Ġspoke": 2749,
    "ounders": 22398,
    "Ġcatholic": 20684,
    "Ġpetrified": 19599,
    "ly": 319,
    "¿": 128,
    "encouragement": 17426,
    "Ġoutlandish": 12843,
    "Ġappear": 2480,
    "Ġgrecian": 26297,
    "seaman": 25458,
    "emed": 3382,
    "Ġforebodings": 17307,
    "oding": 1461,
    "ub": 1227,
    "wanderer": 25424,
    "owe": 15712,
    "Ġapproximation": 2341,
    "mong": 15393,
    "Ġtechnically": 12370,
    "Ġjacket": 6490,
    "clear": 9027,
    "thern": 4953,
    "ounding": 22397,
    "Ġpassive": 22844,
    "Ġwater": 1947,
    "Ġallegor": 25546,
    "Ġowning": 18745,
    "Ġnoting": 18222,
    "Ġcapacity": 10442,
    "Ġattaining": 15807,
    "obser": 11100,
    "Ġrede": 13987,
    "Ġ92": 24591,
    "Ġexcessively": 9443,
    "Ġren": 3846,
    "slight": 10729,
    "orious": 6009,
    "inno": 10758,
    "Ġmenacing": 23110,
    "Ġsized": 11564,
    "Ġstumped": 24945,
    "Ġbor": 5805,
    "epilogue": 22104,
    "Ġindispens": 22959,
    "ouder": 17902,
    "itty": 3555,
    "Ġrecommend": 7104,
    "Ġthereupon": 18435,
    "iction": 4267,
    "Ġhaul": 11696,
    "Ġportentous": 15233,
    "ain": 343,
    "Ġstriking": 6089,
    "fail": 17542,
    "Ġrumpled": 24601,
    ";--": 8069,
    "Ġschooner": 16749,
    "appl": 9329,
    "Ġbigness": 19763,
    "Ġsilly": 7686,
    "Ġdemi": 25549,
    "pt": 386,
    "Ġsteer": 10389,
    "repeat": 25155,
    "ribe": 1225,
    "âĢĿ)": 21818,
    "comple": 7441,
    "Ġ(`": 12857,
    "Ġyon": 9696,
    "rem": 1522,
    "iscre": 17852,
    "bellies": 19977,
    "Ġpredicting": 2415,
    "ould": 428,
    "Ġishmael": 7395,
    "Ġstoven": 23177,
    "conside": 9293,
    "iced": 3900,
    "Ġporpoise": 7108,
    "Ġmarling": 23036,
    "Ġcaptain": 1603,
    "proportion": 16184,
    "Ġsashes": 21228,
    "iline": 21724,
    "satisfactory": 16895,
    "Ġforbearance": 12332,
    "scream": 11077,
    "Ġtistig": 26415,
    "Ġprompt": 3188,
    "bourgh": 19105,
    "suspicions": 25392,
    "bedroom": 14701,
    "Ġunconscious": 9550,
    "Ġworked": 6585,
    "pigs": 17143,
    "Ġblasp": 14404,
    "reproach": 15190,
    "dz": 4740,
    "Ġsubfield": 11873,
    "grass": 23415,
    "Ġpours": 17912,
    "irium": 8162,
    "Ġfundamental": 3013,
    "Ġjones": 7203,
    "rees": 5436,
    "Ġfre": 1571,
    "Ġ1950": 11360,
    "Ġconqueror": 25797,
    "Ġjuly": 17239,
    "volutional": 1935,
    "Ġpia": 21466,
    "Ġcitizens": 25440,
    "Ġpleasing": 6192,
    "Ġaddison": 14235,
    "Ġembatt": 18834,
    "Ġbroods": 23105,
    "pire": 9138,
    "Ġportrait": 10664,
    "earnest": 12403,
    "hyena": 24255,
    "Ġforbe": 8459,
    "ulus": 21868,
    "delirium": 14788,
    "rib": 1945,
    "Ġtrial": 6637,
    "Ġleviathanic": 12085,
    "Ġsw": 1357,
    "Ġruins": 16162,
    "Ġlxi": 21564,
    "nder": 20989,
    "Ġproudly": 19745,
    "itive": 6671,
    "Ġreside": 22543,
    "Ġventured": 7501,
    "8": 28,
    "Ġvehemently": 26040,
    "Ġinstantaneous": 14614,
    "Ġwilliam": 3484,
    "creature": 5347,
    "Ġcomment": 9235,
    "spoken": 11864,
    "neglect": 25669,
    "Ġfritters": 23259,
    "Ġcured": 21350,
    "Ġfire": 2333,
    "Ġmaximizing": 3168,
    "Ġmelt": 21320,
    "distinctive": 25726,
    "Ġprecipitous": 24836,
    "otes": 15748,
    "Ġspermacetti": 19053,
    "Ġepidemic": 20698,
    "hens": 3937,
    "Ġcontaining": 2231,
    "Ġregarding": 13214,
    "ouble": 2663,
    "mockery": 24378,
    "Ġwickedness": 9529,
    "Ġbackbone": 22662,
    "entimes": 12661,
    "Ġcollege": 11425,
    "Ġerrors": 2594,
    "guess": 14764,
    "cruet": 17028,
    "Ġempt": 5051,
    "confirmation": 26090,
    "complaisance": 24808,
    "Ġlouisiana": 25079,
    "Ġthorough": 6247,
    "Ġmeasure": 3594,
    "Ġflounders": 23018,
    "Ġjuicy": 25371,
    "Ġgord": 21603,
    "Ġsignify": 16496,
    "Ġlumber": 13955,
    "gave": 7800,
    "Ġcaulk": 25441,
    "dÃ¦mon": 17529,
    "Ġconting": 18473,
    "Ġ15": 9327,
    "Ġunw": 7005,
    "eur": 7545,
    "believing": 19465,
    "twig": 23702,
    "Ġdoors": 6419,
    "Ġhomely": 25220,
    "Ġinsignificance": 20460,
    "Ġpleases": 16301,
    "Ġunattended": 15847,
    "Ġprem": 3428,
    "upid": 6583,
    "musket": 25342,
    "Ġbo": 796,
    "Ġfejee": 18354,
    "rell": 11565,
    "Ġbristling": 20530,
    "Ġwarring": 16867,
    "Ġspacious": 18313,
    "avenue": 25060,
    "Ġmimic": 3142,
    "Ġpaus": 4298,
    "Ġellenborough": 26155,
    "Ġverd": 6919,
    "Ġaustralia": 15236,
    "ĠĠĠĠĠĠĠĠĠĠĠĠĠĠĠĠĠĠĠĠĠĠĠĠĠĠĠĠĠĠĠĠĠĠĠĠĠĠĠĠĠĠĠĠĠ": 9955,
    "Ġbethink": 12383,
    "Ġunre": 3480,
    "Ġgot": 2278,
    "presents": 18798,
    "Ġindepend": 3670,
    "stopping": 19353,
    "Ġpain": 2303,
    "Ġrem": 953,
    "Ġhour": 1813,
    "Ġdemon": 7869,
    "Ġintelligently": 4001,
    "Ġkeels": 11062,
    "painted": 17641,
    "Ġconfided": 19036,
    "Ġlearning": 388,
    "Ġsupreme": 13611,
    "Ġunsounded": 15853,
    "Ġunlikely": 10909,
    "Ġbounding": 19403,
    "wishes": 13810,
    "luckily": 19755,
    "despairing": 25077,
    "Ġbenevolence": 9530,
    "Ġshamefully": 24715,
    "Ġbuckskin": 19955,
    "Ġmeridians": 17358,
    "Ġphara": 23204,
    "Ġswap": 23055,
    "Ġglacier": 11434,
    "Ġgreeted": 23214,
    "niece": 20997,
    "Ġagric": 22518,
    "Ġagonizing": 17241,
    "approbation": 11459,
    "Ġtakings": 20575,
    "Ġsickened": 16777,
    "impenet": 18056,
    "Ġsunken": 14495,
    "Ġcommit": 18656,
    "Ġupheld": 22155,
    "keepers": 16662,
    "stepfather": 19192,
    "phur": 16154,
    "ais": 8071,
    "silence": 8045,
    "Ġital": 10867,
    "imately": 12693,
    "Ġstripped": 10467,
    "fired": 20862,
    "Ġheaths": 25973,
    "most": 1255,
    "een": 725,
    "Ġplainpalais": 20739,
    "Ġplug": 17150,
    "Ġcircular": 13115,
    "Ġcrow": 3805,
    "Ġdoomed": 11343,
    "Ġbrahma": 26321,
    "Ġunimpe": 22076,
    "Ġcaptiv": 16260,
    "Ġconnecting": 18632,
    "ĠĠĠĠĠĠĠĠĠĠĠĠĠĠĠĠĠĠĠĠĠĠĠĠĠĠĠĠĠĠĠĠĠĠĠĠĠĠĠĠĠĠĠĠĠĠĠĠĠĠĠ": 20042,
    "Ġinstigated": 18701,
    "Ġhardships": 14454,
    "Ġengravings": 15069,
    "Ġdetail": 636,
    "duchess": 18464,
    "Ġenlivened": 26209,
    "ances": 1336,
    "dling": 15343,
    "Ġspeaks": 11160,
    "hospit": 25904,
    "deepest": 22827,
    "Ġburnished": 24001,
    "Ġskeleton": 5514,
    "Ġfears": 5729,
    "tically": 3394,
    "Ġlustre": 15138,
    "Ġfibres": 12956,
    "Ġtolerable": 6949,
    "ina": 21182,
    "exact": 7910,
    "lake": 13752,
    "amy": 8470,
    "beryls": 25310,
    "herds": 22207,
    "Ġdrawers": 12110,
    "Ġlinen": 12411,
    "Ġsquares": 11170,
    "Ġdoub": 1838,
    "Ġdeclaring": 19423,
    "Ġflowed": 10374,
    "collar": 19330,
    "Ġgravity": 9251,
    "Ġstruggles": 16581,
    "Ġneglig": 18879,
    "Ġreceptacle": 23195,
    "stains": 11640,
    "Ġrefuge": 8542,
    "teenth": 11878,
    "ld": 385,
    "dense": 18715,
    "bingley": 4928,
    "theirs": 23604,
    "Ġmounted": 7832,
    "Ġangle": 8606,
    "Ġunsur": 22026,
    "Ġfris": 23258,
    "Ġbland": 11065,
    "Ġspouting": 9442,
    "repugnance": 16866,
    "Ġbreadth": 10566,
    "Ġfunctional": 3049,
    "bbing": 6325,
    "Ġreptile": 15281,
    "Ġdiminishing": 4208,
    "Ġwestward": 24389,
    "Ġtartar": 17325,
    "interference": 23740,
    "Ġtri": 4814,
    "Ġency": 21937,
    "Ġleathern": 15053,
    "Ġvideos": 13610,
    "Ġwhirlp": 16965,
    "uber": 15448,
    "Ġpelt": 15614,
    "Ġburned": 8634,
    "bringing": 17169,
    "Ġswiftness": 9930,
    "clouded": 20334,
    "immense": 18055,
    "Ġ57": 24321,
    "supplementary": 20552,
    "Ġsecuring": 11996,
    "coming": 3563,
    "Ġstaple": 26200,
    "Ġstaff": 14009,
    "Ġvestige": 20066,
    "befriend": 22496,
    "Ġcaval": 25770,
    "Ġfeat": 10938,
    "Ġconventional": 25548,
    "Ġcasually": 25096,
    "Ġforc": 9230,
    "Ġcursory": 18859,
    "bitt": 17488,
    "Ġc": 277,
    "Ġundo": 15844,
    "Ġtumbling": 13828,
    "Ġheedfulness": 24522,
    "Ġwhitened": 24868,
    "falling": 24361,
    "Ġdress": 4020,
    "Ġshowers": 16607,
    "Ġwhenever": 5166,
    "Ġnine": 5369,
    "ms": 545,
    "iracle": 11245,
    "oc": 2834,
    "Ġawe": 7148,
    "Ġl": 303,
    "uss": 8767,
    "Ġcapting": 23024,
    "Ġvillanous": 24057,
    "Ġpier": 7163,
    "Ġ$": 21153,
    "Ġgamesome": 17292,
    "rer": 3624,
    "Ġkilled": 4955,
    "Ġramadan": 9578,
    "\"],": 26121,
    "Ġfresh": 3672,
    "Ġthought": 1093,
    "like": 1887,
    "darkness": 9515,
    "waves": 10744,
    "Ġwhistles": 24625,
    "iew": 2444,
    "varieties": 23188,
    "Ġspanish": 2828,
    "Ġrage": 5110,
    "Ġcircumn": 11988,
    "conveyed": 20524,
    "Ġaffectionately": 13172,
    "Ġpersian": 11094,
    "Ġforgiven": 24030,
    "Ġhomage": 12359,
    "nerable": 16279,
    "Ġslaves": 23171,
    "rip": 9244,
    "ricted": 15423,
    "arus": 13915,
    "Ġpurplish": 19142,
    "Ġbodily": 6108,
    "allied": 7410,
    "abound": 15744,
    "refuge": 24733,
    "octavo": 11386,
    "Ġwails": 21299,
    "Ġmayhew": 12954,
    "completed": 19997,
    "Ġpresents": 8245,
    "thrill": 25657,
    "Ġmishap": 20579,
    "Ġbible": 9323,
    "vessels": 10628,
    "arrival": 15604,
    "Ġcitadel": 25439,
    "Ġweeds": 21928,
    "Ġinspired": 2516,
    "worn": 13809,
    "Ġretiring": 16283,
    "Ġrepresentation": 14409,
    "uck": 1233,
    "Ġnorms": 3668,
    "ole": 9616,
    "Ġnuts": 17954,
    "Ġbegins": 7244,
    "Ġyork": 11668,
    "france": 24284,
    "recovered": 19790,
    "Ġassent": 12738,
    "steelkilt": 10050,
    "Ġnightfall": 23133,
    "Ġintelligible": 15945,
    "Ġthine": 7374,
    "idents": 6152,
    "Ġlook": 879,
    "Ġchuck": 8504,
    "temper": 10007,
    "Ġunden": 22017,
    "Ġrider": 24188,
    "ners": 3272,
    "ored": 3895,
    "meat": 18679,
    "Ġwoof": 14724,
    "cher": 5786,
    "apping": 5853,
    "Ġenergy": 2550,
    "Ġminority": 18754,
    "Ġphaet": 16320,
    "Ġdevoured": 16139,
    "rested": 13079,
    "ipotence": 22363,
    "Ġdream": 3539,
    "Ġtraits": 23077,
    "makes": 10713,
    "Ġusual": 3943,
    "Ġsearching": 13166,
    "Ġprogra": 1147,
    "ittance": 12851,
    "Ġinducement": 16845,
    "Ġbir": 17855,
    "Ġabsurdities": 24879,
    "Ġwrapt": 24596,
    "Ġdegenerating": 25800,
    "uneasiness": 23689,
    "Ġdepress": 14049,
    "Ġlone": 11615,
    "ounix": 14163,
    "iences": 6957,
    "step": 2453,
    "Ġrobes": 16249,
    "awing": 18917,
    "Ġthird": 4187,
    "Ġparacelsus": 15270,
    "Ġproprietors": 20189,
    "Ġunable": 4951,
    "Ġrecesses": 17263,
    "Ġdick": 3499,
    "Ġservox": 23873,
    "icha": 11742,
    "Ġprodu": 1208,
    "Ġvarious": 3511,
    "Ġwelfare": 12564,
    "Ġconsists": 11982,
    "Ġaberdeen": 26543,
    "lighted": 23756,
    "Ġmerciless": 25247,
    "aside": 10194,
    "orative": 21401,
    "Ġlux": 8818,
    "Ġstamping": 20034,
    "thorough": 21989,
    "Ġpagoda": 19791,
    "Ġlashing": 11618,
    "Ġatonement": 21946,
    "gained": 20883,
    "Ġwick": 2005,
    "Ġanchored": 17443,
    "Ġdecomp": 3811,
    "Ġswe": 2288,
    "Ġklan": 23664,
    "lev": 1235,
    "Ġlifetime": 13606,
    "feels": 22506,
    "umblings": 23897,
    "ok": 572,
    "love": 9297,
    "umns": 14150,
    "dutch": 17221,
    "Ġsmoke": 4716,
    "ensation": 22549,
    "Ġcore": 13881,
    "gar": 5615,
    "Ġnathan": 21529,
    "hotel": 20053,
    "permission": 15900,
    "Ġprosecution": 12385,
    "Ġbucket": 8792,
    "Ġbaltic": 18796,
    "Ġsto": 1498,
    "tered": 2230,
    "Ġwants": 5742,
    "Ġstables": 23659,
    "Ġhoofs": 14529,
    "bull": 13694,
    "eye": 6226,
    "ativeness": 15524,
    "shuff": 18490,
    "Ġscarcely": 4008,
    "Ġsul": 7570,
    "Ġcircumstantial": 14645,
    "Ġrid": 4355,
    "accomplishments": 25327,
    "Ġleaped": 8830,
    "Ġoctavo": 15167,
    "Ġ98": 24594,
    "Ġhonest": 7287,
    "Ġforgetting": 3438,
    "Ġvinegar": 20103,
    "inition": 11558,
    "Ġdimly": 9491,
    "Ġstepping": 9357,
    "p": 84,
    "Ġfeather": 8863,
    "Ġwherein": 14296,
    "mud": 20973,
    "Ġdazed": 15600,
    "Ġassented": 17341,
    "needles": 20317,
    "emorial": 10246,
    "Ġimpregn": 26023,
    "proceeded": 25191,
    "believe": 8304,
    "had": 1949,
    "Ġheron": 22077,
    "ollion": 19718,
    "Ġx": 2073,
    "Ġbenef": 3490,
    "Ġbildad": 3782,
    "Ġarve": 15901,
    "itory": 12572,
    "Ġchaos": 17011,
    "Ġforcing": 3225,
    "teness": 23209,
    "Ġapex": 24342,
    "Ġbizarre": 17873,
    "doom": 23380,
    "Ġawkward": 7075,
    "Ġblown": 12090,
    "Ġinjustice": 9193,
    "Ġprofounder": 23571,
    "Ġweaver": 11691,
    "Ġmass": 3781,
    "Ġglobal": 2369,
    "Ġdamning": 19141,
    "Ġrewards": 10849,
    "ana": 15563,
    "Ġslang": 23161,
    "pitchpoling": 25725,
    "Ġtruth": 3320,
    "Ġoutwardly": 25001,
    "Ġwaist": 6893,
    "Ġ8": 5433,
    "besides": 8699,
    "Ġtram": 11091,
    "careful": 14869,
    "Ġpressure": 13426,
    "enes": 5218,
    "Ġample": 11802,
    "Ġdescent": 996,
    "Ġflask": 3040,
    "draught": 12095,
    "ications": 4446,
    "uling": 2256,
    "Ġtender": 5753,
    "kindly": 14747,
    "Ġbloodshed": 23802,
    "Ġtimidly": 11339,
    "Ġ28": 19296,
    "helm": 12176,
    "Ġcharacteristically": 23693,
    "Ġrally": 21972,
    "rese": 15511,
    "information": 12397,
    "Ġotherwise": 4659,
    "Ġmoustache": 20487,
    "Ġgore": 17991,
    "be": 669,
    "tallow": 21088,
    "Ġfoundling": 22973,
    "Ġpole": 6434,
    "ondescript": 22920,
    "Ġinserted": 8356,
    "Ġstilly": 25974,
    "Ġornaments": 17455,
    "Ġkindly": 6078,
    "aves": 3600,
    "Ġcold": 3033,
    "enthusiastic": 20695,
    "Ġaside": 5234,
    "utility": 21590,
    "Ġincompetent": 25680,
    "cture": 15669,
    "el": 306,
    "Ġrag": 18639,
    "Ġstil": 15722,
    "Ġjury": 5378,
    "reng": 4002,
    "Ġreced": 15696,
    "Ġblinds": 8007,
    "ascended": 24705,
    "Ġboot": 11843,
    "Ġconceal": 5975,
    "petulance": 24301,
    "Ġlurid": 19684,
    "Ġaffected": 5577,
    "Ġtrip": 16790,
    "Ġpence": 17905,
    "hmael": 7342,
    "Ġfuture": 1102,
    "Ġdistur": 5313,
    "lude": 6163,
    "Ġperils": 6275,
    "Ġducking": 17149,
    "Ġprivate": 5346,
    "approb": 11043,
    "eagerly": 17319,
    "Ġpunishment": 9959,
    "Ġobject": 1397,
    "Ġhighest": 3530,
    "furn": 10094,
    "Ġchosen": 7201,
    "returns": 23141,
    "Ġgodlike": 23360,
    "Ġlover": 7193,
    "Ġmogul": 12867,
    "Ġdive": 10175,
    "Ġcount": 1816,
    "Ġheap": 12683,
    "Ġlur": 5226,
    "Ġexposing": 11839,
    "yielded": 25757,
    "appro": 7046,
    "Ġri": 3396,
    "assistance": 20374,
    "ird": 2426,
    "longing": 23728,
    "Ġnormalizes": 1865,
    "Ġsteersman": 13046,
    "edmund": 17948,
    "civilities": 24974,
    "resides": 23674,
    "nowadays": 22341,
    "Ġviolation": 23408,
    "hamlet": 23265,
    "Ġrival": 10488,
    "object": 6884,
    "Ġobservant": 20113,
    "Ġcheapside": 23291,
    "Ġlandscape": 12420,
    "Ġtun": 6000,
    "Ġeels": 21625,
    "Ġcollected": 2609,
    "å": 166,
    "ishes": 6524,
    "Ġbowsman": 11255,
    "ipt": 12483,
    "Ġarticulated": 24433,
    "Ġplunge": 13447,
    "Ġnewcom": 16225,
    "ious": 768,
    "inced": 3336,
    "Ġmarshalled": 25316,
    "iv": 432,
    "Ġwhitewashed": 14472,
    "Ġbundle": 13430,
    "pillar": 5619,
    "fted": 9121,
    "belong": 12127,
    "sequent": 6831,
    "Ġskip": 1846,
    "greenland": 10024,
    "mistaken": 12215,
    "assemblies": 25957,
    "gunw": 17223,
    "preservation": 25306,
    "Ġred": 3005,
    "Ġol": 17816,
    "ĝ": 222,
    "Ġbattle": 5909,
    "commission": 22819,
    "Ġunappe": 22022,
    "Ġaforethought": 25429,
    "reasoning": 9479,
    "instances": 13324,
    "attended": 8955,
    "suff": 4961,
    "Ġknowest": 12869,
    "Ġblending": 14403,
    "congratulations": 20282,
    "Ġsporty": 19892,
    "Ġbay": 9171,
    "arrangement": 17418,
    "user": 5105,
    "oblig": 16294,
    "Ġglist": 9347,
    "polar": 24584,
    "planted": 11702,
    "Ġsomnam": 23010,
    "Ġdirect": 1470,
    "tout": 21068,
    "Ġunsatisfied": 22048,
    "Ġamused": 11803,
    "Ġmystical": 12137,
    "Ġdegener": 14051,
    "Ġcommands": 16591,
    "Ġapologizing": 25198,
    "inev": 21983,
    "lover": 18537,
    "Ġopened": 3514,
    "exceedingly": 9569,
    "mag": 6509,
    "Ġallured": 14116,
    "Ġfrontispiece": 23917,
    "standers": 18479,
    "ath": 860,
    "Ġcitations": 25438,
    "Ġforgotten": 5679,
    "Ġflying": 5413,
    "Ġexploring": 4304,
    "Ġpant": 10819,
    "Ġincalculable": 17463,
    "ater": 3372,
    "rollable": 13948,
    "Ġyanke": 18100,
    "Ġusually": 6265,
    "Ŀ": 256,
    "Ġgurg": 15677,
    "Ġdrifted": 14627,
    "Ġaccomplished": 7106,
    "Ġassizes": 11109,
    "Ġ106": 24414,
    "darcy": 5208,
    "Ġagree": 7647,
    "Ġsomething": 1796,
    "Ġscra": 5842,
    "Ġbeale": 12704,
    "compliments": 24807,
    "Ġkeel": 6445,
    "Ġconfide": 13102,
    "Ġdeliverance": 15161,
    "fortune": 4975,
    "invincible": 25092,
    "lonely": 20959,
    "Ġcrown": 5289,
    "Ġaccomplish": 14879,
    "Ġapparent": 5466,
    "Ġcomposedly": 25184,
    "Ġmoments": 4847,
    "Ġinquiries": 5678,
    "Ġflutter": 16252,
    "Ġhunch": 18937,
    "Ġreceives": 20357,
    "apothecary": 26547,
    "Ġmich": 21308,
    "Ġoar": 6238,
    "Ġvoyages": 6908,
    "bal": 2156,
    "Ġadjusted": 23459,
    "Ġindul": 5858,
    "idge": 14017,
    "Ġfin": 1459,
    "Ġmodern": 3229,
    "Ġpiazza": 26452,
    "Ġround": 1370,
    "soever": 11863,
    "omical": 9683,
    "Ġgleam": 12312,
    "Ġsaleve": 17395,
    "omit": 13977,
    "Ġwarped": 25038,
    "Ġhamp": 12635,
    "Ġbount": 15572,
    "eight": 9594,
    "lie": 12487,
    "Ġwhite": 1539,
    "Ġharem": 9712,
    "Ġthump": 11613,
    "Ġforfeit": 21779,
    "umst": 2499,
    "Ġ124": 24469,
    "Ġblunder": 18820,
    "Ġchinks": 22255,
    "unhesitatingly": 26498,
    "Ġto": 297,
    "Ġcalam": 13039,
    "Ġnearly": 3364,
    "Ġcreative": 9830,
    "Ġscarcity": 23829,
    "Ġconfeder": 25708,
    "cheerfulness": 20183,
    "compared": 24036,
    "Ġret": 1381,
    "additional": 20467,
    "Ġjeopardy": 13600,
    "Ġpreventing": 883,
    "Ġdedu": 5583,
    "Ġledger": 19405,
    "before": 3114,
    "Ġpr": 1599,
    "endure": 22229,
    "Ġturnkeys": 23032,
    "Ġindispensable": 11906,
    "Ġtrading": 23080,
    "Ġinitialization": 1252,
    "Ġaltern": 7394,
    "Ġdispleasure": 16056,
    "Ġhailed": 6408,
    "Ġwast": 21864,
    "derment": 22165,
    "Ġeffusion": 22523,
    "Ġcoldly": 14652,
    ",âĢĻ": 2328,
    "mile": 17599,
    "Ġtorment": 8677,
    "Ġbeautifully": 13272,
    "whence": 23219,
    "ation": 320,
    "Ġreeds": 15700,
    "Ġlosing": 10917,
    "Ġunwarranted": 24831,
    "Ġmuffled": 10643,
    "Ġcapstan": 9102,
    "<EOS>": 2,
    "corrid": 24484,
    "Ġspade": 9262,
    "Ġkeenest": 12166,
    "Ġwhir": 6394,
    "i": 77,
    "Ġevaporate": 26334,
    "Ġblu": 2687,
    "Åĵuv": 15186,
    "Ġstrained": 10221,
    "Ġgratitude": 5599,
    "ilingly": 21727,
    "Ġpious": 11600,
    "Ġrefrain": 12951,
    "Ġskills": 1840,
    "pondicherry": 26402,
    "conjectured": 25182,
    "ud": 903,
    "Ġspeak": 2229,
    "Ġtying": 15476,
    "shaw": 6864,
    "Ġdwell": 5813,
    "Ġlunging": 24992,
    "fier": 9596,
    "Ġoffer": 4845,
    "Ġca": 21342,
    "wandered": 20288,
    "Ġamusement": 8056,
    "unvarying": 21891,
    "ilt": 2968,
    "Ġsult": 10769,
    "Ġtweezers": 26558,
    "agos": 21908,
    "iana": 7050,
    "sink": 11523,
    "safety": 20352,
    "Ġmarked": 4621,
    "Ġcourtesy": 9948,
    "Ġpear": 11856,
    "elijah": 19476,
    "Ġskylarking": 19490,
    "club": 26382,
    "Ġsignature": 16495,
    "Ġbumpkin": 20203,
    "accompanied": 12425,
    "acceptance": 25186,
    "whales": 5187,
    "Ġinvolve": 11044,
    "Ġodious": 12155,
    "inisc": 15491,
    "Ġlabyrinth": 13683,
    "utral": 12668,
    "ignorance": 17164,
    "Ġjuncture": 17132,
    "repeated": 12343,
    "amaz": 21848,
    "Ġsore": 10766,
    "aution": 9390,
    "Ġlard": 13950,
    "Ġknowledge": 1446,
    "Ġbeliever": 25847,
    "drawing": 10489,
    "Ġseek": 4511,
    "rix": 1574,
    "combined": 20323,
    "undertaking": 23789,
    "Ġblew": 9048,
    "Ġunostentatious": 22073,
    "Ġscorn": 7902,
    "Ġest": 2264,
    "Ġunfold": 8022,
    "flex": 24844,
    "Ġextreme": 2512,
    "Ġgour": 21601,
    "Ġsolemnity": 9944,
    "Ġappo": 8501,
    "Ġnursed": 16887,
    "Ġvolumes": 14803,
    "exerc": 16019,
    "Ġbraved": 23840,
    "Ġslackened": 15130,
    "cele": 21628,
    "Ġknocked": 9503,
    "Ī": 235,
    "Ġbarn": 11589,
    "Ġdifficult": 3572,
    "aborate": 14025,
    "flight": 15356,
    "Ġsticks": 14934,
    "expectation": 14859,
    "stuff": 15692,
    "verest": 13994,
    "unctions": 18158,
    "keys": 15862,
    "commanders": 16991,
    "acious": 5562,
    "oldened": 22643,
    "Ġcustody": 13651,
    "Ġprizes": 13078,
    "Ġeas": 2353,
    "Ġassertion": 13493,
    "Ġpasseng": 12976,
    "Ġblasphemy": 26116,
    "skin": 10571,
    "disposed": 25013,
    "fordshire": 4678,
    "Ġchambermaid": 24306,
    "Ġobstinate": 11337,
    "Ġengraved": 17082,
    "Ġcan": 469,
    "Ġstated": 9692,
    "Ġsharply": 9406,
    "ink": 757,
    "Ġdomains": 6613,
    "Ġfocused": 16343,
    "Ġdiscu": 4364,
    "Ġshaft": 18230,
    "Ġsmoothe": 23660,
    "ilburn": 18062,
    "Ġcharted": 22254,
    "regards": 23468,
    "Ġcandles": 9911,
    "handed": 7482,
    "Ġusing": 733,
    "Ġprocure": 9513,
    "Ġfolk": 10378,
    "Ġcompares": 20169,
    "engthen": 14460,
    "Ġdemocracy": 25459,
    "Ġlegisl": 23535,
    "jour": 20929,
    "commotion": 24914,
    "Ġple": 1468,
    "Ġnarration": 13507,
    "ility": 624,
    "oregressive": 3426,
    "leader": 25352,
    "Ġbended": 21388,
    "Ġcourt": 4167,
    "Ġparch": 11730,
    "Ġmish": 15541,
    "Ġintolerable": 8484,
    "Ġaut": 1792,
    "ivia": 22086,
    "Ġtoken": 2037,
    "Ġwhe": 439,
    "Ġunforgiving": 25996,
    "successively": 24778,
    "aphys": 15205,
    "mm": 674,
    "Ġmatrim": 11061,
    "mccarthy": 15398,
    "Ġpassenger": 14372,
    "saw": 5895,
    "Ġadviser": 25313,
    "clifford": 23158,
    "Ġ135": 24784,
    "Ġnevertheless": 5040,
    "Ġcheating": 16372,
    "Ġvertical": 16606,
    "Ġcircumnavigating": 25615,
    "swe": 5997,
    "Ġwhim": 14002,
    "march": 13758,
    "enched": 10157,
    "Ġfet": 5808,
    "Ġqueen": 3213,
    "begins": 18523,
    "Ġfurnishing": 16648,
    "Ġplutarch": 22607,
    "caroline": 24152,
    "Ġundulations": 19518,
    "made": 4809,
    "Ġancles": 21449,
    "Ġmiserable": 3636,
    "Ġvictoria": 14876,
    "foam": 24418,
    "Ġmonths": 3458,
    "Ġstem": 15723,
    "pressing": 19014,
    "ins": 1378,
    "script": 11078,
    "Ġobedience": 11414,
    "Ġsurv": 6082,
    "ibid": 18843,
    "Ġdevils": 7230,
    "Ġtribes": 20484,
    "Ġtomorrow": 21516,
    "Ġflooring": 23625,
    "irons": 10241,
    "Ġbrowne": 13306,
    "Ġtrials": 16791,
    "Ġruled": 22787,
    "Ġsecluded": 11997,
    "Ġtension": 13827,
    "Ġhoisting": 9865,
    "kers": 7134,
    "Ġpluck": 15618,
    "Ġtremulous": 14989,
    "Ġsatiated": 22906,
    "shabb": 18494,
    "Ġopenly": 8576,
    "din": 8374,
    "Ġhandling": 8916,
    "Ġseldom": 4631,
    "Ġcentrally": 23834,
    "Ġavoid": 5199,
    "exposure": 19259,
    "Ġrelated": 3717,
    "encoura": 15051,
    "Ġbraided": 16584,
    "Ġastr": 15497,
    "Ġfloundered": 18863,
    "disinterested": 23503,
    "Ġfriend": 1294,
    "Ġunpleasing": 22059,
    "marrying": 19550,
    "Ġappropriated": 23486,
    "Ġkin": 15908,
    "Ġsteep": 2888,
    "Ġremorse": 6442,
    "Ġork": 18285,
    "Ġprecision": 13191,
    "Ġknees": 6928,
    "Ġ25": 13196,
    "Ġquadru": 16008,
    "Ġirrespective": 23378,
    "Ġpressing": 9264,
    "Ġshouting": 10525,
    "Ġdeputation": 21843,
    "Ġforeseeing": 23451,
    "Ġbush": 23340,
    "Ġlighten": 23262,
    "Ġaxe": 15064,
    "Ġselection": 18203,
    "Ġguest": 7249,
    "mosp": 8089,
    "Ġtrinity": 22348,
    "Ġfaltering": 17886,
    "mming": 1175,
    "dropping": 14985,
    "Ġconcealment": 16916,
    "Ġoppression": 23655,
    "estion": 18361,
    "education": 20304,
    "gentle": 5357,
    "Ġrev": 6989,
    "Ġlandowner": 23384,
    "writing": 7721,
    "Ġappetites": 20209,
    "Ġcalcul": 3639,
    "sive": 4142,
    "outon": 12808,
    "oglyph": 11019,
    "Ġinnocent": 4922,
    "Ġastonishing": 10504,
    "Ġjapanese": 10635,
    "Ġcordially": 16838,
    "Ġbuttoned": 25369,
    "Ġassistants": 9454,
    "ience": 802,
    "Ġnailing": 21530,
    "Ġindefatigable": 17180,
    "Ġquietude": 19363,
    "Ġdormouse": 4926,
    "Ĝ": 221,
    "infer": 10147,
    "Ġtrans": 632,
    "Ġasi": 12737,
    "Ġproclaim": 18133,
    "Ġweak": 5098,
    "Ġinser": 6820,
    "Ġjingling": 26015,
    "cooks": 25070,
    "castles": 14638,
    "wantonly": 25153,
    "Ġarrested": 9563,
    "Ġdeck": 2136,
    "pocket": 9812,
    "Ġcorpusants": 13681,
    "vable": 10135,
    "Ġfaculties": 14961,
    "wal": 10136,
    "istry": 22113,
    "Ġscarce": 8625,
    "Ġhaste": 9006,
    "shed": 8095,
    "Ġern": 8397,
    "ĠĠĠĠĠĠĠĠĠĠĠĠĠĠĠĠĠĠĠĠĠĠĠ": 18835,
    "cabinet": 25080,
    "Ġreasoner": 14444,
    "Ġexped": 7651,
    "horr": 14601,
    "Ġuncles": 23433,
    "Ġdrawled": 23992,
    "crow": 9593,
    "ites": 3898,
    "said": 4103,
    "Ġboundary": 11223,
    "Ġstoner": 7179,
    "Ġaffectionate": 5585,
    "Ġhoist": 11981,
    "Ġstart": 3259,
    "Ġaccompaniments": 24482,
    "start": 7599,
    "Ġthoroughfares": 26096,
    "Ġperf": 12855,
    "circum": 16739,
    "oric": 21399,
    "Ġchecking": 23289,
    "atiable": 17776,
    "Ġreached": 4022,
    "Ġclergyman": 8715,
    "Ġtendinous": 16933,
    "Ġdur": 11594,
    "Ġtesting": 23215,
    "daring": 20831,
    "convenient": 12242,
    "rise": 6228,
    "evident": 25521,
    "expound": 23665,
    "Ġaccuracy": 1072,
    "Ġwr": 1546,
    "Ġharriet": 24573,
    "Ġsnug": 8280,
    "Ġdepose": 22610,
    "Ġunlim": 18254,
    "painting": 17047,
    "Ġaccommodate": 20520,
    "affold": 16564,
    "Ġshun": 11713,
    "Ġstick": 6027,
    "Ġstep": 752,
    "waving": 21134,
    "Ġconsciousness": 9951,
    "Ġrhine": 12360,
    "Ġastonishment": 4795,
    "comed": 8547,
    "Ġsystem": 578,
    "Ġbulge": 23860,
    "Ġweal": 21924,
    "Ġindoors": 18839,
    "ol": 361,
    "Ġsingers": 23773,
    "Ġwilt": 9646,
    "humor": 19455,
    "kins": 7345,
    "embraced": 25805,
    "changed": 7176,
    "using": 5468,
    "Ġcommodores": 25375,
    "Ġproceed": 3244,
    "Ġchoose": 5983,
    "Ġelevation": 14902,
    "Ġpirates": 9076,
    "pacific": 17643,
    "rapt": 13976,
    "cab": 7333,
    "jabez": 20935,
    "Ġlegit": 16475,
    "Ġinjure": 16783,
    "ield": 2407,
    "Ġexists": 14045,
    "Ġassu": 21901,
    "ĠĠĠĠ": 460,
    "ribes": 23369,
    "Ġdusty": 14928,
    "Ġ1883": 23901,
    "romang": 22009,
    "Ġrecip": 16145,
    "Ġunsub": 22027,
    "Ġrelating": 2706,
    "Ġspeeding": 23566,
    "ructive": 18563,
    "culiarity": 11142,
    "Ġarea": 14189,
    "inclination": 20061,
    "connections": 14431,
    "Ġdistension": 22508,
    "sher": 5217,
    "Ġskirt": 18730,
    "bulwarks": 12277,
    "Ġimped": 18443,
    "deserts": 25382,
    "roc": 9677,
    "uvier": 9071,
    "Ġassume": 10518,
    "waiter": 24587,
    "Ġswept": 7978,
    "ieve": 1656,
    "Ġmarshy": 20221,
    "Ġgrapnels": 25552,
    "Ġconsequently": 8060,
    "Ġgorge": 13570,
    "gall": 6361,
    "Ġpost": 4271,
    "Ġarri": 2551,
    "Ġtraitors": 23079,
    "ifix": 21907,
    "ord": 667,
    "Ġperfection": 19221,
    "Ġcandelab": 23852,
    "Ġding": 12604,
    "ensity": 11817,
    "Ġerred": 21159,
    "projecting": 26074,
    "bour": 2072,
    "Ġlac": 17967,
    "pressed": 6589,
    "french": 9122,
    "Ġtunnels": 24621,
    "Ġanalog": 12617,
    "Ġfireplace": 13149,
    "Ġevidently": 6760,
    "imming": 9690,
    "Ġcontributes": 15254,
    "Ġextinguish": 14349,
    "Ġpretence": 13211,
    "ccarthy": 4889,
    "ering": 1267,
    "Ġreturned": 2890,
    "Ġgn": 8822,
    "drugg": 20840,
    "luck": 5733,
    "jaws": 20934,
    "easy": 9595,
    "Ġcarriage": 3950,
    "Ġeluc": 16112,
    "concl": 12874,
    "pires": 13778,
    "Ġaffecting": 2324,
    "matical": 13133,
    "Ġcreature": 2383,
    "Ġimpotent": 18447,
    "io": 3802,
    "seventh": 12719,
    "trip": 21094,
    "Ġbridle": 24682,
    "Ġbook": 2703,
    "ond": 1162,
    "diligence": 26111,
    "Ġmel": 4818,
    "blunder": 24132,
    "Ġcollateral": 20075,
    "Ġquakers": 22420,
    "Ġsetting": 7048,
    "suspended": 15181,
    "Ġtumble": 16881,
    "Ġpersonified": 19180,
    "keeping": 8638,
    "Ġaustral": 12177,
    "ugging": 23293,
    "Ġaroused": 15902,
    "hint": 12480,
    "precisely": 6917,
    "dut": 10090,
    "Ġgiving": 4085,
    "Ġintu": 12768,
    "Ġengaged": 3431,
    "clut": 23152,
    "Ġdangerous": 6616,
    "Ġworking": 5575,
    "Ġjon": 15947,
    "Ġungod": 22028,
    "pictures": 15094,
    "udg": 22741,
    "Ġunembarrassed": 22075,
    "sil": 5283,
    "undoubtedly": 13316,
    "halloa": 17091,
    "Ġlivery": 16004,
    "Ġgirdle": 19160,
    "Ġbids": 24646,
    "Ġspurred": 22143,
    "Ġearly": 2079,
    "smoke": 17225,
    "Ġfeeds": 16436,
    "Ġlondon": 2839,
    "Ġsoar": 18277,
    "moid": 2447,
    "Ġvisions": 12978,
    "Ġmitigating": 1615,
    "Ġcells": 13888,
    "hills": 13739,
    "accomplishment": 20226,
    "Ġmere": 2715,
    "gish": 20875,
    "impud": 23762,
    "Ġmichigan": 26428,
    "Ġschemes": 11132,
    "Ġmastiff": 23727,
    "Ġwar": 5526,
    "il": 329,
    "jo": 3752,
    "Ġknelt": 12163,
    "Ġhotels": 19539,
    "Ġbutter": 6842,
    "Ġpretension": 23766,
    "conced": 22472,
    "Ġearthy": 23715,
    "Ġbod": 4583,
    "Ġhairy": 23868,
    "Ġhundred": 2694,
    "Ġ/*": 10142,
    "vers": 1326,
    "Ġnorth": 4320,
    "Ġpods": 17915,
    "Ġalphabetical": 17204,
    "Ġradiating": 24331,
    "Ġplanisphere": 26609,
    "Ġmim": 3105,
    "arthly": 8030,
    "judge": 13341,
    "Ġalarming": 14785,
    "battering": 20788,
    "Ġho": 1932,
    "Ġgra": 415,
    "Ġwhat": 601,
    "Ġcatastrophic": 3543,
    "Ġinto": 648,
    "collins": 6916,
    "explained": 23146,
    "Ġstrata": 26028,
    "Ġweariness": 19797,
    "soon": 4028,
    "Ġgentlemanly": 19318,
    "answering": 26004,
    "jolly": 20933,
    "Ġdressed": 5081,
    "Ġhanded": 8217,
    "Ġ129": 24474,
    "Ġsar": 21216,
    "Ġtrifles": 16953,
    "Ġarchly": 22797,
    "dred": 2525,
    "Ġforwarded": 19047,
    "inferences": 17741,
    "sl": 5794,
    "Ġchilly": 25563,
    "Ġdames": 23475,
    "Ġadmitting": 19185,
    "Ġapart": 4747,
    "Ġreligious": 25124,
    "neighbouring": 19967,
    "Ġesteemed": 10591,
    "Ġstraps": 19312,
    "Ġplunder": 22606,
    "Ġjoining": 13168,
    "Ġemotions": 8972,
    "use": 2534,
    "Ġbrides": 22869,
    "Ġhymn": 24518,
    "gazing": 12476,
    "Ġdistinguished": 8273,
    "Ġexceeding": 1580,
    "leful": 17844,
    "stache": 15694,
    "Ġcrusad": 23709,
    "knowledge": 7478,
    "idol": 21770,
    "irection": 2388,
    "Ġgamb": 18000,
    "Ġnerve": 16342,
    "Ġhurriedly": 11250,
    "Ġspray": 7894,
    "buncle": 13696,
    "ager": 6548,
    "Ġdownward": 10334,
    "Ġliterature": 17151,
    "Ġvisitor": 5331,
    "Ġfuel": 13907,
    "Ġtranquilly": 12294,
    "âĢ": 294,
    "Ġgrimes": 11035,
    "Ġgle": 7859,
    "Ġswallow": 8953,
    "torn": 17684,
    "nurs": 21001,
    "Ġ120": 16860,
    "powerful": 24848,
    "Ġisinglass": 21806,
    "determ": 7107,
    "storm": 9685,
    "Ġprove": 5231,
    "pshaw": 21030,
    "threshold": 21991,
    "matter": 5136,
    "Ġdelicacy": 6342,
    "Ġrepose": 6743,
    "Ġbutts": 15859,
    "Ġredden": 15698,
    "banish": 20784,
    "Ġfrenz": 25447,
    "disappearing": 23504,
    "Ġmerited": 23733,
    "Ġconstitutional": 25128,
    "jammed": 25907,
    "Ġsustaining": 25334,
    "Ġfoot": 3161,
    "remonstr": 23194,
    "indebted": 26159,
    "lested": 14886,
    "Ġcovari": 2338,
    "levi": 7049,
    "abeth": 908,
    "Ġrh": 9247,
    "Ġsize": 1219,
    "Ġnovelty": 13467,
    "Ġbathed": 17867,
    "uled": 11538,
    "barrow": 15324,
    "Ġtypewritten": 16425,
    "wheel": 22873,
    "Ġsuits": 22092,
    "Ġbabies": 19695,
    "Ġvibrating": 13541,
    "Ġstrikes": 13185,
    "seven": 8466,
    "Ġattend": 5035,
    "Ġblubber": 5666,
    "Ġsamples": 2962,
    "Ġlime": 13951,
    "Ġcabinet": 23864,
    "Ġwrig": 13073,
    "necess": 4897,
    "raint": 18317,
    "Ġenormous": 5609,
    "preserving": 25305,
    "sens": 8096,
    "Ġfang": 21406,
    "slack": 16896,
    "databases": 3024,
    "Ġslip": 8957,
    "Ġoverthrown": 18432,
    "Ġpaths": 2568,
    "Ġpretended": 19316,
    "Ġoat": 21326,
    "Ġjuggler": 26368,
    "Ġneighbourhood": 5126,
    "Ġmajority": 13297,
    "chors": 11647,
    "ierce": 14394,
    "oar": 12502,
    "Ġconver": 808,
    "gangway": 20670,
    "advent": 10223,
    "Ġcourses": 10413,
    "iteous": 14264,
    "Ġdestro": 3724,
    "profound": 16429,
    "Ġtearless": 24785,
    "Ġsixpence": 19319,
    "Ġunrem": 18245,
    "Ġcommod": 10336,
    "Ġrace": 5848,
    "Ġbrag": 23836,
    "Ġbackwards": 12931,
    "Ġdoes": 942,
    "era": 13850,
    "Ġtub": 7147,
    "compose": 24035,
    "father": 3777,
    "Ġsymphony": 26534,
    "lands": 8241,
    "Ġvacancies": 24345,
    "trick": 19416,
    "Ġmeanings": 18608,
    "Ġseizing": 7877,
    "omen": 4086,
    "Ġmedicine": 15210,
    "Ġpure": 6139,
    "Ġcovering": 13260,
    "Ġwarmup": 3922,
    "Ġscoresby": 10464,
    "gling": 10100,
    "Ġinscrutable": 10675,
    "Ġmean": 743,
    "aire": 10683,
    "cool": 19189,
    "83": 13684,
    "Ġgordon": 26469,
    "pag": 11512,
    "Ġtrampled": 20331,
    "id": 338,
    "Ġfaithfulness": 24446,
    "plenty": 14094,
    "Ġconceited": 12096,
    "Ġconn": 9232,
    "gment": 4391,
    "Ġtiar": 21170,
    "chose": 18043,
    "horrors": 20544,
    "Ġconcise": 23327,
    "preading": 18498,
    "Ġbrig": 11048,
    "Ġpan": 5082,
    "attachment": 13057,
    "Ġtrivial": 10145,
    "Ġcapsized": 20093,
    "Ġhollow": 5648,
    "Ġbreaches": 14523,
    "Ġlambton": 10660,
    "Ġhue": 8430,
    "Ġsoap": 14133,
    "Ġpoet": 8208,
    "Ġtou": 15469,
    "Ġceremony": 8361,
    "Ġforever": 14554,
    "tumultuously": 25614,
    "Ġprodigy": 19795,
    "Ġroasted": 18459,
    "Ġjour": 11767,
    "Ġgloomily": 14804,
    "Ġdisco": 3430,
    "Ġshivered": 14111,
    "herfield": 3632,
    "Ġopenshaw": 7956,
    "Ġharpoon": 3618,
    "point": 6064,
    "Ġlull": 15655,
    "Ġmantelpiece": 15211,
    "Ġtinged": 20086,
    "Ġunmethodically": 22074,
    "fearing": 18530,
    "Ġglorious": 11076,
    "Ġseething": 18202,
    "ske": 13785,
    "imp": 3034,
    "itud": 2929,
    "Ġworthy": 7241,
    "Ġtomb": 8812,
    "Ġcoleman": 22590,
    "Ġsigning": 22709,
    "trifling": 19417,
    "Ġlifeless": 8951,
    "effectually": 25131,
    "meadow": 18680,
    "recol": 10153,
    "Ġimminent": 11246,
    "Ġdishonor": 25602,
    "Ġdiminish": 14748,
    "Ġjumping": 13346,
    "Ġpivot": 13926,
    "Ġforms": 6398,
    "Ġlatitude": 8329,
    "dman": 10091,
    "Ġforwards": 12708,
    "Ġlift": 8815,
    "grow": 10101,
    "Ġsupper": 4667,
    "Ġdine": 7366,
    "Ġrevolution": 3305,
    "Ġmazes": 25941,
    "feelings": 5674,
    "Ġshadow": 5596,
    "Ġr": 404,
    "uniform": 18160,
    "Ġdespairing": 14776,
    "Ġpossesses": 19355,
    "Ġproxim": 3198,
    "Ġdrama": 16331,
    "mselves": 2861,
    "«": 109,
    "Ġagony": 5388,
    "contrast": 25595,
    "cannot": 5745,
    "Ġinspection": 14545,
    "Ġunt": 2292,
    "Ġpsal": 15620,
    "method": 17287,
    "hold": 3981,
    "tempered": 13450,
    "Ġscholar": 26112,
    "century": 20050,
    "thoroughly": 26510,
    "lay": 5892,
    "aging": 2238,
    "sembled": 7263,
    "Ġtower": 8319,
    "sub": 4661,
    "Ġfortunately": 12184,
    "Ġmothers": 14542,
    "Ġdivided": 8635,
    "chase": 11648,
    "Ġpresence": 5031,
    "ampl": 21846,
    "Ġnat": 12650,
    "aits": 20768,
    "ilities": 6992,
    "diver": 20833,
    "died": 11481,
    "*": 14,
    "battle": 12446,
    "Ġshaken": 10267,
    "ersampling": 18217,
    "lorn": 12492,
    "after": 2895,
    "Ġvagu": 13593,
    "Ġpark": 5465,
    "asserted": 22313,
    "taking": 5689,
    "walton": 20252,
    "kinder": 24846,
    "Ġcocks": 18598,
    "hen": 3519,
    "yourself": 6744,
    "Ġladyship": 5046,
    "lur": 13750,
    "Ġbehaviour": 4385,
    "Ġclock": 9536,
    "walked": 10573,
    "cano": 18842,
    "Ġloaded": 8493,
    "Ġrepeatedly": 9024,
    "Ġfeeble": 12288,
    "gate": 12471,
    "Ġpropos": 7064,
    "Ġadmeasure": 18294,
    "bishop": 13698,
    "Ġcurve": 22996,
    "Ġliv": 6681,
    "fowl": 17551,
    "Ġassoc": 6403,
    "musical": 25341,
    "Ġcorpor": 23042,
    "hroom": 12481,
    "istically": 14146,
    "Ġrespect": 1666,
    "Ġprom": 1528,
    "Ġrotation": 25475,
    "Ġprofoundest": 16862,
    "Ġsmilingly": 22564,
    "igms": 3047,
    "Ġleaned": 7608,
    "Ġmalignity": 10559,
    "holder": 13287,
    "flask": 12104,
    "Ġmissing": 6177,
    "Ġserious": 4323,
    "Ġcalf": 16268,
    "ulatory": 15772,
    "Ġbattalions": 25777,
    "Ġmajest": 24063,
    "Ġunfor": 15843,
    "Ġtroubled": 6618,
    "Ġarist": 14166,
    "ile": 522,
    "house": 4077,
    "Ġtep": 21164,
    "Ġcoaxing": 18601,
    "Ġenhance": 3270,
    "ighbour": 3390,
    "otic": 15749,
    "Ġmeanly": 12914,
    "vative": 1610,
    "Ġsparkled": 13466,
    "Ġwrecks": 16820,
    "Ġbewil": 11660,
    "Ġfoolscap": 24161,
    "Ġhulls": 13929,
    "Ġtapering": 8775,
    "Ġactiv": 834,
    "Ġodorous": 19569,
    "willing": 6594,
    "Ġbre": 1914,
    "Ġcorrect": 2430,
    "Ġanalysis": 1850,
    "Ĭ": 237,
    "Ġcretan": 22725,
    "Ġentire": 2557,
    "icher": 9205,
    "Ġmatlock": 18806,
    "trunk": 23951,
    "Ġbeth": 9660,
    "Ġaffording": 14824,
    "Ġsmacking": 20168,
    "Ġtener": 21166,
    "Ġpreserving": 19799,
    "sprinkling": 24913,
    "pyramid": 21032,
    "Ġscotch": 12214,
    "alog": 8809,
    "Ġhereford": 22880,
    "Ġmutinous": 23961,
    "Ġviol": 2071,
    "Ġlit": 6248,
    "xter": 9149,
    "Ġfocuses": 8653,
    "https": 11688,
    "Ġacquies": 11098,
    "gments": 12474,
    "Ġindulging": 16906,
    "aton": 21261,
    "Ġgrate": 12969,
    "Ġtropics": 17067,
    "!_": 7329,
    "Ġexertions": 13414,
    "inary": 3275,
    "protection": 19922,
    "Ġbrothers": 13179,
    "Ġconvention": 25547,
    "Ġsmack": 9303,
    "hilar": 25084,
    "Ġwhole": 1659,
    "Ġannounce": 13343,
    "hitherto": 17286,
    "oud": 1941,
    "des": 3171,
    "Ġconclude": 8584,
    "islanders": 25443,
    "Ġbadly": 12136,
    "Ġwho": 612,
    "Ġhates": 21489,
    "Ġreflections": 5948,
    "collinses": 19925,
    "Ġpatch": 4181,
    "Ġceaseless": 13492,
    "15": 12434,
    "play": 5099,
    "Ġtool": 21514,
    "eness": 2289,
    "employed": 17264,
    "Ġglanced": 5953,
    "Ġboats": 2637,
    "orn": 2243,
    "rossing": 18649,
    "chanced": 18805,
    "pet": 4868,
    "Ġannouncing": 16756,
    "pract": 10122,
    "Ġincludes": 2011,
    "Ġhearers": 15707,
    "header": 11937,
    "Ġrisen": 9496,
    "Ġintrig": 21994,
    "still": 4218,
    "©": 107,
    "ĠâĢĻ": 3044,
    "Ġslipper": 24268,
    "bout": 20775,
    "Ġunited": 6840,
    "Ġprof": 2457,
    "Ġtechn": 9370,
    "Ġclimes": 12846,
    "izar": 14053,
    "cont": 2919,
    "Ġslappin": 18945,
    "Ġowest": 25094,
    "igations": 18046,
    "Ġbes": 2661,
    "fitters": 24760,
    "Ġupbraided": 26530,
    "prim": 23813,
    "Ġfather": 1451,
    "Ġtragedy": 10670,
    "Ġsides": 4581,
    "blo": 6355,
    "ostentatious": 20654,
    "Ġmaps": 2963,
    "Ġbrilliancy": 20110,
    "Ġp": 288,
    "Ġrestraint": 15131,
    "fro": 8736,
    "Ġprep": 4191,
    "Ġmultiplied": 23692,
    "ley": 1817,
    "Ġbraces": 14672,
    "ivable": 10912,
    "tomorrow": 25915,
    "Ġexchange": 15760,
    "Ġgibe": 25960,
    "umer": 9261,
    "handsome": 13180,
    "enderby": 25216,
    "tears": 11038,
    "Ġmonotonically": 3834,
    "continuing": 24479,
    "Ġspecimens": 18860,
    "Ġthoroughfare": 16946,
    "Ġpreferment": 19855,
    "ark": 849,
    "Ġrobbed": 23006,
    "Ġpolynesian": 26027,
    "Ġoppose": 16522,
    "ificent": 8184,
    "Ġsays": 3562,
    "Ġshapeless": 24524,
    "ppa": 10242,
    "Ġclosed": 4607,
    "rary": 4577,
    "sur": 4525,
    "Ġberyl": 20493,
    "Ġcontradict": 12389,
    "sample": 12511,
    "Ġcausing": 16360,
    "Ġfant": 9176,
    "Ġbottom": 3676,
    "Ġsweetly": 23922,
    "Ġassail": 13068,
    "Ġforeb": 12008,
    "ee": 1657,
    "Ġblowing": 10487,
    "sme": 17660,
    "Ġvictor": 5125,
    "Ġstraight": 3704,
    "Ġ67": 19663,
    "rocket": 13947,
    "Ġdiscomposed": 25581,
    "Ġ=": 1075,
    "excuse": 13385,
    "Ġrecourse": 22738,
    "Ġstrict": 7222,
    "ough": 472,
    "Ġpregnant": 26537,
    "breadth": 20279,
    "fight": 17540,
    "Ġspoil": 17009,
    "aps": 1230,
    "Ġleeward": 6212,
    "Ġcoop": 14273,
    "Ġdre": 1744,
    "Ġmixture": 9565,
    "Ġthrow": 3784,
    "surgeon": 24217,
    "Ġapp": 496,
    "Ġexpressing": 12013,
    "searching": 25106,
    "imin": 1768,
    "Ġswallows": 18884,
    "Ġdepending": 14299,
    "Ġsublime": 8066,
    "riving": 21930,
    "dece": 11738,
    "nantucketer": 24975,
    "murderer": 13397,
    "obtained": 23098,
    "consum": 12875,
    "tick": 17680,
    "mouthful": 25209,
    "Ġlimited": 23547,
    "Ġburly": 19252,
    "buck": 17493,
    "Ġsentin": 16377,
    "rate": 2421,
    "Ġpleasures": 11143,
    "Ġmason": 10160,
    "stupid": 12681,
    "Ġcosmopolitan": 20643,
    "Ġtransom": 22442,
    "icity": 2538,
    "Ġhoarse": 14528,
    "Ġtens": 17725,
    "Ġearthly": 7990,
    "bag": 7542,
    "hemat": 3128,
    "Ġchristianity": 19863,
    "yield": 13812,
    "explanation": 12362,
    "drove": 16995,
    "Ġmischief": 8544,
    "Ġinsists": 23680,
    "Ġreporting": 24658,
    "Ġsurmised": 24920,
    "wrong": 13210,
    "Ġcubs": 20090,
    "Ġmaz": 15546,
    "Ġproposed": 7460,
    "Ġain": 6970,
    "Ġdesist": 16239,
    "Ġmetaphys": 16410,
    "Ġemployment": 8632,
    "<PAD>": 0,
    "Ġcontents": 7210,
    "ensing": 12901,
    "swell": 17665,
    "secret": 12241,
    "Ġimpotently": 22394,
    "Ġsubstantial": 14813,
    "move": 11858,
    "Ġack": 5622,
    "Ġneural": 623,
    "Ġcourting": 23294,
    "Ġthroes": 24575,
    "Ġpom": 21454,
    "Ġcrime": 4618,
    "Ġlieu": 19567,
    "devilish": 17083,
    "Ġchord": 22249,
    "ran": 11517,
    "Ġimpenitent": 26550,
    "worship": 19390,
    "Ġabide": 14190,
    "Ġclo": 6044,
    "Ġscuff": 15953,
    "Ġ30": 10514,
    "Ġdeser": 3887,
    "Ġcake": 12575,
    "ening": 3104,
    "Ġgentleman": 3041,
    "Ġhall": 4184,
    "fall": 5135,
    "Ġturks": 14600,
    "Ġschools": 9480,
    "Ġdearest": 5457,
    "ming": 3602,
    "aware": 16298,
    "Ġsupplied": 8946,
    "Ġoutcast": 18414,
    "Ġdowry": 20688,
    "Ġstrategies": 1841,
    "Ġabhorred": 9511,
    "Ġpresc": 15929,
    "Ġsurgeons": 23466,
    "Ġlash": 8440,
    "Ġdome": 15593,
    "iber": 6507,
    "Ġcaulking": 20296,
    "Ġwould": 652,
    "Ġbalmoral": 16210,
    "Ġliter": 8816,
    "Ġnuptial": 25783,
    "Ġflirting": 16254,
    "or": 282,
    "posterity": 25489,
    "Ġhop": 1460,
    "itself": 7834,
    "Ġinfernal": 11966,
    "Ġhimmale": 18335,
    "Ġeffusions": 18543,
    ",*": 17474,
    "killer": 20479,
    "Ġcompletion": 12152,
    "renadier": 18420,
    "published": 26143,
    "Ġsins": 13840,
    "Ġdivide": 12115,
    "Ġburning": 5978,
    "quaker": 15767,
    "Ġtrepidation": 19218,
    "companies": 24895,
    "Ġdescribed": 6608,
    "minds": 24235,
    "huzza": 20915,
    "ways": 1442,
    "Ġchange": 1994,
    "#": 7,
    "ped": 6964,
    "Ġedinburgh": 16459,
    "elly": 17982,
    "3": 23,
    "Ġpremeditated": 22238,
    "Ġgrown": 5628,
    "Ġneur": 814,
    "Ġridge": 14822,
    "pped": 1998,
    "Ġhair": 3314,
    "Ġwedged": 24936,
    "aciously": 12912,
    "ition": 654,
    "Ġliving": 3063,
    "Ġmort": 3462,
    "Ġreduce": 7943,
    "mond": 20976,
    "sorrow": 12513,
    "omics": 21646,
    "Ġ74": 24264,
    "Ġhealthy": 10852,
    "icest": 21567,
    "Ġhumane": 11888,
    "Ġtwit": 12934,
    "Ġtransported": 11280,
    "fil": 12467,
    "stre": 5451,
    "elson": 16376,
    "mechan": 11861,
    "contemplated": 20461,
    "anel": 21360,
    "Ġharm": 5017,
    "gu": 3956,
    "Ġafric": 8909,
    "Ġsuperseded": 26226,
    "uten": 11624,
    "Ġdeemed": 7613,
    "Ġjib": 14193,
    "Ġinventing": 24862,
    "read": 3276,
    "dread": 8732,
    "Ġwinc": 9645,
    "Ġabusive": 22277,
    "Ġperth": 7024,
    "locks": 14459,
    "stream": 15691,
    "Ġmorbid": 16237,
    "Ġbloss": 19258,
    "reply": 19725,
    "Ġvaliantly": 22799,
    "Ġarranged": 9880,
    "Ġparr": 22123,
    "Ġbressed": 21390,
    "Ġmand": 21307,
    "Ġplayful": 19239,
    "Ġfri": 17880,
    "Ġelephant": 8256,
    "Ġproverb": 12721,
    "Ġenables": 724,
    "Ġwaiting": 4324,
    "Ġpangs": 15619,
    "rine": 21040,
    "destroyed": 15264,
    "Ġimpatiently": 8338,
    "Ġungrateful": 14124,
    "Ġopening": 5045,
    "returned": 7766,
    "pane": 10123,
    "Ġcircumstance": 4987,
    "Ġsoothe": 7405,
    "Ġaugmentation": 20119,
    "Ġnorthern": 7265,
    "Ġviolet": 19092,
    "which": 1707,
    "Ġlate": 3379,
    "pardon": 10068,
    "Ġcruisers": 25864,
    "Ġsovere": 9259,
    "entions": 17977,
    "senses": 25025,
    "sufficiently": 14984,
    "Ġket": 18348,
    "ivial": 15865,
    "Ġdawn": 6817,
    "İ": 241,
    "anter": 9169,
    "surpr": 5998,
    "Ġjoyously": 19350,
    "data": 2306,
    "Ġreplace": 14480,
    "Ġstructured": 2973,
    "perseus": 26006,
    "Ġruss": 18719,
    "Ġactivation": 919,
    "society": 9975,
    "Ġmusket": 12300,
    "pen": 1206,
    "rade": 9682,
    "Ġfinger": 5274,
    "Ġplaces": 5390,
    "blown": 25202,
    "Ġ79": 24267,
    "Ġrang": 9248,
    "Ġapproximate": 2342,
    "noise": 14336,
    "Ġhell": 5019,
    "Ġavast": 9923,
    "Ġsuggested": 8321,
    "irc": 1730,
    "Ġphyseter": 26588,
    "Ġreus": 8826,
    "Ġphren": 8575,
    "Ġnin": 10190,
    "Ġchronicler": 20232,
    "Ġbiases": 2397,
    "plexion": 14263,
    "daylight": 19057,
    "Ġsleeps": 10448,
    "Ġbelieves": 14411,
    "Ġkelson": 18351,
    "semicirc": 26493,
    "Ġancient": 5443,
    "Ġhideousness": 16917,
    "st": 316,
    "anim": 6523,
    "ings": 631,
    "Ġtrain": 515,
    "Ġsimpler": 2046,
    "Ġunsafe": 22045,
    "sails": 7497,
    "Ġturing": 7566,
    "Ġklux": 22199,
    "icial": 12660,
    "Ġmir": 9649,
    "Ġcoward": 7156,
    "canst": 22966,
    "Ġequ": 1734,
    "Ġsumm": 3356,
    "Ġnarr": 5085,
    "Ġbeams": 14633,
    "Ġmor": 1249,
    "imagination": 13484,
    "ith": 330,
    "Ġaged": 10324,
    "scenes": 16245,
    "Ġgroom": 13969,
    "perse": 15897,
    "Ġmalice": 7153,
    "well": 1690,
    "Ġ\"": 6121,
    "Ġtwitch": 22679,
    "Ġradiance": 13375,
    "talked": 14988,
    "advantage": 8662,
    "Ġninety": 13605,
    "leman": 21371,
    "Ġinseparable": 20691,
    "aurus": 20563,
    "penet": 11071,
    "Ġsundry": 20077,
    "Ġtrap": 7672,
    "Ġconfed": 13101,
    "Ġfrequencies": 4790,
    "Ġbeasts": 10620,
    "Ġclassification": 1098,
    "slightest": 25417,
    "odes": 18122,
    "Ġhessian": 3549,
    "Ġcig": 6521,
    "Ġbelfry": 26440,
    "Ġhapless": 15816,
    "vanished": 15063,
    "Ġresolve": 13174,
    "Ġburtons": 19255,
    "dep": 6787,
    "Ġtold": 2186,
    "conv": 7213,
    "Ġsummary": 19407,
    "tale": 10130,
    "covering": 15337,
    "thr": 12765,
    "Ġremembr": 24173,
    "Ġthanking": 18603,
    "bug": 17495,
    "Ġholidays": 22925,
    "Ġfooted": 23798,
    "bu": 5132,
    "waist": 13422,
    "rennial": 22344,
    "Ġmagical": 23101,
    "Ġadmon": 15872,
    "Ġsle": 2013,
    "urns": 10216,
    "ĠĠĠĠĠĠĠĠĠĠĠĠĠĠĠĠĠĠĠĠĠĠĠĠĠĠĠĠĠĠĠĠĠĠĠĠĠĠĠĠĠĠĠ": 12159,
    "hand": 2759,
    "Ġposture": 24167,
    "Ġdestination": 19151,
    "Ġrescued": 24209,
    "bell": 7332,
    "Ġcomp": 723,
    "seat": 18127,
    "7": 27,
    "inst": 4294,
    "danced": 20830,
    "Ġgamy": 18001,
    "Ġbelly": 10372,
    "Ġcheshire": 13094,
    "Ġbrawny": 13617,
    "fab": 13719,
    "rubbery": 17345,
    "Ġstranded": 9778,
    "Ġcondu": 18112,
    "Ġevangelists": 20342,
    "adr": 6995,
    "autions": 20769,
    "carb": 20812,
    "hereafter": 19219,
    "Ġthrows": 14740,
    "som": 3291,
    "Ġtierce": 15481,
    "threw": 21988,
    "Ġaccomplishments": 13383,
    "Ġbeatrix": 24207,
    "Ġbase": 5013,
    "Ġtale": 5142,
    "Ġautonom": 10417,
    "Ã¦st": 24178,
    "cried": 8728,
    "Ġsoliloqu": 11889,
    "Ġparsee": 6414,
    "Ġextinguished": 10349,
    "Ġdiddled": 22670,
    "Ġscr": 11770,
    "Ġfar": 1450,
    "Ġfactory": 23279,
    "Ġmostly": 7664,
    "Ġunlocking": 20708,
    "prodig": 16430,
    "Ġpanthe": 19656,
    "Ġbeads": 18086,
    "abhor": 12712,
    "Ġmanip": 8875,
    "Ġsheeted": 19834,
    "Ġentertainment": 12227,
    "Ġconstable": 19068,
    "chest": 11209,
    "Ġbillows": 7502,
    "Ġappalling": 8502,
    "casks": 20406,
    "Ġg": 310,
    "broad": 8646,
    "Ġmade": 1051,
    "scand": 18851,
    "yrin": 12527,
    "sper": 4436,
    "enari": 21284,
    "Ġcompasses": 11268,
    "aster": 1869,
    "closing": 23157,
    "mbl": 5947,
    "Ġdisaster": 12892,
    "miniature": 16767,
    "hel": 4815,
    "Ġbirch": 26175,
    "Ġseeks": 14306,
    "Ġstepfather": 7221,
    "Ġrapid": 1426,
    "Ġrobberies": 23007,
    "Ġraiment": 22652,
    "declined": 25175,
    "ceiving": 3902,
    "Ġadversity": 24305,
    "Ġhut": 15623,
    "berg": 11869,
    "wling": 11546,
    "perils": 22182,
    "jol": 20927,
    "confined": 24328,
    "dispute": 23501,
    "Ġcurbstone": 26047,
    "Ġaccess": 9750,
    "Ġindicates": 3193,
    "eman": 5636,
    "_âĢĶ": 11468,
    "Ġrides": 21975,
    "Ġjost": 23632,
    "sacred": 17030,
    "P": 52,
    "Ġstealing": 18895,
    "Ġperfectly": 3702,
    "Ġperish": 8878,
    "Ġupbra": 22157,
    "sooner": 14781,
    "comfortableness": 24525,
    "Ġsacrilege": 26231,
    "Ġserving": 14488,
    "web": 18665,
    "smo": 10128,
    "Ġ1000": 3117,
    "Ġforemast": 12010,
    "Ġglassy": 19563,
    "grateful": 10430,
    "Ġhunted": 7453,
    "Ġsome": 655,
    "pleasant": 5876,
    "Ġbrutality": 26278,
    "Ġdeepest": 8213,
    "Ġtormented": 8678,
    "ital": 4819,
    "Ġpersonages": 23543,
    "Ġnods": 19064,
    "Ġpassionately": 16766,
    "tit": 11529,
    "iably": 13741,
    "comm": 7440,
    "Ġsensit": 2946,
    "Ġunwillingness": 20035,
    "Ġ76": 24265,
    "Ġpredecessor": 26255,
    "Ġglobe": 6077,
    "bald": 16446,
    "teak": 22820,
    "Ġattractions": 12921,
    "gam": 10098,
    "Ġbenches": 18781,
    "punct": 20195,
    "Ġterribly": 10427,
    "tornadoes": 26154,
    "Ġcoff": 3509,
    "Ġpromptly": 23820,
    "Ġoccupant": 16654,
    "Ġclasp": 9747,
    "lies": 15385,
    "Ġboil": 16108,
    "Ġseparating": 16684,
    "Ġmyth": 18221,
    "condem": 16345,
    "hon": 6794,
    "usiveness": 22287,
    "support": 9472,
    "hetically": 21211,
    "ibank": 6880,
    "Ġneedle": 8275,
    "Ġtelescope": 17351,
    ").âĢĿ": 20743,
    "lakeman": 13754,
    "Ġulster": 14999,
    "supper": 12925,
    "Ġremarking": 13128,
    "iture": 5696,
    "Ġmuchness": 18709,
    "Ġtransf": 22441,
    "Ġpresented": 5183,
    "Ġpatentee": 25587,
    "Ġfishy": 16526,
    "Ġerection": 24004,
    "Ġgreen": 3053,
    "propagation": 1247,
    "Ġimaginary": 11187,
    "Ġvoluntarily": 12145,
    "Ġdif": 869,
    "Ġdemanded": 8327,
    "Ġnobler": 14178,
    "portent": 25413,
    "bearing": 9768,
    "arboard": 7266,
    "lass": 5994,
    "Ġswaying": 15049,
    "Ġdidn": 4363,
    "hatchway": 25905,
    "Ġsockets": 22083,
    "Ġmortals": 9919,
    "Ġmagnetic": 17243,
    "Ġthre": 2057,
    "express": 4896,
    "Ġstruggle": 3677,
    "piled": 21017,
    "steps": 9408,
    "Ġanswers": 7072,
    "Ġstowed": 21740,
    "welcome": 10004,
    "chain": 18042,
    "Ġcolouring": 16753,
    "fee": 12885,
    "Ġmagnific": 16321,
    "Ġsufficient": 2003,
    "Ġbrightened": 23831,
    "Ġfad": 17878,
    "Ġexaggerate": 25650,
    "scence": 14421,
    "pier": 17637,
    "acknowledged": 15206,
    "artificial": 973,
    "Ġmultitude": 9328,
    "Ġwhoa": 22424,
    "Ġappertain": 22222,
    "toes": 22568,
    "adieu": 26202,
    "Ġdrowsy": 26446,
    "Ġhissed": 15793,
    "indifference": 15986,
    "perceived": 8862,
    "ineffectual": 26509,
    "everlasting": 18773,
    "ationally": 15709,
    "Ġshrieked": 9551,
    "Ġsignificance": 13285,
    "hoist": 23716,
    "hereditary": 26421,
    "Ġwakes": 11574,
    "Ġpilgr": 12185,
    "Ġwager": 17794,
    "uch": 876,
    "foreseen": 14256,
    "Ġeddies": 25089,
    "Ġenlist": 21940,
    "Ġbubbling": 17329,
    "Ġnewton": 3534,
    "whisper": 17084,
    "Ġspecies": 5112,
    "Ġrags": 18643,
    "Ġcompunction": 18586,
    "Ġregions": 10326,
    "Ġroast": 18456,
    "accidents": 19215,
    "Ġjunior": 15103,
    "Ġfilled": 4396,
    "precipitance": 25868,
    "gris": 8260,
    "Ġblocks": 6323,
    "Ġwarehouse": 20420,
    "bol": 8721,
    "Ġheeded": 13407,
    "Ē": 211,
    "Ġunscrew": 22044,
    "Ġpassage": 3885,
    "quarrel": 20018,
    "Ġfills": 12599,
    "Ġessays": 19747,
    "_.âĢĶ": 23474,
    "Ġpine": 8801,
    "Ġencode": 4365,
    "Ġunob": 22019,
    "Ġhoped": 5488,
    "Ġsurp": 9637,
    "nue": 15400,
    "Ġloop": 14149,
    "ich": 470,
    "Ġthose": 1176,
    "oblivious": 26584,
    "etian": 13962,
    "Ġhopelessly": 16382,
    "circuit": 24191,
    "Ġclutch": 15056,
    "Ġbump": 9662,
    "trade": 19647,
    "Ġstair": 8457,
    "Ġwash": 9706,
    "hies": 17562,
    "Ġtravels": 11931,
    "Ġsect": 17753,
    "prepare": 20215,
    "Ġsleep": 2399,
    "Ġsofa": 10271,
    "ipelag": 12847,
    "Ġclamorous": 24910,
    "Ġpropriety": 10013,
    "entiful": 10838,
    "won": 8395,
    "Ġkiller": 19571,
    "Ġconfession": 11236,
    "ĠâĢĺ_": 11117,
    "Ġforeshad": 23453,
    "ched": 1549,
    "Ġretirement": 25379,
    "Ġburn": 3685,
    "cares": 24311,
    "inative": 15487,
    "things": 6034,
    "Ġmealy": 18120,
    "Ġpiece": 5367,
    "Ġcracks": 12024,
    "Ġdestroying": 14732,
    "Ġdoxology": 22248,
    "poss": 4779,
    "Ġdates": 6695,
    "patient": 25343,
    "Ġdarts": 16770,
    "inquire": 16934,
    "archical": 1927,
    "encountered": 20396,
    "determined": 9082,
    "Ġoutermost": 22323,
    "Ġoverseeing": 22368,
    "omorrah": 18020,
    "Ġbrougham": 17872,
    "Ġwaved": 9647,
    "chet": 13221,
    "spade": 10342,
    "neural": 3066,
    "broken": 8020,
    "Ġresidual": 1678,
    "oga": 22714,
    "Ġ7": 4746,
    "Ġglide": 22984,
    "rann": 21047,
    "Ġteaching": 10367,
    "Ġmot": 2985,
    "Ġheav": 1852,
    "Ġleagues": 9226,
    "Ġsu": 433,
    "Ġwounds": 17792,
    "Ġreach": 4047,
    "Ġmuttering": 10502,
    "Ġbasics": 13452,
    "Ġjung": 12840,
    "Ġencountering": 11270,
    "Ġspinning": 15055,
    "Ġinequalities": 26455,
    "max": 1684,
    "somerset": 26324,
    "inder": 9155,
    "phia": 22763,
    "Ġexcuses": 19043,
    "Ġcabs": 23642,
    "Ġsubsided": 14551,
    "Ġinvesting": 19644,
    "Ġhoisted": 5961,
    "Ġtwink": 8216,
    "_:": 17481,
    "Ġordinarily": 20651,
    "rab": 7597,
    "igger": 21704,
    "Ġminima": 3466,
    "Ġhoping": 11104,
    "million": 25752,
    "stationed": 25454,
    "fork": 20859,
    "Ġpartner": 6716,
    "oquence": 11387,
    "Ġmr": 662,
    "sim": 6511,
    "Ġsob": 12788,
    "vious": 1783,
    "Ġscho": 4437,
    "Ġfiendish": 13332,
    "Ġadvised": 16216,
    "gs": 7338,
    "Ġsupernatural": 9876,
    "Ġimpulsive": 19966,
    "isa": 17847,
    "Ġcynicism": 25772,
    "Ġsinful": 18951,
    "together": 3557,
    "Ġscor": 8191,
    "Ġsleepy": 8268,
    "Ġapproved": 16035,
    "sw": 4742,
    "Ġdock": 15934,
    "passenger": 24169,
    "Ġgerm": 13967,
    "Ġwhalemen": 3912,
    "Ġreproof": 24891,
    "Ġjoists": 19235,
    "Ġhobbling": 25645,
    "Ġbehaved": 13258,
    "renewed": 19707,
    "anger": 2172,
    "Ġfarthest": 23119,
    "mense": 4781,
    "olera": 21830,
    "untering": 15780,
    "Ġepicures": 25880,
    "Ġcorrection": 5062,
    "Ġspars": 3810,
    "good": 2898,
    "Ġfagged": 17884,
    "horizon": 23617,
    "Ġmatrimony": 13639,
    "Ġdl": 3378,
    "glanced": 19369,
    "kles": 17586,
    "Ġsally": 15505,
    "atered": 22011,
    "found": 4213,
    "Ġaway": 1243,
    "consult": 24172,
    "Ġoath": 7833,
    "gold": 9123,
    "aled": 3944,
    "Ġvague": 6407,
    "Ġparliament": 18303,
    "Ġmatrices": 4969,
    "tied": 21073,
    "torture": 26152,
    "Ġwedded": 15539,
    "Ġhedgehogs": 25395,
    "Ġapprised": 18360,
    "Ġincoherent": 17403,
    "roar": 17955,
    "Ġpretend": 7722,
    "ò": 179,
    "althily": 19362,
    "Ġsingularly": 12153,
    "eration": 10774,
    "regular": 3042,
    "Ġthundering": 24293,
    "Ġruefully": 17304,
    "Ġicicles": 25265,
    "happily": 14659,
    "Ġhistorically": 19381,
    "Ġrebounds": 25968,
    "Ġperiod": 4003,
    "screw": 9349,
    "Ġsatisfactory": 11193,
    "pump": 21019,
    "dict": 15341,
    "Ġpreside": 18366,
    "Ġcorner": 4371,
    "ement": 1500,
    "Ġdiscoursing": 26268,
    "ispens": 8336,
    "returning": 12210,
    "Ġgalvan": 21620,
    "village": 25423,
    "Ġsur": 2184,
    "Ġstrongly": 5657,
    "Ġbenefited": 19401,
    "Ġsent": 1774,
    "nevertheless": 8286,
    "ible": 1116,
    "dial": 20827,
    "Ġlose": 5028,
    "hated": 17563,
    "Ġconvey": 9984,
    "Ġpreprocess": 22237,
    "Ġfinest": 10394,
    "Ġmacro": 25940,
    "esc": 617,
    "Ġcru": 2823,
    "Ġalternately": 15034,
    "Ġlaughing": 5339,
    "Ġmedium": 16708,
    "wonders": 17146,
    "Ġsadness": 13291,
    "Ġsharpened": 17368,
    "Ġtreasure": 9561,
    "flames": 14715,
    "uzza": 11271,
    "ces": 579,
    "Ġprot": 3848,
    "twelve": 14624,
    "Ġcorpore": 13405,
    "Ġhandsomest": 20337,
    "Ġmonday": 6129,
    "Ġbliss": 13006,
    "Ġvisage": 18765,
    "hat": 6956,
    "Ġendure": 5957,
    "Ġdistressed": 8517,
    "Ġrecollect": 8310,
    "adler": 21766,
    "Ġpam": 21456,
    "onement": 21259,
    "beings": 12881,
    "inging": 5908,
    "Ġtur": 2562,
    "Ġnod": 1890,
    "Ġzones": 22822,
    "Ġthirds": 16710,
    "Ġdisadvantage": 12895,
    "ado": 11661,
    "Ġretention": 23073,
    "Ġcrouching": 23443,
    "Ġinexperience": 26100,
    "serious": 14451,
    "appe": 2943,
    "Ġsymbols": 2796,
    "Ġbass": 17857,
    "Ġramadans": 25122,
    "Ġcombine": 4417,
    "causing": 25519,
    "itaries": 21339,
    "Ġprepare": 8650,
    "dashing": 20838,
    "obtain": 23096,
    "Ġarabic": 24981,
    "anning": 10167,
    "Ġquohog": 10973,
    "ust": 495,
    "Ġsurgeon": 8984,
    "Ġdate": 7841,
    "Ġbulk": 5591,
    "grown": 10102,
    "cept": 551,
    "antee": 22101,
    "sentence": 2938,
    "Ġfiercely": 12957,
    "Ġascend": 9963,
    "borrowed": 20794,
    "arth": 4444,
    "Ġequals": 4728,
    "Ġcuring": 21347,
    "Ġlend": 17965,
    "addressing": 24401,
    "Ġthreat": 5154,
    "una": 21873,
    "orte": 14187,
    "Ġsl": 1496,
    "centre": 17088,
    "ension": 6571,
    "!âĢĻ": 3332,
    "Ġrounding": 16278,
    "Ġbarbarous": 13480,
    "ser": 1427,
    "Ġpretty": 3861,
    "kerchief": 7525,
    "Ġcountry": 2531,
    "Ġmerid": 13197,
    "Ġignorant": 5344,
    "Ġbarnacled": 25537,
    "girl": 12322,
    "Ġhandsom": 11124,
    "gorith": 562,
    "Ġprynne": 25541,
    "Ġ105": 24413,
    "ascar": 8436,
    "Ġwitt": 17785,
    "batch": 1983,
    "treated": 21097,
    "č": 206,
    "Ġfine": 1315,
    "Ġ133": 24782,
    "Ġlysander": 13143,
    "Ġheavier": 13107,
    "bru": 12443,
    "ound": 586,
    "det": 5207,
    "Ġcluster": 13575,
    "Ġsofas": 26225,
    "Ġopine": 19230,
    "Ġsuavely": 26525,
    "Ġstaircase": 20099,
    "lant": 20949,
    "etieth": 21587,
    "Ġcontent": 5034,
    "arians": 18524,
    "indignation": 18439,
    "prairies": 20569,
    "Ġadroop": 26002,
    "Ġstrands": 25575,
    "fortunate": 4793,
    "{": 95,
    "Ġsecondly": 14520,
    "Ġmiraculous": 13551,
    "mutually": 26137,
    "mn": 3577,
    "nnight": 20995,
    "Ġcrammed": 16473,
    "Ġaggreg": 12889,
    "Ġcomputers": 2645,
    "Ġlifting": 10199,
    "ulged": 12735,
    "behind": 6780,
    "Ġcontract": 18476,
    "Ġhumility": 12990,
    "progress": 11992,
    "Ġneighb": 14079,
    "countenance": 6925,
    "Ġinheriting": 25355,
    "Ġterrors": 6918,
    "Ġdeceiving": 21841,
    "opatra": 22481,
    "interrupted": 11418,
    "Ġplum": 11826,
    "à": 161,
    "Ġhart": 17924,
    "belais": 24041,
    "Ġfi": 939,
    "Ġproof": 6155,
    "Ġknights": 15153,
    "Ġcleaving": 23183,
    "Ġraised": 4662,
    "por": 2147,
    "Ġsitting": 3606,
    "pretty": 10624,
    "add": 5229,
    "Ġloitered": 26527,
    "Ġvalues": 2652,
    "Ġnumberless": 16419,
    "ect": 381,
    "Ġhill": 5626,
    "Ġhailing": 11697,
    "Ġreligion": 11416,
    "eling": 6683,
    "Ġinvoking": 19147,
    "Ġsneer": 13451,
    "Ġlent": 21550,
    "Ġmerits": 13198,
    "Ġinfirmity": 26299,
    "Ġtobacco": 8367,
    "Ġm": 274,
    "swept": 19789,
    "Ġcomplexion": 8210,
    "Ġresolutely": 14612,
    "Ġmalady": 24392,
    "Ġfading": 15588,
    "Ġstre": 2107,
    "Ġmoment": 987,
    "abular": 4763,
    "intercourse": 14640,
    "Ġcharts": 12832,
    "Ġslewed": 23388,
    "Ġadvis": 9813,
    "Ġdisent": 22527,
    "ppered": 15795,
    "Ġpoliceman": 15262,
    "Ġcomfort": 3442,
    "adier": 18092,
    "Ġcircumst": 2975,
    "friendly": 13289,
    "osop": 4406,
    "Ġplus": 3883,
    "Ġrout": 7402,
    "Ġeleven": 9393,
    "Ġdistended": 16048,
    "Ġextremely": 2670,
    "Ġmarvels": 11085,
    "bones": 8372,
    "shazz": 14243,
    "Ġslain": 8956,
    "Ġempire": 11146,
    "Ġkind": 1784,
    "isbury": 21380,
    "aught": 2681,
    "Ġassertions": 19950,
    "Ġmove": 5107,
    "Ġlace": 13952,
    "Ġtamely": 24980,
    "emotion": 21934,
    "Ġadvert": 10574,
    "Ġembark": 8559,
    "hammad": 23266,
    "oftener": 23968,
    "Ġrepresents": 4903,
    "Ġcousin": 3707,
    "ight": 403,
    "Ġbroke": 5323,
    "remain": 9841,
    "dw": 3333,
    "discrimin": 19611,
    "Ġwearisome": 19798,
    "Ġpreliminary": 10060,
    "Ġslaughter": 20732,
    "activation": 3232,
    "Ġtwinkle": 12327,
    "Ġreeled": 13989,
    "nin": 17610,
    "Ġcasc": 15560,
    "anation": 5804,
    "Ġyelled": 9697,
    "Ġunintellig": 22030,
    "Ġmember": 8465,
    "Ġgulp": 20032,
    "Ġparalle": 1411,
    "Ġexponential": 1060,
    "Ġtill": 1825,
    "dles": 11482,
    "Ġeffemin": 18544,
    "Ġravine": 18645,
    "Ġpadded": 25039,
    "under": 3131,
    "Ġblush": 14405,
    "better": 7121,
    "Ġdon": 1612,
    "sies": 21057,
    "Ġvilest": 20104,
    "Ġsongs": 13424,
    "Ġper": 590,
    "Ġincredulous": 9990,
    "slanting": 24558,
    "assertion": 22315,
    "Ġboa": 22639,
    "Ġadd": 630,
    "Ġsavory": 23879,
    "Ġloadstone": 25817,
    "Ġbrood": 23103,
    "kin": 7133,
    "Ġske": 4816,
    "Ġbelonged": 6922,
    "Ġouthouse": 22318,
    "Ġdollars": 11456,
    "Ġalpine": 18108,
    "isturbed": 18298,
    "heaved": 21213,
    "Ġhogshe": 20495,
    "ented": 4349,
    "Ġmaterial": 5178,
    "hester": 9634,
    "ificant": 22210,
    "operations": 19978,
    "incl": 8110,
    "Ġfantastic": 10062,
    "cheap": 23806,
    "landish": 11946,
    "Ġdisagreeable": 9301,
    "orus": 10803,
    "Ġmatter": 1733,
    "Ġdispute": 16060,
    "Ġkingdom": 12023,
    "Ġdisplaying": 16968,
    "Ġmathematics": 12078,
    "Ġarabian": 9093,
    "Ġrecklessness": 24744,
    "hered": 5623,
    "punishment": 15149,
    "misfortunes": 16758,
    "helpless": 16792,
    "Ġclumsy": 9582,
    "Ġresembled": 18036,
    "Ġrejoice": 10211,
    "announced": 19762,
    "I": 45,
    "white": 4604,
    "Ġhints": 8431,
    "Ġwad": 13854,
    "aff": 3101,
    "unpardonable": 21894,
    "Ġunimaginable": 15250,
    "stun": 18021,
    "alously": 15633,
    "Ġimperfectly": 25727,
    "peril": 18339,
    "heads": 4094,
    "icked": 10335,
    "Ġarctic": 12816,
    "icions": 21566,
    "Ġhelpless": 8302,
    "roylott": 20030,
    "Ġwester": 25156,
    "Ġeleg": 6194,
    "Ġitalian": 12413,
    "resent": 10771,
    "Ġcr": 2148,
    "Ġexciting": 23316,
    "Ġbarbar": 6935,
    "Ġschool": 5512,
    "Ġnight": 1464,
    "Ġaltered": 7393,
    "loops": 12888,
    "Ġfinite": 2325,
    "inlaid": 21193,
    "visual": 24225,
    "Ġstable": 2700,
    "Ġvaults": 17156,
    "Ġsling": 21223,
    "Ġhooded": 12410,
    "Ġhosts": 19942,
    "shel": 11934,
    "police": 10586,
    "Ġprairie": 8716,
    "pious": 17635,
    "Ġcongratulated": 19769,
    "Ġqualified": 14953,
    "Ġkiss": 8183,
    "Ġsche": 1704,
    "Ġhove": 17925,
    "scure": 22986,
    "chance": 6827,
    "Ġyer": 15738,
    "Ġgather": 6536,
    "Ġthere": 563,
    "Ġclap": 10959,
    "gled": 10701,
    "member": 20977,
    "Ġmediocrity": 26610,
    "Ġdenying": 14660,
    "rints": 12507,
    "circumstance": 7764,
    "windlass": 16723,
    "Ġsnake": 12065,
    "Ġbund": 17865,
    "Ġanoint": 25538,
    "Ġnumbers": 2887,
    "Ġguarded": 9829,
    "inhab": 10759,
    "Ġgettest": 23236,
    "angu": 569,
    "Ġexcell": 10419,
    "Ġhere": 1088,
    "fanc": 20866,
    "Ġfearing": 12820,
    "Ġanybody": 5314,
    "Ġbenevolent": 7773,
    "compan": 7301,
    "ront": 15421,
    "Ġcoach": 6867,
    "Ġobstacles": 19838,
    "Ġchurning": 15941,
    "Ġdeferred": 18828,
    "Ġreading": 5114,
    "jephro": 26394,
    "ench": 21282,
    "Ġreadiness": 13055,
    "high": 6652,
    "goin": 23406,
    "Ġmaid": 5287,
    "whose": 6852,
    "Ġluckily": 16800,
    "cial": 2648,
    "ibly": 2995,
    "Ġadvent": 4357,
    "Ġtarshish": 12033,
    "Ġdevote": 10341,
    "lege": 17843,
    "alth": 3256,
    "Ġfidgeted": 25890,
    "Ġunquestion": 18249,
    "noo": 9793,
    "lilies": 20963,
    "rusted": 16509,
    "tell": 1380,
    "ask": 856,
    "âĢĶâĢĿ": 3300,
    "satisf": 5781,
    "practical": 17224,
    "Ġswiss": 18883,
    "fever": 22505,
    "Ġeventually": 8620,
    "uses": 11764,
    "impetuous": 23765,
    "Ġsuff": 1301,
    "Ġoxford": 11372,
    "Ġdoubting": 13105,
    "Ġemployer": 19435,
    "Ġlatin": 16823,
    "boo": 16353,
    "failed": 20865,
    "Ġties": 12533,
    "Ġministers": 22836,
    "Ġbiting": 17863,
    "Ġinterconnected": 1338,
    "bantering": 25254,
    "Ġtu": 6969,
    "Ġmerit": 9430,
    "Ġduring": 870,
    "Ġspam": 7631,
    "Ġcentury": 8291,
    "Ġhardship": 18915,
    "Ġwoods": 5406,
    "Ġevolve": 3002,
    "Ġtwisting": 18659,
    "Ġdelighted": 5499,
    "Ġquivered": 18468,
    "somebody": 14566,
    "linen": 25258,
    "Ġtints": 17729,
    "Ġthinks": 6171,
    "Ġemergencies": 17365,
    "yards": 9626,
    "aggoo": 5130,
    "stra": 4046,
    "whole": 6086,
    "Ġden": 3106,
    "terogene": 21829,
    "Ġsung": 23275,
    "ctu": 5088,
    "Ġnantucketer": 6914,
    "Ġdit": 21423,
    "Ġpips": 9849,
    "Ġcontrols": 1732,
    "Ġsubdued": 11031,
    "Ġdischarged": 15224,
    "Ġtalked": 4422,
    "Ġlevers": 18080,
    "decor": 23782,
    "Ġtraveller": 8049,
    "Ġcouples": 16854,
    "laid": 10112,
    "Ġupdate": 2460,
    "ump": 2282,
    "Ġperson": 2368,
    "Ġhorsey": 24252,
    "progra": 9398,
    "Ġenter": 4030,
    "Ġmemb": 14031,
    "Ġid": 1909,
    "toss": 22570,
    "height": 21208,
    "Ġroughly": 17041,
    "mency": 18928,
    "olen": 9702,
    ")âĢĶâĢľ": 20745,
    "Ġdissip": 10993,
    "Ġsubset": 9873,
    "force": 12964,
    "warrant": 21140,
    "Ġportly": 14680,
    "Ġpossibly": 4516,
    "Ġscraps": 16904,
    "Ġemail": 19076,
    "Ġfusion": 21417,
    "Ġbeating": 8145,
    "Ġbubblingly": 25633,
    "Ġnearest": 8473,
    "Ġstalk": 12702,
    "exasper": 22431,
    "organic": 25947,
    "Ġmizen": 17261,
    "Ġhardware": 4905,
    "angs": 5835,
    "Ġforced": 4353,
    "zors": 21150,
    "Ġendued": 14080,
    "Ġmanx": 7905,
    "gratification": 24348,
    "Ġlead": 3524,
    "Ġcannot": 1664,
    "Ġglaciers": 20176,
    "Ġtalent": 12301,
    "Ġpag": 6012,
    "Ġwane": 21291,
    "itions": 4146,
    "Ġreg": 730,
    "Ġbecome": 3156,
    "Ġgrease": 26191,
    "opy": 4459,
    "fes": 20853,
    "allowed": 5728,
    "burn": 8371,
    "crowning": 25749,
    "Ġpreyed": 18367,
    "Ġchar": 1703,
    "irresistible": 18176,
    "Ġbeeches": 9229,
    "Ġlaudanum": 20693,
    "Ġelucidated": 26030,
    "Ġfighting": 12202,
    "Ġinjunctions": 24272,
    "counter": 20281,
    "waited": 24586,
    "weary": 22689,
    "Ġenjoy": 3761,
    "Ġsentimental": 24753,
    "onian": 17769,
    "Ġepicurean": 20558,
    "Ġcrisis": 13130,
    "Ġmysterious": 7527,
    "Ġdr": 2824,
    "Ġslopes": 18943,
    "enhall": 13853,
    "Ġencodings": 4776,
    "gale": 13727,
    "Ġesteem": 7531,
    "ortions": 10949,
    "Ġunconsciously": 10008,
    "stooped": 23824,
    "merged": 11194,
    "ç": 168,
    "Ġbuffaloes": 25218,
    "usually": 10287,
    "Ġbeing": 1166,
    "pute": 8849,
    "Ġnest": 10191,
    "Ġcouns": 10523,
    "Ġrekindled": 21680,
    "usage": 12837,
    "neath": 12871,
    "Ġwhal": 5454,
    "chie": 21693,
    "Ġbitt": 10798,
    "Ġfolly": 7941,
    "Ġoutset": 15959,
    "Ġcheeks": 5959,
    "ims": 7177,
    "Ġresolute": 19247,
    "Ġhes": 6252,
    "Ġwert": 12561,
    "bread": 10688,
    "esy": 9188,
    "Ġreverend": 15263,
    "Ġquiver": 16007,
    "inguish": 9400,
    "Ġparties": 7040,
    "Ġvillas": 24056,
    "Ġobstacle": 16957,
    "Ġintrusted": 21996,
    "wonderful": 16962,
    "Ġactivity": 7920,
    "Ġdesiring": 14417,
    "allen": 22200,
    "irm": 3108,
    "iven": 1236,
    "Ġrelev": 1716,
    "capital": 15092,
    "acid": 11006,
    "Ġmouldy": 14977,
    "Ġdivine": 6921,
    "Ġprolonged": 8358,
    "Ġinjunction": 19620,
    "Ġsocially": 22082,
    "Ġoptimizer": 5036,
    "ook": 21006,
    "Ġinnermost": 12165,
    "valued": 2852,
    "phon": 4126,
    "worshipping": 16612,
    "measured": 19993,
    "Ġbapt": 13899,
    "Ġsmall": 893,
    "âĢĻ-": 18169,
    "Ġeliza": 6438,
    "Ġconv": 2969,
    "Ġstalked": 20432,
    "Ġdeer": 12725,
    "Ġrap": 14307,
    "Ġgeneral": 1864,
    "Ġdrugg": 17122,
    "arious": 10320,
    "Ġscreamed": 9527,
    "iates": 13740,
    "Ġ50": 24315,
    "Ġstr": 754,
    "Ġpot": 2990,
    "grate": 23414,
    "Ġunthink": 18248,
    "silent": 9977,
    "Ġwalls": 6763,
    "Ġrese": 2194,
    "Ġpest": 13916,
    "pha": 22761,
    "Ġgales": 12670,
    "invisible": 17742,
    "Ġskirts": 14356,
    "fedallah": 25523,
    "uously": 7353,
    "Ġaffections": 10387,
    "gathered": 13735,
    "Ġkissed": 10048,
    "ptic": 21922,
    "Ġimmovable": 15891,
    "Ġgrosvenor": 17421,
    "opÃ¦": 12878,
    "vand": 21111,
    "Ġtashtego": 4489,
    "Ġreminds": 13435,
    "does": 6196,
    "Ġham": 3423,
    "delivered": 24103,
    "Ġargosy": 24276,
    "Ġunfav": 14791,
    "Ġrequisite": 18630,
    "gorge": 22361,
    "Ġriots": 23895,
    "ructure": 770,
    "Ġcommentators": 25230,
    "perai": 10278,
    "anth": 13890,
    "Ġtattered": 21174,
    "Ġancestry": 25642,
    "Ġtruly": 4797,
    "Ġemma": 20697,
    "beheaded": 22497,
    "Ġstring": 11831,
    "Ø": 153,
    "Ġwasted": 9707,
    "Ġabundant": 17157,
    "Ġsherlock": 3893,
    "Ġthus": 2035,
    "Ġoppressed": 11190,
    "Ġdetached": 10282,
    "Ġnaval": 16901,
    "Ġdisreputable": 22538,
    "domestic": 19828,
    "wedged": 24559,
    "Ġnum": 1349,
    "Ġassembl": 20064,
    "Ġglades": 19375,
    "Ġexhaled": 19685,
    "vel": 2385,
    "Ġfootpath": 19340,
    "Ġsustain": 10020,
    "Ġdisengaged": 12894,
    "Ġsam": 7569,
    "Ġcovers": 18597,
    "vig": 15449,
    "rushing": 10021,
    "Ġexpedition": 10636,
    "Ġshortened": 23484,
    "õ": 182,
    "happ": 3103,
    "Ġmeta": 3436,
    "Ġinner": 9673,
    "thence": 23403,
    "conven": 6164,
    "Ġcondem": 6340,
    "Ġsibbald": 21233,
    "Ġcommon": 1414,
    "Ġsumatra": 15290,
    "gest": 5426,
    "Ġemb": 1221,
    "imet": 21709,
    "Ġinaccessible": 13937,
    "Ġwhiff": 21721,
    "Ġnarwhale": 12297,
    "Ġaltogether": 4833,
    "Ġcomprises": 22576,
    "iod": 3840,
    "Ù": 154,
    "Ġanecd": 20157,
    "Ġprovision": 14828,
    "Ġwhipcord": 20098,
    "brushing": 20790,
    "hun": 5210,
    "ggy": 13118,
    "Ġclatter": 22351,
    "brim": 23577,
    "ħ": 232,
    "Ġswift": 3671,
    "plex": 708,
    "offer": 19062,
    "Ġloftiest": 16876,
    "Ġprepar": 7897,
    "Ġcrackling": 24961,
    "introduction": 15127,
    "Ġjump": 4506,
    "Ġcommunicating": 16891,
    "Ġintense": 6159,
    "oters": 21803,
    "Ġherbage": 25997,
    "sford": 5999,
    "mospheric": 17092,
    "Ġinfall": 7960,
    "resemblance": 25934,
    "Ġconvince": 14644,
    "Ġcleat": 18949,
    "arian": 10319,
    "Ġseconds": 16397,
    "Ġgallop": 19558,
    "Ġtransc": 12868,
    "Ġenriched": 26501,
    "Ġopera": 23428,
    "Ġsurve": 9877,
    "Ġselves": 21225,
    "fast": 3070,
    "Ġsebastian": 11700,
    "lid": 20947,
    "isance": 17849,
    "Ġepisode": 26349,
    "port": 10721,
    "Ġdefines": 1742,
    "Ġpetty": 19598,
    "dissatisfied": 26614,
    "Ġsharp": 2414,
    "Ġcruises": 23708,
    "Ġquarters": 8623,
    "Ġdoing": 3662,
    "Ġwhimsical": 20431,
    "ivot": 11722,
    "Ġtrunks": 15968,
    "¢": 100,
    "Ġislands": 6767,
    "Ġcharity": 8866,
    "lynes": 15708,
    "Ġshattered": 7884,
    "Ġtoward": 17949,
    "Ġgasping": 17039,
    "Ġcased": 21349,
    "emin": 8472,
    "Ġequilib": 4135,
    "thrust": 10264,
    "Ġdance": 4443,
    "forth": 9325,
    "Ġsp": 458,
    "Ġreap": 18029,
    "Ġdood": 22246,
    "Ġdiscourse": 9801,
    "Ġdusting": 24597,
    "ifully": 13188,
    "Ġdomineering": 23649,
    "peddling": 21034,
    "bling": 10685,
    "beer": 22492,
    "ull": 1432,
    "Ġdelicately": 24128,
    "Ġtelegraph": 25584,
    "omination": 21645,
    "ville": 6088,
    "Ġpassing": 4315,
    "Ġimmutable": 17361,
    "agre": 18167,
    "Ġadver": 5641,
    "Ġtissu": 25921,
    "Ġtraining": 529,
    "ading": 5091,
    "Ġassigned": 16314,
    "Ġnut": 12651,
    "Ġsprout": 24091,
    "Ġexamination": 8005,
    "Ġendeavored": 19305,
    "Ġaccounts": 7207,
    "Ġsnugly": 17112,
    "prince": 23817,
    "Ġecho": 12673,
    "Ġtested": 23216,
    "jumping": 20248,
    "Ġresignation": 18567,
    "Ġponies": 21478,
    "side": 2301,
    "Ġinterposed": 20622,
    "Ġtranque": 14203,
    "Ġblasphemer": 26117,
    "ayed": 12717,
    "ique": 8746,
    "blu": 12444,
    "assed": 6422,
    "Ġsecurity": 8980,
    "bble": 17487,
    "Ġscowl": 22304,
    "larger": 24205,
    "Ġencouraging": 2262,
    "Ġinfallibly": 10044,
    "Ġrestrict": 16380,
    "Ġinterests": 14570,
    "Ġmexic": 14033,
    "Ġthreatening": 16830,
    "Ġseeing": 2883,
    "slowly": 9092,
    "Ġsunda": 13547,
    "Ġungovernable": 20711,
    "Ġcreated": 2708,
    "Ġmaggie": 26293,
    "Ġjustified": 11909,
    "retreat": 23140,
    "umed": 6556,
    "Ġhandful": 9785,
    "Ġdemo": 10880,
    "Ġphrenolog": 12338,
    "Ġafar": 14295,
    "weaving": 18667,
    "flutterings": 26608,
    "Ġpleasure": 2696,
    "page": 13774,
    "ient": 394,
    "Ġpallet": 21483,
    "rating": 7808,
    "linging": 16082,
    "Ġsitt": 21220,
    "Ġdoings": 18377,
    "Ġfrosts": 19805,
    "ech": 4390,
    "Ġstained": 11655,
    "ince": 4340,
    "Ġcreatures": 4136,
    "Ġamiss": 18513,
    "avings": 12027,
    "Ġinexpressible": 17336,
    "Ġattributed": 11837,
    "wander": 17711,
    "Ġequival": 4784,
    "Ġbackward": 7655,
    "Ġprecisely": 6467,
    "ium": 4865,
    "over": 1847,
    "Ġdepression": 21844,
    "conclusion": 25672,
    "Ġabundantly": 17159,
    "Ġharbor": 10030,
    "Ġstraits": 7994,
    "leads": 21373,
    "Ġliar": 22412,
    "developed": 15268,
    "Ġspecimen": 13028,
    "Ġaffright": 9335,
    "Ġtattoo": 7359,
    "£": 101,
    "ğ": 224,
    "own": 746,
    "arat": 9183,
    "angled": 6844,
    "mody": 16188,
    "Ġlengthen": 15658,
    "Ġslily": 23166,
    "intments": 18823,
    "Ġsobbed": 14137,
    "wild": 8771,
    "Ġtra": 1384,
    "Ġmournfully": 20120,
    "Ġfog": 9664,
    "tete": 10734,
    "Ġbulkington": 14679,
    "Ġtreachery": 15105,
    "arr": 3046,
    "Ġcocaine": 20723,
    "Ġbuild": 6475,
    "Ġ*/": 10376,
    "Ġtortoise": 16910,
    "arthy": 4824,
    "Ġapprehensiveness": 16879,
    "insisted": 23069,
    "type": 16179,
    "Ġcontemplated": 13468,
    "ething": 1601,
    "Ġroyalty": 19739,
    "iffe": 21906,
    "Ġpresently": 5116,
    "Ġeasy": 3455,
    "Ġnot": 413,
    "Ġemphasis": 20539,
    "Ġindec": 13931,
    "Ġassaulted": 25321,
    "covered": 11478,
    "Ġrib": 4936,
    "Ġkink": 22197,
    "Ġtoll": 7852,
    "Ġknob": 24407,
    "Ġpigeon": 9519,
    "Ġjealous": 9471,
    "Ġminim": 1323,
    "Ġ80": 24456,
    "compassion": 12372,
    "Ġgaieties": 24198,
    "Ġ83": 24459,
    "ordered": 8794,
    "iltrated": 19308,
    "Ġilliter": 23470,
    "Ġ1828": 25720,
    "zealand": 26055,
    "enial": 17782,
    "Ġalmighty": 18107,
    "Ġensures": 3056,
    "avo": 8520,
    "Ġprophes": 16351,
    "Ġreputation": 11643,
    "Ġglistening": 12369,
    "Ġsatin": 12993,
    "agony": 14072,
    "do": 1995,
    "Ġperishing": 22402,
    "extreme": 11029,
    "rippa": 11342,
    "Ġintroduction": 8973,
    "washed": 13051,
    "Ġfamil": 4321,
    "cking": 4264,
    "dining": 13709,
    "Ġtear": 6724,
    "departure": 15238,
    "Ġgigantic": 5916,
    "Ġhurry": 4914,
    "Ġundecided": 22052,
    "ogrand": 26263,
    "cho": 2762,
    "Ġ59": 24323,
    "ide": 721,
    "Ġsight": 2110,
    "took": 6166,
    "Ġensure": 23690,
    "lotts": 23828,
    "Ġperceptible": 18453,
    "Ġsquee": 7929,
    "coll": 23781,
    "Ġdevelop": 1635,
    "watson": 12248,
    "fits": 13721,
    "Ġcloser": 8663,
    "Ġitem": 12706,
    "balance": 12011,
    "Ġquick": 2580,
    "Ġshout": 4263,
    "Ġtoil": 6533,
    "Ġsund": 8249,
    "thinks": 16644,
    "acca": 23599,
    "itates": 13872,
    "Ġcarpent": 4467,
    "Ġ123": 24468,
    "Ġtrying": 4840,
    "indef": 17737,
    "formality": 22218,
    "Ġsuffocated": 20730,
    "Ġfrozen": 9016,
    "Ġdishonoured": 20394,
    "Ġsoaring": 22081,
    "Ġdorm": 4823,
    "elop": 1495,
    "ruit": 22191,
    "Ġseem": 914,
    "understood": 13220,
    "estruct": 22226,
    "Ġfee": 7199,
    "Ġsn": 2949,
    "Ġguests": 12291,
    "Ġchannel": 26013,
    "Ġbrink": 18772,
    "Ġpromoting": 3160,
    ",âĢĻâĢĶ": 23528,
    "Ġsmothered": 20722,
    "Ġdestitute": 14567,
    "Ġovercame": 9749,
    "Ġexperiments": 23041,
    "Ġploughing": 26261,
    "obviously": 25243,
    "Ġdiscomposure": 20382,
    "Ġconstitution": 20112,
    "Ġminimizing": 3467,
    "Ġble": 5223,
    "impl": 21710,
    "Ġshipped": 9718,
    "Ġdaughter": 2868,
    "shipped": 18492,
    "Ġen": 393,
    "holloa": 19467,
    "supplement": 14800,
    "infl": 15490,
    "tackle": 17324,
    "Ġmatches": 14399,
    "Ġpriority": 19765,
    "fool": 9050,
    "alous": 7372,
    "occupied": 12308,
    "cannibal": 15228,
    "Ġeigen": 4882,
    "cet": 15328,
    "Ġreef": 10850,
    "Ġcause": 2409,
    "Ġtells": 9364,
    "cavity": 26127,
    "onet": 12550,
    "suggest": 20379,
    "Ġhanging": 5447,
    "Ġsprawling": 22144,
    "break": 6103,
    "Ġsavannah": 17419,
    "Ġjest": 18399,
    "Ġfreemason": 23213,
    "Ġmachines": 1775,
    "Ġcrocodile": 20742,
    "reast": 17760,
    "ssian": 3401,
    "unsuitable": 21897,
    "Ġasiatic": 20433,
    "Ġlikened": 16501,
    "grey": 14915,
    "tal": 17672,
    "Ġrear": 6537,
    "Ġcapable": 5054,
    "Ġplaited": 14286,
    "Ġhieroglyph": 11975,
    "windibank": 24164,
    "Ġgaunt": 11269,
    "oftentimes": 19424,
    "Ġgrizzled": 11451,
    "liter": 11503,
    "ernation": 8212,
    "pursuit": 20343,
    "ener": 560,
    "versed": 9828,
    "Ġtyp": 1132,
    "sne": 10127,
    "Ġtenderly": 11315,
    "Ġwardrobe": 17228,
    "Ġshake": 6035,
    "lance": 12486,
    "reward": 15512,
    "Ġaccomp": 4714,
    "Ġdisd": 7031,
    "Ġswamp": 14439,
    "Ġ100": 14365,
    "Ġsomewhat": 4898,
    "less": 927,
    "verty": 8454,
    "Ġyawn": 7610,
    "rudence": 7094,
    "Ġemotion": 7690,
    "Ġchast": 18381,
    "visitor": 15060,
    "Ġenvironment": 4034,
    "Ġwhoever": 10974,
    "Ġlandsmen": 11352,
    "Ġbeaut": 2393,
    "Ġsoften": 23126,
    "money": 8753,
    "landlord": 9843,
    "Ġenergetic": 15201,
    "Ġnobleman": 19395,
    "Ġoccupy": 14734,
    "Ġund": 4118,
    "Ġsurrounded": 5880,
    "freighted": 14895,
    "Ġnervousness": 23558,
    "Ġnarrow": 5086,
    "Ġsullenly": 17175,
    "Ġbar": 3146,
    "bale": 20776,
    "Ġpout": 17906,
    "Ġindies": 22956,
    "Ġboxed": 24360,
    "Ġuprising": 12807,
    "Ġspouted": 14677,
    "Ġushered": 18363,
    "sion": 8094,
    "?_âĢĿ": 12320,
    "whiskers": 12315,
    "itled": 7578,
    "Ġsaville": 15895,
    "Ġgardeners": 12125,
    "Ġsplice": 19311,
    "pleasantness": 19773,
    "Ġwaggish": 25435,
    "Ġtreat": 3175,
    "Ġsolemnisation": 24116,
    "Ġpennies": 17273,
    "distant": 13339,
    "Ġalleged": 17293,
    "Ġpeeping": 16131,
    "reckoning": 25271,
    "Ġthrilling": 19751,
    "Åĵ": 10746,
    "Ġchair": 3663,
    "Ġspecial": 2102,
    "Ġtwenty": 3949,
    "Ġbowled": 23771,
    "ellest": 21577,
    "Ġepaulets": 24906,
    "Ġrhyme": 21982,
    "clim": 18932,
    "gossip": 23407,
    "indian": 11782,
    "Ġavenue": 13625,
    "address": 14884,
    "zing": 7820,
    "Ġdinner": 4243,
    "Ġhysterical": 26093,
    "Ġaust": 4872,
    "Ġafraid": 3531,
    "Ġrigged": 16719,
    "wants": 21133,
    "hetic": 12208,
    "unks": 15779,
    "ti": 8390,
    "Ġtandem": 26413,
    "Ġrece": 11641,
    "Ġsaf": 4000,
    "Ġsuperfluous": 17417,
    "Ġredundant": 16553,
    "opes": 10313,
    "remains": 10401,
    "riminately": 16485,
    "Ġcontact": 9284,
    "ć": 200,
    "Ġhollows": 19744,
    "Ġrequiring": 2920,
    "Ġraven": 16117,
    "discern": 14854,
    "Ġineffect": 13933,
    "neville": 22469,
    "Ġsends": 14793,
    "Ġbattering": 13904,
    "Ġup": 462,
    "eff": 2533,
    "Ġnaturalists": 10365,
    "Ġoriental": 9100,
    "Ġpropriet": 9553,
    "ship": 1391,
    "Ġfleets": 23776,
    "apologizing": 26546,
    "Ġcoopers": 20525,
    "Ġjing": 15948,
    "straw": 24100,
    "crimin": 17511,
    "¸": 121,
    "Ġyielding": 12191,
    "ivity": 1587,
    "Í": 142,
    "Ġglen": 18848,
    "Ġgrew": 5182,
    "Ġdesmarest": 22979,
    "Ġabsorbing": 17131,
    "Ġnotions": 14102,
    "fact": 6360,
    "Ġinjection": 3469,
    "onsible": 22565,
    "Ġcanaller": 25468,
    "Ġundergo": 23240,
    "adv": 4539,
    "Ġexhibited": 9547,
    "Ġoppress": 13176,
    "inian": 21185,
    "str": 2576,
    "Ġxlvi": 25591,
    "soup": 21061,
    "Ġflattered": 10377,
    "escript": 18472,
    "Ġpalaces": 24096,
    "atus": 21263,
    "Ġcoolness": 16888,
    "Ġretain": 7863,
    "wes": 17705,
    "Ġcannibals": 10590,
    "appear": 13202,
    "childhood": 16870,
    "Ġpersuaded": 5769,
    "Ġcontracted": 12865,
    "ic": 304,
    "ited": 1749,
    "tom": 15438,
    "illity": 18297,
    "organ": 15578,
    "Ġsurface": 5119,
    "gledy": 25404,
    "Ġtight": 8108,
    "Ġgobern": 22429,
    "pp": 384,
    "Ġabound": 8867,
    "ultaneous": 18583,
    "Ġimpat": 4457,
    "Ġrecogn": 2739,
    "Ġjack": 4654,
    "unlike": 18159,
    "scarcely": 12390,
    "Ġprogrammed": 11059,
    "Ġshaking": 6553,
    "Ġtowing": 9196,
    "Ġappointment": 10649,
    "Ġbronze": 22871,
    "Ġdisguise": 10049,
    "Ġcourage": 4635,
    "ier": 1136,
    "Ġrighteous": 18948,
    "overcome": 19054,
    "skull": 24488,
    "Ġmingling": 20200,
    "Ġarchitects": 18747,
    "lott": 6653,
    "blades": 24133,
    "igen": 4832,
    "Ġtremendous": 8353,
    "oner": 6126,
    "Ġdelusion": 18975,
    "Ġbrisk": 9806,
    "Ġcarcase": 14447,
    "Ġcontrivances": 12361,
    "odox": 21817,
    "Ġprosecuted": 25294,
    "Ġlog": 1675,
    "spending": 18688,
    "coronet": 16865,
    "Ġunfortunately": 10910,
    "appo": 3914,
    "oles": 21007,
    "Ġloc": 10915,
    "Ġchanged": 5242,
    "amed": 4449,
    "Ġcaw": 13886,
    "Ġimaginative": 19249,
    "Ġpointing": 5661,
    "egyptians": 25899,
    "isf": 2433,
    "Ġmissed": 8560,
    "Ġmeans": 699,
    "Ġlobes": 22119,
    "betrayed": 24641,
    "Ġsakes": 18332,
    "Ġdestined": 7975,
    "Ġdoct": 4456,
    "Ġballasted": 23983,
    "courage": 17512,
    "Ġhers": 7889,
    "croquet": 25748,
    "Ġpref": 14174,
    "Ġparted": 5930,
    "Ġeucl": 24708,
    "Ġcanvassed": 19938,
    "Ġbuoy": 8004,
    "Ġ91": 24590,
    "xim": 1092,
    "class": 4095,
    "Ġval": 960,
    "Ġrenounce": 19471,
    "Ġspine": 7407,
    "cturn": 17989,
    "uced": 13803,
    "Ġsupp": 1265,
    "Ġpassers": 18759,
    "jee": 17581,
    "missing": 13224,
    "avoid": 9308,
    "int": 1200,
    "Ġegyptian": 13590,
    "Ġhaving": 1882,
    "Ġdrop": 4345,
    "spass": 18686,
    "Ġhisself": 21918,
    "chief": 4646,
    "Ġlow": 1645,
    "Ġpenetrated": 13476,
    "Ġresponses": 23653,
    "wart": 17707,
    "province": 26073,
    "itional": 22478,
    "Ġsomewhere": 5384,
    "rospect": 11614,
    "Ġloads": 22118,
    "Ġbabes": 24425,
    "://": 11466,
    "Ġnegatived": 23049,
    "Ġcherished": 10593,
    "Ġsorely": 17259,
    "entiating": 3441,
    "sham": 9760,
    "Ġjokes": 18404,
    "Ġxl": 11994,
    "Ġveracity": 23892,
    "darker": 24516,
    "Ġsaints": 20677,
    "Ġoverhead": 11777,
    "hast": 5358,
    "strugg": 21665,
    "station": 10845,
    "Ġpeevish": 26559,
    "othe": 2612,
    "Ġchall": 10945,
    "Ġdispelling": 23883,
    "ning": 948,
    "Ġgranite": 22811,
    "Ġface": 1723,
    "Ġfrown": 10809,
    "Ġang": 2506,
    "Ġprognostics": 20561,
    "Ġintelligences": 12836,
    "Ġmadame": 13154,
    "partiality": 13164,
    "Ġbracelets": 25503,
    "Ġoccurrences": 11051,
    "Ġslides": 18941,
    ",": 16,
    "Ġadmirers": 19689,
    "down": 3471,
    "Ġcons": 952,
    "queer": 10366,
    "Ġembedd": 1386,
    "aping": 8194,
    "Ġthreatened": 8330,
    "shaped": 10311,
    "Ġseverely": 14936,
    "Ġxxv": 19720,
    "Ġchaise": 9079,
    "rad": 2151,
    "Ġwoodlands": 23522,
    "Ġtoler": 7589,
    "Ġbeheaded": 11659,
    "Ġhearses": 20063,
    "parm": 21016,
    "Ġtoss": 10187,
    "Ġintegral": 25011,
    "Ġbreathes": 13251,
    "Ġcocoa": 25483,
    "inates": 21183,
    "Ġroad": 3881,
    "Ġapril": 13666,
    "Ġconsternation": 9862,
    "Ġinquire": 7720,
    "ipp": 10105,
    "Ġ102": 24410,
    "Ġhom": 9189,
    "Ġarbit": 4653,
    "east": 9118,
    "possess": 5985,
    "Ġcharmed": 16764,
    "Ġcontempt": 6277,
    "Ġcocoan": 20319,
    "ape": 1905,
    "Ġforests": 13596,
    "Ġdisobey": 18559,
    "Ġwrung": 14473,
    "Ġcrowd": 6338,
    "Ġindistinctly": 26118,
    "Ġjerked": 19835,
    "woe": 21138,
    "wouldn": 23538,
    "Ġfairly": 6327,
    "Ġlikelihood": 16502,
    "bucket": 17496,
    "ance": 478,
    "Ġobedient": 20108,
    "Ġadapts": 3817,
    "fer": 1916,
    "Ġpurchas": 19876,
    "Ġobey": 9522,
    "Ġgenus": 24429,
    "Ġunwillingly": 15852,
    "bowl": 14894,
    "Ġdisorder": 16055,
    "Ġsentinel": 26066,
    "itatingly": 25278,
    "Ġsubsets": 2345,
    "Ġentrance": 7233,
    "Ġsorrowful": 10539,
    "Ġsquint": 22841,
    "ected": 7873,
    "Ġdaily": 5988,
    "Ġdism": 9770,
    "Ġwhisky": 23937,
    "neg": 12870,
    "Ġdromed": 15601,
    "orrah": 17877,
    "itioned": 22479,
    "Ġtumb": 21172,
    "Ġbiscuit": 12594,
    "Ġdiscuss": 9477,
    "Ġglowing": 12287,
    "Ġtahit": 10756,
    "Ġpenalizing": 13095,
    "Ġbullion": 24986,
    "otle": 21801,
    "propriety": 14369,
    "ending": 1990,
    "Ġ1825": 25719,
    "av": 738,
    "Ġpap": 8802,
    "Ġbrick": 8929,
    "Ġinjury": 10543,
    "Ġaddressed": 5263,
    "Ġdrink": 4788,
    "Ġconcil": 23326,
    "Ġdeliriously": 23232,
    "Ġwheels": 10913,
    "edded": 8558,
    "inferiors": 25347,
    "Ġgret": 21604,
    "Ġcountrymen": 23597,
    "Ġdepend": 784,
    "Ġvales": 21948,
    "encounter": 20395,
    "Ġassault": 9840,
    "wh": 508,
    "Ġglimpse": 6944,
    "Ġcrib": 21351,
    "from": 1991,
    "Ġrand": 1583,
    "Ġlogits": 3453,
    "learning": 2619,
    "Ġhappiness": 2944,
    "Ġsuperhuman": 23454,
    "<MASK>": 4,
    "Ġadro": 15871,
    "Ġsounded": 8594,
    "Ġfootsteps": 16575,
    "Ġprodigies": 19796,
    "flood": 19809,
    "Ġaccompanied": 6781,
    "Ġpanel": 13376,
    "Ġrecital": 16146,
    "Ġbird": 3757,
    "Ġsample": 3177,
    "Ġprone": 18970,
    "Ġunaware": 22063,
    "Ġcolon": 18767,
    "na": 13763,
    "Ġtorn": 6001,
    "Ġfreer": 23211,
    "Ġnocturnal": 20717,
    "Ġhams": 16614,
    "ordingly": 18516,
    "oline": 6833,
    "ying": 1449,
    "terrors": 25044,
    "Ġmeditative": 25017,
    "compl": 6873,
    "Ġbustle": 17230,
    "aced": 2406,
    "Ġcompressed": 21854,
    "longbourn": 9899,
    "deeply": 16180,
    "Ġarches": 14167,
    "speechless": 25396,
    "iarity": 8747,
    "kye": 20940,
    "Ġpacing": 8427,
    "Ġmah": 15545,
    "Ġsque": 18758,
    "Ġrubbed": 12960,
    "Ġgoble": 14232,
    "asp": 3340,
    "pense": 10371,
    "Ġmarvellous": 7538,
    "Ġweaving": 12745,
    "ras": 21039,
    "Ġsteam": 9356,
    "Ġhon": 2536,
    "Ġabraham": 18396,
    "consideration": 14958,
    "umerable": 11729,
    "w": 91,
    "batt": 20780,
    "Ġtwelvemonth": 12182,
    "Ġ22": 8279,
    "orph": 21402,
    "spanish": 14333,
    "Ġapoplexy": 25266,
    "Ġsooner": 5573,
    "retched": 3068,
    "Ġlirra": 21563,
    "Ġsaloon": 24065,
    "maintained": 25023,
    "Ġviciss": 11293,
    "remind": 23191,
    "Ġimagenet": 19248,
    "Ġadvantages": 9814,
    "Ġconflag": 20338,
    "Ġpitiful": 13244,
    "post": 6063,
    "formation": 22217,
    "elaborate": 21579,
    "Ġpeculiarity": 12938,
    "Ġmental": 21322,
    "ket": 17584,
    "Ġisol": 8838,
    "Ġentra": 18692,
    "Ġhor": 1658,
    "Ġrachel": 11849,
    "Ġeats": 15681,
    "Ġanomalous": 25638,
    "Ġsor": 4144,
    "cular": 15331,
    "Ġstumble": 26484,
    "Ġclearness": 23185,
    "Ġrelent": 18775,
    "atch": 673,
    "cceed": 4141,
    "Ġsails": 5257,
    "Ġsubsc": 22790,
    "ucket": 2479,
    "Ġpractises": 23314,
    "Ġsuspend": 14611,
    "loud": 11502,
    "secur": 18128,
    "Ġdyspeps": 16503,
    "at": 268,
    "/`": 12433,
    "Ġoverlooked": 15978,
    "Ġwithstand": 10228,
    "audible": 17135,
    "pleasing": 14745,
    "Ġladies": 3192,
    "Ġsaluted": 14761,
    "oce": 10716,
    "fresh": 13396,
    "Ġbashaw": 25634,
    "Ġsped": 22130,
    "russian": 22193,
    "Ġcolumn": 9331,
    "dimens": 2318,
    "Ġexploded": 15913,
    "news": 23135,
    "mantel": 26396,
    "Ġshaping": 22007,
    "laug": 10709,
    "grave": 16098,
    "bright": 8992,
    "Ġgravesend": 15220,
    "ĠâĢľâĢĶ": 9737,
    "clothes": 9060,
    "Ġshutter": 16673,
    "ognit": 19211,
    "Ġswore": 10381,
    "Ġgros": 14826,
    "shirt": 22457,
    "Ġpequod": 2323,
    "Ġhence": 4989,
    "Ġbasis": 16963,
    "Ġdiscoverer": 26036,
    "igan": 21702,
    "vast": 10738,
    "Ġtoes": 10831,
    "Ġshepherd": 14155,
    "Ġjudging": 16597,
    "yth": 978,
    "Ġfaint": 5812,
    "Ġanimate": 23425,
    "Ġcareless": 11119,
    "Ġmanufact": 22332,
    "supposing": 24137,
    "urring": 21708,
    "startled": 24944,
    "Ġconceals": 23907,
    "Ġmud": 11575,
    "patter": 4392,
    "Ġundulates": 24121,
    "ĠdÃ¦mon": 7844,
    "Ġdived": 9180,
    "Ġcat": 2120,
    "Ġfrancis": 26064,
    "ale": 505,
    "lived": 12491,
    "opportunity": 12279,
    "Ġconversed": 13190,
    "Ġgreeks": 20016,
    "Ġarrayed": 25665,
    "verity": 14004,
    "Ġbrah": 19360,
    "Ġinconsistency": 26184,
    "serv": 7451,
    "near": 5843,
[...]
