{
  "metadata": {
    "vocab_size": 26613,
    "algorithm": "BPE",
    "created_at": "2026-08-05 05:13:21",
    "special_tokens": [
      "<PAD>",
      "<SOS>",
      "<EOS>",
      "<UNK>",
      "<MASK>"
    ]
  },
  "vocab": {
    "_,": 2798,
    "enborough": 21283,
    "subject": 6631,
    "Ġtart": 12524,
    "lean": 21362,
    "gossip": 23401,
    "Ġcabal": 23639,
    "quely": 10232,
    "iously": 2676,
    "Ġtrepidation": 19213,
    "prehend": 14240,
    "Ġsharp": 2412,
    "Ġpeculiarities": 12067,
    "Ġguid": 2636,
    "bony": 15317,
    "Ġalabama": 14017,
    "reflected": 24732,
    "Ġdz": 4754,
    "soundest": 24796,
    "Ġdestroyed": 5271,
    "99": 1896,
    "Ġplied": 22593,
    "Ġache": 18662,
    "Ġthames": 13936,
    "Ġimitation": 22167,
    "Ġartistic": 18611,
    "Ġnest": 10189,
    "Ġfeet": 2260,
    "stein": 5505,
    "ament": 2438,
    "Ġwaldman": 11346,
    "Ġintercourse": 10999,
    "dis": 2251,
    "nue": 15395,
    "Ġmiss": 1232,
    "Ġkeels": 11061,
    "additional": 20461,
    "Ġsuite": 18276,
    "unhesitatingly": 26495,
    "Ġhos": 4941,
    "advanced": 19586,
    "Ġspurn": 18308,
    "retrie": 18921,
    "lop": 20946,
    "Ġindefinitely": 25221,
    "pivot": 21029,
    "develop": 13515,
    "fulness": 4309,
    "Ġcooped": 22577,
    "Ġhomeless": 23384,
    "downstairs": 23916,
    "consequ": 18505,
    "Ġgangway": 20156,
    "io": 3801,
    "_âĢĿ": 20759,
    "rendering": 22336,
    "quite": 4645,
    "Ġfootsteps": 16571,
    "came": 4569,
    "nature": 5359,
    "Ġbarrel": 23789,
    "Ġfur": 990,
    "İ": 241,
    "Ġdisconsol": 18555,
    "Ġevangelical": 25506,
    "moment": 3575,
    "Ġroads": 13285,
    "opening": 10312,
    "steaks": 23957,
    "Ġoccas": 2703,
    "Ġarticulated": 24432,
    "aired": 8368,
    "investments": 25532,
    "Ġarmitage": 23579,
    "dden": 1806,
    "Ġpanthe": 19651,
    "health": 13831,
    "Ġclamped": 18424,
    "Ġgracechurch": 12195,
    "Ġadvoc": 12988,
    "Ġexpense": 7651,
    "invite": 25087,
    "Ġeffeminacy": 20715,
    "gain": 8737,
    "Ġcovari": 2339,
    "Ġmess": 7831,
    "Ġregularity": 22778,
    "Ġimagined": 8607,
    "ivorous": 22078,
    "Ġorganize": 8992,
    "Ġsimpleton": 16334,
    "Ġmixture": 9563,
    "Ġgenerate": 1424,
    "Ġimpose": 22378,
    "summit": 23414,
    "Ġselect": 4000,
    "ours": 3424,
    "Ġmanaging": 22321,
    "Ġusurpation": 18356,
    "igning": 12677,
    "Ġstrives": 23689,
    "Ġtags": 20569,
    "Ġlazily": 11381,
    "Ġjon": 15946,
    "Ġcontro": 1684,
    "Ġdaughter": 2868,
    "Ġunsub": 22017,
    "Ġdangerous": 6612,
    "Ġstudded": 18972,
    "Ġlance": 4878,
    "Ġtow": 4395,
    "Ġgroaned": 11267,
    "aug": 1212,
    "Ġriveted": 13616,
    "Ġincommunicable": 26610,
    "Ġlvi": 21549,
    "Ġschedu": 1824,
    "Ġliberal": 12187,
    "Ġactively": 18653,
    "Ġcontinual": 6777,
    "Ġcanterbury": 22163,
    "bird": 9586,
    "Ġbeds": 14550,
    "lin": 9604,
    "cooee": 12415,
    "Ġtechnique": 2610,
    "Ġadded": 2717,
    "Ġquestion": 2777,
    "Ġhysterics": 26092,
    "onsible": 22557,
    "Ġage": 3897,
    "Ġquaker": 10972,
    "Ġwarning": 9059,
    "Ġtwo": 1043,
    "Ġdom": 2825,
    "87": 20755,
    "fal": 17535,
    "Ġassuming": 16692,
    "Ġdecay": 1011,
    "cordiality": 25137,
    "Ġintroduced": 7690,
    "sullen": 17668,
    "Ġbeak": 18078,
    "Ġsolomon": 11053,
    "Ġerr": 1320,
    "Ġstating": 15719,
    "caves": 20814,
    "Ġassisting": 13253,
    "Ġfamily": 1967,
    "goes": 10427,
    "Ġantichronical": 26608,
    "Ġinquest": 16545,
    "variety": 23182,
    "battle": 12439,
    "espe": 3495,
    "Ġdolph": 12377,
    "itchen": 7787,
    "instruct": 19540,
    "sher": 5217,
    "Ġbiases": 2396,
    "Ġpushed": 5909,
    "Ġsmite": 22553,
    "Ġjolly": 6858,
    "regards": 23464,
    "urance": 10858,
    "yielded": 25755,
    "Ġinfinite": 8577,
    "rendered": 22335,
    "Ġkindling": 19028,
    "lucas": 15149,
    "Ġassid": 18943,
    "Ġdaybreak": 18723,
    "ingly": 2135,
    "Ġrisks": 9964,
    "Ġlisten": 4672,
    "likelihood": 4992,
    "Ġ10": 5248,
    "Ġdav": 15587,
    "Ġcharacteristic": 12045,
    "Ġrolled": 4429,
    "bergs": 18683,
    "Ġcoco": 11001,
    "Ġachieved": 13163,
    "Ġadvantages": 9811,
    "reader": 23843,
    "nd": 11504,
    "Ġadhering": 14138,
    "Ġrephrased": 26476,
    "Ġnovember": 11747,
    "disappo": 8985,
    "Ġdepl": 14042,
    "Ġ43": 14767,
    "oboam": 9358,
    "hered": 5623,
    "Ġform": 1025,
    "akened": 7415,
    "Ġboast": 7034,
    "Ġhunters": 6300,
    "leaped": 17842,
    "sixty": 24851,
    "counter": 20276,
    "Ġtu": 6968,
    "Ġhelm": 5275,
    "ld": 385,
    "Ġlifted": 6985,
    "splice": 17169,
    "orte": 14183,
    "Ġhopelessly": 16374,
    "Ġexpectation": 6904,
    "Ġunerring": 15845,
    "trust": 21076,
    "Ġretrie": 10383,
    "Ġringleader": 26211,
    "Ġair": 1836,
    "tru": 10730,
    "ush": 3630,
    "furn": 10092,
    "Ġhung": 4559,
    "Ġrevolved": 9984,
    "Ġrode": 15996,
    "Ġdisgusted": 14988,
    "glorious": 19364,
    "Ġappointment": 10647,
    "Ġfrosted": 19801,
    "Ġuncommon": 5026,
    "Ġhollow": 5648,
    "Ġoverjoy": 15967,
    "bellies": 19971,
    "expressed": 9042,
    "Ġappro": 659,
    "Ġleak": 2160,
    "Ġdistance": 3480,
    "carry": 19524,
    "leading": 15559,
    "welcomed": 24643,
    "Ġaccumulation": 2693,
    "Ġrichest": 26210,
    "04": 10680,
    "Ġmarsh": 9821,
    "Ġdisorder": 16048,
    "Ġtrusting": 24102,
    "rud": 4191,
    "Ġlive": 2735,
    "Ġhierarchical": 1928,
    "Ġstable": 2699,
    "Ġattentions": 5877,
    "dense": 18713,
    "solved": 7684,
    "Ġtightly": 13531,
    "Ġfor": 340,
    "Ġabutted": 22271,
    "Ġantics": 24176,
    "Ġresc": 4506,
    "Ġencamped": 22795,
    "aspect": 10194,
    "Ġcover": 3552,
    "Ġchaldee": 26233,
    "drown": 13702,
    "Ġunbroken": 18246,
    "Ġstamp": 7863,
    "Ġmaster": 3679,
    "bet": 6109,
    "scoured": 22989,
    "Ġpatiently": 19916,
    "Ġsires": 21224,
    "Ġaff": 1121,
    "amused": 21842,
    "Ġslender": 11937,
    "rushing": 10018,
    "Ġrecklessly": 16982,
    "Ġtender": 5753,
    "Ġpeasants": 12329,
    "Ġuttermost": 19485,
    "Ġunluckily": 20099,
    "ivot": 11716,
    "ibly": 2992,
    "inordinate": 21192,
    "95": 17476,
    "Ġsatir": 18793,
    "©": 107,
    "Ġopens": 23624,
    "speckled": 23941,
    "Ġbeware": 8828,
    "ugnance": 12364,
    "Ġengra": 7873,
    "independent": 26020,
    "onents": 8777,
    "lingering": 18600,
    "Ġnich": 21516,
    "Ġourselves": 5127,
    "Ġdecent": 10979,
    "Ġspade": 9259,
    "Ġdegenerated": 20503,
    "accur": 14592,
    "blot": 20781,
    "Ġwavering": 23277,
    "ourably": 14375,
    "Ġforgiven": 24023,
    "angs": 5834,
    "Ġrudimental": 25107,
    "Ġprovide": 7749,
    "Ġpol": 2574,
    "Ġmule": 13860,
    "Ġexert": 5722,
    "ignantly": 23261,
    "ified": 3225,
    "Ġglanced": 5951,
    "Ġfounder": 17882,
    "Ġvows": 15806,
    "catherine": 7127,
    "Ġjoking": 12833,
    "directed": 20402,
    "Ġyale": 21775,
    "ologist": 22874,
    "addressing": 24400,
    "Ġstil": 15715,
    "Ġasph": 21894,
    "Ġaccord": 4027,
    "Ġsudden": 1998,
    "apprec": 22840,
    "Ġmadden": 10448,
    "Ġshroud": 6483,
    "itering": 17817,
    "Ġshowers": 16604,
    "parted": 21014,
    "Ġclaims": 13370,
    "Ġcrunched": 19122,
    "Ġdish": 6136,
    "Ġrules": 1919,
    "Ġtraverse": 18891,
    "Ġanalytical": 22882,
    "Ġarguments": 8036,
    "Ġwipe": 25763,
    "untering": 15773,
    "Ġhandsom": 11125,
    "Ġtropic": 17063,
    "Ġcircumference": 13542,
    "Ġsounded": 8591,
    "Ġflattered": 10375,
    "Ġtub": 7146,
    "appe": 2941,
    "Ġgloves": 8575,
    "Ġpsal": 15613,
    "Ġelix": 22646,
    "Ġridiculous": 10629,
    "Ġconnection": 5479,
    "Ġwhereof": 16100,
    "Ġadmeasurements": 26224,
    "Ġshoulder": 5848,
    "Ġhurling": 19109,
    "Ġach": 2619,
    "Ġsteel": 3890,
    "Ġdepression": 21836,
    "Ġcrusad": 23700,
    "restored": 18977,
    "jumping": 20243,
    "uttermost": 24939,
    "onement": 21254,
    "Ġdoth": 13906,
    "Ġfetching": 16895,
    "¬": 110,
    "incidentally": 20537,
    "instrument": 15236,
    "Ġimprovement": 7965,
    "extra": 8218,
    "istrate": 7406,
    "bled": 5469,
    "Ġpubl": 3940,
    "Ġinfinity": 23279,
    "Ġbleeds": 24396,
    "Ġbeaks": 21751,
    "sacred": 17027,
    "mighty": 9467,
    "Ġseparate": 5778,
    "facts": 19840,
    "Ġintens": 7003,
    "supplementary": 20547,
    "idered": 4552,
    "Ġbestirred": 20449,
    "Ġsquared": 1383,
    "Ġsinusoid": 4780,
    "Ġsog": 22080,
    "Ġphysiognomical": 25610,
    "Ġgrizzled": 11451,
    "Ġassumed": 9466,
    "remem": 13062,
    "enary": 12547,
    "Ġharmless": 9965,
    "osing": 3687,
    "Ġprovoked": 13322,
    "Ġwithdrawn": 10607,
    "Ġfid": 10804,
    "ĠĠĠĠĠĠĠĠĠĠĠĠĠĠĠĠĠĠĠĠĠĠĠĠĠĠĠĠĠĠĠĠĠĠĠĠĠĠ": 16524,
    "Ã¦st": 24173,
    "angible": 22101,
    "social": 11024,
    "Ġscandal": 9082,
    "continuing": 24478,
    "errand": 22905,
    "armed": 7251,
    "poss": 4777,
    "nantucket": 7804,
    "ald": 15622,
    "nep": 20984,
    "coast": 10450,
    "warmth": 20050,
    "Ġthereupon": 18433,
    "Ġscore": 9738,
    "Ġstartled": 7082,
    ";": 31,
    "Ġcranes": 20380,
    "eries": 6808,
    "Ġdecayed": 22821,
    "Ġacquiring": 2766,
    "Ġsocially": 22083,
    "forgetting": 25485,
    "Ġfundament": 2924,
    "phr": 18730,
    "Ġchristendom": 16694,
    "Ġwreck": 7314,
    "icted": 5936,
    "contempt": 13185,
    "biqu": 17496,
    "hat": 6956,
    "Ġsavage": 4012,
    "Ġdisregarded": 22526,
    "Ġ156": 20168,
    "billows": 20234,
    "Ġsof": 18281,
    "Ġhowever": 1304,
    "greek": 25404,
    "Ġcorpusants": 13675,
    "Ġruled": 22779,
    "prow": 15410,
    "vigorous": 25916,
    "conclusive": 25672,
    "Ġsmothered": 20718,
    "gress": 2214,
    "wer": 8394,
    "Ġrefers": 1563,
    "brink": 23574,
    "ublic": 11228,
    "Ġtargets": 4205,
    "Ġterminating": 23507,
    "points": 14391,
    "Ġsprain": 18303,
    "Ġsteadily": 8051,
    "ouri": 21444,
    "``": 15304,
    "agre": 18163,
    "Ġdashed": 6009,
    "Ġexceeded": 14431,
    "ould": 428,
    "hump": 12474,
    "zing": 7820,
    "Ġrecovering": 11860,
    "Ġunnatural": 7190,
    "Ġbarnacled": 25536,
    "prehens": 9289,
    "europe": 20663,
    "pol": 5892,
    "Ġwhitt": 18053,
    "ignorantly": 25189,
    "Ġrevolutions": 23838,
    "Ġdivert": 23591,
    "Ġdiscove": 16151,
    "unw": 14055,
    "Ġlook": 881,
    "omitted": 18022,
    "Ġemployment": 8629,
    "Ġsimply": 7218,
    "Ġugl": 12678,
    "Ġchronicle": 20226,
    "aneous": 7240,
    "garnished": 26387,
    "oices": 7348,
    "51": 12428,
    "Ġ126": 24470,
    "flies": 19421,
    "Ġpositional": 2595,
    "Ġhogshe": 20489,
    "Ġrelate": 6875,
    "build": 12184,
    "protest": 24814,
    "Ġvect": 1227,
    "Ġtang": 13812,
    "Ġcrosswise": 18885,
    "osure": 5306,
    "Ġsurface": 5119,
    "flames": 14710,
    "Ġcreat": 1408,
    "Ġincalculable": 17459,
    "performed": 18342,
    "Ì": 141,
    "Ġhelper": 24022,
    "Ġjet": 5307,
    "ches": 2149,
    "Ġirene": 8443,
    "Ġinsufferable": 13929,
    "Ġexcited": 5580,
    "Ġrevolve": 19728,
    "Ġarmies": 16491,
    "Ġreg": 732,
    "Ġprinciple": 6770,
    "until": 6596,
    "Ġscaling": 3629,
    "'s": 2470,
    "Ġselfish": 7272,
    "Ġmccauley": 26426,
    "anders": 18151,
    "Ġplaning": 22597,
    "interview": 19296,
    "Ġbravest": 23837,
    "Ġtelescopes": 25689,
    "Ġphilosophers": 10552,
    "fedallah": 25522,
    "Ġinspection": 14543,
    "Ġblot": 9812,
    "hammered": 19002,
    "Ġmonogra": 22978,
    "Ġstriding": 16091,
    "ä": 165,
    "Ġmagnetic": 17239,
    "Ġlye": 21547,
    "Ġreturning": 5325,
    "Ġcig": 6520,
    "Ġtraced": 10384,
    "goodbye": 12053,
    "gen": 6503,
    "Ġpledged": 20685,
    "Ġperceptible": 18451,
    "Ġscrew": 8868,
    "tha": 15821,
    "sixteen": 24852,
    "Ġmizzen": 20287,
    "Ġtw": 840,
    "ividual": 5463,
    "erman": 5108,
    "Ġsparks": 22128,
    "Ġlids": 12272,
    "Ġeffect": 973,
    "Ġcouns": 10521,
    "Ġperpendicular": 7209,
    "ither": 1547,
    "shells": 26055,
    "izarre": 17387,
    "dissatisf": 26128,
    "Ġand": 295,
    "Ġroughly": 17039,
    "Ġhairy": 23862,
    "oof": 15404,
    "Ġproceeds": 12074,
    "rob": 5534,
    "Ġaccelerate": 23226,
    "Ġalike": 8146,
    "Ġtowering": 16738,
    "Ġinclusive": 24161,
    "topic": 10528,
    "Ġmanager": 11767,
    "antee": 22093,
    "Ġnoses": 18371,
    "Ġsuspecting": 14908,
    "iced": 3901,
    "Ġbritannica": 24679,
    "Ġcomparing": 14263,
    "Ġupdate": 2463,
    "urch": 3995,
    "Ġbrooded": 23099,
    "ictions": 14225,
    "Ġshall": 1141,
    "Ġaristotle": 25816,
    "Ġclutched": 13516,
    "ais": 8070,
    "Ġteased": 18807,
    "rmsprop": 4521,
    "Ġprob": 971,
    "Ġabsent": 7014,
    "gd": 3123,
    "Ġbrown": 6298,
    "Ġcombining": 22867,
    "Ġpursuit": 4731,
    "hunt": 20901,
    "Ġ94": 17716,
    "Ġimperfect": 13336,
    "ior": 2039,
    "gorith": 551,
    "Ġque": 4160,
    "turbable": 24530,
    "esting": 7412,
    "Ġsurmount": 19998,
    "umerable": 11723,
    "poison": 14390,
    "Ġcustody": 13645,
    "Ġpass": 1039,
    "infl": 15486,
    "Ġsums": 2901,
    "pire": 9136,
    "Ġshocks": 16457,
    "Ġcoding": 8115,
    "coll": 23776,
    "Ġwhisper": 6205,
    "Ġstillness": 12989,
    "desk": 23202,
    "copyright": 5277,
    "Ġtrace": 6181,
    "extraordinary": 9095,
    "Ġinevitable": 15165,
    "girdling": 26388,
    "strange": 6086,
    "Ġbrute": 8927,
    "Ġthickness": 13273,
    "Ġaccents": 14209,
    "Ġadult": 18288,
    "Ġextremest": 19192,
    "Ġadmires": 19683,
    "trowsers": 17690,
    "tiest": 21079,
    "window": 7742,
    "application": 12360,
    "maged": 15391,
    "Ġjumbled": 22293,
    "harpooned": 24285,
    "passage": 11262,
    "Ġheeds": 24519,
    "nursery": 26398,
    "Ġusefulness": 19405,
    "Ġunimaginable": 15244,
    "opinion": 10985,
    "Ġparsee": 6413,
    "ten": 1555,
    "persecut": 22180,
    "Ġexamination": 8004,
    "¢": 100,
    "unting": 21870,
    "Ġinvisible": 7327,
    "ated": 739,
    "Ġdeep": 815,
    "Ġvarious": 3505,
    "knows": 19170,
    "rival": 12738,
    "Ġdigging": 14936,
    "foundation": 16713,
    "Ġsidel": 9636,
    "appearing": 14636,
    "Ġpast": 2097,
    "propagation": 1213,
    "Ġpainting": 13138,
    "sight": 5994,
    "Ġdiameter": 19865,
    "Ġkindred": 16373,
    "leman": 21365,
    "formed": 2553,
    "Ġcosine": 2372,
    "Ġnarrowed": 24354,
    "loved": 14249,
    "interrupted": 11418,
    "ivery": 17571,
    "Ġprized": 23218,
    "life": 4931,
    "Ġwh": 328,
    "missionary": 24614,
    "Ġplump": 14280,
    "Ġcovariate": 2351,
    "Ġguise": 14430,
    "co": 2431,
    "Ġbetrayed": 9562,
    "arabian": 26445,
    "Ġcolumbus": 26563,
    "Ġgained": 4534,
    "Ġstud": 1600,
    "shaw": 6864,
    "Ġcheered": 16367,
    "ificial": 609,
    "Ġundertaking": 8574,
    "Ġpractical": 3163,
    "Ġcontrive": 16007,
    "resemblance": 25932,
    "Ġdivision": 19441,
    "Ġwithhold": 18114,
    "fabulous": 20471,
    "Ġmoles": 22430,
    "buttons": 22397,
    "Ġgentleman": 3036,
    "Ġplayfully": 19236,
    "Ġscorching": 20065,
    "Ġhaul": 11690,
    "ortal": 6265,
    "Ġdenoted": 16564,
    "Ġborder": 10170,
    "Ġcruises": 23699,
    "Ġcompassion": 6487,
    "Ġtit": 8398,
    "Ġclanging": 18421,
    "Ġtempestuous": 20068,
    "Ġfinancial": 23125,
    "Ġtoma": 7373,
    "Ġanimation": 11153,
    "Ġchemistry": 11461,
    "carb": 20808,
    "Ġranks": 21971,
    "Ġexchanged": 10879,
    "makers": 20980,
    "inger": 6812,
    "Ġstrained": 10219,
    "Ġcoun": 4179,
    "Ġbermud": 26438,
    "tips": 13794,
    "Ġcorporeally": 25728,
    "Ġsust": 7006,
    "neglected": 25667,
    "č": 206,
    "Ġcanall": 10929,
    "agne": 21901,
    "ductive": 23932,
    "three": 5238,
    "Ġperformer": 18754,
    "countenances": 24149,
    "Ġplaguy": 22600,
    "jam": 15369,
    "Ġdecanting": 22434,
    "Ġthread": 14538,
    "accomplishments": 25326,
    "Ġexpressed": 4467,
    "Ġintegral": 25007,
    "Ġcord": 5222,
    "Ġmotionless": 8323,
    "Ġvictoria": 14871,
    "Ġinclined": 6622,
    "mates": 5073,
    "reds": 12746,
    "Ġcomplicated": 14733,
    "ĠâĢľ_": 6696,
    "reluct": 26162,
    "Ġarts": 11009,
    "Ġutensils": 23511,
    "scissors": 20725,
    "Ġexclamation": 8699,
    "ĳ": 244,
    "ury": 3309,
    "Ġcum": 21339,
    "Ġsufficient": 2002,
    "Ġwrest": 11571,
    "Ġagitation": 6865,
    "Ġacutely": 14312,
    "themselves": 6540,
    "Ġgreek": 10631,
    "y": 93,
    "sex": 12709,
    "Ġjollity": 25566,
    "Ġsubsiding": 23431,
    "Ġinstability": 3813,
    "ader": 14010,
    "Ġplaned": 24051,
    "original": 9085,
    "Ġattain": 12743,
    "Ġslight": 3117,
    "Ġterrible": 5327,
    "Ġburke": 19249,
    "pal": 9617,
    "Ġers": 15459,
    "amy": 8467,
    "Ġretarded": 23067,
    "Ġfault": 5702,
    "we": 846,
    "Ġtrusted": 10518,
    "Ġgrey": 4512,
    "iments": 4944,
    "Ġhindoo": 17174,
    "Ġjura": 14191,
    "mentioned": 10624,
    "confl": 22464,
    "Ġreusability": 13556,
    "Ġfac": 6381,
    "Ġinterior": 8895,
    "modern": 1155,
    "streets": 13392,
    "Ġhorsham": 10407,
    "ouement": 21445,
    "Ġmain": 810,
    "Ġghost": 6142,
    "Ġstrain": 6023,
    "civil": 7796,
    "Ġincl": 4270,
    "inity": 5693,
    "Ġ66": 24368,
    "collinses": 19921,
    "leton": 5148,
    "Ġdispose": 23876,
    "Ġrespectfully": 18992,
    "athy": 14321,
    "put": 414,
    "Ġcruelty": 9969,
    "Ġlieutenant": 15259,
    "spiracle": 22734,
    "Ġmarket": 7708,
    "Ġconcern": 2655,
    "Ġpolar": 9411,
    "Ġscript": 18397,
    "Ġsignificance": 13277,
    "âĢĿ;": 11669,
    "Ġriotous": 20542,
    "Ġintellig": 526,
    "Ġincident": 6280,
    "Ġslept": 8258,
    "no": 892,
    "Ġbitterest": 12399,
    "Ġfisher": 3221,
    "Ġcompelled": 14264,
    "Ġdeposed": 16085,
    "Ġroll": 5381,
    "Ġdrunk": 9424,
    "eted": 7591,
    "Ġoutlast": 22309,
    "Ġoverlapping": 26237,
    "mitting": 17601,
    "'re": 12425,
    "amuse": 14050,
    "tor": 15431,
    "Ġtreatment": 12068,
    "Ġinfamy": 14501,
    "Ġgrinned": 16856,
    "now": 548,
    "Ġattempting": 14695,
    "Ġinclemency": 22551,
    "Ġluxurious": 17309,
    "70": 17474,
    "Ġrestrict": 16372,
    "Ġcontortions": 18474,
    "sig": 2873,
    "Ġgrud": 17994,
    "Ġimplore": 24871,
    "Ġauthent": 14510,
    "Ġfools": 14480,
    "intolerable": 22934,
    "nephew": 26396,
    "discharging": 26304,
    "Ġtottenham": 24140,
    "Ġ$": 21148,
    "Ġmien": 17807,
    "Ġbusiness": 2234,
    "Ġreveren": 13192,
    "comprehend": 14359,
    "ude": 7562,
    "Ġinjure": 16780,
    "Ġindepend": 3666,
    "Ġactive": 7914,
    "Ġinvite": 14561,
    "Ġdawned": 14992,
    "Ġorders": 5340,
    "Ġfeminine": 15261,
    "Ġlaud": 17966,
    "cruise": 24840,
    "making": 2570,
    "Ġwhereby": 11834,
    "verd": 21723,
    "Ġmariners": 6067,
    "part": 2571,
    "drawn": 9913,
    "Ġstarry": 16922,
    "Ġangular": 19204,
    "Ġpenetrating": 17010,
    "ikes": 8086,
    "Ġrefine": 2773,
    "muttered": 13757,
    "!âĢĿ": 845,
    "doub": 6223,
    "Ġrag": 18642,
    "Ġn": 300,
    "Ġnimble": 21524,
    "Ġgid": 13960,
    "Ġdwelling": 7322,
    "lorn": 12484,
    "Ġconfl": 11138,
    "Ġfourth": 7706,
    "vanity": 24973,
    "Ġ0": 1903,
    "Ġworthy": 7241,
    "Ġdebt": 12164,
    "Ġsubmission": 22783,
    "Ġamuse": 5939,
    "wood": 5897,
    "tfordshire": 4810,
    "Ġoft": 9195,
    "empty": 23632,
    "ourers": 21446,
    "thole": 21982,
    "fishing": 20857,
    "Ġhit": 7163,
    "stationed": 25453,
    "Ġlamented": 24990,
    "Ġuncovered": 23429,
    "bl": 4143,
    "liv": 9608,
    "cabinet": 25076,
    "Ġnapoleons": 25884,
    "week": 12926,
    "shape": 10984,
    "Ġgloomily": 14798,
    "Ġtwelvemonth": 12174,
    "Ġcogn": 11003,
    "lads": 20953,
    "tting": 17679,
    "Ġnarrative": 6215,
    "Ġstri": 2802,
    "beauty": 20101,
    "Ġdegradation": 2629,
    "Ġtranquillity": 7536,
    "weekly": 25683,
    "theast": 21744,
    "Ġjer": 6266,
    "Ġwomanly": 23546,
    "Ġquivered": 18466,
    "Ġdelic": 4136,
    "Ġsle": 2013,
    "iah": 14414,
    "Ġtrain": 514,
    "Ġhyperborean": 26338,
    "contain": 18501,
    "Ġbush": 23334,
    "ancient": 9656,
    "Ġwriting": 4666,
    "Ġres": 696,
    "Ġcoleman": 22581,
    "Ġspake": 18307,
    "father": 3775,
    "rods": 21534,
    "thine": 15822,
    "Ġpresentation": 14479,
    "Ġdistinction": 8886,
    "circ": 4388,
    "grinder": 23412,
    "conced": 22463,
    "un": 373,
    "impe": 21704,
    "fatal": 17087,
    "Ġbinding": 20416,
    "Ġirreducible": 5519,
    "Ġsuperstitious": 13517,
    "Ġfurlongs": 20721,
    "Ġgot": 2282,
    "dually": 3282,
    "Ġwarped": 25034,
    "Ġconsoled": 18111,
    "Ġslackened": 15124,
    "emorial": 10244,
    "Ġstrip": 9421,
    "Ġintersect": 22571,
    "bulkington": 19923,
    "mology": 12488,
    "Ġork": 18283,
    "fishers": 24927,
    "ord": 667,
    "Ġdisliked": 12887,
    "Ġli": 601,
    "Ġtall": 4039,
    "Ġviv": 6156,
    "paus": 13771,
    "completed": 19991,
    "Ġsuggestive": 11298,
    "eous": 13710,
    "moments": 19409,
    "Ġsank": 5076,
    "fters": 20859,
    "allied": 7410,
    "Ġshillings": 15833,
    "broke": 14774,
    "odecimo": 11445,
    "Ġpaling": 21458,
    "dham": 20828,
    "Ġgoney": 14544,
    "Ġidea": 2486,
    "nect": 663,
    "strang": 11184,
    "agony": 14067,
    "Ġpianoforte": 15271,
    "traced": 19635,
    "Ġmod": 493,
    "Ġcontented": 9756,
    "ood": 963,
    "Ġ73": 24259,
    "Ġbaptized": 25773,
    "Ġamazement": 7764,
    "Ġwarn": 5695,
    "Ġbellies": 13352,
    "Ġcompression": 18144,
    "pl": 402,
    "Ġfantastic": 10059,
    "favourable": 12260,
    "ientific": 6547,
    "bergen": 14328,
    "Ġsufferable": 16258,
    "Ġfishers": 19351,
    "Ġshakespeare": 20305,
    "Ġpeter": 10536,
    "inno": 10757,
    "Ġjost": 23628,
    "kindled": 16659,
    "histicated": 20899,
    "acles": 8519,
    "Ġsanct": 15061,
    "Ġhoist": 11974,
    "umb": 3475,
    "Ġlancaster": 26339,
    "el": 306,
    "Ġpictured": 16621,
    "extensive": 18701,
    "Ġsky": 3970,
    "Ġsorts": 6887,
    "Ġwhither": 10215,
    "Ġporpoise": 7106,
    "Ġmelted": 19619,
    "Ġrain": 5005,
    "remed": 18951,
    "sign": 8387,
    "rough": 591,
    "Ġproportion": 7281,
    "Ġciv": 3306,
    "Ġmalignity": 10557,
    "avenza": 17103,
    "Ġsidelong": 11439,
    "Ġinser": 6820,
    "Ġinsip": 19265,
    "talking": 10007,
    "Ġgloom": 4202,
    "Ġdiscovers": 4427,
    "Ġassoc": 6402,
    "incible": 16496,
    "Ġneighbouring": 12115,
    "Ġinno": 1414,
    "Ġintolerable": 8481,
    "Ġnecks": 18182,
    "embed": 18186,
    "Ġcandelabra": 26601,
    "Ġpaws": 13919,
    "ming": 3599,
    "flukes": 25205,
    "iquet": 17574,
    "Ġpositive": 2298,
    "Ġengraving": 17079,
    "gall": 6359,
    "always": 5708,
    "astrop": 3313,
    "antic": 1606,
    "Ġbet": 1135,
    "Ġuneasily": 24229,
    "Ġtruce": 24113,
    "Ġplease": 4721,
    "rocious": 21535,
    "request": 21239,
    "Ġwines": 21285,
    "entle": 1734,
    "ace": 717,
    "Ġfashionable": 19542,
    "Ġtroublesome": 23998,
    "Ġwerter": 15237,
    "Ġcompliments": 8633,
    "brother": 7091,
    "oy": 1031,
    "Ġunfortunately": 10909,
    "Ġprevents": 2556,
    "Ġfancied": 7326,
    "Ġtremble": 6906,
    "Ġpip": 1605,
    "Ġinsane": 19267,
    "ipelagoes": 13669,
    "ques": 2841,
    "yed": 3271,
    "Ġentertaining": 16925,
    "Ġconviction": 6326,
    "multiple": 15105,
    "Ġjudgment": 5765,
    "Ġfastidious": 14492,
    "Ġhelen": 16654,
    "á": 162,
    "Ġclump": 15963,
    "Ġwhitewashed": 14467,
    "confirmation": 26088,
    "borrowed": 20790,
    "mish": 17597,
    "Ġforecastle": 5495,
    "Ġfring": 11128,
    "Ġgrimes": 11035,
    "Ġpostpone": 17305,
    "Ġtranslation": 3084,
    "Ġfossil": 12384,
    "Ġgracefully": 13388,
    "Ġp": 288,
    "Ġuncork": 23427,
    "fes": 20849,
    "Ġreadiness": 13045,
    "formation": 22223,
    "Ġbeef": 6830,
    "Ġstopping": 2750,
    "Ġheroine": 24542,
    "Ġprevention": 16089,
    "Ġnocturnal": 20713,
    "Ġaccounting": 14571,
    "Ġpremature": 3723,
    "wat": 6231,
    "Ġjog": 18403,
    "Ġsigma": 1541,
    "ħ": 232,
    "Ġcatches": 23424,
    "harpoon": 9491,
    "Ġsagittarius": 24731,
    "geese": 22360,
    "Ġindividuality": 14907,
    "telescope": 26561,
    "Ġencoun": 4511,
    "Ġbanker": 8667,
    "octial": 20002,
    "Ġcough": 11581,
    "pus": 3411,
    "ricity": 23058,
    "antarctic": 22095,
    "Ġstreams": 12189,
    "Ġmale": 9649,
    "distance": 12149,
    "approaching": 15010,
    "Ġmundane": 26428,
    "Ġworaciousness": 22925,
    "ling": 734,
    "scratch": 26043,
    "evade": 24819,
    "Ġclosing": 11770,
    "Ġquiet": 3260,
    "Ġlabour": 7274,
    "watery": 19824,
    "Ġphilistines": 26081,
    "whenever": 11878,
    "sorting": 17003,
    "Ġstabilizing": 3655,
    "Ġwer": 12548,
    "Ġwestern": 10655,
    "died": 10694,
    "conv": 7213,
    "closing": 23153,
    "Ġcut": 2640,
    "che": 3171,
    "itten": 3437,
    "oforte": 14284,
    "Ġgraves": 11706,
    "Ġeastward": 13387,
    "endeavour": 17030,
    "fights": 20863,
    "Ġhorizontal": 7782,
    "Ġflannel": 26576,
    "accursed": 20538,
    "Ġoarsmen": 7737,
    "plete": 10920,
    "Ġblown": 12082,
    "lonely": 20955,
    "otherwise": 7670,
    ",)": 9101,
    "Ġdevoted": 6573,
    "Ġsituations": 10492,
    "to": 714,
    "Ġelevation": 14897,
    "Ġjac": 1898,
    "Ġyarns": 15193,
    "Ġspecks": 14306,
    "Ġacceler": 1611,
    "177": 20750,
    "Ġclings": 15961,
    "meadow": 18673,
    "Ġyankees": 26200,
    "grieved": 17315,
    "Ġblooming": 17211,
    "Ġmidday": 23630,
    "offing": 23330,
    "Ġafrica": 12342,
    "function": 3953,
    "Ġshaft": 18228,
    "upp": 10131,
    "oning": 7572,
    "Ġpurchase": 12256,
    "Ġlumps": 21552,
    "Ġupset": 22149,
    "Ġsacri": 18327,
    "shutters": 20311,
    "Ġwalled": 15533,
    "Ġdestroyer": 13410,
    "Ġindel": 13003,
    "Ġrespectability": 14483,
    "Ġshr": 4226,
    "Ġaught": 8773,
    "Ġperseverance": 13595,
    "Ġunprejudiced": 18265,
    "tawn": 21078,
    "Ġhatch": 7847,
    "Ġnorth": 4318,
    "american": 11401,
    "Ġjane": 1755,
    "Ġerad": 25027,
    "Ġwaterproof": 19087,
    "simple": 13449,
    "iosity": 2175,
    "Ġspile": 22123,
    "Ġstrategy": 2442,
    "Ġsnatched": 10472,
    "Ġfollowing": 4062,
    "Ġaffronted": 22891,
    "decl": 8857,
    "granting": 23411,
    "Ġexpert": 18867,
    "Ġsling": 21218,
    "Ġmarvel": 23031,
    "barn": 17481,
    "visitors": 13345,
    "iverer": 11714,
    "comed": 8546,
    "Ġmysterious": 7527,
    "ast": 473,
    "...": 24548,
    "Ġcloak": 9534,
    "Ġelated": 18635,
    "secured": 16937,
    "cell": 10686,
    "Ġpantry": 20293,
    "Ġmagnet": 10390,
    "Ġtheirs": 7024,
    "Ġsolve": 4197,
    "Ġoutwardly": 24997,
    "Ġinvited": 6903,
    "zy": 2668,
    "Ġunnear": 22022,
    "Ġlaurel": 20652,
    "eu": 17529,
    "spent": 12938,
    "Ġabomin": 8188,
    "Ġequality": 16357,
    "ckled": 9257,
    "Ġlistened": 4469,
    "news": 23129,
    "law": 6115,
    "Ġgale": 5822,
    "Ġcompetition": 14265,
    "supposing": 24132,
    "Ġtransitory": 16030,
    "track": 24313,
    "Ġconcl": 5095,
    "Ġimped": 18441,
    "Ġvort": 18192,
    "Ġ121": 24465,
    "Ġve": 1113,
    "display": 19153,
    "etus": 21574,
    "Ġpostscript": 14805,
    "Ġpermitting": 22396,
    "ĠĠĠĠĠĠĠĠĠĠĠĠĠĠĠĠ": 1220,
    "zz": 4292,
    "Ġuncivil": 11156,
    "piling": 15414,
    "invest": 11560,
    "though": 2117,
    "comm": 7440,
    "Ġpeculiarly": 8286,
    "Ġinhale": 20298,
    "ips": 2589,
    "Ġnarrower": 24353,
    "weigh": 18664,
    "Ġprograms": 7239,
    "Ġexact": 2542,
    "bat": 8071,
    "lightning": 16550,
    "waiting": 12217,
    "bid": 5611,
    "Ġintu": 12759,
    "Ġdismay": 11807,
    "Ġwallet": 21296,
    "Ġchis": 11748,
    "ĉ": 202,
    "Ġxavier": 2854,
    "Ġpipes": 9848,
    "¶": 119,
    "befriend": 22488,
    "Ġsorrow": 4627,
    "Ġoverladen": 22359,
    "Ġunconquerable": 22057,
    "Ġcontrivance": 17182,
    "eskye": 21480,
    "Ġbru": 13893,
    "amed": 4448,
    "Ġembrace": 16989,
    "anim": 6522,
    "Ġgrind": 18734,
    "Ġcompletion": 12144,
    "Ġhalloa": 13313,
    "Ġcharms": 11131,
    "Ġconver": 806,
    "Ġheroism": 24543,
    "Ġven": 4646,
    "ulnerable": 18149,
    "Ġsc": 530,
    "volutions": 16321,
    "Ġdivinest": 25721,
    "Ġdisappearance": 9297,
    "gracious": 11829,
    "romeda": 17261,
    "urean": 18121,
    "odox": 21807,
    "Ġhighest": 3524,
    "Ġeavesdroppers": 25962,
    "Ġdi": 6525,
    "Ġcapabilities": 4377,
    "iny": 4293,
    "Ġinstruction": 14342,
    "Ġinfrequent": 3824,
    "youn": 5690,
    "syntax": 5866,
    "opard": 9290,
    "cus": 3981,
    "Ġoccurred": 4462,
    "Ġha": 400,
    "Ġsiberia": 26160,
    "Ù": 154,
    "Ġsnapped": 9896,
    "ground": 4670,
    "Ġel": 803,
    "Ġadieu": 10051,
    "Ġabhorred": 9508,
    "Ġratio": 5066,
    "Ġowning": 18743,
    "Ġdons": 17887,
    "ahead": 12431,
    "chosen": 21691,
    "Ġbubb": 12580,
    "Ġpetrified": 19594,
    "Ġcoupled": 16850,
    "tete": 10733,
    "Ġenigmatical": 20595,
    "bra": 6219,
    "Ġ58": 24325,
    "Ġreplied": 2266,
    "Ġprospect": 4704,
    "Ġproclaim": 18129,
    "vering": 15713,
    "magnetic": 20550,
    "etrics": 21581,
    "Ġbachelors": 24859,
    "Ġoppressively": 25711,
    "Ġacross": 1330,
    "Ġ103": 24410,
    "Ġengland": 3857,
    "allers": 22193,
    "Ġcrimes": 8589,
    "saw": 5893,
    "vell": 3959,
    "middle": 11311,
    "Ġmoulton": 17433,
    "us": 531,
    "feet": 6568,
    "contents": 12055,
    "image": 9686,
    "Ġwield": 21288,
    "Ġmeasurement": 19420,
    "Ġtenderest": 23545,
    "Ġserenity": 10028,
    "Ġscra": 5840,
    "Ġaddress": 2272,
    "Ġroof": 6564,
    "Ġarticles": 7108,
    "Ġinducement": 16842,
    "rack": 18009,
    "Ġstark": 7390,
    "aking": 975,
    "Ġbashaw": 25632,
    "Ġyawned": 15050,
    "Ġrecompense": 14836,
    "doubtful": 24790,
    "Ġslipping": 13357,
    "idly": 12696,
    "Ġspread": 5161,
    "fered": 5560,
    "dinah": 20078,
    "brushing": 20786,
    "face": 3675,
    "secut": 7866,
    "Ġder": 1500,
    "ruded": 15901,
    "Ġnarrow": 5086,
    "pendicular": 6499,
    "Ġdiscrimin": 2545,
    "away": 4624,
    "Ġstump": 7602,
    "Ġprocure": 9510,
    "ineas": 15819,
    "accompan": 11453,
    "Ġinch": 7849,
    "Ġwhist": 6021,
    "echo": 15346,
    "igated": 15704,
    "Ġprocession": 11773,
    "hailed": 17564,
    "Ġbitterly": 8314,
    "Ġforbe": 8457,
    "altogether": 12635,
    "Ġegotistical": 26190,
    "confess": 12172,
    "Ġsleepers": 13146,
    "marks": 7346,
    "Ġchaise": 9077,
    "Ġsecondly": 14518,
    "ander": 6401,
    "Ġjoyous": 14662,
    "bacc": 7794,
    "oregressive": 3421,
    "Ġforehead": 5261,
    "endering": 21282,
    "loving": 18536,
    "Ġnewton": 3528,
    "ceiling": 21623,
    "dignity": 15343,
    "imble": 10859,
    "Ġminimizes": 2046,
    "Ġclipping": 2439,
    "Ġerecting": 24651,
    "Ġcompos": 22565,
    "Ġarid": 22172,
    "Ġinfall": 7959,
    "ady": 994,
    "assment": 9739,
    "ounds": 4159,
    "looked": 6083,
    "Ġwhen": 513,
    "Ġstoven": 23172,
    "Ġcorrid": 9824,
    "irect": 5553,
    "sister": 5139,
    "Ġ17": 5740,
    "scruple": 26044,
    "shiver": 16023,
    "james": 15370,
    "kempt": 20939,
    "nonsense": 17614,
    "Ġhereafter": 9330,
    "Ġships": 3712,
    "Ġkrusen": 20712,
    "remarks": 23185,
    "Ġappo": 8498,
    "Ġhealth": 3904,
    "Ġnightmare": 18918,
    "believe": 8303,
    "web": 18663,
    "Ġblushed": 12997,
    "Ġtorn": 5999,
    "ordered": 8790,
    "Ġfluttered": 16248,
    "Ġclum": 8873,
    "Ġgrimesby": 11458,
    "Ġsparkling": 11357,
    "Ġramadans": 25119,
    "Ġpretend": 7721,
    "Ġrnns": 2393,
    "expectant": 24274,
    "force": 12956,
    "count": 4213,
    "Ġdoings": 18374,
    "atically": 2670,
    "Ġemper": 9861,
    "Ġanchor": 7368,
    "Ġstrangled": 24131,
    "insurance": 18887,
    "Ġexcell": 10416,
    "duck": 22408,
    "Ġridic": 7508,
    "buoy": 7760,
    "Ġcomplexion": 8209,
    "despair": 8343,
    "magistrate": 19861,
    "Ġspurred": 22134,
    "reen": 21229,
    "Ġfitting": 21405,
    "Ġheld": 3583,
    "arp": 2027,
    "Ġlives": 4824,
    "swed": 24252,
    "grained": 20881,
    "Ġcommunicative": 24547,
    "tain": 558,
    "mopol": 15394,
    "Ġ1869": 19381,
    "Ġresponded": 13636,
    "Ġshrine": 19529,
    "Ġappearances": 10452,
    "Ġunderstand": 829,
    "pidation": 18888,
    "Ġshrouds": 11345,
    "letter": 6201,
    "departed": 24793,
    "itals": 17819,
    "Ġwithin": 2163,
    "Ġreckoned": 24743,
    "antically": 22092,
    "alley": 23017,
    "Ġaint": 17743,
    "clerval": 7950,
    "Ġsoothe": 7405,
    "scho": 8760,
    "english": 2774,
    "ishop": 9742,
    "wandered": 20283,
    "Ġmout": 17797,
    "Ġactor": 16046,
    "Ġclubb": 22344,
    "tube": 20408,
    "Ġceti": 24772,
    "Ġscar": 3211,
    "their": 2540,
    "Ġself": 1778,
    "innocent": 20284,
    "combined": 20318,
    "itive": 6668,
    "Ġenticing": 22742,
    "Ġcrashes": 13122,
    ":": 30,
    "rably": 21629,
    "Ġthird": 4188,
    "tish": 17676,
    "Ġey": 8134,
    "Ġfa": 4818,
    "Ġperplexity": 2755,
    "!_âĢĶ": 19970,
    "Ġclearness": 23180,
    "comple": 7441,
    "usage": 12829,
    "inities": 21183,
    "Ġsabbee": 17254,
    "Ġdazzling": 15209,
    "gratification": 24347,
    "unction": 10235,
    "Ġpreventing": 884,
    "Ġjavel": 17083,
    "Ġswart": 14432,
    "Ġ199": 3006,
    "deserted": 18957,
    "Ġexceptionable": 25503,
    "fun": 3598,
    "Ġlandowner": 23378,
    "oken": 4306,
    "achus": 18280,
    "maltese": 24794,
    "Ġdispatched": 23878,
    "stock": 13218,
    "Ġrested": 9379,
    "Ġwonderfully": 10431,
    "Ġdevelopments": 23212,
    "Ġhollows": 19739,
    "ets": 1158,
    "Ġencode": 4364,
    "Ġeu": 6390,
    "Ġcuriously": 13000,
    "Ġlover": 7193,
    "ims": 7176,
    "Ġtrib": 13817,
    "Ġomnipotent": 13545,
    "Ġbreakfast": 3976,
    "Ġsullen": 9158,
    "Ġsanguinary": 25928,
    "uneven": 23679,
    "ohog": 9843,
    "Ġsuspicion": 6211,
    "Ġinquis": 19301,
    "french": 9120,
    "rub": 15897,
    "buncle": 13690,
    "Ġeighty": 19473,
    "Ġdiana": 21433,
    "cure": 11475,
    "Ġventure": 7739,
    "Ġspouts": 7729,
    "elfth": 22365,
    "forever": 22515,
    "Ġresent": 6048,
    "Ġtestified": 16330,
    "Ġconcussion": 26299,
    "Ġvernal": 23885,
    "Ġrecognition": 3098,
    "ruction": 4356,
    "mit": 4932,
    "Ġcrush": 9422,
    "Ġforeshad": 23450,
    "Ġtempered": 12920,
    "iage": 17572,
    "wanted": 10744,
    "safety": 20347,
    "Ġdiscredit": 22775,
    "pure": 17625,
    "xology": 21139,
    "ular": 715,
    "Ġdestroy": 5772,
    "Ġinspired": 2518,
    "Ġoverthrow": 18430,
    "Ġhost": 7068,
    "ror": 7351,
    "Ġcrucial": 9892,
    "abeth": 907,
    "Ġcommunication": 1872,
    "Ġtrifle": 10602,
    "vineyard": 25421,
    "Ġaffections": 10385,
    "ications": 4445,
    "Ġcocaine": 20719,
    "Ġabruptness": 25299,
    "ipagos": 22353,
    "Ġfullest": 14811,
    "afternoon": 13182,
    "gratitude": 16815,
    "Ġangry": 5498,
    "athom": 12934,
    "Ġimpud": 18443,
    "Ġreverie": 13454,
    "Ġshri": 5375,
    "Ġheire": 18035,
    "Ġacceptance": 14825,
    "Ġfanatic": 23389,
    "Ġsings": 15504,
    "voyage": 7785,
    "Ġmilan": 19533,
    "Ġapproached": 5843,
    "Ġstrateg": 1372,
    "Ġavail": 11227,
    "Ġcounterpane": 11344,
    "Ġbaffled": 12400,
    "Ġrocked": 12851,
    "Ġhearse": 10421,
    "Ġmorphology": 3007,
    "Ġcongregational": 25101,
    "Ġlawyer": 10669,
    "ceive": 3060,
    "blocks": 25517,
    "retched": 3065,
    "Ġser": 1669,
    "Ġbumpkin": 20198,
    "Ġcircumst": 2972,
    "Ġpurely": 12228,
    "ss": 397,
    "Ġimp": 575,
    "tallied": 21087,
    "Ġmilk": 6485,
    "Ġshrill": 12138,
    "liked": 10509,
    "Ġyear": 3284,
    "Ġkith": 22188,
    "beloved": 19458,
    "Ġconverted": 16110,
    "eness": 2292,
    "Ġflanks": 11911,
    "Ġpoetic": 17102,
    "Ġmaking": 1779,
    "Ġphyset": 23196,
    "Ġhieroglyph": 11968,
    "Ġages": 7027,
    "Ġdevout": 14324,
    "Ġwealth": 7620,
    "Ġanywhere": 8516,
    "Ġinmost": 17929,
    "Ġluck": 4879,
    "Ġassistance": 6333,
    "Ġebb": 21618,
    "Ġlurking": 11290,
    "Ġdeg": 3280,
    "Ġfleeting": 19325,
    "Ġdeclining": 23960,
    "Ġunreasonably": 17449,
    "Ġportents": 14678,
    "Ġpicked": 6341,
    "ī": 236,
    "Ġdipped": 15592,
    "unforeseen": 21884,
    "prince": 23811,
    "âĢľâĢĶ": 10873,
    "Ġjournal": 15216,
    "Ġslowly": 3616,
    "Ġfreshets": 25704,
    "Ġtwitch": 22672,
    "Ġstack": 21729,
    "Ġescaping": 13132,
    "Ġadequately": 15196,
    "ray": 2436,
    "circum": 16736,
    "Ġrespons": 2683,
    "Ġwaylaid": 22864,
    "Ġribs": 7101,
    "thought": 3849,
    "Ġstile": 21728,
    "Ġir": 1992,
    "Ġgain": 4826,
    "smoking": 23907,
    "snowy": 20281,
    "Ġstation": 5297,
    "Ġchanced": 8186,
    "impetuous": 23759,
    "Ġtales": 10142,
    "Ġweeks": 4564,
    "prison": 14661,
    "Ġdependency": 3484,
    "bal": 2156,
    "Ġvehement": 16200,
    "osque": 22257,
    "Ġwhit": 7177,
    "shabb": 18494,
    "ľ": 255,
    "Ġmelbourne": 24288,
    "america": 17096,
    "apparat": 22842,
    "robotics": 11307,
    "Ġsmallest": 6430,
    "Ġagreeably": 24951,
    "iature": 8742,
    "ipher": 18425,
    "Ġcinque": 20483,
    "Ġchase": 3945,
    "Ġcomparatively": 9490,
    "Ġhap": 18194,
    "Ġinvention": 19950,
    "rents": 5308,
    "tenderly": 20528,
    "anzas": 17839,
    "Ġtear": 6723,
    "reported": 24492,
    "Ġhum": 1101,
    "comrade": 20622,
    "Ġtugged": 17287,
    "times": 8098,
    "Ġ49": 24078,
    "upon": 2722,
    "Ġworst": 7444,
    "Ġenc": 967,
    "Ġpolitical": 19221,
    "Ġgoal": 10302,
    "Ġprogra": 1143,
    "Ġcatching": 9478,
    "unmistakable": 21891,
    "Ġra": 809,
    "elzebub": 26463,
    "Ġfleecy": 17022,
    "deadly": 17099,
    "ĠâĢĶ_": 3454,
    "honest": 17002,
    "auley": 22617,
    "gn": 8081,
    "adm": 7608,
    "direct": 12453,
    "Ġimpending": 22380,
    "ric": 1377,
    "Ġthin": 4346,
    "Ġlanes": 19763,
    "crimes": 16696,
    "Ġphil": 3383,
    "Ġexh": 5232,
    "Ġinvoking": 19144,
    "thrust": 10262,
    "Ġgrowled": 19281,
    "Ġid": 1909,
    "Ġvalid": 1777,
    "consolation": 15150,
    "although": 8806,
    "Ġyoke": 18094,
    "x": 92,
    "legs": 13179,
    "Ġcollection": 8221,
    "educated": 17258,
    "Ġhinted": 6011,
    "supernatural": 19777,
    "ondon": 2706,
    "ientiously": 21937,
    "aste": 4600,
    "Ġbackward": 7652,
    "Ġfavoured": 16359,
    "atives": 2237,
    "Ġadorned": 15245,
    "Ġjacobians": 2892,
    "Ġdiv": 3729,
    "acting": 22627,
    "Ġfluffy": 19361,
    "those": 4495,
    "Ġlexicon": 25973,
    "mou": 10709,
    "pat": 10117,
    "Ġsamuel": 10033,
    "quohog": 21854,
    "anxiety": 25155,
    "Ġslighter": 18938,
    "assault": 22302,
    "Ġc": 277,
    "Ġsage": 17751,
    "Ġshutting": 14757,
    "hill": 15360,
    "Ġcalculus": 23979,
    "Ġhorses": 6385,
    "spin": 22729,
    "atus": 21258,
    "abil": 2006,
    "emy": 14073,
    "seeking": 17151,
    "Ġconvinced": 4206,
    "Ġtooth": 9193,
    "Ġtrampled": 20326,
    "felt": 5888,
    "Ġconveniently": 20076,
    "pole": 9333,
    "acetti": 13393,
    "liking": 22920,
    "tubs": 15128,
    "shapes": 22453,
    "Ġperseus": 10604,
    "###": 3827,
    "Ġodorous": 19564,
    "Ġinsurg": 23675,
    "Ġexternal": 8364,
    "Ġscraps": 16901,
    "Ġquivers": 22409,
    "Ġaccomplishment": 19663,
    "Ġquee": 1980,
    "Ġrepented": 23359,
    "Ġorganizations": 12311,
    "Ġblotted": 20215,
    "Ġpedro": 14993,
    "Ġshortly": 6196,
    "Ġtransfer": 2229,
    "ent": 305,
    "levelled": 23641,
    "Ġporpoises": 13379,
    "Ġdays": 2076,
    "ho": 2857,
    "Ġcontr": 1914,
    "inese": 12879,
    "inous": 8772,
    "stretched": 10206,
    "rigging": 20003,
    "Ġcontextual": 3741,
    "Ġsan": 7824,
    "Ġdeeply": 4715,
    "Ġshutters": 9937,
    "Ġstripping": 23690,
    "Ġendurance": 23142,
    "Ġfinal": 5400,
    "Ġarched": 10933,
    "Ġglued": 20586,
    "itching": 21332,
    "wester": 21136,
    "into": 3678,
    "beef": 18519,
    "Ġcrony": 23438,
    "Ġhaze": 18195,
    "gunw": 17219,
    "Ġgermany": 25784,
    "Ġturnkeys": 23025,
    "Ġcheer": 4066,
    "mag": 6508,
    "Ġceiling": 7996,
    "itch": 10161,
    "Ġomn": 8409,
    "Ġbee": 21745,
    "object": 6884,
    "cross": 3572,
    "anges": 1672,
    "Ġthom": 21512,
    "Ġjenkinson": 11432,
    "ese": 4444,
    "Ġbil": 15562,
    "Ġstroll": 13349,
    "Ġfretfully": 25447,
    "Ġcompressed": 21846,
    "atters": 18480,
    "official": 24913,
    "mured": 6960,
    "Ġinconsist": 17934,
    "vest": 6230,
    "Ġspare": 5102,
    "should": 3261,
    "Ġwatches": 11082,
    "Ġhumiliating": 22880,
    "Ġdownward": 10332,
    "Ġnaut": 13939,
    "affa": 23773,
    "Ġlurid": 19679,
    "overing": 6306,
    "Ġinestim": 15621,
    "ignified": 14489,
    "omely": 21655,
    "ants": 1391,
    "Ġlivel": 11356,
    "organic": 25945,
    "jolly": 20929,
    "Ġarrested": 9561,
    "Ġgenerative": 5644,
    "ignomin": 23262,
    "Ġwoof": 14719,
    "Ġstanders": 19016,
    "Ġalow": 18098,
    "metals": 24765,
    "Ġretained": 7173,
    "Åĵuv": 15180,
    "glo": 8738,
    "clergy": 18932,
    "Ġsharply": 9403,
    "Ġcopying": 17067,
    "pict": 8385,
    "Ġfinding": 3264,
    "afflicted": 23775,
    "Ġopened": 3508,
    "Ġmitigates": 3048,
    "Ġhands": 1661,
    "Ġemperors": 15157,
    "Ġag": 683,
    "roses": 17955,
    "Ġdarts": 16767,
    "Ġinvoked": 19143,
    "footman": 17161,
    "Ġmake": 1283,
    "Ġmainly": 22657,
    "Ġlean": 7605,
    "Ġminded": 23229,
    "combination": 25486,
    "pay": 10719,
    "Ġoutset": 15953,
    "goldsmith": 20145,
    "istence": 2277,
    "Ġergo": 25028,
    "ty": 1000,
    "icient": 782,
    "Ġshed": 8180,
    "Ġdirections": 1971,
    "antial": 8487,
    "Ġcontrol": 13076,
    "Ġsafer": 22166,
    "Ġreproachfully": 25251,
    "ilogue": 21720,
    "icle": 10835,
    "Ġpenet": 6888,
    "unusual": 21875,
    "Ġcoronation": 13330,
    "sleeves": 26108,
    "Ġmot": 2982,
    "Ġunaffected": 14119,
    "Ġmissed": 8556,
    "Ġtops": 14585,
    "Ġfranc": 16350,
    "Ġdub": 13907,
    "Ġdivin": 13268,
    "Ġdeaths": 14536,
    "cheer": 9437,
    "Ġnowadays": 18544,
    "her": 488,
    "keel": 14127,
    "Ġextraction": 11255,
    "Ġbeau": 9225,
    "h": 76,
    "tural": 21064,
    "Ġscold": 10951,
    "Ġwondering": 7970,
    "rich": 11518,
    "rift": 11520,
    "Ġlewis": 15722,
    "Ġrising": 4354,
    "ster": 1954,
    "Ġnights": 7258,
    "Ġravines": 25830,
    "Ġchristianity": 19859,
    "Ġlaughing": 5338,
    "Ġunceasingly": 20356,
    "ribbed": 16411,
    "kicked": 20941,
    "Ġmatrices": 4968,
    "Ġcease": 7076,
    "Ġproportionably": 19968,
    "Ġkeenest": 12158,
    "Ġascended": 8666,
    "Ġfix": 2507,
    "Ġhighness": 22770,
    "Ġalongside": 6311,
    "Ġcomrades": 9555,
    "accidents": 19210,
    "Ġsideboard": 10386,
    "Ġpri": 5813,
    "Ġgrop": 12660,
    "Ġrazors": 22655,
    "Ġstupid": 7603,
    "owl": 12679,
    "fashion": 8080,
    "phur": 16163,
    "Ġinsult": 6747,
    "Ġcreature": 2382,
    "unaccountable": 15776,
    "Ġcoachman": 14999,
    "Ġsuggest": 5417,
    "Ġspared": 7892,
    "Ġplantation": 11424,
    "seventh": 12710,
    "Ġrespond": 11177,
    "Ġcetace": 14986,
    "Ġfishe": 15583,
    "Ġtapped": 11554,
    "Ġloop": 14145,
    "Ġextreme": 2515,
    "Ġdoub": 1837,
    "Ġconcept": 664,
    "Ġruth": 14092,
    "Ġtailed": 21166,
    "ylon": 24974,
    "Ġerection": 23997,
    "Ġboisterously": 25681,
    "Ġcataract": 23425,
    "Ġlasted": 11054,
    "neighboring": 20614,
    "Ġlet": 1117,
    "broad": 8643,
    "Ġboisterous": 20440,
    "Ġclinging": 10292,
    "Ġscenery": 11457,
    "Ġbalance": 2021,
    "Ġtarn": 21156,
    "Ġboyhood": 23751,
    "Ġslu": 13834,
    "'": 11,
    "Ġbetter": 1172,
    "Ġended": 7949,
    "pointed": 9808,
    "Ġslaves": 23166,
    "Ġdying": 2136,
    "]]": 5205,
    "Ġpresenting": 18986,
    "olent": 8154,
    "boo": 16349,
    "Ġinvader": 23476,
    "Ġwant": 1122,
    "Ġoccup": 3737,
    "Ġsalmon": 24057,
    "idious": 11661,
    "Ġfame": 21403,
    "Ġbrimming": 22858,
    "Ġcities": 17826,
    "husband": 8041,
    "oct": 7554,
    "thur": 7188,
    "Ġbiscuit": 12585,
    "Ġdine": 7366,
    "inder": 9153,
    "Ġfactor": 19014,
    "aloons": 20008,
    "Ġbefell": 14008,
    "Ġplaster": 16081,
    "Ġbless": 4341,
    "Ġrepulsive": 14529,
    "Ġtist": 21160,
    "Ġmag": 1431,
    "Ġtierce": 15477,
    "record": 16920,
    "Ġinterfere": 11815,
    "ateful": 5926,
    "Ġconfluent": 19040,
    "Ġpaints": 23520,
    "Ġtug": 11551,
    "exceed": 7910,
    "Ġcorruption": 15223,
    "Ġled": 3517,
    "Ġponder": 6819,
    "Ġacts": 2296,
    "Ġhesitation": 13438,
    "Ġcopse": 17066,
    "Ġfurnace": 19437,
    "illar": 5101,
    "Ġdiscover": 4716,
    "Ġscound": 12828,
    "indirect": 22368,
    "Ġcrying": 10787,
    "Ġcorn": 9350,
    "ĠĠĠĠĠĠĠĠĠĠĠĠĠĠĠĠĠĠĠĠĠĠĠĠĠĠĠĠĠĠĠĠĠĠĠĠĠĠĠĠĠĠĠĠĠĠĠ": 16754,
    "housekeeper": 24098,
    ";âĢĻ": 15300,
    "Ġperu": 14221,
    "dles": 11481,
    "Ġholder": 6724,
    "zors": 21145,
    "inclined": 10640,
    "Ġbedside": 19120,
    "Ġconfident": 11139,
    "Ġemblaz": 16234,
    "compar": 14358,
    "Ġsecured": 6745,
    "Ġgasp": 7172,
    "ã": 164,
    "neighbour": 7211,
    "Ġdented": 17890,
    ")": 13,
    "Ġexile": 12713,
    "Ġdisguise": 10046,
    "Ġdoctors": 12148,
    "Ġjav": 7901,
    "Ġpresum": 4836,
    "absurd": 21791,
    "Ġda": 5150,
    "Ġgrimly": 17051,
    "Ġgrie": 3581,
    "cour": 4479,
    "friendly": 13281,
    "bethinking": 25744,
    "Ġcologne": 12970,
    "ime": 625,
    "Ġ34": 16676,
    "iferous": 17290,
    "impl": 21703,
    "bald": 16446,
    "Ġtranslations": 12049,
    "Ġade": 22097,
    "neck": 14232,
    "Ġfifteen": 6947,
    "Ġsuccessfully": 19426,
    "Ġkra": 18347,
    "Ġapplications": 4783,
    "nns": 1894,
    "odd": 21805,
    "ible": 1119,
    "Ġpieces": 7369,
    "Ġsombre": 18857,
    "jure": 20922,
    "Ġdampening": 2894,
    "Ġhammer": 6093,
    "Ġinterested": 6458,
    "Ġdistinct": 4608,
    "strugg": 21652,
    "shed": 8094,
    "Ġphysiognomy": 25609,
    "bar": 7541,
    "Ġshiver": 12763,
    "partner": 19219,
    "repaid": 24490,
    "onies": 6806,
    "terms": 15748,
    "othing": 6995,
    "Ġpopulous": 16825,
    "Ġloft": 5642,
    "Ġpulling": 5862,
    "Ġdegener": 14046,
    "conclusion": 25670,
    "Ġcharlotte": 3891,
    "uncont": 15771,
    "Ġhouses": 6138,
    "doom": 23374,
    "Ġdefects": 12330,
    "Ġdeemed": 7612,
    "Ġbars": 13895,
    "mention": 7215,
    "Ġpersu": 3559,
    "ickory": 22665,
    "Ġunscrew": 22034,
    "Ġvalu": 5039,
    "Ġgeneric": 18446,
    "vert": 15712,
    "Ġagony": 5388,
    "Ġappeared": 2775,
    "ions": 448,
    "Ġharvard": 24572,
    "Ġmult": 1024,
    "Ġlord": 2963,
    "Ġscru": 8190,
    "alty": 17937,
    "Ġpredictions": 1458,
    "Ġpropose": 9852,
    "Ġrevive": 13476,
    "¿": 128,
    "Ġtiny": 11553,
    "Ġsweep": 8265,
    "Ġtet": 21155,
    "Ġhookah": 16969,
    "beat": 10987,
    "lamp": 9609,
    "Ġassign": 11111,
    "Ġfortitude": 9885,
    "harpooneers": 8690,
    "affections": 17355,
    "commanders": 16988,
    "iltrated": 19303,
    "Ġtroubled": 6615,
    "seriously": 18903,
    "bbed": 6910,
    "aring": 1478,
    "are": 638,
    "Ġpouch": 21465,
    "eer": 15345,
    "Ġhammers": 13237,
    "Ġoverpowering": 15247,
    "Ġmagic": 8232,
    "esty": 4305,
    "Ġinfl": 6893,
    "Ġstops": 3166,
    "Ġunion": 6839,
    "Ġwaters": 3593,
    "Ġinteraction": 7424,
    "chairs": 21689,
    "Ġprovoke": 14824,
    "angels": 22102,
    "Ġthrill": 24540,
    "few": 8203,
    "Ġflog": 23620,
    "chor": 6146,
    "enderby": 25215,
    "Ġindulge": 10583,
    "Ġsteering": 10388,
    "Ġtok": 1247,
    "Ġabund": 8865,
    "Ġpool": 5173,
    "Ġlies": 5295,
    "Ġcastor": 19424,
    "nades": 20995,
    "terror": 18127,
    "Ġloves": 10916,
    "Ġsurmised": 24918,
    "Ġmocking": 23999,
    "Ġsurpasses": 25268,
    "ian": 1240,
    "networks": 2403,
    "Ġdoll": 10814,
    "Ġnewcastle": 16221,
    "Ġfoes": 11949,
    "Ġleyden": 21743,
    "Ġcheating": 16365,
    "bib": 17490,
    "Ġconstrained": 19237,
    "Ġvariance": 1166,
    "Ġrequisition": 22630,
    "Ġconstruction": 9385,
    "Ġbeheading": 21750,
    "ieties": 19023,
    "daring": 20827,
    "disposed": 25009,
    "Ġglasses": 9475,
    "Ġtack": 5621,
    "Ġaust": 4870,
    "imen": 12682,
    "Ġreef": 10850,
    "Ġsought": 5010,
    "Ġunguarded": 15848,
    "Ġcorpora": 26579,
    "Ġflock": 21408,
    "Ġswells": 9827,
    "sprang": 19988,
    "Ġsquee": 7928,
    "Ġdyspepsia": 20641,
    "Ġant": 4344,
    "Ġrepresents": 4901,
    "agger": 7871,
    "Ġtasted": 12525,
    "Ġimproved": 7656,
    "Ġmisanthropic": 26559,
    "Ġaval": 15492,
    "vic": 13800,
    "cur": 3269,
    "Ġchiswick": 25560,
    "loath": 22505,
    "Ġriddle": 14817,
    "Ġexample": 5096,
    "Ġmodesty": 12813,
    "threshold": 21983,
    "ertion": 12036,
    "ruck": 6848,
    "Ġexter": 7397,
    "Ġincorporated": 25710,
    "trop": 15435,
    "Ġskiff": 16159,
    "Ġripe": 13231,
    "licted": 20954,
    "government": 25406,
    "Ġrecol": 4030,
    "Ġprosecut": 9698,
    "Ġexploitation": 2348,
    "Ġinforming": 18740,
    "..": 5783,
    "Ġexperience": 1394,
    "Ġappearance": 3697,
    "iew": 2446,
    "permitted": 18343,
    "Ġconcer": 23318,
    "otted": 14022,
    "Ġflu": 3276,
    "Ġbremen": 23342,
    "transferred": 24513,
    "ations": 710,
    "Ġ3": 3986,
    "get": 1023,
    "invincible": 25088,
    "Ġbaboon": 19691,
    "been": 3342,
    "Ġgryphon": 4299,
    "Ġmorbid": 16235,
    "Ġcontrad": 9755,
    "latitude": 25259,
    "ump": 2286,
    "Ġwalls": 6762,
    "ioning": 21505,
    "dough": 15333,
    "boat": 3359,
    "peculiarities": 13468,
    "gan": 2200,
    "Ġsultan": 15182,
    "Ġservant": 5764,
    "Ġsaxon": 25468,
    "Ġsaviour": 20711,
    "Ġmelt": 21315,
    "Ġdissatisfied": 14255,
    "conditionally": 24833,
    "Ġcus": 21340,
    "Ġherbage": 25995,
    "Ġglow": 7170,
    "oms": 4592,
    "Ġwoe": 4792,
    "bon": 13682,
    "Ġalterations": 19869,
    "Ġwalk": 1826,
    "Ġrem": 953,
    "Ġfloated": 7288,
    "expected": 5780,
    "Ġmingled": 12374,
    "Ġrelief": 6059,
    "Ġperf": 12846,
    "Ġargemone": 24273,
    "leviathan": 7784,
    "believing": 19459,
    "Ġwrongfully": 24247,
    "Ġrascal": 11699,
    "utting": 17983,
    "rossing": 18641,
    "Ġenglishman": 11231,
    "ĠdÃ¦mon": 7844,
    "discredit": 24249,
    "isticated": 1744,
    "Ġhandkerchief": 8914,
    "Ġ118": 19696,
    "Ġglens": 18852,
    "Ġord": 3733,
    "Ġess": 5691,
    "Ġpreacher": 18368,
    "pil": 15407,
    "Ġpurchased": 12257,
    "Ġhussey": 7724,
    "Ġaffectation": 14438,
    "Ġobjectionable": 16990,
    "coun": 10687,
    "Ġplanisp": 24053,
    "favour": 9549,
    "Ġalbert": 12702,
    "arious": 10318,
    "Ġfainting": 16896,
    "Ġforced": 4351,
    "alescing": 23863,
    "Ġevangelist": 20336,
    "Ġswims": 12116,
    "screaming": 20323,
    "rennial": 22337,
    "Ġcarpenter": 4683,
    "Ġleakage": 23457,
    "Ġmovement": 9968,
    "Ġseals": 11693,
    "Ġdances": 10813,
    "Ġwarm": 2423,
    "arking": 16123,
    "Ġfitly": 23995,
    "Ġprows": 19887,
    "rie": 2786,
    "Ġextending": 11021,
    "oqu": 7555,
    "Ġignominy": 15083,
    "Ġslo": 15505,
    "cad": 17503,
    "Ġpeterson": 9483,
    "Ġexploring": 4304,
    "Ġjoes": 19228,
    "thoughtfully": 24040,
    "Ġscener": 10950,
    "Ġfacts": 2290,
    "Ġegyptians": 25289,
    "direful": 25895,
    "Ġnearing": 15793,
    "Ġnantucketers": 9894,
    "Ġjohn": 5032,
    "Ġlivers": 18460,
    "Ġtelegra": 11889,
    "Ġprobed": 18732,
    "umes": 10918,
    "ssible": 2989,
    "allic": 12809,
    "Ġaberde": 22273,
    "Ġapparatus": 24907,
    "ufact": 10734,
    "Ġcouch": 12567,
    "legra": 10790,
    "Ġbaby": 6636,
    "Ġdoubtfully": 23475,
    "Ġgrowl": 16536,
    "wag": 21121,
    "Ġlengthened": 25957,
    "Ġmagistrate": 8233,
    "Ġgulp": 20026,
    "Ġhelps": 9367,
    "Ġbesee": 19241,
    "Ġpagan": 7117,
    "strip": 19828,
    "impenet": 18052,
    "Ġcondensed": 24048,
    "wic": 21118,
    "Ġmariner": 7247,
    "spout": 7923,
    "Ġcompress": 21845,
    "ojo": 7349,
    "Ġlearnt": 7613,
    "Ġdevouring": 11855,
    "thro": 12757,
    "ication": 1019,
    "ceiving": 3903,
    "Ġfishing": 9663,
    "inspect": 11559,
    "Ġsporting": 16998,
    "required": 17029,
    "Ġtour": 9148,
    "Ġperilously": 24506,
    "Ġintelligence": 562,
    "Ġemac": 16405,
    "Ġepid": 18003,
    "impress": 18050,
    "Ġeleventh": 23366,
    "Ġcastaway": 16639,
    "Ġbreeze": 5681,
    "tawny": 26403,
    "ulia": 18147,
    "Ġvisibly": 22872,
    "Ġdescription": 7429,
    "Ġnegatived": 23044,
    "Ġjeer": 24121,
    "Ġterms": 2561,
    "ambition": 13408,
    "Ġtrowsers": 9628,
    "Ġunfold": 8022,
    "Ġarchitect": 960,
    "Ġneg": 1333,
    "Ġcollar": 11876,
    "Ġdisc": 943,
    "Ġspecialized": 3921,
    "cused": 15330,
    "Ġinconvenient": 20007,
    "Ġcaptioning": 23016,
    "Ġtruest": 16702,
    "melted": 25206,
    "Ġtag": 15467,
    "Ġmurky": 19199,
    "seldom": 13785,
    "Ġseasoned": 24404,
    "Ġdesperado": 19817,
    "Ġtrifling": 10603,
    "mm": 673,
    "Ġmill": 6666,
    "Ġpretending": 19313,
    "Ġfrenzy": 13620,
    "--": 1041,
    "levi": 7047,
    "Ġtrample": 20325,
    "hem": 6663,
    "lins": 2026,
    "Ġperhaps": 1911,
    "bott": 9106,
    "ides": 2161,
    "Ġcachalot": 17833,
    "loo": 10320,
    "Ġfind": 1460,
    "Į": 239,
    "account": 5329,
    "stays": 15685,
    "boil": 18998,
    "Ġcran": 11998,
    "Ġnarrated": 14869,
    "Ġsect": 17750,
    "reel": 21231,
    "Ġensu": 7874,
    "Ġcongeal": 25979,
    "Ġanalysis": 1932,
    "Ġinferiority": 17114,
    "absent": 21786,
    "Ġperfections": 23606,
    "lev": 1238,
    "Ġdangerously": 23933,
    "uit": 8392,
    "sufferable": 12173,
    "various": 10398,
    "Ġlikes": 9408,
    "Ġnast": 15636,
    "Ġannoyed": 17198,
    "reme": 2422,
    "Ġformidable": 8219,
    "Ġenvelopes": 24509,
    "Ġunrelieved": 20543,
    "Ġgoing": 2065,
    "consequential": 26248,
    "Ġsaith": 14154,
    "ot": 346,
    "heric": 15909,
    "Ġhaunted": 10254,
    "Ġpicturesqueness": 24479,
    "Ġapprove": 12869,
    "drugg": 20836,
    "Ġpersuasions": 16630,
    "sto": 3198,
    "eyeing": 14944,
    "insufferable": 21190,
    "socket": 22727,
    "Ġcombination": 22866,
    "iana": 7048,
    "mell": 20962,
    "Ġscrews": 25177,
    "Ġdirect": 1474,
    "Ġcock": 11000,
    "Ġdisciple": 22776,
    "Ġentangled": 10346,
    "blows": 17164,
    "Ġsigh": 10337,
    "Ġfoolscap": 24156,
    "Ġremarkably": 7702,
    "anke": 15558,
    "Ġfurled": 22808,
    "holland": 24037,
    "ieth": 10705,
    "ullen": 8234,
    "rix": 1572,
    "ug": 1766,
    "Ġbear": 3656,
    "agues": 8160,
    "Ġfiltering": 23922,
    "Ġbreach": 11971,
    "promise": 12247,
    "depth": 12796,
    "Ġthoroughfares": 26094,
    "Ġautonomous": 10676,
    "fainting": 20470,
    "Ġtwin": 12923,
    "ibilities": 13007,
    "bitterly": 20335,
    "shroud": 20310,
    "Ġreproof": 24889,
    "bruary": 15233,
    "ç": 168,
    "dece": 11731,
    "impression": 15708,
    "Ġscarce": 8622,
    "Ġepidemic": 20693,
    "Ġstacks": 18073,
    "izar": 14048,
    "Ġendwise": 23141,
    "Ġsystematically": 3881,
    "Ġpostmark": 16724,
    "Ġalbino": 20500,
    "Ġwasting": 12724,
    "Ġexotic": 21827,
    "Ġjaws": 5593,
    "leviathans": 19935,
    "Ġwitness": 4620,
    "Ġbonds": 17868,
    "Ġrefinement": 18694,
    "warning": 25531,
    "Ġflames": 7939,
    "Ġarmy": 11739,
    "vocation": 25083,
    "<": 32,
    "Ġinsinuating": 19269,
    "Ġmistifying": 23716,
    "Ġindulgence": 11320,
    "Ġinsolent": 13598,
    "Ġcomfortless": 23909,
    "Ġfinger": 5273,
    "Ġobtain": 8915,
    "preserving": 25304,
    "Ġdecanter": 22435,
    "Ġaut": 1849,
    "Ġhooks": 14966,
    "hammock": 16352,
    "Ġdiverged": 23592,
    "Ġexhilarating": 26336,
    "aire": 10681,
    "couldn": 23714,
    "Ġadjusts": 8981,
    "crossing": 19408,
    "between": 5071,
    "Ġlightness": 23256,
    "Ġmunro": 25629,
    "ascal": 10193,
    "Ġdepends": 1103,
    "rog": 15637,
    "civility": 17512,
    "Ġveneration": 25043,
    "Ġsignific": 3828,
    "Ġship": 1093,
    "Ġembra": 6578,
    "Ġdesign": 4133,
    "Ġtransport": 11279,
    "Ġprobabilities": 4965,
    "Ġreplay": 5047,
    "ython": 1030,
    "Ġpath": 2115,
    "Ġwounds": 17789,
    "Ġsenor": 20148,
    "thrusting": 20257,
    "Ġsupply": 6066,
    "aulets": 18618,
    "Ġimparted": 15986,
    "Ġloving": 8175,
    "Ġhim": 476,
    "Ġentered": 2845,
    "Ġhanging": 5447,
    "Ġmotioned": 19590,
    "cooks": 25066,
    "breadth": 20274,
    "Ġobjects": 5578,
    "Ġintroducing": 11973,
    "Ġbetween": 792,
    "Ġout": 543,
    "Ġordinary": 6096,
    "etween": 774,
    "ower": 1020,
    "garden": 15024,
    "Ġcoronet": 6344,
    "Ġsister": 1476,
    "Ġfact": 1723,
    "adow": 18086,
    "resolution": 17765,
    "Ġcombing": 22865,
    "fin": 5209,
    "Ġfearing": 12811,
    "Ġunhing": 18237,
    "Ġlanc": 19762,
    "Ġmortally": 23913,
    "Ġamph": 18510,
    "stupid": 12671,
    "Ġfurlong": 18738,
    "yield": 13807,
    "Ġtumb": 21167,
    "Ġhurst": 5582,
    "astes": 11737,
    "alously": 15626,
    "Ġcombine": 4415,
    "oot": 13763,
    "plun": 15817,
    "settled": 10507,
    "Ġescorted": 23503,
    "Ġcauldron": 25441,
    "cil": 8721,
    "Ġcommenting": 25228,
    "Ġlodging": 24089,
    "ret": 1477,
    "Ġaustrian": 24299,
    "Ġstrive": 23687,
    "hip": 8741,
    "Ġtombed": 25160,
    "Ġsupposed": 4557,
    "ĠvertebrÃ¦": 11436,
    "Ġpall": 7582,
    "Ġsteepest": 3085,
    "united": 14058,
    "Ġinfer": 7683,
    "Ġobscurely": 20186,
    "hamlet": 23258,
    "Ġmature": 17798,
    "Ġuninhabited": 22045,
    "emin": 8470,
    "Ġimbec": 14155,
    "Ġproc": 5545,
    "iminished": 19022,
    "Ġgenerously": 22387,
    "conditional": 9079,
    "Ġblessing": 11264,
    "Ġread": 1448,
    "sheets": 14440,
    "Ġseparating": 16684,
    "Ġostrich": 26429,
    "Ġdining": 6977,
    "anel": 21354,
    "Ġberg": 24535,
    "Ġprivate": 5345,
    "vels": 5432,
    "Ġservox": 23867,
    "curiosity": 8624,
    "Ġplaymate": 23635,
    "Ġlocker": 16910,
    "sorrow": 12505,
    "yingly": 23111,
    "ruding": 9724,
    "Ġspell": 8856,
    "Ġglorious": 11076,
    "Ġbag": 5699,
    "uracy": 1068,
    "Ġphilist": 16600,
    "Ġklux": 22191,
    "Ġsuspects": 16889,
    "Ġinterrupt": 4359,
    "Ġhesitate": 16945,
    "Ġlitter": 19827,
    "Ġsavann": 14683,
    "Ġstigma": 25790,
    "Ġmoonlight": 9958,
    "Ġelect": 10843,
    "Ġfooted": 23794,
    "sius": 13786,
    "Ġghosts": 12229,
    "Ġproverb": 12712,
    "Ġcommodore": 12392,
    "bbing": 6323,
    "stand": 622,
    "Ġcongealed": 25980,
    "bewil": 22494,
    "need": 10980,
    "Ġplague": 11822,
    "Ġcorrectly": 9404,
    "Ġpoul": 15610,
    "Ġclicked": 22348,
    "Ġpraised": 19551,
    "Ġclap": 10957,
    "Ġindia": 10371,
    "le": 279,
    "pron": 9006,
    "Ġdeliberate": 15021,
    "Ġexpected": 3694,
    "Ġdormouse": 4924,
    "Ġembodiment": 20525,
    "Ġfacetious": 20581,
    "Ġsnap": 11201,
    "mediterranean": 16401,
    "Ġbreezes": 14867,
    "Ġirritation": 20264,
    "Ġballasted": 23976,
    "private": 13580,
    "Ġcommissionaire": 16999,
    "whaleman": 23433,
    "Ġilluminating": 25245,
    "cart": 10689,
    "twenty": 6607,
    "Ġdashing": 8796,
    "Ġ135": 24784,
    "Ġkilled": 4954,
    "Ġpreternatural": 12819,
    "cible": 20804,
    "Ġbliss": 12996,
    "Ġ221": 25067,
    "cl": 1496,
    "_).": 5886,
    "ergy": 2361,
    "Ġpauper": 26178,
    "Ġoccupation": 9931,
    "Ġacute": 16121,
    "chain": 18038,
    "Ġmeals": 12707,
    "fthand": 26385,
    "uts": 8816,
    "accepted": 20134,
    "Ġstam": 18064,
    "Ġvesu": 21945,
    "Ė": 215,
    "Ġconsideration": 5191,
    "Ġas": 374,
    "Ġgrounded": 23708,
    "Ġedinburgh": 16435,
    "Ġpond": 13914,
    "Ġmuch": 924,
    "Ġcomprises": 22568,
    "Ġstraggling": 23747,
    "mem": 10710,
    "promised": 12248,
    "Ġyanke": 18096,
    "Ġsecondary": 23333,
    "Ġcrew": 2496,
    "avish": 22590,
    "ouring": 6420,
    "cap": 8372,
    "Ġdev": 879,
    "Ġalpine": 18104,
    "Ġalphabetical": 17200,
    "Ġcensus": 15094,
    "Ġphenomena": 21479,
    "grounds": 11152,
    "Ġ69": 19659,
    "?âĢĻ": 2639,
    "Ġhumour": 7931,
    "Ġsickle": 24244,
    "Ġembracing": 14978,
    "guarded": 13291,
    "bits": 17487,
    "cr": 4075,
    "Ġfossils": 20220,
    "Ġposs": 1617,
    "Ġtougher": 21174,
    "action": 3724,
    "Ġdispleasure": 16049,
    "Ġbrazier": 26319,
    "Ġwinds": 5746,
    "Ġhose": 12623,
    "growing": 13731,
    "Ġseizure": 21953,
    "Ġmirth": 15542,
    "Ġdataset": 12815,
    "Ġdumplings": 15188,
    "Ġsynthe": 26006,
    "Ġbub": 8117,
    "Ġcareless": 11120,
    "Ġneedles": 11185,
    "Ġpreser": 6040,
    "continually": 11303,
    "Ġcivilised": 24243,
    "Ġunit": 1848,
    "Ġlub": 15646,
    "Ġsay": 933,
    "Ġsincer": 13061,
    "Ġanybody": 5313,
    "Ġseeking": 7035,
    "Ġunfrequently": 20737,
    "Ġconvert": 11840,
    "âĢĶâĢĿ": 3298,
    "lizzy": 6651,
    "causing": 25518,
    "Ġcentre": 5122,
    "raising": 21628,
    "Ġpeas": 8534,
    "Ġmicha": 17810,
    "dances": 17520,
    "Ġdus": 8422,
    "reserve": 17764,
    "Ġfru": 8419,
    "Ġguide": 3215,
    "Ġcommunicate": 10578,
    "Ġperfectly": 3698,
    "Ġmermaids": 26169,
    "Ġstorm": 4300,
    "Ġdisappointing": 19577,
    "Ġupstairs": 5836,
    "sterdam": 19088,
    "Ġsilly": 7685,
    "Ġcommitted": 7431,
    "Ġholes": 16407,
    "Ġpave": 8800,
    "Ġlestrade": 5825,
    "Ġinvol": 1049,
    "Ġmutineer": 19415,
    "Ġglobe": 6076,
    "Ġsubsequent": 7658,
    "Ġessays": 19742,
    "pun": 9618,
    "Ġwhirl": 13446,
    "Ġindulging": 16903,
    "struck": 7861,
    "Ġmotive": 6091,
    "street": 6495,
    "Ġreve": 2930,
    "Ġmuzzle": 21318,
    "murmured": 24454,
    "Ġlengthwise": 10453,
    "Ġunderground": 18983,
    "Ġund": 4120,
    "prev": 12862,
    "Ġfaith": 5350,
    "Ġitem": 12697,
    "rem": 1522,
    "scuttle": 11907,
    "Ġgrunt": 18735,
    "Ġabrid": 22268,
    "orily": 15570,
    "consp": 18503,
    "Ġcabs": 23638,
    "Ġgums": 21607,
    "Ġrecall": 3856,
    "Ġvis": 1087,
    "Ġboister": 12914,
    "Ġessentials": 20000,
    "Ġcushion": 17832,
    "and": 372,
    "Ġlogger": 11952,
    "Ġcurtain": 14406,
    "ibility": 2389,
    "dire": 15334,
    "compassion": 12365,
    "jury": 15371,
    "Ġunsupplied": 22037,
    "spite": 16136,
    "movable": 14322,
    "Ġsentiment": 6589,
    "Ġinterchange": 16069,
    "Ġleaps": 14006,
    "bourn": 3300,
    "ro": 301,
    "Ġnods": 19061,
    "suspicions": 25391,
    "Ġliterally": 15114,
    "Ġdaily": 5986,
    "yond": 2331,
    "Ġpoker": 13920,
    "Ġrapture": 13493,
    "ptember": 10894,
    "Ġpigs": 19745,
    "Ġnoiselessly": 22855,
    "Ġgodson": 23355,
    "Ġobserve": 4669,
    "delight": 5344,
    "Ġpatchwork": 24139,
    "cils": 20812,
    "Ġcobweb": 22580,
    "Ġprivile": 8646,
    "Ġflights": 24752,
    "humiliation": 24017,
    "Ġconvenient": 8345,
    "arth": 4443,
    "mentioning": 24884,
    "Ġcaptivating": 26049,
    "`": 68,
    "Ġbeseeching": 26310,
    "Ġbark": 10799,
    "Ġdutch": 6327,
    "Ġdismember": 20213,
    "Ü": 157,
    "venant": 22624,
    "Ġroused": 7623,
    "dri": 5887,
    "elag": 12654,
    "Ġlevels": 12694,
    "romed": 10906,
    "Ġstray": 18068,
    "Ġlooked": 1804,
    "Ġavenue": 13619,
    "Ġminut": 2205,
    "make": 5793,
    "ferred": 16404,
    "avor": 14274,
    "Ġfidelity": 15239,
    "Ġsymp": 4502,
    "Ġconsole": 8150,
    "Ġbefallen": 12340,
    "profound": 16424,
    "Ġcrisis": 13123,
    "Ġcontrolled": 23247,
    "ł": 259,
    "reshold": 21237,
    "Ġanim": 2114,
    "kindly": 14742,
    "solid": 16376,
    "shark": 14236,
    "family": 7324,
    "Ġappe": 1540,
    "acle": 4714,
    "Ġthousand": 2781,
    "Ġbathing": 20197,
    "wonders": 17142,
    "Ġpaying": 9938,
    "Ġattention": 1175,
    "Ġbomb": 17866,
    "hate": 20890,
    "breath": 15160,
    "Ġinn": 4589,
    "Ġmoran": 9342,
    "Ġunsupp": 22015,
    "Ġpatronage": 17052,
    "tering": 3806,
    "wol": 21120,
    "plunging": 25986,
    "ushing": 5731,
    "lust": 15377,
    "Ġmenacing": 23103,
    "Ġvoid": 14084,
    "mind": 4625,
    "Ġarithmetic": 18337,
    "Ġfaultless": 24539,
    "oundered": 14163,
    "Ġliberality": 24376,
    "Ġsubstantial": 14807,
    "ught": 2751,
    "Ġ182": 13233,
    "Ġpreserve": 7529,
    "nui": 20998,
    "Ġdashes": 21431,
    "Ġexpiring": 16093,
    "Ġradney": 6775,
    "Ġmoul": 15541,
    "indul": 22366,
    "Ġsab": 10763,
    "Ġshipping": 14102,
    "Ġuncontrollable": 25813,
    "Ġman": 544,
    "Ġcircumstances": 3926,
    "article": 22389,
    "plish": 18207,
    "sofa": 26145,
    "lovely": 16043,
    "inging": 5906,
    "istics": 1630,
    "Ġtheir": 644,
    "Ġmove": 5107,
    "Ġtree": 5284,
    "Ġhedge": 8363,
    "Ġimpelling": 22381,
    "Ġcorners": 18873,
    "star": 12667,
    "Ġintimacy": 8701,
    "Ġphant": 7055,
    "Ġweapon": 7775,
    "linearity": 1648,
    "Ġapologies": 25196,
    "jaw": 13741,
    "Ġimbib": 22171,
    "Ġcreaking": 14329,
    "Ġjud": 3355,
    "bearings": 25371,
    "Ġphantom": 8707,
    "Ġext": 882,
    "bur": 4685,
    "Ġgap": 21595,
    "dington": 11898,
    "Ġglo": 1709,
    "nel": 11505,
    "negro": 18488,
    "Ġlimits": 3449,
    "Ġburglar": 17353,
    "Ġoppressed": 11190,
    "eridge": 15524,
    "Ġemptied": 24346,
    "Ġsavor": 23872,
    "ellations": 21940,
    "arrested": 15598,
    "Ġwhalebone": 10978,
    "scence": 14416,
    "Ġtwentieth": 18658,
    "ames": 2880,
    "Ġcondescend": 19952,
    "cheerfulness": 20178,
    "ittered": 18438,
    "Ġhob": 12625,
    "Ġrange": 9712,
    "Ġstatements": 7516,
    "Ġhill": 5626,
    "Ġclattered": 22345,
    "Ġpupella": 20419,
    "Ġbatt": 13897,
    "Ġcomplying": 18583,
    "Ġretreat": 6069,
    "eral": 9160,
    "problems": 11435,
    "Ġbri": 21375,
    "Ġchaplain": 19910,
    "ivility": 12783,
    "ically": 860,
    "Ġpad": 8124,
    "ca": 20791,
    "Ġvaguely": 17364,
    "iffs": 9022,
    "Ġglare": 13012,
    "Ġpiny": 21466,
    "prints": 23809,
    "Ġannouncing": 16753,
    "ac": 741,
    "Ġdanes": 25156,
    "Ġslanting": 23169,
    "ai": 2525,
    "Ġluxury": 20129,
    "subsided": 25829,
    "van": 7814,
    "Ġvenetian": 14845,
    "mrs": 3743,
    "Ġleave": 2457,
    "examination": 25478,
    "Ġoccasioned": 13223,
    "Ġundone": 24115,
    "Ġfelicity": 7260,
    "Ġneighb": 14072,
    "Ġmrs": 1470,
    "Ġpriority": 19760,
    "Ġfeelings": 2452,
    "Ġvenerable": 9094,
    "Ġlargely": 14283,
    "Ġsimpl": 1578,
    "soul": 9141,
    "Ġparticle": 18670,
    "ion": 296,
    "Ġvelvet": 12395,
    "Ġuneasy": 8662,
    "recovered": 19785,
    "Ġsemicirc": 16391,
    "Ġwired": 17785,
    "Ġinner": 9671,
    "cannon": 22963,
    "ilingly": 21719,
    "Ġawkward": 7073,
    "Ġdoubloon": 6945,
    "reasonable": 7751,
    "Ġwade": 17783,
    "Ġwild": 2599,
    "Ġadversary": 12170,
    "particulars": 11316,
    "rest": 1632,
    "Ġberries": 13404,
    "weaknesses": 26029,
    "ine": 404,
    "Ġweakened": 16822,
    "skull": 24487,
    "Ġevaluation": 16558,
    "i": 77,
    "Ġscruples": 15076,
    "Ġknees": 6928,
    "Ġunsc": 22008,
    "Ġclearly": 6897,
    "iance": 5279,
    "Ġhelpless": 8301,
    "rels": 6664,
    "study": 15115,
    "Ġbowsprit": 16559,
    "Ġwaifing": 25243,
    "atoes": 17774,
    "Ġdisinclined": 22525,
    "Ġtremulous": 14984,
    "alike": 17941,
    "Ġembarks": 22970,
    "Ġassociated": 12246,
    "pse": 21007,
    "-": 17,
    "Ġblotches": 25314,
    "nobody": 16135,
    "Ġhistory": 4009,
    "Ġhang": 9188,
    "Ġnantucketer": 6914,
    "pine": 13767,
    "Ġconceivable": 16612,
    "Ġfathom": 17047,
    "Ġtransf": 22471,
    "Ġsincerity": 13676,
    "Ġdestiny": 8984,
    "acute": 22591,
    "Ġresurrection": 12890,
    "Ġcynicism": 25770,
    "Ġtendency": 11330,
    "Ġmon": 1253,
    "Ġwarsaw": 26166,
    "Ġdelicately": 24123,
    "Ġamidst": 9494,
    "Ġsubsequently": 16156,
    "Ġbeckoned": 25792,
    "uits": 21102,
    "perishing": 22177,
    "epend": 3312,
    "Ġpenetrated": 13469,
    "Ġthackeray": 26454,
    ".--": 20744,
    "resistible": 10644,
    "Ġethere": 23947,
    "Ġbenchmarks": 15020,
    "Ġshift": 2284,
    "Ġmin": 1027,
    "Ġblo": 2734,
    "Ġindebted": 8708,
    "razor": 21633,
    "rained": 5162,
    "Ġexerted": 15752,
    "Ġencourage": 10381,
    "atural": 934,
    "Ġunlabeled": 3799,
    "stad": 7597,
    "Ġstratag": 26027,
    "Ġtidy": 17092,
    "Ġbequeathed": 20699,
    "Ġparents": 6752,
    "Ġdestabilizing": 5053,
    "Ġfearful": 6197,
    "Ġbetake": 22902,
    "ĠĠĠĠĠĠĠĠĠĠĠĠĠĠĠĠĠĠĠĠĠĠĠĠĠĠĠĠĠĠĠĠĠĠĠĠĠĠĠĠĠĠĠĠ": 12150,
    "Ġ7": 4743,
    "Ġbalances": 2341,
    "Ġmainz": 22656,
    "pots": 11514,
    "people": 7676,
    "henomen": 10495,
    "Ġang": 2511,
    "Ġinsists": 23672,
    "urged": 18047,
    "Ġconsummate": 25310,
    "admire": 24942,
    "crop": 20796,
    "Ġgenerous": 6271,
    "Ġassent": 12729,
    "Ġgiving": 4085,
    "Ġdependence": 18626,
    "Ġploughed": 22601,
    "Ġwives": 12551,
    "Ġrides": 21970,
    "shudder": 26244,
    "Ġprojecting": 9985,
    "Ġfile": 13901,
    "Ġclut": 7641,
    "Ġstrugg": 3216,
    "Ġprodigy": 19790,
    "oubled": 23643,
    "Ġsupreme": 13605,
    "Ġhospitality": 13510,
    "ilet": 12825,
    "Ġfergus": 16866,
    "Ġextracting": 11102,
    "Ġporch": 19678,
    "Ġ500": 24327,
    "Ġmoritz": 11903,
    "Ġclearer": 16311,
    "Ġfel": 1518,
    "Ġstain": 18063,
    "Ġpry": 11599,
    "Ġhearth": 11979,
    "vi": 2374,
    "Ġmechanism": 2508,
    "Ġboun": 21377,
    "acquaintance": 6938,
    "irm": 3106,
    "Ġpurring": 23473,
    "Ġcows": 15550,
    "89": 20757,
    "Ġsnaky": 23738,
    "Ġsensit": 2943,
    "Ġtermination": 16460,
    "Ġarranging": 11175,
    "staking": 21638,
    "disinterested": 23498,
    "Ġ108": 19682,
    "usable": 22285,
    "thed": 8827,
    "kne": 20933,
    "Ġasylum": 13664,
    "Ġarisen": 11741,
    "Ġiv": 4045,
    "Ġfreshness": 23984,
    "keeping": 8635,
    "Ġfrost": 6095,
    "Ġcrags": 23524,
    "Ġcerem": 7077,
    "Ġrid": 4353,
    "because": 4922,
    "deformity": 22141,
    "Ġwent": 1537,
    "meanwhile": 10610,
    "Ġwandering": 8654,
    "Ġpiling": 17907,
    "Ġtemperate": 16158,
    "Ġcriminals": 19920,
    "Ġbled": 17855,
    "Ġhumaneval": 25581,
    "Ġinnocently": 24024,
    "Ġconsummation": 17423,
    "Ġga": 4446,
    "ipper": 13738,
    "Ġsag": 6514,
    "Ġernest": 8717,
    "Ġdiffidence": 14658,
    "Ġslaugh": 18936,
    "Ġerect": 6143,
    "posted": 24634,
    "Ġtorrid": 25031,
    "unnecessary": 21876,
    "meal": 22701,
    "Ġrecognise": 12040,
    "Ġexchanging": 18130,
    "Ġshelf": 12264,
    "Ġunsur": 22016,
    "Ġberyls": 25774,
    "induce": 22370,
    "Ġstiff": 6992,
    "rely": 6123,
    "enger": 10774,
    "Ġinterlacing": 22572,
    "Ġsullenly": 17171,
    "Ġrock": 5310,
    "Ġottoman": 17376,
    "Ġamusement": 8055,
    "Ġcalcul": 3635,
    "Ġtheory": 5798,
    "omach": 11636,
    "crowd": 25254,
    "Ġcash": 9653,
    "Ġthrows": 14735,
    "Ġschol": 17375,
    "Ġliv": 6679,
    "folding": 24926,
    "vour": 17698,
    "Ġdetestable": 15096,
    "rock": 15638,
    "Ġadroop": 26000,
    "Ġlip": 6532,
    "M": 49,
    "Ġask": 1495,
    "Ġmouldings": 24736,
    "ration": 2003,
    "Ġundiscernible": 22062,
    "Ġseap": 15812,
    "Ä": 133,
    "â": 163,
    "ulent": 21858,
    "hunting": 24384,
    "hastening": 24447,
    "uend": 21099,
    "epilogue": 22096,
    "blister": 24125,
    "Ġharpoon": 3614,
    "iness": 1280,
    "Ġhealthy": 10852,
    "Ġdog": 4193,
    "falgar": 26129,
    "asting": 12802,
    "Ġgripping": 26185,
    "iousness": 4898,
    "Ġliver": 14226,
    "lanter": 15385,
    "Ġrestrained": 16371,
    "ura": 1051,
    "Ġazores": 20191,
    "Ġdeal": 3606,
    "Ġbeeches": 9227,
    "Ġbehav": 3535,
    "Ġsunk": 5752,
    "lu": 596,
    "Ġabandon": 12254,
    "Ġmonomaniac": 9569,
    "Ġcustomary": 8670,
    "Ġvap": 6837,
    "Ġmuchness": 18708,
    "plexy": 18574,
    "Ġheap": 12674,
    "Ġthought": 1095,
    "Ġforget": 2632,
    "sequence": 2855,
    "ere": 6789,
    "mouthful": 25208,
    "necess": 4895,
    "Ġunconcern": 14114,
    "Ġcyl": 15554,
    "Ġremorselessly": 16966,
    "onse": 21247,
    ".,": 5987,
    "Ġaddison": 14231,
    "Ġprofessional": 7299,
    "uring": 820,
    "Ġdiscriminative": 4326,
    "accustomed": 13154,
    "Ġgenius": 8045,
    "enjoyments": 25433,
    "Ġinvestig": 10550,
    "Ġthreats": 13374,
    "Ġmerit": 9427,
    "Ġpian": 13915,
    "Ġwildly": 9414,
    "Ġoaks": 16932,
    "bted": 7793,
    "iveness": 2467,
    "inkled": 5477,
    "Ġinfluence": 5515,
    "Ġmade": 1050,
    "Ġloaf": 15870,
    "Ġbarn": 11587,
    "Ġpreside": 18364,
    "icant": 21558,
    "Ġunspeakable": 10056,
    "Ġsocial": 7007,
    "Ġfootfalls": 25865,
    "Ġfangs": 12593,
    "mark": 5281,
    "ficial": 17547,
    "Ġsow": 17748,
    "Ġprophesy": 26060,
    "Ġstyled": 24670,
    "palms": 25262,
    "Ġm": 274,
    "Ġtut": 8770,
    "ario": 14246,
    "Ġmechan": 1201,
    "Ġhumanity": 6731,
    "precious": 12069,
    "Ġallurements": 22068,
    "acquainted": 7313,
    "Ġhe": 318,
    "Ġbrings": 11877,
    "Ġassures": 14464,
    "Ġhotels": 19534,
    "Ġfaithfulness": 24445,
    "Ġspikes": 22132,
    "Ġturtle": 4204,
    "Ġwester": 25152,
    "Ġpreaching": 15924,
    "ckinridge": 11717,
    "Ġalcoves": 26485,
    "requent": 3648,
    "Ġflatt": 16246,
    "departure": 15232,
    "Ġdefile": 18822,
    "lost": 8888,
    "agon": 7870,
    "Ġchimneys": 16971,
    "rupt": 3210,
    "bber": 4567,
    "ansion": 10926,
    "games": 20878,
    "turn": 4291,
    "Ġphilosop": 5057,
    "ht": 376,
    "Ġezek": 18008,
    "Ġstave": 11650,
    "Ġemployed": 5200,
    "Ġunder": 1635,
    "Ġbun": 6006,
    "Ġrapt": 7226,
    "Ġmississ": 18842,
    "================================================================": 9990,
    "labour": 23911,
    "prise": 7726,
    "Ġascribed": 14853,
    "Åĵuvre": 25886,
    "surd": 6934,
    "Ġtunnels": 24619,
    "anely": 17835,
    "becomes": 22492,
    "Ġexpose": 10328,
    "Ġthreatening": 16827,
    "ressing": 8919,
    "Ġwounding": 19584,
    "Ġquenched": 22413,
    "º": 123,
    "Ġfounded": 8557,
    "Ġattempted": 8000,
    "Ġformations": 18748,
    "manif": 14371,
    "Ġhurrying": 11992,
    "Ġhousehold": 8568,
    "fourth": 11329,
    "avers": 17479,
    "tender": 14471,
    "Ġhoky": 17925,
    "Ġlouis": 8356,
    "fering": 17541,
    "Ġstaggering": 20271,
    "Ġmarks": 6746,
    "Ġoffered": 5816,
    "reject": 21234,
    "fugitive": 26130,
    "Ġanxiously": 8289,
    "Ġessential": 7523,
    "Ġimpetuous": 25570,
    "lydia": 6826,
    "valuable": 8247,
    "Ġhousemaid": 14463,
    "Ġvane": 22869,
    "Ġopportunity": 4785,
    "Ġgush": 10203,
    "m": 81,
    "occ": 4484,
    "Ġfive": 2836,
    "ctors": 21586,
    "deceptive": 22144,
    "Ġinvests": 14866,
    "med": 1908,
    "Ġcaptive": 14424,
    "flex": 24842,
    "impotence": 23757,
    "Ġscott": 22277,
    "Ġcreative": 9830,
    "kill": 13742,
    "explanation": 12355,
    "heavily": 24533,
    "Ġequator": 7461,
    "bbs": 23686,
    "Ġvineyards": 25105,
    "Ġbackgammon": 22643,
    "Ġcowardice": 17031,
    "Ġcorpulence": 24508,
    "Ġlinen": 12404,
    "Ġnation": 12643,
    "Ġdat": 495,
    "somerset": 26321,
    "Ġrigid": 16715,
    "atever": 3075,
    "ems": 5235,
    "Ġlowly": 11122,
    "Ġfestoon": 20292,
    "Ġbackpropagation": 1226,
    "shattered": 22450,
    "iles": 2860,
    "allingly": 22195,
    "gained": 20879,
    "jug": 17579,
    "caroline": 24147,
    "Ġpract": 1791,
    "ye": 1406,
    "Ġcleaned": 23179,
    "visits": 24222,
    "Ġsallies": 21227,
    "endar": 18363,
    "Ġespe": 21153,
    "Ġcongreg": 8462,
    "ver": 331,
    "Ġcrews": 8991,
    "fleet": 15012,
    "e": 73,
    "Ġemploy": 3613,
    "ensing": 12892,
    "Ġcatholic": 20679,
    "Ġshadows": 8012,
    "education": 20299,
    "Ġcoaxing": 18595,
    "Ġopen": 1550,
    "Ġboots": 5942,
    "Ġdisapprobation": 16055,
    "Ġunfathom": 14786,
    "Ġtakes": 5007,
    "Ġhats": 14618,
    "Ġanaly": 1107,
    "deepest": 22825,
    "Ġenem": 4706,
    "suspect": 9540,
    "Ġaberdeen": 26540,
    "alog": 8805,
    "Ġsnodhead": 19299,
    "Ġallow": 1129,
    "bare": 12438,
    "Ġinstrum": 6054,
    "Ġgleamed": 17076,
    "Ġexciting": 23310,
    "Ġclimates": 25049,
    "incredible": 16497,
    "Ġadieus": 25109,
    "Ġdreamt": 23935,
    "employ": 10896,
    "Ġabide": 14186,
    "nose": 17609,
    "Ġundisturbed": 19517,
    "Ġdiscoveries": 13355,
    "apping": 5851,
    "Ġaccidents": 10296,
    "Ġunnecessary": 8852,
    "pistol": 17641,
    "Ġeasiness": 23532,
    "Ġbankrupt": 16795,
    "Ġeleven": 9390,
    "daw": 17521,
    "Ġsee": 804,
    "Ġhagger": 21487,
    "Ġloth": 17964,
    "Ġnegro": 6447,
    "uns": 21866,
    "Ġbuoy": 8003,
    "Ġthan": 735,
    "ipotence": 22352,
    "Ġpersonality": 16476,
    "Ġsixpence": 19315,
    "raction": 8137,
    "Ġdefy": 11894,
    "Ġdifficulty": 5770,
    "Ġomniscient": 20083,
    "Ġdischarged": 15218,
    "Ġimplac": 24873,
    "sequ": 2399,
    "Ġsweet": 3463,
    "Ġvirtuous": 14753,
    "Ġprofessor": 11232,
    "ridden": 24361,
    "Ġgash": 15668,
    "Ġstrung": 22614,
    "ape": 1905,
    "Ġtenderly": 11315,
    "Ġfreighted": 16322,
    "marriage": 7744,
    "Ġtongue": 6347,
    "8": 28,
    "Ġdefe": 21831,
    "Ģ": 227,
    "Ġguernsey": 9351,
    "Ġsuited": 12780,
    "opÃ¦": 12865,
    "remarked": 12285,
    "Ġrifle": 18211,
    "Ġquitted": 5311,
    "Ġdepend": 786,
    "Ġaltitude": 26201,
    "lands": 8240,
    "Ġclaimed": 14200,
    "paying": 25411,
    "Ġbuying": 23992,
    "Ġbuildings": 24719,
    "Ġartfully": 22606,
    "Ġimpediments": 26239,
    "dimens": 2319,
    "crier": 20818,
    "ascending": 24706,
    "Ġchiselled": 25559,
    "constellation": 24606,
    "Ġital": 10867,
    "Ġtokens": 1771,
    "Ġbulldog": 23856,
    "Ġpatched": 16378,
    "urmount": 13994,
    "aternity": 21263,
    "Ġvigour": 24461,
    "Ġlondon": 2839,
    "Ġden": 3105,
    "Ġcarried": 3691,
    "Ġens": 2787,
    "itional": 22469,
    "Ġinte": 2064,
    "actually": 14293,
    "ail": 566,
    "Ġagrees": 22512,
    "Ġliquid": 22405,
    "Ġpeculiarity": 12928,
    "consolatory": 25306,
    "Ġplunging": 14950,
    "¨": 106,
    "noise": 14331,
    "Ġpartly": 6713,
    "daylight": 19054,
    "irc": 1725,
    "ilib": 4118,
    "Ġnavies": 16899,
    "Ġvillainous": 25131,
    "Ġthroughout": 8877,
    "Ġpedest": 14994,
    "Ġbusily": 9384,
    "Ġdardanelles": 26442,
    "Ġhandsomely": 25497,
    "Ġpunch": 9955,
    "Ġcivilly": 19601,
    "Ġalready": 2713,
    "Ġfed": 5530,
    "tolerable": 17687,
    "hend": 13248,
    "Ġeastern": 11629,
    "Ġmost": 1022,
    "Ġdiscriminator": 3389,
    "Ġslide": 10394,
    "Ġpier": 7162,
    "iest": 4037,
    "Ġcasting": 12097,
    "Ġreciproc": 20619,
    "Ġincreas": 1690,
    "Ġmouth": 3179,
    "Ġpatches": 4237,
    "acon": 10682,
    "Ġfetch": 7769,
    "Ġheedful": 19738,
    "Ġdinnertime": 16718,
    "Ġignorant": 5343,
    "arer": 3969,
    "iteness": 4392,
    "employed": 17260,
    "Ġeag": 2964,
    "Ġshake": 6033,
    "Ġlessened": 19086,
    "ornament": 23485,
    "Ġspilling": 22133,
    "Ġclo": 6042,
    "Ġforces": 12698,
    "Ġregularizer": 2340,
    "Ġdoxology": 22240,
    "venison": 22625,
    "Ġbath": 9659,
    "?": 35,
    "remain": 9838,
    "Ġbeats": 21748,
    "nes": 6961,
    "Ġdelineations": 26057,
    "Ġtash": 13818,
    "Ġgreedily": 18963,
    "orange": 21397,
    "Ġ80": 24455,
    "company": 9461,
    "Ġgiants": 25959,
    "Ġbase": 5013,
    "Ġsituation": 4072,
    "heedful": 20571,
    "Ġpleated": 16296,
    "Ġnoisier": 4623,
    "Ġdistributing": 22675,
    "Ġgodlike": 23354,
    "Ġfrogs": 23919,
    "Ġcast": 3604,
    "Ġdenote": 19331,
    "aw": 1450,
    "confined": 24331,
    "Ġbarbarous": 13473,
    "Ġshivering": 10266,
    "Ġbreathing": 9445,
    "Ġcould": 703,
    "Ġdit": 21417,
    "Ġpacific": 5153,
    "iamond": 14589,
    "Ġcommissioned": 19893,
    "Ġmalice": 7152,
    "Ġpivot": 13921,
    "chemical": 23806,
    "Ġmagnanim": 14470,
    "Ġcontract": 18473,
    "ifications": 9728,
    "Ġweary": 5635,
    "@": 36,
    "Ġsnarl": 25714,
    "Ġclifford": 22349,
    "unknown": 10891,
    "mand": 3895,
    "Ġportrait": 10662,
    "Ġdigress": 24647,
    "Ġcollapsed": 15079,
    "mistaken": 12207,
    "dred": 2526,
    "ithmetic": 18060,
    "uge": 4018,
    "Ġdaw": 21426,
    "Ġcommunicates": 24546,
    "Ġcanals": 22160,
    "Ġspiracle": 14148,
    "Ġpens": 21456,
    "Ġbennet": 1574,
    "Ġloading": 15872,
    "Ġentities": 11861,
    "Ġinferences": 17933,
    "stonecraft": 24355,
    "Ġpantheistic": 26334,
    "Ġstrength": 4259,
    "Ġben": 1114,
    "ricade": 13034,
    "desired": 8957,
    "Ġunlike": 7004,
    "Ġoverlooked": 15969,
    "Ġresource": 10994,
    "Ġtuck": 10141,
    "Ġdrunkard": 20175,
    "Ġstraighten": 24000,
    "terns": 21818,
    "Ġjan": 11760,
    "ities": 1827,
    "Ġrains": 24339,
    "affected": 10477,
    "notches": 22746,
    "Ġhessian": 3543,
    "alt": 12634,
    "burg": 16772,
    "Ġweaving": 12736,
    "Ġsnatching": 10473,
    "source": 11526,
    "convalescence": 24883,
    "Ġdro": 2770,
    "ek": 1907,
    "dispositions": 25010,
    "Ġru": 948,
    "Ġwithout": 1124,
    "Ġdarker": 13116,
    "Ġmagnus": 18955,
    "isp": 5528,
    "Ġbrilliant": 11415,
    "Ġhatter": 4113,
    "Ġany": 687,
    "Ġhearties": 18964,
    "hetically": 21206,
    "Ġtreacherously": 25129,
    "remains": 10399,
    "moil": 22699,
    "Ġveteran": 17448,
    "Ġinsepar": 17932,
    "Ġsun": 1716,
    "Ġmansfield": 25937,
    "Ġsul": 7570,
    "Ġadopted": 15176,
    "Ġtendons": 19806,
    "Ġpre": 507,
    "Ġgnawed": 25164,
    "Ġcombat": 16188,
    ".]": 15296,
    "heaving": 21205,
    "Ġperplex": 2716,
    "Ġlistener": 16474,
    "Ġramble": 9313,
    "Ġstumped": 24941,
    "Ġten": 2384,
    "Ġderivative": 2996,
    "Ġstricken": 9776,
    "prim": 23807,
    "Ġspiritual": 9930,
    "Ġsigns": 2441,
    "Ġtrifles": 16950,
    "Ġquestions": 3973,
    "eland": 11620,
    "Ġhorns": 11124,
    "farewell": 12303,
    "Ġpropriet": 9550,
    "ifer": 11682,
    "fooled": 24418,
    "Ġmarchant": 14783,
    "Ġhateful": 19711,
    "Ġfarm": 7840,
    "tch": 9142,
    "arent": 4249,
    "bantering": 25253,
    "Ġdegra": 2586,
    "Ġhumming": 12981,
    "proachable": 23395,
    "Ġcaves": 15551,
    "hosmer": 25901,
    "Ġcaps": 8414,
    "caus": 11477,
    "izings": 14049,
    "Ġunite": 9254,
    "Ġalche": 21779,
    "Ġbreeding": 14521,
    "Ġhousekeeper": 7456,
    "continu": 5501,
    "Ġflutter": 16247,
    "society": 9972,
    "vessel": 11378,
    "dry": 13701,
    "Ġexplained": 5935,
    "Ġstowing": 18070,
    "Ġcorroboration": 26052,
    "Ġadmire": 5263,
    "oker": 10964,
    "pshaw": 21026,
    "uesday": 8588,
    "Ġhungry": 10533,
    "Ġincarnation": 25573,
    "Ġpublicly": 13319,
    "Ġunwe": 15836,
    "Ġfallen": 5967,
    "Ġingrat": 16839,
    "Ġdusting": 24595,
    "Ġsound": 2243,
    "Ġprynne": 25540,
    "exact": 7909,
    "Ġbureau": 11590,
    "tashtego": 9623,
    "î": 175,
    "shud": 18489,
    "icorn": 15654,
    "instinctively": 26326,
    "Ġaugmentation": 20113,
    "Ġeldest": 6571,
    "Ġill": 2194,
    "Ġstagger": 10592,
    "Ġcauses": 2560,
    "seized": 14033,
    "Ġtravelled": 7771,
    "Ġfaithful": 9503,
    "Ġreliability": 22877,
    "Ġwharves": 13503,
    "Ġclutch": 15052,
    "Ġguardianship": 17418,
    "Ġwolves": 25933,
    "!": 5,
    "Ġy": 341,
    "important": 7112,
    "etimes": 1987,
    "tem": 6369,
    "Ġpeeping": 16125,
    "Ġlibr": 15998,
    "Ġhelplessness": 25070,
    "Ġdespairing": 14771,
    "alas": 8804,
    "special": 14703,
    "Ġrecurred": 18976,
    "Ġprincip": 5600,
    "Ġtrespass": 23598,
    "discernible": 20548,
    "Ġtreat": 3175,
    "Ġuniformly": 19146,
    "Ġsaying": 3242,
    "Ġessex": 20124,
    "Ġincessant": 15095,
    "Ġoffer": 4842,
    "dwelling": 20562,
    "Ġtrembled": 8702,
    "smitten": 23905,
    "Ġgovernment": 15174,
    "Ġ(_": 3734,
    "Ġguns": 16775,
    "Ġdisk": 22518,
    "Ġmou": 13853,
    "Ġapproaching": 6283,
    "Ġclanking": 20609,
    "ercely": 12546,
    "Ġpurchas": 19872,
    "told": 7811,
    "Ġpeasant": 13549,
    "Ġplunder": 22598,
    "Ġbulky": 13225,
    "Ġunwilling": 7884,
    "Ġhence": 4988,
    "Ġbloodthirsty": 26600,
    "python": 4690,
    "Ġexcurs": 23312,
    "Ġresources": 2934,
    "Ġstim": 18062,
    "sleepy": 24728,
    "chari": 21685,
    "Ġwept": 7184,
    "lodged": 25906,
    "toes": 22560,
    "Ġafrican": 20135,
    "Ġfeasts": 25369,
    "ometer": 19324,
    "chery": 24550,
    "bout": 20771,
    "Ġunsettled": 14120,
    "sink": 11522,
    "Ġventil": 8019,
    "Ġdissuade": 26255,
    "Ġ1807": 26082,
    "Ġexclaimed": 4681,
    "Ġimmovable": 15890,
    "Ġsimple": 1622,
    "Ġcult": 8782,
    "confirmed": 19643,
    "Ġhauled": 11692,
    "Ġchased": 8862,
    "burning": 25077,
    "Ġhus": 3089,
    "Ġyork": 11664,
    "whatsoever": 18486,
    "cent": 8072,
    "Ġsiamese": 20480,
    "descend": 23080,
    "birds": 15142,
    "twist": 23695,
    "Ġelucidated": 26028,
    "Ġbeliefs": 24581,
    "Ġoriginate": 24119,
    "renewed": 19702,
    "Ġprotecting": 24685,
    "Ġnortheast": 23198,
    "_).âĢĶ": 8682,
    "Ġsupposition": 9817,
    "Ġdireful": 11019,
    "discoloured": 23495,
    "Ġcondu": 18108,
    "Ġpe": 850,
    "heavy": 10575,
    "Ġimposing": 11779,
    "Ġtoller": 9091,
    "Ġevince": 24292,
    "received": 9639,
    "Ġsong": 5902,
    "istry": 22105,
    "Ġsend": 4108,
    "Ġhypocr": 19469,
    "Ġbowels": 9430,
    "Ġadaptation": 3155,
    "Ġwal": 6517,
    "Ġintegr": 7968,
    "{": 95,
    "Ġshoreless": 24294,
    "Ġtolerably": 8067,
    "een": 725,
    "Ġasser": 6257,
    "Ġjuggl": 20435,
    "Ġhowled": 12850,
    "Ġsomebody": 7912,
    "balls": 12302,
    "Ġpattering": 18650,
    "sand": 21050,
    "ternatural": 12711,
    "prodigious": 17465,
    "entropy": 1440,
    "iom": 20913,
    "Ġcared": 8783,
    "Ġknitted": 19587,
    "whole": 6085,
    "Ġearliest": 9831,
    "Ġpretension": 23760,
    "Ġrashness": 25460,
    "Ġemergency": 25730,
    "Ġflann": 23008,
    "walked": 10571,
    "Ġmining": 22828,
    "Ġoaths": 13521,
    "incom": 21179,
    "Ġwel": 4526,
    "ental": 7168,
    "unk": 4538,
    "Ġalps": 10871,
    "Ġglobal": 2369,
    "Ġcapital": 7979,
    "ella": 12744,
    "watch": 6118,
    "if": 375,
    "imodal": 17445,
    "drab": 23894,
    "acious": 5562,
    "treasures": 26151,
    "december": 25558,
    "cro": 13694,
    "Ġsaintsbury": 26371,
    "Ġbowing": 10476,
    "dish": 12449,
    "Ġpatroness": 13507,
    "Ġtopmost": 14586,
    "itect": 954,
    "Ġbackwoods": 22641,
    "Ġsacrificial": 24870,
    "Ġack": 5622,
    "Ġcheery": 16366,
    "Ġhailed": 6407,
    "Ġug": 8140,
    "Ġdisappointment": 6626,
    "mindful": 19597,
    "Ġmoon": 4607,
    "Ġsubstance": 5510,
    "Ġharb": 7370,
    "Ġ116": 24439,
    "Ġaudio": 24771,
    "Ġpeaking": 22686,
    "Ġglu": 15665,
    "children": 9056,
    "grat": 5052,
    "Ġstole": 7952,
    "perquis": 22181,
    "faith": 15023,
    "Ġmodern": 3227,
    "Ġchalk": 15931,
    "Ġvictims": 19802,
    "Ġselects": 4385,
    "geons": 15974,
    "Ġvinegar": 20097,
    "entric": 11619,
    "feeling": 6616,
    "Ġtowing": 9194,
    "Ġhumor": 11052,
    "Ġfloating": 6604,
    "Ġedged": 23434,
    "Ġtreacherous": 13552,
    "Ġought": 3416,
    "falling": 24360,
    "offic": 7466,
    "Ġlooking": 2474,
    "=": 33,
    "icity": 2539,
    "Ġkidnapping": 26355,
    "Ġjoined": 4563,
    "Ġboards": 14299,
    "Ġdrifting": 19277,
    "Ġunconsc": 6552,
    "Ġglowed": 24863,
    "Ġswayed": 15046,
    "Ġrefreshed": 15288,
    "links": 20956,
    "Ġgalvan": 21613,
    "corner": 13394,
    "Ġsoar": 18282,
    "pretending": 17040,
    "/`": 12426,
    "Ġwardrobe": 17224,
    "Ġdoublo": 6078,
    "Ġsuccessive": 10501,
    "Ġpeninsula": 23192,
    "ti": 8389,
    "utmost": 21584,
    "garn": 20868,
    "Ġtransports": 24276,
    "Ġsurgeon": 8982,
    "Ġnewcom": 16220,
    "Ġbeaut": 2392,
    "Ġreplete": 15695,
    "Ġmarry": 4417,
    "Ġinherent": 4590,
    "Ġbell": 4634,
    "Ġchambermaid": 24303,
    "Ġconsoling": 19454,
    "Ġringed": 16749,
    "gainst": 25141,
    "Ġpant": 10818,
    "Ġwhitney": 11374,
    "quaker": 15760,
    "Ġfri": 17877,
    "Ġguards": 16267,
    "Ġpythag": 26447,
    "Ġberths": 20112,
    "pres": 16025,
    "Ġhoped": 5488,
    "Ġsanity": 24978,
    "hoist": 23710,
    "Ġskull": 6287,
    "gris": 8259,
    "Ġrank": 6258,
    "Ġcontain": 1552,
    "'(": 2976,
    "atement": 17772,
    "unciation": 25981,
    "Ġideal": 13117,
    "Ġhandful": 9782,
    "Ġdreams": 7496,
    "Ġcursed": 6725,
    "Ġbeyond": 2458,
    "Ġlongbourn": 3504,
    "Ġbrightness": 16575,
    "Ġknowingly": 18479,
    "Ġhesitating": 16946,
    "Ġingratitude": 17467,
    "connections": 14425,
    "Ġprofess": 3696,
    "Ġepisode": 26345,
    "Ġskylarking": 19484,
    "Ġvoy": 2618,
    "polar": 24582,
    "Ġexam": 3708,
    "Ġrightly": 13060,
    "ixed": 4850,
    "Ġcomposed": 8892,
    "Ġruminated": 24598,
    "Ġmerchantmen": 19858,
    "bour": 2071,
    "bastian": 10674,
    "from": 1990,
    "Ġconflagration": 26363,
    "Ġtint": 13815,
    "Ġdinn": 23977,
    "Ġripples": 25505,
    "Ġcompetent": 11814,
    "fre": 5425,
    "Ġsongs": 13417,
    "Ġvisions": 12972,
    "wr": 3024,
    "Ġpersist": 16271,
    "falsehood": 25900,
    "sails": 7497,
    "Ġthreshold": 2808,
    "Ġbring": 3321,
    "Ġwilt": 9644,
    "intelligence": 5882,
    "Î": 143,
    "oura": 1059,
    "money": 8750,
    "forest": 22514,
    "Ġmarlingspike": 26578,
    "Ġcompleted": 8998,
    "Ġwow": 15527,
    "parsee": 14512,
    "Ġ1846": 26083,
    "ely": 626,
    "ache": 8518,
    "Ġtrivial": 10143,
    "Ġarmchair": 8270,
    "Ġtrumpet": 9574,
    "Ġmy": 412,
    "Ġrecogn": 2748,
    "Ġevents": 4472,
    "eagerly": 17314,
    "Ġheartily": 6890,
    "Ġbrut": 18767,
    "Ġbankers": 24301,
    "Ġbias": 1190,
    "Ġpatients": 24812,
    "Ð": 145,
    "Ġangel": 4851,
    "Ġcomo": 21843,
    "Ġpipeline": 2315,
    "Ġtout": 17718,
    "Ġsung": 23270,
    "malicious": 19900,
    "Ġeffaced": 18529,
    "Ġhaught": 10253,
    "coloured": 7291,
    "past": 8089,
    "done": 6500,
    "haut": 20900,
    "ky": 4519,
    "pipe": 8697,
    "heed": 15497,
    "spike": 16137,
    "Ġthrills": 24541,
    "Ġdetective": 14427,
    "Ġancestry": 25640,
    "Ġpint": 17906,
    "Ġprotracted": 19466,
    "Ġindifference": 6726,
    "handled": 19259,
    "Ġisinglass": 21798,
    "simultaneously": 19862,
    "Ġgirdle": 19155,
    "ently": 1616,
    "Ġalso": 1344,
    "Ġpyramid": 8802,
    "Ġrucastles": 18718,
    "Ġsagaciously": 24730,
    "Ġlob": 7627,
    "Ġmau": 21308,
    "Ġrelease": 19288,
    "Ġappropriated": 23482,
    "gate": 12463,
    "Ġespecial": 26409,
    "Ġcombines": 1183,
    "Ġcompliment": 5673,
    "xes": 21138,
    "urches": 12681,
    "omics": 21659,
    "shr": 10981,
    "best": 6111,
    "Ġmoulded": 16974,
    "eat": 11483,
    "burn": 8370,
    "Ġim": 475,
    "Ġlassitude": 20584,
    "Ġlandlord": 5581,
    "out": 468,
    "mastod": 23970,
    "tal": 17669,
    "augh": 1782,
    "aper": 4999,
    "Ġest": 2267,
    "approach": 24832,
    "Ġquart": 11785,
    "stubb": 6017,
    "insensibility": 23064,
    "Ġfunctions": 1341,
    "Ġplanks": 5563,
    "Ġprocess": 561,
    "Ġconceived": 8149,
    "fanning": 20864,
    "Ġ53": 19638,
    "cating": 20800,
    "situ": 9622,
    "Ġneighbor": 25802,
    "Ġobst": 6284,
    "Ġkiss": 8182,
    "Ġblacks": 23385,
    "Ġwhiteness": 5918,
    "oam": 8752,
    "Ġsubterranean": 13609,
    "Ġmarbles": 18871,
    "Ġapplies": 11959,
    "Ġportable": 19367,
    "Ġsickened": 16774,
    "brad": 20779,
    "Ġcompatibility": 2956,
    "Ġschools": 9477,
    "pens": 17631,
    "idelburgh": 10561,
    "yp": 1045,
    "down": 3466,
    "Ġalliance": 18267,
    "Ġentranced": 25832,
    "Ġpeep": 6870,
    "alf": 4637,
    "opius": 18500,
    "Ġdon": 1614,
    "Ġtingling": 15090,
    "wa": 5896,
    "Ġjoll": 11763,
    "Ġprosecution": 12378,
    "Ġcommunic": 5751,
    "Ġviolation": 23403,
    "Ġhereditary": 10665,
    "Ġdiscretion": 10349,
    "mur": 5428,
    "Ġ39": 19487,
    "Ġsyn": 15910,
    "Ġhushed": 13923,
    "musical": 25340,
    "Ġdow": 17885,
    "Ġlayer": 1010,
    "Ġvulgarity": 25363,
    "lim": 9607,
    "Ġpredefined": 20716,
    "free": 8736,
    "Ġschoolmaster": 16861,
    "Ġclear": 1951,
    "abetical": 15740,
    "Ġthough": 991,
    "Ġslavery": 16306,
    "Ġsleepless": 14580,
    "Ġcategorization": 12133,
    "Ġrol": 3550,
    "barrel": 17059,
    "Ġchili": 25561,
    "onze": 21253,
    "noted": 22745,
    "well": 1688,
    "Ġtheoretic": 23309,
    "mph": 20970,
    "Ġgaz": 4044,
    "crane": 24095,
    "Ġwreak": 16816,
    "Ġcommended": 18655,
    "designated": 26294,
    "Ġupdates": 1298,
    "lipped": 16215,
    "oid": 3126,
    "Ġcolonial": 22850,
    "burst": 10538,
    "Ġlizard": 12650,
    "omnipotent": 25965,
    "Ġamaz": 5385,
    "atiate": 12544,
    "Ġforbear": 17120,
    "Ġblankets": 24610,
    "Ġflask": 3035,
    "Ġic": 9626,
    "repeating": 20126,
    "Ġsizes": 1520,
    "Ġcontroverted": 23248,
    "Ġbreckinridge": 14522,
    "Ġequ": 1730,
    "?âĢĿ": 700,
    "deliver": 19502,
    "Ġfurs": 18737,
    "Ġattaining": 15801,
    "Ġcharmed": 16761,
    "Ġmurder": 4280,
    "Ġreply": 4514,
    "weakness": 16122,
    "Ġreturned": 2890,
    "altering": 12636,
    "consol": 9762,
    "sies": 21052,
    "Ġmental": 21317,
    "Ġwrapping": 19773,
    "Ġbanking": 19628,
    "ly": 319,
    "Ġadmirers": 19684,
    "iac": 6225,
    "terr": 8153,
    "Ġreiter": 21662,
    "ings": 634,
    "Ġsoapstone": 20508,
    "Ġspoke": 2747,
    "Ġlightened": 23257,
    "elephant": 12348,
    "convolutional": 4957,
    "Ġgarments": 15191,
    "declaration": 25175,
    "Ġpermanent": 13629,
    "Ġbelonging": 8307,
    "Ġstatistical": 11106,
    "Ġfoss": 9850,
    "Ġpreserved": 9262,
    "Ġferocious": 17417,
    "Ġhatty": 19263,
    "Ġhissed": 15786,
    "Ġfurrow": 22809,
    "icular": 2023,
    "Ġderive": 10395,
    "eed": 20839,
    "Ġscal": 1521,
    "Ġsemi": 11966,
    "Ġdaunt": 19662,
    "wealth": 22684,
    "Ġsnug": 8279,
    "Ġlash": 8438,
    "possess": 5983,
    "fell": 6953,
    "Ġcred": 8781,
    "Ġnibbling": 17383,
    "horror": 13156,
    "Ġirreparable": 19996,
    "unched": 10236,
    "Ġincantation": 26256,
    "cest": 12441,
    "Ġpirates": 9074,
    "Ī": 235,
    "nurs": 20997,
    "Ġbacking": 16105,
    "imp": 3029,
    "tri": 11530,
    "Ġnlp": 3058,
    "Ġwrung": 14468,
    "ugl": 23286,
    "Ġassigned": 16310,
    "Ġscheming": 23266,
    "Ġlashed": 9199,
    "Ġunbecoming": 22058,
    "Ġcourtship": 24133,
    "Ġexpedite": 24952,
    "Ġcircles": 7966,
    "Ġthousands": 6748,
    "Ġturkish": 12258,
    "Ġcoolness": 16885,
    "Ġdoors": 6418,
    "Ġsitting": 3603,
    "Ġfarthest": 23112,
    "mock": 5174,
    "Ġxxxii": 24969,
    "aco": 12902,
    "Ġfaithfully": 14885,
    "relatively": 24010,
    "Ġfirst": 937,
    "Ġfell": 1977,
    "Ġcruel": 5121,
    "Ġcripp": 9654,
    "Ġlocal": 1198,
    "Ġcompasses": 11268,
    "posture": 16926,
    "hering": 12810,
    "distressed": 24198,
    "mews": 22702,
    "pocket": 9809,
    "Ġcirclings": 26430,
    "hes": 1400,
    "ama": 11676,
    "Ġenough": 1760,
    "Ġardour": 8042,
    "intimate": 22933,
    "Ġoverfitting": 1543,
    "lucases": 20208,
    "Ġshows": 8482,
    "tee": 16168,
    "quis": 7869,
    "sper": 4435,
    "Ġnervously": 19182,
    "merchant": 10468,
    "oped": 6046,
    "Ġdesigns": 13011,
    "Ġkill": 4454,
    "Ġcounties": 23301,
    "behold": 12873,
    "repeat": 25151,
    "Ġwitt": 17782,
    "Ġholidays": 22917,
    "Ġplatonian": 25117,
    "Ġextremities": 19193,
    "blasted": 20187,
    "Ġvexatious": 19779,
    "Ġinquired": 7485,
    "gay": 11489,
    "Ġrhone": 25230,
    "Ġpractices": 19032,
    "herent": 2528,
    "Ġsoftly": 7947,
    "figure": 13553,
    "berg": 11856,
    "Ġbab": 5289,
    "dropout": 3196,
    "Ġexquisite": 12379,
    "Ġcronies": 23440,
    "Ġtelegraph": 25582,
    "Ġclosed": 4603,
    "Ġrespectful": 16344,
    "subjects": 19874,
    "Ġfist": 21401,
    "myster": 16262,
    "Ġstranded": 9775,
    "Ġconj": 8460,
    "Ġindependence": 12101,
    "bery": 9787,
    "Ġcommis": 22667,
    "Ġforts": 21768,
    "chance": 6827,
    "ces": 580,
    "Ġobedient": 20102,
    "Ġdisastrous": 16057,
    "Ġseeth": 21949,
    "quee": 4131,
    "icked": 10333,
    "Ġaperture": 26159,
    "men": 1488,
    "tot": 10729,
    "Ġboston": 22635,
    "Ġsped": 22121,
    "aract": 17893,
    "Ġhereby": 10359,
    "Ġtufted": 17013,
    "Ġinclu": 1106,
    "Ġ75": 19610,
    "politeness": 16905,
    "deploy": 22138,
    "Ġathe": 17740,
    "Ġfaire": 13361,
    "Ġgallied": 19554,
    "interruption": 20109,
    "Ġamelia": 26250,
    "kers": 7132,
    "blu": 12437,
    "bod": 12434,
    "heum": 17746,
    "vable": 10133,
    "onious": 15517,
    "Ġperforms": 11874,
    "Ġanointing": 25539,
    "Ġimply": 18442,
    "Ġquartered": 20370,
    "gl": 3289,
    "smote": 23906,
    "Ġmustering": 18661,
    "Ġpowder": 11276,
    "ties": 2758,
    "Ġinaccessible": 13932,
    "Ġ119": 24440,
    "wreck": 21134,
    "Ġ1883": 23893,
    "attempt": 9361,
    "Ġdecreasing": 2443,
    "itates": 13867,
    "Ġconnexion": 11455,
    "gre": 5788,
    "Ġdisguises": 25054,
    "iony": 9192,
    "Ġease": 5629,
    "dimly": 15344,
    "Ġcommentators": 25229,
    "across": 10325,
    "Ġbreat": 3456,
    "Ġconsol": 3815,
    "africa": 26307,
    "Ġswelling": 11922,
    "canallers": 22965,
    "Ġclothes": 4997,
    "rimsh": 17026,
    "Ġsaints": 20672,
    "ham": 1698,
    "execut": 13653,
    "Ġrot": 10968,
    "Ġtore": 6530,
    "whisper": 17082,
    "Ġwillingness": 24909,
    "whalers": 17262,
    "Ġlances": 6984,
    "smiles": 14691,
    "Ġwrong": 4722,
    "Ġdirection": 1794,
    "Ġgoes": 3853,
    "Ġtong": 4869,
    "Ġmour": 6973,
    "Ġmajestic": 8640,
    "mult": 8748,
    "Ġharpooning": 23975,
    "extric": 22751,
    "rious": 11687,
    "Ġdeserve": 8308,
    "Ġcongratulated": 19764,
    "Ġduly": 13347,
    "Ġdemand": 4946,
    "Ġbury": 12038,
    "atiable": 17773,
    "rogress": 21532,
    "Ġprotesting": 14739,
    "Ġkeeled": 18803,
    "Ġmarred": 23028,
    "resp": 13837,
    "Ġdisgra": 18547,
    "Ġglobular": 19008,
    "Ġsuspicious": 9480,
    "months": 9072,
    "Ġexterm": 21825,
    "Ġrus": 14091,
    "Ġsane": 21219,
    "Ġride": 12754,
    "Ġbony": 12583,
    "pleas": 3852,
    "Ġdeficiencies": 26569,
    "Ġchival": 14179,
    "Ġawed": 23583,
    "moid": 2449,
    "heaven": 8052,
    "Ġupward": 9721,
    "collins": 6916,
    "Ġfainted": 8792,
    "residual": 19260,
    "Ġcomplaint": 24775,
    "persecutor": 26529,
    "os": 524,
    "Ġinterpre": 1587,
    "estations": 22218,
    "Ġpallid": 12296,
    "Ġpropri": 6738,
    "useful": 16501,
    "Ġanticipated": 13508,
    "Ġthickets": 24019,
    "iform": 2202,
    "ield": 2406,
    "Ġcrocod": 19626,
    "excitement": 19667,
    "arat": 9181,
    "Ġfright": 3796,
    "attest": 23115,
    "rush": 7010,
    "Ġitalian": 12407,
    "Ġprophesied": 26061,
    "Ġspaniards": 25555,
    "Ġnorthumbria": 24169,
    "ule": 6800,
    "Ġhistor": 3388,
    "Ġmission": 13005,
    "Ġunchanged": 22025,
    "halloa": 17089,
    "Ġperturbed": 20437,
    "Ġannot": 15599,
    "asleep": 21540,
    "Ġlydia": 2373,
    "Ġnative": 4639,
    "rom": 420,
    "Ġbeauties": 10446,
    "tastes": 21094,
    "Ġgirdled": 19156,
    "trade": 19634,
    "Ġtackles": 8050,
    "aples": 20766,
    "Ġslave": 7454,
    "Ġadv": 1145,
    "Ġdisquiet": 18550,
    "dle": 3247,
    "Ġscenes": 5730,
    "Ġsneeze": 24698,
    "Ġprofane": 13149,
    "residence": 19261,
    "Ġpadded": 25035,
    "adie": 18087,
    "door": 6193,
    "abounding": 25978,
    "Ġimputed": 12804,
    "fashioned": 9571,
    "measured": 19987,
    "Ġhempen": 13547,
    "Ġhearty": 9845,
    "Ġfirmament": 19468,
    "Ġglades": 19369,
    "Ġvices": 14081,
    "Ġ83": 24458,
    "Ġagreed": 7028,
    "Ġtra": 1385,
    "Ġneuron": 1809,
    "Ġembarrassed": 11385,
    "Ġapr": 12528,
    "tottenham": 25418,
    "verted": 10218,
    "ding": 1234,
    "Ġconsistent": 14527,
    "mens": 20967,
    "Ġurgent": 16868,
    "Ġacres": 14311,
    "Ġconsistence": 23353,
    "Ġch": 512,
    "Ġgloried": 22983,
    "Ġdep": 746,
    "ager": 6546,
    "Ġsolved": 8932,
    "Ġlatitudes": 9496,
    "Ġgiver": 21601,
    "lit": 9606,
    "Ġslappin": 18941,
    "Ġstrictly": 12282,
    "Ġbale": 7838,
    "Ġgasps": 24864,
    "Ġsales": 12803,
    "taking": 5689,
    "È": 137,
    "Ġshrunk": 16717,
    "elastic": 17979,
    "Ġabused": 22265,
    "expression": 10548,
    "skin": 10569,
    "Ġaddition": 1144,
    "Ġincreases": 3795,
    "Ġbenjamin": 26566,
    "Ġperson": 2368,
    "Ġferguson": 17468,
    "Ġmonster": 3793,
    "Ġcrushing": 20174,
    "Ġdeadliest": 14555,
    "itoring": 21329,
    "Ġpreluding": 18367,
    "Ġrushes": 20505,
    "Ġpresto": 22226,
    "Ġbeating": 8144,
    "Ġtolerable": 6949,
    "itz": 6005,
    "jump": 10104,
    "Ġapproximates": 2415,
    "sal": 8758,
    "strike": 14947,
    "Ġtertiary": 15292,
    "Ġundoubtedly": 8312,
    "Ġsword": 6732,
    "Ġterr": 3272,
    "Ġmanage": 7640,
    "irable": 5776,
    "Ġburden": 8608,
    "Ġobedience": 11414,
    "Ġends": 8237,
    "returned": 7765,
    "Ġlif": 10196,
    "âĢľ_": 5720,
    "look": 2263,
    "abs": 11666,
    "steps": 9405,
    "perceived": 8859,
    "Ġsm": 704,
    "_âĢĶâĢĻâĢĿ": 25740,
    "Ġbond": 21381,
    "Ġfol": 1286,
    "ien": 10102,
    "conscience": 14858,
    "Ġpallidness": 25603,
    "Ġmercenary": 17192,
    "mental": 16058,
    "69": 17473,
    "Ġdoubting": 13097,
    "senses": 25021,
    "zeal": 16245,
    "Ġindist": 14407,
    "eling": 6681,
    "Ġthirteen": 15272,
    "Ġinher": 10180,
    "Ġscreening": 25300,
    "Ġbirth": 6524,
    ";âĢĿâĢĶ": 20758,
    "Ġhorrify": 23815,
    "iliating": 12691,
    "Ġpeople": 2543,
    "Ġaccursed": 9459,
    "beginning": 13559,
    "recurrent": 4994,
    "quid": 18145,
    "Ġrudder": 25106,
    "Ġgregarious": 18962,
    "Ġhidden": 1376,
    "rative": 17651,
    "braces": 24657,
    "Ġoverhead": 11771,
    "ribes": 23363,
    "Ġpasture": 14542,
    "erately": 21271,
    "transformers": 8715,
    "aky": 18410,
    "bud": 10683,
    "bring": 9105,
    "Ġclout": 22339,
    "Ġdiscre": 2414,
    "eds": 6674,
    "camp": 15328,
    "Ġpagans": 16921,
    "Ġpliny": 11823,
    "Ġtaking": 3249,
    "nailed": 20994,
    "zetts": 17713,
    "Ġlungs": 8361,
    "Ġcetacea": 20551,
    "oubtedly": 6943,
    "Ġwhenever": 5166,
    "Ġchann": 15933,
    "ket": 17581,
    "Ġvegetables": 15219,
    "Ġmultimodal": 18747,
    "Ġfluctuating": 24416,
    "Ġprophet": 7680,
    "Ġruin": 6055,
    "Ġsimulation": 2752,
    "usion": 3299,
    "Ġapples": 22212,
    "Ġ112": 24436,
    "Ġfootmarks": 19335,
    "Ġtimid": 6345,
    "Ġfearfully": 23508,
    "Ġadored": 18290,
    "Ġsheepfold": 25466,
    "Ġrhine": 12353,
    "capt": 3837,
    "Ġgravely": 7882,
    "chet": 13214,
    "Ġbaleful": 24981,
    "forward": 2188,
    "Ġshamefully": 24715,
    "itical": 5801,
    "Ġhaggerston": 26451,
    "land": 1531,
    "Ġjackson": 24239,
    "Ġdowncast": 18651,
    "Ġchurning": 15935,
    "Ġdiab": 10612,
    "eld": 959,
    "Ġtars": 21162,
    "Ġbapt": 13894,
    "Ġencirc": 18729,
    "Ġviewing": 19262,
    "Ġability": 2763,
    "Ġlany": 21550,
    "Ġsaloon": 24058,
    "ĠĠĠĠĠĠĠĠĠĠĠĠĠĠĠĠĠĠĠĠĠĠĠĠĠĠĠĠĠĠĠĠĠĠĠĠĠĠĠĠĠĠĠ": 12151,
    "Ġpower": 1224,
    "Ġprivileged": 20110,
    "Ġencomp": 12958,
    "Ġcream": 22721,
    "Ġattributed": 11833,
    "Ġbedfellows": 23436,
    "der": 467,
    "Ġclaim": 5106,
    "Ġoverhung": 15970,
    "Ġrifts": 21974,
    "Ġframed": 19011,
    "gest": 5426,
    "Ġinhabited": 12182,
    "Ġharbour": 19977,
    "Ġmine": 3178,
    "linked": 17592,
    "Ġinstruct": 2863,
    "impatient": 13638,
    "threatened": 25462,
    "Ġmournful": 12333,
    "Ġcontrols": 1727,
    "Ġhawaiian": 25366,
    "partly": 14601,
    "Ġprovinc": 16741,
    "pious": 17632,
    "ordinate": 12871,
    "crated": 16695,
    "yesterday": 10354,
    "Ġcooking": 16645,
    "aping": 8193,
    "Ġreven": 18027,
    "Ġfails": 13310,
    "o": 83,
    "Ġelimin": 16106,
    "grand": 7969,
    "mun": 20960,
    "blooded": 20020,
    "bedded": 13224,
    "Ġwhitened": 24866,
    "Ġbeside": 5192,
    "Ġexhibition": 14955,
    "appearance": 5333,
    "increase": 20266,
    "Ġ-": 1946,
    "Ġimpart": 11778,
    "Ġinternal": 2247,
    "maybe": 23987,
    "vens": 21110,
    "į": 240,
    "Ġperceive": 6699,
    "Ġdict": 9176,
    "Ġgrowth": 14628,
    "enormous": 26165,
    "byshire": 6172,
    "Ġignited": 25068,
    "gged": 3776,
    "bask": 20774,
    "andam": 10889,
    "movement": 25576,
    "sho": 6425,
    "Ġimmediately": 3363,
    "Ġelephant": 8255,
    "Ġreverence": 12056,
    "Ġpotential": 3617,
    "Ġpalmed": 24086,
    "**": 4684,
    "vision": 5620,
    "Ġreveries": 11348,
    "supplied": 10520,
    "contrast": 25593,
    "calcul": 12982,
    "ahab": 4289,
    "Ġsuggests": 12197,
    "Ġrecommend": 7102,
    "Ġcrotch": 9963,
    "Ġparl": 8177,
    "Ġburning": 5976,
    "Ġcultivated": 17362,
    "Ġbeheld": 4492,
    "killer": 20473,
    "Ġtransform": 767,
    "Ġmaria": 7124,
    "composure": 24030,
    "bru": 12436,
    "Ġburned": 8631,
    "octavo": 11386,
    "Ġj": 533,
    "ibank": 6880,
    "mut": 17594,
    "Ġexperiences": 13025,
    "Ġyard": 5920,
    "Ġsiam": 13836,
    "Č": 205,
    "istle": 15868,
    "Ġrefusing": 11026,
    "ructed": 7030,
    "Ġsocietal": 11437,
    "sur": 4522,
    "Ġbarbed": 14833,
    "Ġflukes": 5266,
    "Ġsubst": 4273,
    "sive": 4145,
    "Ġadmir": 12019,
    "daggoo": 13705,
    "Ġbursting": 8656,
    "Ġcompromised": 22567,
    "Ġcant": 17823,
    "dimensional": 2349,
    "Ġcompromising": 22569,
    "sockets": 22728,
    "Ġinput": 611,
    "za": 13808,
    "Ġcommunity": 19007,
    "moored": 22700,
    "seat": 18123,
    "Ġinverted": 12633,
    "other": 1313,
    "Ġsurmis": 23461,
    "Ġgent": 7383,
    "Ġwisdom": 11235,
    "Ġerrone": 14428,
    "Ġpen": 1532,
    "Ġconjunction": 25099,
    "wishing": 21126,
    "Ġspr": 4026,
    "Ġmisery": 3814,
    "Ġunsophisticated": 25991,
    "Ġsold": 6002,
    "condem": 16342,
    "Ġmarking": 16468,
    "unicorn": 21885,
    "knowledge": 7478,
    "isons": 17848,
    "Ġeyelids": 26106,
    "flakes": 23964,
    "charitable": 23929,
    "Ġdemon": 7868,
    "Ġexpectations": 13140,
    "Ġhandle": 3136,
    "izing": 1067,
    "Ġdreaminess": 23936,
    "\"],": 26119,
    "bies": 15310,
    "vac": 15449,
    "elect": 20844,
    "ĠcÃ¦sar": 20577,
    "Ġdecaying": 2248,
    "âĢĺ": 939,
    "Ġdesired": 4663,
    "Ġspecksnyder": 17401,
    "indebted": 26157,
    "Ġparchment": 13650,
    "Ġrueful": 25580,
    "Ġwithstand": 10226,
    "Ġeverybody": 4510,
    "exp": 2737,
    "ison": 3071,
    "Ġcraggy": 23525,
    "Ġlac": 17963,
    "judging": 24200,
    "Ġounce": 15270,
    "dw": 3331,
    "Ġthoroughfare": 16943,
    "Ġidolator": 19995,
    "oology": 21004,
    "ending": 1989,
    "Ġobscure": 9554,
    "Ġseized": 4832,
    "Ġmotions": 8280,
    "arle": 21437,
    "¼": 125,
    "permission": 15896,
    "ople": 2321,
    "Ġsparkled": 13459,
    "Ġconfusion": 7273,
    "Ġble": 5223,
    "Ġabhorrent": 16855,
    "pair": 21010,
    "Ġinsufficient": 9673,
    "Ġcharacters": 9371,
    "Ġfavourably": 16360,
    "Ġinarticulate": 21496,
    "ele": 9115,
    "Ġbeggars": 20627,
    "imming": 9687,
    "Ġdoes": 942,
    "Ġhappens": 2189,
    "Ġangels": 11179,
    "Ġsally": 15501,
    "Ġindifferent": 6174,
    "Ġmusky": 19379,
    "inferiors": 25346,
    "oking": 4605,
    "ocity": 8277,
    "Ġmixing": 24933,
    "Ġstem": 15716,
    "Ġkrem": 9726,
    "Ġthunder": 4822,
    "stave": 21639,
    "Ġfrigate": 13078,
    "comb": 11038,
    "ocratic": 17244,
    "Ġwakes": 11572,
    "Ġlobes": 22111,
    "Ġrely": 8821,
    "Ġcous": 3433,
    "lascar": 20958,
    "Ġellenborough": 26153,
    "weary": 22682,
    "Ġtomb": 8808,
    "b": 70,
    "uteness": 17984,
    "Ġamused": 11797,
    "Ġdiffident": 23780,
    "Ġlost": 2633,
    "Ġpop": 5151,
    "Ġevident": 6611,
    "Ġgramm": 8170,
    "consuming": 25673,
    "stately": 18017,
    "Ġinf": 1754,
    "Ġsurvey": 13591,
    "ging": 2598,
    "Ġallude": 12776,
    "asc": 6386,
    "Ġsymmet": 11745,
    "Ġcaptains": 7457,
    "Ġwaterloo": 11978,
    "shriek": 20517,
    "failed": 20861,
    "Ġvestige": 20060,
    "explaining": 23136,
    "Ġquarter": 3977,
    "Ġconcerning": 4068,
    "Ġpreparation": 13526,
    "Ġwithdrawing": 11341,
    "Ġunqualified": 22055,
    "Ġengineering": 3022,
    "Ġdownstream": 3774,
    "unbounded": 21881,
    "Ġcomplimented": 14902,
    "Ġcop": 7579,
    "itiousness": 21331,
    "Ġperusal": 14223,
    "istically": 14142,
    "Ġbecame": 2692,
    "Ġarch": 921,
    "Ġbaltic": 18794,
    "Ġgoverned": 23569,
    "Ġspar": 10922,
    "À": 129,
    "foreseen": 14252,
    "Ġmicrosc": 20674,
    "Ġentreaty": 10530,
    "Ġbarbar": 6935,
    "Ġdistributions": 1052,
    "ash": 1991,
    "hatch": 15362,
    "Ġrubbing": 9320,
    "Ġbehooves": 20731,
    "Ġsurrounding": 12159,
    "according": 12025,
    "how": 1642,
    "Ġpile": 8423,
    "Ġfertile": 20580,
    "Ġlighten": 23255,
    "Ġunappe": 22012,
    "Ġphys": 5653,
    "surface": 10531,
    "vast": 10737,
    "Ġclergy": 7642,
    "Ġsympathies": 14859,
    "Ġproof": 6153,
    "Ġassociate": 13447,
    "Ġyer": 15731,
    "appalling": 22841,
    "Ġtest": 1596,
    "deli": 15342,
    "vit": 13799,
    "Ġslips": 23163,
    "Ġvehic": 8934,
    "draul": 9443,
    "Ġradiant": 16808,
    "Ġattitudes": 16096,
    "Ġplaid": 22596,
    "Ġcandour": 14671,
    "bedroom": 14675,
    "Ġtyphoons": 20232,
    "Ġrelinquish": 17345,
    "Ġbadly": 12128,
    "Ġcollecting": 12283,
    "Ġapoplexy": 25265,
    "iner": 2669,
    "Ġundulated": 19514,
    "Ġbang": 17853,
    "Ġbrass": 11049,
    "Ġgay": 5535,
    "rodu": 1818,
    "desper": 13065,
    "Ġdrew": 3532,
    "Ġswimmer": 19456,
    "Ġpractically": 13091,
    "brow": 15313,
    "Ġmouthful": 16573,
    "Ġthankful": 14736,
    "Ġdirector": 18919,
    "aunted": 20768,
    "Ġsockets": 22084,
    "beside": 19875,
    "etite": 21575,
    "peasant": 23106,
    "Ġte": 1171,
    "Ġclin": 14199,
    "Ġrecumbent": 22738,
    "bres": 11472,
    "Ġramsgate": 18649,
    "Ġwithdraw": 16963,
    "Ġobtru": 18671,
    "possibility": 13358,
    "Ġtreachery": 15099,
    "Ġmeanings": 18606,
    "cstasy": 11446,
    "Ġmadame": 13147,
    "ynolds": 10036,
    "azed": 9399,
    "fic": 20850,
    "Ġwriter": 11942,
    "unbidden": 21890,
    "Ġgallons": 14815,
    "Ġkingdom": 12016,
    "Ġnearly": 3360,
    "Ġassertions": 19944,
    "Ġoutweigh": 22318,
    "ctions": 961,
    "medical": 23338,
    "Ġwhimsical": 20425,
    "Ġbent": 5149,
    "Ġcheeks": 5957,
    "Ġsloping": 11936,
    "Ġbidirectional": 3754,
    "Ġcleaving": 23178,
    "Ĕ": 213,
    "Ġsilvery": 13092,
    "Ġprank": 23216,
    "Ġcarn": 17820,
    "head": 1438,
    "Ġminute": 4278,
    "Ġcaliforn": 14429,
    "Ġharem": 9709,
    "privilege": 25263,
    "oo": 7553,
    "dutch": 17217,
    "Ġdangers": 12351,
    "Ġremembrance": 8317,
    "Ġgrenadier": 21612,
    "pain": 7350,
    "Ġsolicited": 20034,
    "Ã¦us": 14814,
    "Ġforgive": 8009,
    "Ġdrink": 4786,
    "Ġcoffins": 13246,
    "Ġincor": 2607,
    "found": 4214,
    "Ġasleep": 6836,
    "Ġestablish": 9543,
    "arded": 5029,
    "Ġkno": 5241,
    "Ġpausing": 8653,
    "ouncing": 8494,
    "somehow": 12009,
    "dock": 16417,
    "Ġancest": 12610,
    "Ġvariations": 22662,
    "flo": 6114,
    "Ġsundry": 20071,
    "Ġintend": 12760,
    "Ġbeaufort": 13566,
    "Ġdance": 4442,
    "desolate": 25702,
    "Ġsil": 1798,
    "datasets": 11948,
    "Ġstrategies": 1840,
    "Ġwhine": 21711,
    "pervised": 1613,
    "Ġour": 1008,
    "Ġshreds": 12766,
    "Ġthoughtfully": 12975,
    "istered": 14143,
    "Ġton": 15463,
    "Ġduchess": 4798,
    "Ġspeechless": 13350,
    "princ": 8621,
    "Ġtriumphant": 12186,
    "Ġarrow": 10932,
    "Ġcracks": 12017,
    "Ł": 258,
    "Ġranges": 2882,
    "Ġeyelashes": 26105,
    "Ġticklish": 25033,
    "Ġapprehen": 16828,
    "Ġfidel": 12592,
    "elop": 1461,
    "ias": 6362,
    "Ġsighing": 18674,
    "Ġopenness": 18954,
    "hurry": 24762,
    "Ġplate": 8899,
    "Ġsecre": 5493,
    "Ġhilarity": 20295,
    "Ġ81": 24456,
    "merit": 19279,
    "phantoms": 24678,
    "instances": 13316,
    "hound": 20893,
    "Ġoakshott": 12226,
    "Ġbrand": 16184,
    "Ġannounced": 9035,
    "japan": 15372,
    "Ġcounters": 24138,
    "Ġstanzas": 21740,
    "sip": 10726,
    "Ġthree": 1371,
    "Ġassembly": 10643,
    "Ġtaffrail": 15475,
    "blue": 13691,
    "Ġdreamed": 16628,
    "haven": 20910,
    "flu": 9118,
    "Ġdesignated": 19519,
    "Ġflashed": 11910,
    "compass": 9460,
    "Ġincluding": 2847,
    "tains": 10962,
    "Ġcuff": 17828,
    "endured": 22221,
    "Ġfulfil": 9551,
    "ē": 212,
    "Ġdetected": 18866,
    "unable": 14057,
    "Ġinherit": 25352,
    "Ġcontingency": 26243,
    "Ġattack": 5478,
    "Ġeffects": 7236,
    "cring": 20809,
    "Ġnarrations": 24351,
    "Ġmaintain": 855,
    "Ġsympathetic": 17357,
    "varied": 23181,
    "stra": 4046,
    "Ġsignature": 16492,
    "Ġbreaking": 6310,
    "Ġboa": 22632,
    "mounting": 25207,
    "Ġantique": 19549,
    "Ġcurves": 18833,
    "Ġearn": 3542,
    "anging": 3546,
    "Ġdiscl": 9797,
    "impulse": 20643,
    "Ġconv": 2967,
    "stranded": 19223,
    "²": 115,
    "guess": 14759,
    "Ġrickety": 26505,
    "leather": 13888,
    "Ġlandless": 23376,
    "Ġoverall": 4357,
    "pred": 2801,
    "Ġpurpose": 2708,
    "Ġprofundity": 20450,
    "aust": 15307,
    "Ġtigris": 25758,
    "Ġcoward": 7155,
    "](": 11467,
    "Ġcall": 2073,
    "Ġburgl": 13170,
    "resentment": 15183,
    "fresh": 13389,
    "eth": 620,
    "Ġunbounded": 18255,
    "Ġway": 1083,
    "Ġgin": 13959,
    "wart": 17704,
    "ceptive": 15966,
    "Ġwre": 5077,
    "direction": 17523,
    "Ġfavoring": 2345,
    "Ġtimor": 24223,
    "Ġstarted": 4151,
    "ford": 2822,
    "Ġhugh": 15003,
    "hand": 2757,
    "ameter": 2952,
    "Ġforge": 8456,
    "ahawk": 23314,
    "Ġcoleridge": 18765,
    "Ġcowards": 12569,
    "matter": 5136,
    "Ġjoining": 13161,
    "ensed": 10996,
    "lady": 4433,
    "ifix": 21899,
    "god": 4862,
    "Ġdab": 15585,
    "Ġdiffused": 12065,
    "Ġancho": 15600,
    "Ġpermission": 9279,
    "Ġderbyshire": 6586,
    "Ġcarelessness": 13072,
    "enchant": 21281,
    "Ġwhites": 21713,
    "alterable": 13622,
    "avenue": 25056,
    "Ġrespect": 1666,
    "Ġhermits": 22070,
    "Ġphara": 23195,
    "Ġparacelsus": 15264,
    "set": 3866,
    "strom": 15680,
    "sincere": 16906,
    "Ġbleached": 24395,
    "Ġaccusations": 22375,
    "Ġneglig": 18876,
    "Ġcass": 13877,
    "Ġsummar": 3520,
    "Ġheredit": 9217,
    "years": 6883,
    "Ġhearers": 15700,
    "Ġstrange": 2274,
    "Ġdivergence": 2728,
    "ishes": 6523,
    "Ġapprehensiveness": 16876,
    "brated": 12024,
    "Ġmotives": 7486,
    "tons": 7559,
    "Ġdejected": 20302,
    "Ġgrin": 5482,
    "Ġcab": 2631,
    "Ġwol": 15528,
    "Ġground": 2846,
    "retirement": 23134,
    "icing": 9201,
    "separated": 20157,
    "neurons": 3134,
    "Ġlimbs": 5965,
    "Ġscare": 18395,
    "Ġparlour": 12318,
    "Ġprecipices": 12274,
    "Ġtip": 15470,
    "sword": 10727,
    "Ġknows": 4161,
    "flood": 19804,
    "Ġcourses": 10412,
    "secondly": 16983,
    "Ġtrucks": 19510,
    "Â£": 4811,
    "Ġsecurity": 8978,
    "idy": 21760,
    "ome": 535,
    "Ġtouch": 3393,
    "Ġmother": 2066,
    "Ġ68": 24369,
    "Ġbridal": 14952,
    "Ġthinker": 22805,
    "Ġgenerates": 3662,
    "allen": 22192,
    "Ġinvolving": 18760,
    "Ġmounting": 19974,
    "Ġsmiling": 5474,
    "impud": 23756,
    "Ġransacked": 26504,
    "Ġattribute": 16097,
    "Ġwhatsoever": 18454,
    "erted": 7361,
    "Ġthings": 1963,
    "lose": 12877,
    "Ġexempt": 21824,
    "Ġdisembow": 22533,
    "Ġbrigandish": 25487,
    "Ġtrapped": 23072,
    "max": 1682,
    "Ġvice": 6548,
    "Ġcalmed": 16266,
    "Ġbourgh": 5069,
    "perpet": 14160,
    "Ġremoved": 5274,
    "corrid": 24483,
    "ifted": 4494,
    "Ġfuss": 13903,
    "holding": 7738,
    "Ġhemp": 9216,
    "Ġdeck": 2138,
    "Ġreco": 9791,
    "Ġangelic": 19625,
    "piteous": 21031,
    "Ġwinter": 5220,
    "Ġmotion": 4565,
    "Ġbud": 10169,
    "Ġprosperous": 15168,
    "Ġtum": 5692,
    "Ġintrusion": 12761,
    "Ġcommonplace": 11097,
    "Ġthews": 21275,
    "heavens": 19743,
    "Ġabst": 9266,
    "Ġunfor": 15837,
    "bolt": 25135,
    "Ġgesture": 11400,
    "Ġdoc": 7200,
    "Ġridges": 16730,
    "beheld": 11799,
    "ze": 1265,
    "Ġbushy": 16399,
    "Ġtransaction": 22473,
    "hidden": 17369,
    "Ġfrance": 7681,
    "Ġhal": 1362,
    "Ġflea": 23769,
    "Ġgriefs": 16770,
    "plac": 15818,
    "Ġveget": 11883,
    "Ġglitter": 25123,
    "Ġtypically": 1536,
    "Ġthrown": 4638,
    "kin": 7131,
    "fall": 5135,
    "Ġimperilled": 19576,
    "ends": 6038,
    "Ġillust": 8262,
    "accusations": 23597,
    "parad": 16387,
    "ases": 1523,
    "Ġtask": 1309,
    "Ġawaiting": 11391,
    "felicity": 25140,
    "spending": 18690,
    "displayed": 20734,
    "Ġconcentrated": 15081,
    "Ġrash": 10899,
    "Ġsurpl": 19131,
    "Ġcordon": 24393,
    "Ġknotted": 17018,
    "Ġassailed": 23174,
    "loa": 18532,
    "conceivable": 17129,
    "honor": 19898,
    "Ġrelationship": 2317,
    "Ġlens": 8437,
    "belonged": 25596,
    "Ġstalk": 12693,
    "Ġbran": 5250,
    "Ġalteration": 9546,
    "30": 20752,
    "Ġtransient": 18506,
    "Ġenters": 11027,
    "Ġsense": 3250,
    "thest": 11653,
    "mises": 20976,
    "Ġcon": 348,
    "Ġpronounce": 16967,
    "izon": 18140,
    "deemed": 18314,
    "iece": 3228,
    "disaster": 23490,
    "Ġclimate": 9275,
    "aching": 5831,
    "Ġgets": 10840,
    "Ġdisturbing": 19943,
    "Ġbrightest": 13221,
    "Ġenchantment": 24868,
    "Ġprint": 18968,
    "ods": 8835,
    "Ġfifth": 11258,
    "Ġraiment": 22650,
    "Ġinformation": 1047,
    "½": 126,
    "Ġdespondency": 16576,
    "Ġinconceivable": 17936,
    "Ġthreatened": 8329,
    "Ġspear": 9314,
    "behaviour": 11302,
    "nearest": 16019,
    "Ġendowed": 18923,
    "ancy": 4393,
    "Ġbordeaux": 24563,
    "Ġepic": 15028,
    "ayed": 12708,
    "Ġreduce": 7942,
    "glim": 19362,
    "Ġbest": 1975,
    "preservation": 25305,
    "icates": 11617,
    "pockets": 16208,
    "Ġundertake": 14478,
    "âĢĻ": 378,
    "Ġappet": 9731,
    "ermaid": 14296,
    "Ġhousings": 21489,
    "Ġconst": 1910,
    "ision": 1856,
    "circumstances": 8046,
    "process": 11149,
    "Ġconveys": 16854,
    "sticking": 21650,
    "prosperity": 20733,
    "Ġfoolish": 5979,
    "Ġboth": 1652,
    "hr": 20886,
    "lasting": 8010,
    "amongst": 24671,
    "ravity": 21631,
    "Ġexclusion": 19393,
    "uding": 16147,
    "Ġgrotesque": 26328,
    "jackets": 24894,
    "arest": 4006,
    "Ġink": 8803,
    "barbar": 20236,
    "Ġgrope": 17993,
    "Ġvow": 10247,
    "inguished": 6598,
    "pigs": 17139,
    "Ġaskance": 23147,
    "flaming": 23966,
    "dead": 8179,
    "inian": 21180,
    "Ġcruellest": 19656,
    "Ġsweeter": 23914,
    "odious": 21806,
    "Ġconcise": 23320,
    "attent": 9360,
    "Ġattractions": 13548,
    "great": 3512,
    "reflections": 24734,
    "bearer": 18517,
    "Ġsteadfast": 8679,
    "udding": 11862,
    "Ġshipwrecked": 25686,
    "Ġparched": 11725,
    "print": 23808,
    "Ġunconcerned": 20507,
    "square": 15058,
    "zor": 15457,
    "Ġspasmodic": 20395,
    "opotam": 22462,
    "haw": 6361,
    "Ġjo": 2606,
    "Ġbulb": 23852,
    "riages": 10243,
    "Ġelias": 18636,
    "Ġadvice": 4900,
    "forming": 15921,
    "laughed": 20279,
    "tic": 8390,
    "Ġhonors": 23599,
    "Ġperiods": 13300,
    "Ġmam": 8404,
    "urements": 18122,
    "Ġsavory": 23873,
    "covery": 11172,
    "upper": 11539,
    "Ġgrim": 7439,
    "rippa": 11342,
    "irements": 22208,
    "Ġdiagon": 24739,
    "Ġdisadvantage": 12886,
    "Ġviol": 2070,
    "Ġsucceed": 4544,
    "umpled": 15874,
    "mer": 2833,
    "Ġcha": 6853,
    "Ġlik": 2522,
    "conjectured": 25181,
    "letters": 13171,
    "Ġ181": 23891,
    "Ġinattention": 17930,
    "Ġwedged": 24067,
    "Ġmember": 8586,
    "Ġraving": 16111,
    "sm": 3432,
    "Ġdocks": 14174,
    "Ġextinction": 14326,
    "Ġtempest": 8212,
    "Ġegot": 18006,
    "Ġangle": 8603,
    "Ġdig": 6135,
    "cous": 8722,
    "rib": 1947,
    "iber": 6506,
    "Ġweap": 6155,
    "inking": 6709,
    "Ġbutchers": 18271,
    "stolen": 13975,
    "Ġunfavourable": 17415,
    "Ġlagged": 21554,
    "lucifer": 25301,
    "ineer": 11697,
    "Ġunnaturally": 24869,
    "Ġpemberley": 4587,
    "despatched": 19799,
    "Ġseizing": 7876,
    "Ġopportunities": 19247,
    "inating": 9154,
    "putting": 14098,
    "batt": 20776,
    "Ġcords": 14877,
    "widely": 25343,
    "Ġattractive": 25118,
    "cun": 20793,
    "Ġkeepers": 23534,
    "garet": 9598,
    "Ġnight": 1468,
    "ivial": 15858,
    "abond": 15738,
    "Ġzone": 14356,
    "iriously": 18170,
    "Ġexactly": 2767,
    "Ġdiscernible": 15067,
    "Ġnewspaper": 12361,
    "yonder": 21142,
    "Ġenable": 684,
    "Ġmar": 1310,
    "Ġshrieking": 24757,
    "Ġlabours": 8583,
    "scotch": 25849,
    "Ġventing": 19491,
    "Ġkirwin": 8496,
    "Ġunwarrant": 20131,
    "Ġgurgling": 17444,
    "Ġearly": 2078,
    "play": 5099,
    "harpooneer": 8689,
    "Ġrejoinder": 24596,
    "Ġencoding": 4773,
    "Ġrecommending": 24336,
    "ograph": 4796,
    "taught": 17683,
    "doc": 23373,
    "Ġshouting": 10523,
    "Ġsplinters": 15100,
    "ishness": 22338,
    "Ġloftiest": 16873,
    "Ġpromoting": 3160,
    "abling": 1077,
    "higher": 20404,
    "thread": 15824,
    "Ġflows": 13009,
    "Ġsilk": 11960,
    "Ġattends": 19648,
    "Ġinstructing": 3120,
    "bul": 6951,
    "Ġkramm": 26232,
    "Ġgaped": 13965,
    "what": 643,
    "Ġquadruped": 17457,
    "Ġdeduction": 14899,
    "onden": 13842,
    "eng": 1491,
    "Ġguilty": 7250,
    "Ġshy": 10904,
    "Ġdubious": 17381,
    "awed": 10391,
    "abled": 12790,
    "Ġteneriffe": 26413,
    "Ġadversarial": 5607,
    "Ġtalker": 23368,
    "glue": 17555,
    "Ġoce": 3026,
    "aet": 15305,
    "Ġappearing": 9841,
    "âĢĶâĢĻâĢĿ": 20061,
    "degra": 22136,
    "Ġsentences": 2681,
    "Ġaz": 9630,
    "Ġwhittling": 20697,
    "Ġassail": 13058,
    "Ġfedallah": 6108,
    "Ġthreading": 23399,
    "Ġnewfoundland": 26568,
    "Ġhuff": 21486,
    "Ġunlucky": 10050,
    "Ġmonoman": 7938,
    "Ġprecipitous": 24834,
    "Ġconvenience": 11332,
    "Ġ97": 19772,
    "Ġmem": 2068,
    "racted": 4772,
    "Ġbroken": 3444,
    "Ġphiladel": 23882,
    "Ġconsequ": 6254,
    "Ġdeplored": 20502,
    "attending": 18915,
    "Ġdelight": 2547,
    "Ġchron": 19435,
    "Ġhorizont": 6937,
    "ease": 12454,
    "erxes": 21273,
    "Ġstories": 10866,
    "Ġfollow": 1398,
    "Ġsystematic": 5244,
    "Ġguided": 10461,
    "super": 5943,
    "warp": 17705,
    "Ġis": 347,
    "Ġappeals": 16315,
    "Ġconting": 18470,
    "franch": 24283,
    "Ġgard": 2191,
    "Ġtr": 563,
    "aut": 1912,
    "Ġsome": 655,
    "Ġbites": 23739,
    "Ġwarming": 23553,
    "backpropagation": 11983,
    "Ġskill": 6872,
    "Ġwhipping": 21712,
    "vishnoo": 21117,
    "pool": 16206,
    "try": 7812,
    "Ġgallows": 12142,
    "Ġ78": 19611,
    "Ġhanged": 17923,
    "germans": 20563,
    "Ġdreaming": 11224,
    "Ġflourishing": 25187,
    "Ġacknowled": 6350,
    "almost": 4942,
    "Ġknot": 7011,
    "Ġcleared": 6074,
    "Ġfiver": 22767,
    "Ġscream": 5934,
    "larking": 17593,
    "Ġran": 3341,
    "Ġjustly": 11900,
    "ccess": 3182,
    "Ġenjoyments": 24014,
    "bull": 13688,
    "Ġpreferment": 19851,
    "Ġheath": 15699,
    "Ġsupport": 6728,
    "Ġ51": 24319,
    "drew": 7334,
    "Ġwisest": 11234,
    "Ġoutriders": 26542,
    "Ġchronic": 9929,
    "penetrate": 20322,
    "Ġrich": 2990,
    "Ġhump": 5853,
    "itzerland": 9995,
    "Ġmark": 2332,
    "Ġharpooned": 13257,
    "Ġtechni": 1801,
    "beth": 13686,
    "Ġbrotherhood": 23665,
    "Ġsain": 17749,
    "Ġusual": 3943,
    "fr": 4803,
    "sar": 12501,
    "superstitiousness": 25508,
    "Ġrandomly": 1921,
    "Ġheedfully": 24520,
    "Ġhunter": 5401,
    "_âĢĶ": 11468,
    "Ġgratifying": 13302,
    "redible": 15802,
    "Ġsugg": 4499,
    "awn": 3835,
    "Ġchat": 6560,
    "Ġexperiments": 23026,
    "Ġendure": 5955,
    "Ġunwearied": 20600,
    "Ġgradual": 20599,
    "ied": 941,
    "rians": 21921,
    "Ġfatigue": 8698,
    "Ġbough": 13892,
    "Ġemployer": 19429,
    "jac": 8381,
    "Ġdistributed": 18660,
    "Ġdamp": 8263,
    "Ġcolder": 22846,
    "inaw": 21181,
    "Ġsteeple": 19285,
    "Ġ35": 24073,
    "Ġbroadened": 23981,
    "bler": 11473,
    "Ġerected": 12230,
    "Ġthyself": 6602,
    "ity": 416,
    "orative": 21395,
    "bidden": 19735,
    "Ġdragon": 14942,
    "Ġpassing": 4314,
    "lanterns": 17427,
    "Ġelsewhere": 7712,
    "orial": 8416,
    "dishonourable": 26364,
    "sphere": 22731,
    "Ġgraceful": 11297,
    "Ġequinoctial": 20530,
    "Ġhaz": 12751,
    "iners": 4936,
    "fare": 7798,
    "captains": 12124,
    "Ġhorizontally": 17011,
    "Ġvic": 5236,
    "find": 6954,
    "supportable": 12367,
    "Ġwould": 651,
    "Ġinstinct": 6575,
    "Ġchip": 12820,
    "!âĢĶâĢĻ": 23563,
    "Ġmagnificent": 9842,
    "Ġprejudices": 13466,
    "Ġjames": 6419,
    "heredit": 21207,
    "ctive": 11623,
    "igned": 5656,
    "Ġhazarded": 25653,
    "Ġimpro": 911,
    "Ġloadstone": 25815,
    "aby": 18105,
    "cely": 3571,
    "leisure": 21368,
    "Ġprovidence": 18744,
    "urs": 6989,
    "ividually": 22079,
    "Ġquestioned": 14619,
    "Ġoccasional": 7289,
    "iforn": 14062,
    "Ġbreath": 4790,
    "Ġeyford": 10642,
    "Ġplowdon": 26446,
    "Ġbewil": 11656,
    "Ġconsid": 1813,
    "Ġinsensibly": 20073,
    "Ġxii": 11988,
    "olently": 15754,
    "Ġcondescension": 10619,
    "design": 18956,
    "iel": 11494,
    "Ġtechnical": 17190,
    "setting": 13282,
    "Ġsly": 9633,
    "folly": 20860,
    "Ġresol": 2664,
    "Ġavowal": 19412,
    ",âĢĶâĢľ": 10070,
    "Ġmedit": 8018,
    "Ġsepulch": 15282,
    "Ġdexterously": 25295,
    "greenland": 10021,
    "Ġgaieties": 24194,
    "Ġstormy": 16727,
    "Ġdespise": 14664,
    "greeting": 24553,
    "Ġdut": 2985,
    "sli": 11523,
    "tail": 8762,
    "Ġgoblets": 20516,
    "violently": 23538,
    "ginger": 13160,
    "tone": 8763,
    "Ġleader": 14700,
    "Ġcrossing": 7252,
    ".;": 20742,
    "Ġbolts": 16942,
    "apparently": 15202,
    "Ġbidding": 9537,
    "Ġpremeditated": 22230,
    "Ġviolet": 19089,
    "Ġentailed": 11029,
    "Ġunsatisfied": 22038,
    "ornamented": 26594,
    "warmly": 25025,
    "Ġhover": 15617,
    "Ġeat": 4642,
    "aning": 2255,
    "Ġinsurgents": 26599,
    "hued": 20909,
    "Ġstones": 9222,
    "Å": 134,
    "Ġpleasure": 2695,
    "ĠĠĠĠĠĠĠĠĠĠĠĠĠĠĠĠĠĠĠĠĠĠĠĠĠĠĠĠĠĠĠĠĠĠĠĠĠĠĠĠĠĠĠĠĠĠĠĠ": 7988,
    "Ġprow": 6684,
    "Ġpublic": 4331,
    "Ġachieve": 3671,
    "numer": 15398,
    "Ġwrench": 12553,
    "Ġsanctified": 25882,
    "Ġseat": 4948,
    "warks": 5004,
    "Ġstacked": 21739,
    "Ġfish": 2710,
    "town": 7142,
    "abated": 14018,
    "aret": 7417,
    "call": 8723,
    "Ġshalt": 18229,
    "Ġmonotonically": 3833,
    "Ġurging": 24504,
    "Ġcrack": 7709,
    "mechanically": 17298,
    "Ġprevailed": 7777,
    "Ġsymb": 2588,
    "Ġfordham": 21772,
    "Ġempt": 5051,
    "thinness": 25809,
    "earnest": 12396,
    "Ġdisconnected": 22521,
    "amidst": 25651,
    "nson": 16086,
    "Ġtiar": 21165,
    "tap": 17675,
    "retion": 9363,
    "master": 5687,
    "Ġsplendidly": 25327,
    "care": 4927,
    "Ġhideous": 5982,
    "Ġimpulsively": 24879,
    "arman": 11595,
    "Ġbenefits": 4286,
    "Ġcables": 15555,
    "Ġoccasion": 3245,
    "Ġdefines": 1738,
    "Ġunreserved": 19394,
    "vii": 13145,
    "Ġcirculating": 23370,
    "Ġresulting": 24197,
    "Ġapparent": 5466,
    "Ġsilently": 6895,
    "Ġhorn": 6185,
    "Ġsave": 4052,
    "dient": 440,
    "Ġporus": 24397,
    "Ġacquaint": 13040,
    "Ġhereabouts": 12973,
    "planted": 11696,
    "Ġstory": 2900,
    "Ġunwillingly": 15846,
    "Ġthroats": 24574,
    "astic": 1870,
    "istical": 8489,
    "interest": 5421,
    "Ġlovers": 9720,
    "Ġhunger": 8567,
    "Ġinterruptions": 24185,
    "tuning": 1580,
    "Ġanecdote": 26353,
    "Ġcomfortably": 16614,
    "Ġlaure": 16908,
    "hetic": 12200,
    "Ġsticking": 13424,
    "Ġgerm": 13962,
    "Ġsleeper": 8600,
    "Ġoverlooking": 22354,
    "Ġdegrees": 7294,
    "browed": 25893,
    "Ġbody": 2435,
    "Ġbrighter": 16185,
    "lantern": 17426,
    "Ġanimals": 8979,
    "Ġfootpaths": 26317,
    "Ġprogram": 12986,
    "iary": 15368,
    "ipped": 5790,
    "onde": 21249,
    "Ġwink": 11569,
    "Ġribbons": 24328,
    "Ġchas": 18377,
    "already": 6980,
    "cripp": 20817,
    "Ġdocument": 15017,
    "Ġdeepest": 8213,
    "Ġdu": 4583,
    "Ġfrigates": 25706,
    "Ġfingertips": 24013,
    "Ġejac": 10204,
    "isis": 12575,
    "esc": 619,
    "third": 8167,
    "perfectly": 9086,
    "unts": 12727,
    "Ġhired": 10178,
    "embraces": 25804,
    "Ġresemblance": 7972,
    "itting": 1149,
    "Ġporthole": 24398,
    "Ġgrieved": 8297,
    "keys": 15856,
    "Ġspeaking": 4028,
    "needles": 20309,
    "Ġnourishment": 15190,
    "Ġmapple": 11151,
    "urring": 21701,
    "Ġpur": 2217,
    "Ġalways": 1693,
    "Ġproperty": 6450,
    "cated": 20801,
    "Ġcape": 5146,
    "Ġpositives": 4316,
    "Ġepoch": 26470,
    "governed": 25405,
    "Ġavowed": 16632,
    "Ġsplash": 16547,
    "rowsers": 8695,
    "Ġvehicle": 20136,
    "Ġgratified": 8021,
    "female": 20664,
    "readers": 23844,
    "commer": 22818,
    "iro": 20912,
    "gradually": 12911,
    "Ġ37": 24074,
    "presbyter": 20615,
    "Ġclassify": 1573,
    "iding": 3847,
    "Ġ22": 8278,
    "Ġoverseeing": 22357,
    "Ġcraven": 16469,
    "venge": 4657,
    "Ġmomentum": 1603,
    "tribute": 21086,
    "Ġsuccour": 20432,
    "wheeler": 16186,
    "Ġtumble": 16878,
    "Ġcutting": 4982,
    "Ġburied": 7718,
    "Ġbowed": 6242,
    "Ġpredomin": 16044,
    "indifference": 15980,
    "Ġcelestial": 10067,
    "Ġstring": 11825,
    "Ġ59": 24326,
    "tart": 21065,
    "Ġproposition": 23246,
    "Ġticking": 25032,
    "adventure": 17232,
    "Ġdipping": 15589,
    "orus": 10802,
    "ancies": 11584,
    "headers": 23104,
    "Ġunlo": 22006,
    "====": 1483,
    "Ġdiscreet": 16481,
    "bular": 15311,
    "prepare": 20210,
    "Ġalluding": 18268,
    ":âĢĶâĢĺ": 24192,
    "tanh": 5204,
    "Ġisolated": 13557,
    "Ġhorseman": 19605,
    "puzzling": 26142,
    "Ġties": 12523,
    "Ġemblematical": 25787,
    "Ġterrified": 14670,
    "resting": 23234,
    "absolut": 8458,
    "Ġbr": 1071,
    "Ġsmaller": 1884,
    "burned": 25078,
    "Ġpeddling": 24798,
    "diminished": 20837,
    "Ġhereford": 22873,
    "Ġheadache": 22896,
    "Ġbenefited": 19395,
    "Ġmassive": 9932,
    "Ġsubset": 9870,
    "frame": 17115,
    "Ġforeign": 9872,
    "Ġarrowy": 25469,
    "Ġcapst": 8596,
    "ig": 323,
    "Ġulster": 14996,
    "Ġentic": 16144,
    "standing": 5558,
    "Ġprepar": 7896,
    "Ġerrand": 11086,
    "Ġsteelkilt": 5675,
    "Ġcumulative": 4211,
    "Ġchrysalis": 26537,
    "exagger": 22426,
    "Ġer": 8104,
    "Ġlearnable": 3997,
    "Ġdistorted": 14248,
    "cons": 4308,
    "77": 15298,
    "Ġearnestness": 12122,
    "Ġsequ": 982,
    "Ġinscriptions": 20006,
    "seated": 11670,
    "Ġgaunt": 11269,
    "Ġenvy": 13200,
    "ements": 11109,
    "sent": 760,
    "Ġingolstadt": 8332,
    "aiian": 23590,
    "Ġcruc": 16532,
    "Ġshore": 4833,
    "earthly": 24723,
    "Ġimportant": 1062,
    "Ġchamounix": 14862,
    "Ġuniversally": 11997,
    "Ġthese": 821,
    "Ġbrood": 23096,
    "Ġpitied": 14690,
    "!_": 7329,
    "Ġcalculate": 13259,
    "Ġindign": 6173,
    "Ġyourself": 2590,
    "dangerous": 20238,
    "Ġagonized": 25372,
    "distinguished": 10527,
    "Ġprudence": 13918,
    "Ġcommonplaces": 16287,
    "Ġcannibals": 10588,
    "mean": 6438,
    "Ġlivid": 14987,
    "rily": 7621,
    "ĠĠĠĠĠĠĠĠĠĠĠĠĠĠĠĠĠĠĠĠĠĠĠĠĠĠĠĠĠĠĠĠĠĠĠĠĠĠĠĠĠĠĠĠĠĠĠĠĠ": 20035,
    "fur": 6355,
    "Ġreliance": 14383,
    "Ġquadrant": 11405,
    "miles": 10713,
    "Ġcoppers": 22579,
    "Ġloved": 4598,
    "Ġbowled": 23765,
    "mown": 20968,
    "Ġsolitude": 6876,
    "Ġgenerating": 12845,
    "Ġclos": 4548,
    "obtained": 23091,
    "Ġdeploy": 3062,
    "mis": 4520,
    "Ġsqualid": 14367,
    "ane": 1176,
    "winter": 10741,
    "Ġfolded": 7767,
    "Ġaccompanied": 6780,
    "Ġfolio": 11914,
    "Ġsmiles": 6706,
    "Ġinvincible": 23477,
    "vial": 17696,
    "Ġvaluable": 5608,
    "Ġmarvell": 7248,
    "Ġnormalizing": 1822,
    "Ġmissionary": 25695,
    "Ġmeek": 21808,
    "Ġsurprising": 14596,
    "jee": 17578,
    "om": 316,
    "moor": 22698,
    "Ġraved": 22649,
    "expectation": 14854,
    "regarding": 15069,
    "Ġanoint": 25537,
    "Ġlips": 3993,
    "Ġmemo": 18118,
    "yard": 5899,
    "Ġwhispering": 14943,
    "Ġcomputational": 1626,
    "Ġlandlessness": 23377,
    "Ġseats": 14086,
    "Ġparticular": 2448,
    "Ġdeduced": 12204,
    "Ġassuredly": 14820,
    "Ġburnished": 23994,
    "Ġreflecting": 24750,
    "Ġbas": 6380,
    "haps": 1668,
    "andering": 21863,
    "Ġinoffensive": 21494,
    "Ġlie": 4406,
    "Ġfrigid": 17351,
    "Ġshouted": 5347,
    "Ġnine": 5369,
    "relation": 19444,
    "Ġoften": 1957,
    "Ġeternity": 12275,
    "towns": 24853,
    "Ġenter": 4031,
    "Ġawa": 7713,
    "Ġcuba": 25094,
    "Ġdreadful": 4919,
    "quakes": 21852,
    "jewell": 25523,
    "Ġkuiperai": 10936,
    "Ġeel": 18000,
    "Ġminutes": 2997,
    "Ġinvective": 26180,
    "iour": 4038,
    "Ġcrucifix": 26078,
    "mency": 18924,
    "Ġchry": 22242,
    "stove": 21642,
    "Ġmisgivings": 15289,
    "Ġhath": 12624,
    "weep": 22680,
    "Ġcollateral": 20069,
    "ropes": 7902,
    "Ġaltern": 7394,
    "Ġfolks": 14423,
    "pursue": 24972,
    "imper": 13995,
    "Ġbowsman": 11254,
    "ob": 1421,
    "Ġdemanding": 16804,
    "Ġboon": 22634,
    "Ġheroines": 19749,
    "Ġskies": 8921,
    "Ġgasped": 11373,
    "Ġmole": 11789,
    "Ġutter": 3975,
    "Ġthief": 11610,
    "ints": 3414,
    "Ġperil": 5557,
    "once": 5903,
    "ra": 314,
    "Ġgardens": 16452,
    "angu": 569,
    "glasses": 11216,
    "calculating": 25688,
    "Ġbegun": 7243,
    "Ġabhorrence": 9053,
    "elopement": 23119,
    "Ġdiscussion": 17193,
    "Ġgoodly": 22816,
    "Ġmoderate": 10939,
    "Ġhorseback": 14848,
    "gressive": 2754,
    "ckles": 22085,
    "trucks": 25419,
    "Ġwithheld": 18113,
    "kl": 4864,
    "Ġsed": 10762,
    "covered": 11478,
    "Ġtracks": 18890,
    "Ġflogged": 23622,
    "Ġalternately": 15030,
    "Ġrespective": 16343,
    "male": 15386,
    "Ġexclam": 6757,
    "performances": 26005,
    "Ġheightened": 8649,
    "bedstead": 23846,
    "ctor": 13958,
    "lined": 12480,
    "Ġbrag": 23830,
    "conve": 14241,
    "Ġcet": 6669,
    "Ġrivers": 9442,
    "urning": 12912,
    "number": 10115,
    "hau": 17561,
    "Ġsocks": 14133,
    "Ġshun": 11707,
    "hunsford": 24385,
    "Ġimplicit": 19955,
    "Ġreputed": 18034,
    "Ġbegrim": 23011,
    "Ġhummed": 18777,
    "Ġresponsiveness": 2896,
    "Ġconditions": 8306,
    "Ġunattended": 15841,
    "Ġscrupulous": 20066,
    "Ġchoose": 5981,
    "Ġpredicted": 2044,
    "phology": 3005,
    "Ġbirch": 26173,
    "Ġraising": 8910,
    "Ġeternal": 5975,
    "thither": 21979,
    "Ġembarrassment": 10627,
    "Ġgloss": 11955,
    "Ġdoubly": 16384,
    "Ġsublimity": 26344,
    "eluded": 21571,
    "big": 13683,
    "Ġvalidation": 2357,
    "stump": 21643,
    "Ġleaping": 8340,
    "Ġrobots": 11084,
    "Ġunw": 8850,
    "Ġpink": 12614,
    "Ġexplicit": 3586,
    "with": 1296,
    "Ġirresolution": 24914,
    "Ġfuel": 13902,
    "Ġsigning": 22704,
    "wn": 720,
    "gle": 20867,
    "Ġkeeping": 7283,
    "hurried": 11354,
    "Ġwrithed": 17105,
    "Ġheading": 8936,
    "Ġburnt": 9928,
    "winds": 10522,
    "ste": 3582,
    "Ġfries": 21412,
    "Ġconcisely": 19044,
    "erest": 10698,
    "ped": 6365,
    "Ġbenevolent": 7772,
    "Ġforefinger": 16443,
    "ins": 1378,
    "dron": 17524,
    "Ġvag": 9708,
    "Ġbroke": 5322,
    "mush": 20975,
    "Ġdiscoloured": 15250,
    "atra": 17770,
    "Ġwhitish": 24865,
    "Ġtrifled": 24673,
    "Ġsperm": 1843,
    "Ġglowing": 12279,
    "Ġexpect": 2307,
    "rew": 3647,
    "volutional": 1937,
    "tacit": 21096,
    "Ġ38": 24075,
    "Ġspotted": 12135,
    "Ġliber": 5168,
    "Ġdeliver": 9849,
    "Ġdeline": 16332,
    "Ġrefined": 18693,
    "Ġemerged": 8685,
    "mine": 5618,
    "founded": 16712,
    "Ġhog": 13922,
    "----âĢĻ": 24093,
    "Ġremarkable": 4914,
    "Ġaffectionately": 13165,
    "Ġprev": 6264,
    "Đ": 209,
    "Ġfavours": 23278,
    "Ġjem": 18401,
    "Ġkentuck": 19889,
    "Ġperturbation": 20438,
    "Ġrighteous": 18944,
    "----": 4057,
    "Ġslewed": 23382,
    "irst": 880,
    "istol": 6259,
    "Ġmuseum": 15269,
    "Ġaffinity": 18787,
    "neither": 9757,
    "physiogn": 26270,
    "Ġchild": 2262,
    "Ġcumul": 4180,
    "Ġother": 758,
    "Ġsmelling": 16064,
    "Ġlandlady": 10423,
    "Ġmexic": 14030,
    "Ġdisposing": 19372,
    "Ġgreyish": 24207,
    "repressed": 21241,
    "lege": 17840,
    "hateful": 20907,
    "lion": 20942,
    "Ġsuggestions": 24452,
    "service": 15035,
    "Ġbrutality": 26275,
    "fow": 20851,
    "cri": 17504,
    "icism": 13954,
    "kings": 17582,
    "Ġprognostics": 20556,
    "Ġwish": 2096,
    "courageous": 26126,
    "Ġcre": 890,
    "Ġconsequently": 8059,
    "inioned": 19284,
    "Ġnotion": 7881,
    "Ġsideways": 6182,
    "monograph": 23522,
    "ampton": 18143,
    "Ġgl": 1256,
    "Ġdistillation": 16040,
    "Ġglance": 4233,
    "queequeg": 4333,
    "Ġluckily": 16797,
    "Ġpiece": 5367,
    "changing": 10855,
    "Ġupd": 947,
    "Ġdeem": 18132,
    "built": 16824,
    "oblivious": 26581,
    "farm": 15349,
    "tie": 21066,
    "presbyterian": 26367,
    "Ġboarded": 13230,
    "Ġin": 291,
    "Ġmoney": 3415,
    "dataset": 23233,
    "Ġsystemat": 18447,
    "Ġreel": 9214,
    "Ġshepherd": 14151,
    "Ġexamining": 8005,
    "adier": 18088,
    "anning": 10165,
    "Ġcaught": 3728,
    "Ġdisd": 7029,
    "landed": 18953,
    "Ġwarb": 17786,
    "Ġgomorrah": 21611,
    "Ġcurses": 13001,
    "moral": 14799,
    "Ġsanely": 24979,
    "Ġcastles": 16638,
    "Ġspace": 1534,
    "Ġnorris": 23197,
    "Ġhides": 16263,
    "Ġswamp": 14434,
    "Ġsunny": 13083,
    "strangers": 20334,
    "path": 10119,
    "Ġrenewed": 9538,
    "limping": 26392,
    "berwell": 22719,
    "plex": 708,
    "Ġforest": 9871,
    "Ġunprovided": 18256,
    "Ġhole": 6079,
    "dilig": 17281,
    "approached": 13482,
    "Ġjagged": 18406,
    "Ġpit": 3417,
    "Ġwealthy": 18177,
    "Ġat": 395,
    "Ġbone": 4693,
    "mistake": 24528,
    "clo": 5613,
    "crew": 7544,
    ",âĢĻ": 2329,
    "Ġpatter": 828,
    "Ġundertaken": 18985,
    "these": 3240,
    "Ġnur": 5710,
    "damn": 20021,
    "pequod": 7052,
    "limbs": 20189,
    "accordingly": 19211,
    "Ġaloud": 6252,
    "Ġmansion": 17808,
    "Ġconsidering": 4614,
    "Ġ67": 19658,
    "Ġhealed": 21679,
    "gpt": 5355,
    "Ġdeduce": 8336,
    "Ġmitigating": 1619,
    "Ġgunwale": 7325,
    "Ġsled": 21216,
    "irms": 18167,
    "Ġworms": 25216,
    "Ġwithered": 19462,
    "deliberated": 26117,
    "Ġimminent": 11246,
    "Ġmodular": 12812,
    "Ġabstract": 17180,
    "Ġprofoundest": 16859,
    "eler": 1570,
    "baron": 24924,
    "Ġstrat": 16090,
    "pleasanter": 24043,
    "Ġthroat": 7770,
    "reposed": 24491,
    "Ġsalary": 13290,
    "estion": 18361,
    "Ġunrestingly": 20358,
    "Ġmisunderstand": 18705,
    "ign": 1699,
    "Ġmighty": 4230,
    "Ġmanipulation": 10659,
    "arpaul": 14535,
    "vengeance": 13353,
    "Ġsoftware": 18917,
    "ogra": 4572,
    "shaped": 10308,
    "Ġlatterly": 24081,
    "Ġestimates": 3746,
    "begins": 18521,
    "ads": 5718,
    "Ġdeer": 12716,
    "Ġhearses": 20057,
    "Ġsteamer": 17187,
    "Ġ124": 24468,
    "oke": 1861,
    "Ġvague": 6406,
    "Ġecho": 12662,
    "Ġbluff": 16515,
    "Ġsagacious": 14969,
    "Ġnarwhale": 12290,
    "Ġforeseen": 16442,
    "Ġinvested": 7279,
    "al": 292,
    "Ġmarched": 18870,
    "restraint": 18978,
    "Ġpadd": 9670,
    "gal": 15353,
    "÷": 184,
    "bow": 5424,
    "Ġhooked": 19078,
    "Ġlatest": 16821,
    "assin": 22301,
    "Ġcircum": 8257,
    "carbuncle": 26381,
    "ĠâĢĺ": 1631,
    "Ġensures": 3052,
    "H": 44,
    "Ġreligion": 11416,
    "Ġfamiliarly": 11304,
    "Ġmargaret": 10377,
    "Ġtypes": 8937,
    "Ġslashing": 23167,
    "marvell": 24170,
    "onness": 21252,
    "Ġexperiment": 11917,
    "cho": 2760,
    "Ġmaterials": 11289,
    "Ġanyhow": 14253,
    "perpetually": 20510,
    "Ġprudential": 17916,
    "sche": 13014,
    "Ġcoasts": 12160,
    "Ġye": 901,
    "arted": 2203,
    "Ġcraft": 4376,
    "igan": 21695,
    "Ġpict": 3494,
    "Ġawoke": 7286,
    "Ġassociation": 24710,
    "Ġspoutings": 14674,
    "Ġpapered": 20128,
    "iless": 10282,
    "Ġindelicacy": 25694,
    "host": 5867,
    "Ġroylott": 7305,
    "Ġpitiable": 9914,
    "Ġbrighton": 6470,
    "Ġconfessed": 8008,
    "Ġdeceased": 15005,
    "hig": 12471,
    "Ġobliv": 16131,
    "Ġbounce": 21390,
    "Ġhypotheses": 4386,
    "Ġtalks": 23367,
    "halfway": 24310,
    "Ġobvious": 4963,
    "influ": 9541,
    "Ġincredulity": 11312,
    "Ġdear": 1539,
    "traces": 24314,
    "Ġmountainous": 16598,
    "Ġsending": 8775,
    "divided": 25017,
    "scale": 3530,
    "yt": 17710,
    "Ġscheme": 7064,
    "Ġshelves": 14997,
    "Ġobligations": 12088,
    "Ġvesture": 20059,
    "Ġpurple": 10434,
    "Ġ45": 14768,
    "Ġprouder": 18971,
    "Ġdiscrete": 2476,
    "Ġwidespread": 20673,
    "ts": 958,
    "evenings": 19460,
    "Ġostens": 25275,
    "Ġinjurious": 24269,
    "Ġpickle": 16721,
    "Ġeul": 21614,
    "solute": 16597,
    "cannib": 11899,
    "Ġmisfortune": 5569,
    "Ġrailway": 15019,
    "Ġprices": 15609,
    "Ġlists": 11167,
    "duchess": 18462,
    "tooth": 18578,
    "sax": 21054,
    "Ġequals": 4725,
    "inter": 2945,
    "shone": 22444,
    "Ġdough": 8420,
    "Ġantiqu": 12141,
    "at": 268,
    "cream": 15329,
    "grim": 19105,
    "Ġsanta": 26419,
    "Ġjunk": 15951,
    "Ġdependencies": 2316,
    "aimed": 3952,
    "uncontrollable": 20593,
    "Ġproprietor": 12370,
    "Ġneurons": 976,
    "Ġoverthrown": 18429,
    "Ġjavelin": 26103,
    "Ġuttered": 7280,
    "Ġrustling": 24714,
    "Ġrelationships": 2923,
    "pierced": 26140,
    "Ġdishon": 12227,
    "obli": 23090,
    "colnett": 19328,
    "Ġwhose": 2007,
    "ises": 3652,
    "arrant": 10475,
    "Ġeccentric": 13647,
    "Ġbetray": 7442,
    "Ġcork": 12565,
    "Ġcaress": 16338,
    "ral": 4626,
    "Ġundersampling": 19516,
    "Ġice": 3602,
    "Ġcopy": 10164,
    "Ġcongrat": 5827,
    "Ġemergencies": 17360,
    "compose": 24028,
    "Ġfuriously": 9802,
    "oting": 2744,
    "july": 20472,
    "Ġmad": 2424,
    "bene": 6112,
    "Ġgently": 7171,
    "Ġsmack": 9300,
    "chamber": 13623,
    "convul": 24882,
    "Ġcomplement": 23706,
    "Ġlustre": 15132,
    "yn": 7819,
    "Ġdedu": 5585,
    "positive": 20565,
    "Ġfaculties": 14956,
    "Ġvainly": 9924,
    "Ġtis": 15464,
    "irons": 10239,
    "dom": 6222,
    "remembered": 17349,
    "Ġlads": 8597,
    "Ã¦": 4336,
    "igin": 3654,
    "Ġmirror": 12375,
    "Ġdramat": 23211,
    "dings": 2176,
    "address": 14879,
    "Ġdespatched": 23826,
    "Ġneedlessly": 23627,
    "Ġpartiality": 9398,
    "Ġsomehow": 4840,
    "wait": 11321,
    "Ġsto": 1501,
    "know": 2320,
    "abst": 21784,
    "Ġreadily": 5253,
    "Ġheighten": 19527,
    "Ġrug": 16153,
    "Ġpassengers": 13673,
    "isure": 6240,
    "dering": 5305,
    "Ġtoward": 17945,
    "Ġenormity": 19693,
    "live": 7550,
    "wind": 4252,
    "Ġrefresh": 10344,
    "Ġmemory": 2276,
    "Ġpilot": 5984,
    "Ġtested": 23214,
    "Ġcandidate": 16700,
    "Ġimprovements": 14511,
    "Ġunwelcome": 12775,
    "Ġeasy": 3448,
    "Ġinfidel": 13085,
    "Ġoh": 2177,
    "Ġshuddering": 9052,
    "Ġexcite": 11963,
    "Ġnetherfield": 3931,
    "Ġpoisonous": 24886,
    "Ġexpansion": 22621,
    "Ġblame": 6446,
    "Ġsouthwards": 19631,
    "Ġcyp": 21342,
    "cular": 15326,
    "cnns": 3619,
    "ologically": 22875,
    "Ġsort": 1509,
    "Ġadvance": 5484,
    "Ġthack": 21513,
    "Ġpunchbowl": 20229,
    "arranted": 19318,
    "Ġcircumspect": 15082,
    "Ġrushing": 7403,
    "Ġvines": 12747,
    "ut": 308,
    "Ġimbued": 17453,
    "Ġresigned": 9768,
    "Ġindolence": 16229,
    "Ġblasphe": 17405,
    "disappointed": 25191,
    "Ġfill": 5701,
    "Ġworrying": 22923,
    "Ġcure": 21337,
    "grey": 14910,
    "ulgences": 21861,
    "Ġshocked": 9401,
    "Ġwander": 9032,
    "Ġvict": 3761,
    "Ġpa": 2986,
    "rench": 3968,
    "silver": 19688,
    "Ġgro": 4396,
    "Ġflurry": 18858,
    "mutually": 26135,
    "Ġfulfilled": 11363,
    "Ġports": 10819,
    "'m": 9583,
    "Ġrecalled": 8539,
    "Ġidentifies": 12012,
    "romang": 22001,
    "Ġmysteries": 11323,
    "cham": 10854,
    "Ġwest": 5219,
    "Ġfriesland": 26441,
    "bent": 15309,
    "Ġmannish": 26236,
    "Ġlawyers": 25248,
    "Ġrand": 1582,
    "Ġbandaged": 16841,
    "richard": 17285,
    "Ġsummers": 23870,
    "Ġowns": 22820,
    "Ġirritated": 17241,
    "jub": 20927,
    "®": 111,
    "Ġloosened": 26001,
    "Ġ56": 24323,
    "Ġult": 9075,
    "everything": 6324,
    "Ġ86": 24460,
    "Ġaccordance": 19495,
    "aggoo": 5130,
    "Ġdropping": 7483,
    "Ġcommotion": 9780,
    "Ġtro": 7356,
    "Ġliter": 8812,
    "unhappy": 10238,
    "Ġundo": 15838,
    "Ġconnex": 10666,
    "Ġeverything": 3154,
    "rice": 13775,
    "Ġcomputer": 1194,
    "Ġundergone": 18984,
    "ical": 752,
    "forget": 11033,
    "Ġinsince": 23673,
    "Ġtravellers": 11309,
    "Ġfeelingly": 22993,
    "Ġmomentarily": 22807,
    "Ġelbows": 18637,
    "Ġthinks": 6169,
    "ĺ": 251,
    "dies": 15336,
    "Ġhish": 21909,
    "Ġpressure": 13419,
    "Ġconversing": 14632,
    "exhibited": 18477,
    "Ġgirl": 3083,
    "saddest": 25527,
    "Ġadventurous": 16732,
    "breat": 10078,
    "Ġproceeding": 9906,
    "Ġserviceable": 24717,
    "Ġwhich": 502,
    "client": 18930,
    "Ġbeck": 14007,
    "Ġalmanac": 26484,
    "Ġobstinacy": 17419,
    "Ġinsisted": 12043,
    "Ġuncertain": 4067,
    "Ġencompassed": 15251,
    "Ġbrothers": 13172,
    "pent": 3489,
    "Ġjourneys": 19472,
    "Ġfeared": 5930,
    "Ġpersonified": 19176,
    "Ġprecipitate": 19939,
    "glory": 23849,
    "Ġswallows": 18881,
    "ishnoo": 10956,
    "Ġblush": 14399,
    "Ġsty": 6251,
    "Ġsentiments": 7960,
    "Ġcases": 3962,
    "Ġreaching": 7303,
    "ased": 1267,
    "peaceful": 20444,
    "Ġjustify": 11073,
    "Ġsharing": 3473,
    "earnestly": 17311,
    "Ġdue": 3845,
    "manifested": 20523,
    "Ġcommunion": 19006,
    "avering": 24792,
    "Ġchagrin": 20605,
    "isation": 13891,
    "Ġunrivalled": 26518,
    "Ġarduous": 26528,
    "cen": 17501,
    "Â·": 21147,
    "agonies": 21905,
    "Ġphenomenon": 17913,
    "Ġteaches": 18808,
    "Ġwhel": 15864,
    "Ġbreak": 2867,
    "cies": 1814,
    "Ġcalling": 5662,
    "hoisting": 23713,
    "stretching": 20496,
    "Ġtones": 8399,
    "aches": 6570,
    "stream": 15683,
    "Ġzealand": 12347,
    "christian": 17231,
    "Ġpoetry": 15078,
    "Ġpetty": 19593,
    "police": 10584,
    "parm": 21012,
    "Ġ70": 11277,
    "Ġringbolts": 24195,
    "Ġbern": 17857,
    "dining": 13703,
    "Ġchoice": 2165,
    "Ġborders": 15569,
    "yset": 21143,
    "Ġswinging": 7449,
    "Ġamount": 8511,
    "intervals": 10638,
    "Ġsneering": 24696,
    "Ġworm": 9163,
    "Ġunobserved": 18245,
    "bye": 5949,
    "Ġverdant": 15001,
    "Ġdramatic": 4849,
    "Ġshown": 5159,
    "Ġirish": 14533,
    "athered": 6972,
    "omited": 21657,
    "Ġrussian": 14349,
    "Ġfashions": 17884,
    "ir": 379,
    "Ġaids": 12225,
    "ledge": 1329,
    "Ġcrackling": 24957,
    "lacing": 17589,
    "keepers": 16658,
    "thanked": 24330,
    "Ġdominic": 25381,
    "Ġfollowed": 1795,
    "Ġstraightway": 9017,
    "Ġbehalf": 14506,
    "advise": 24216,
    "tomorrow": 25913,
    "influence": 13576,
    "Ġfury": 7660,
    "listener": 24929,
    "Ġlanguage": 646,
    "Ġouter": 6859,
    "aders": 21754,
    "balance": 12004,
    "Ġclimes": 12836,
    "Ġobjecting": 18895,
    "recurring": 24193,
    "Ġbrother": 2749,
    "Ġlest": 6395,
    "Ġknock": 9973,
    "Ġquench": 22415,
    "rifle": 21044,
    "Ġcaresses": 26058,
    "Ġcreditable": 19620,
    "Ġseethings": 26502,
    "Ġinspirited": 23418,
    "obser": 11100,
    "û": 188,
    "Ġcam": 10162,
    "assure": 9269,
    ".": 18,
    "Ġjob": 7015,
    "Ġsolemnisation": 24111,
    "evidently": 20343,
    "Ġ180": 16605,
    "Ġpracticable": 19033,
    "Ġpistols": 17327,
    "Ġslumbering": 25700,
    "Ġmahogany": 20575,
    "crimson": 24096,
    "br": 2478,
    "Ġcracked": 8594,
    "Ġjumping": 13338,
    "sec": 6152,
    "Ġmum": 13856,
    "Ġelig": 9778,
    "Ġperiod": 4005,
    "isl": 21372,
    "comfortable": 7320,
    "Ġeffective": 1250,
    "Ġjoints": 12032,
    "Ġvirginia": 13497,
    "ies": 583,
    "fork": 20855,
    "Ġdaint": 15590,
    "Ġneskye": 21527,
    "declared": 15116,
    "wise": 2572,
    "Ġwarmed": 12021,
    "Ġregions": 10324,
    "Ġrack": 9312,
    "nett": 16219,
    "Ġejaculated": 15167,
    "iscreet": 20680,
    "Ġcomponents": 8893,
    "Ġcharacter": 2793,
    "Ġduc": 4695,
    "Ġdiscomp": 11863,
    "iple": 4805,
    "spark": 18689,
    "specim": 23940,
    "iceland": 21562,
    "des": 1564,
    "extreme": 11030,
    "Ġcomparative": 10543,
    "Ġlighter": 12649,
    "Ġabsurd": 7202,
    "Ġ1950": 11360,
    "Ġrepresent": 1210,
    "hood": 2658,
    "Ġt": 261,
    "Ġconsolidation": 5060,
    "Ġcheerful": 6621,
    "rows": 6442,
    "Ġagrippa": 11805,
    "Ġconce": 3419,
    "Ġwretchedly": 19504,
    "disgu": 19152,
    "Ġdurst": 20350,
    "clearer": 24064,
    "zza": 24165,
    "greatest": 10494,
    "Ġplow": 21455,
    "term": 3757,
    "Ġreversed": 15694,
    "R": 54,
    "reclining": 20572,
    "purse": 20022,
    "Ġodious": 12147,
    "kilt": 4865,
    "point": 6062,
    "rons": 21037,
    "Ġannoy": 17197,
    "mariners": 19546,
    "Ġcontemptible": 16952,
    "achine": 606,
    "Ġprincely": 24146,
    "Ġtorm": 5434,
    "Ġsuit": 5725,
    "Ġagricultural": 26549,
    "Ġmaps": 2960,
    "hew": 5364,
    "pow": 10718,
    "Ġfrighted": 24025,
    "Ġnib": 13938,
    "Ġsuffer": 4720,
    "Ġrejoice": 10209,
    "Ġamounts": 6704,
    "Ġlifelessly": 23046,
    "breaking": 14762,
    "gish": 20871,
    "Ġupper": 5090,
    "pemberley": 9621,
    "desp": 6075,
    "400": 20753,
    "lee": 11585,
    "Ġeven": 1028,
    "Ġjiff": 22292,
    "Ġadhes": 22099,
    "calling": 12446,
    "Ġinve": 17927,
    "ĠĠĠĠĠĠĠĠĠĠĠĠĠĠĠĠĠĠĠĠĠĠĠĠĠĠĠĠĠĠĠĠĠĠĠĠ": 23661,
    "observed": 7674,
    "Ġapothecary": 13657,
    "13": 20748,
    "Ġstiffness": 24829,
    "Ġpoland": 23615,
    "Ġbumps": 21389,
    "Ġmasters": 11575,
    "Ġimpl": 7195,
    "$": 8,
    "Ġpartners": 11850,
    "Ġunfav": 14785,
    "nez": 22438,
    "Ġsummer": 4789,
    "Ġinsurance": 23676,
    "Ġcondesc": 7181,
    "Ġrigger": 19528,
    "Ġan": 286,
    "nial": 20982,
    "Ġfulfilment": 20185,
    "run": 10722,
    "Ġpunishment": 9956,
    "dan": 17514,
    "Ġcorrect": 2429,
    "Ġimposed": 14213,
    "Ġanalyze": 1507,
    "Ġpawnbroker": 13656,
    "Ġpaddington": 17094,
    "widows": 25344,
    "twilight": 23696,
    "spouting": 24999,
    "pray": 5429,
    "Ġcountess": 11961,
    "Ġgrows": 4984,
    "Ġseated": 4540,
    "uth": 3015,
    "helping": 23135,
    "Ġquestioning": 10464,
    "Ġtorrents": 20053,
    "Ġshallow": 14392,
    "Ġmagician": 25057,
    "Ġting": 8397,
    "ials": 11704,
    "Ġaqu": 17741,
    "scra": 13017,
    "Ġdetermination": 9819,
    "descending": 16283,
    "ft": 910,
    "signed": 21059,
    "shaken": 16022,
    "Ġadver": 5641,
    "Ġlucerne": 23861,
    "nets": 9133,
    "party": 8993,
    "Ġplumber": 16082,
    "Ġdiscovery": 5412,
    "Ġimprobable": 9794,
    "Ġconnections": 972,
    "Ġgrant": 11870,
    "Ġprogeny": 17386,
    "Ġflaming": 8564,
    "atherley": 7220,
    "rates": 21036,
    "Ġdive": 10173,
    "Ġinjuries": 11278,
    "Ġrokovoko": 22401,
    "thes": 7391,
    "persu": 8027,
    "Ġvint": 18193,
    "yder": 10139,
    "ifling": 15780,
    "Ġcalves": 13030,
    "Ġbrahma": 26318,
    "Ġpossesses": 19349,
    "resembled": 21244,
    "Ġversion": 10630,
    "Ġceaseless": 13485,
    "voyages": 24854,
    "Ġbreaths": 14855,
    "Ġstudious": 23222,
    "asher": 15643,
    "Ġdisadvantages": 18556,
    "Ġkindly": 6077,
    "Ġmoments": 4844,
    "baden": 25614,
    "Ġshaggy": 13568,
    "this": 1441,
    "oft": 3588,
    "Ġpursu": 3238,
    "Ġconsternation": 9859,
    "terogene": 21821,
    "Ġthump": 11611,
    "Ġdash": 8121,
    "otle": 21793,
    "idean": 14261,
    "Ġsnoo": 21226,
    "Ġaright": 11738,
    "whilst": 18370,
    "acy": 3955,
    "binnacle": 20785,
    "Ġagile": 22509,
    "fields": 14652,
    "Ġlouisa": 13543,
    "capable": 13699,
    "Ġtasks": 1787,
    "Ġlirra": 21556,
    "extinguish": 22753,
    "Ġoppress": 13169,
    "hide": 10704,
    "alizing": 17938,
    "Ġthomson": 26453,
    "Ġgrievous": 13256,
    "Ġforbade": 15212,
    "Ġpulverize": 23390,
    "spot": 9790,
    "Ġscornful": 24995,
    "Ġdepose": 22602,
    "Ġstr": 759,
    "Ġflip": 11909,
    "rying": 3185,
    "flame": 16636,
    "hemat": 3128,
    "!âĢĻ": 3330,
    "Ġchatting": 24746,
    "Ġleading": 7297,
    "Ġmarshal": 20217,
    "comparison": 25839,
    "iers": 5990,
    "angel": 5726,
    "admon": 21757,
    "Ġbosoms": 16794,
    "stiff": 12670,
    "ctu": 5088,
    "windlass": 16720,
    "ucumber": 19057,
    "latin": 25258,
    "Ġendeav": 2950,
    "access": 11181,
    "Ġinitial": 823,
    "Ġocean": 3302,
    "Ġscrib": 22279,
    "asters": 8433,
    "my": 1314,
    "Ġdynamically": 4989,
    "Ġjoin": 4852,
    "Ġdesper": 6176,
    "Ġenlar": 15798,
    "mped": 16646,
    "Ġgradient": 449,
    "Ġintrepid": 11703,
    "Ġintrig": 21986,
    "eronomy": 15523,
    ").": 1271,
    "Ġbier": 22762,
    "Ġmasoned": 20249,
    "Ġorb": 22087,
    "vener": 21109,
    "Ġoccupies": 24004,
    "frankenstein": 11392,
    "deck": 4500,
    "Ġfearfulness": 23509,
    "Ġunfit": 14784,
    "arboard": 7266,
    "Ġsunken": 14493,
    "Ġskil": 14350,
    "presume": 25668,
    "Ġprints": 16331,
    "going": 6313,
    "atha": 6572,
    "Ġinfirmity": 26297,
    "Ġshoes": 7071,
    "ively": 1323,
    "akers": 9740,
    "requ": 7148,
    "domestic": 19823,
    "tired": 21070,
    "Ġhoof": 23350,
    "Ġblackness": 9393,
    "expressive": 24304,
    "grace": 5846,
    "ras": 21034,
    "Ġred": 3001,
    "Ġscre": 9737,
    "hook": 12050,
    "Ġchronicled": 25328,
    "Ġfirmness": 11239,
    "Ġl": 303,
    "orious": 6007,
    "Ġpleadings": 25851,
    "zealand": 26046,
    "Ġdrugged": 12598,
    "fle": 7128,
    "Ġodor": 12146,
    "Ġvia": 2381,
    "Ġdetail": 635,
    "phys": 18731,
    "ef": 5134,
    "Ġberkshire": 16883,
    "Ġcolour": 4461,
    "Ġfav": 1752,
    "Ġelevates": 24502,
    "Ġdeigned": 18137,
    "Ġposition": 1956,
    "chester": 23804,
    "reach": 17756,
    "Ġcents": 17827,
    "Ġpers": 1340,
    "Ġnay": 5711,
    "doublo": 24659,
    "Ġsmo": 2701,
    "Ġburial": 16519,
    "Ġdawn": 6816,
    "Ġtheore": 1831,
    "Ġelizabeth": 1131,
    "asted": 4648,
    "Ġinquisitive": 26316,
    "rey": 12534,
    "Ġacquaintances": 17348,
    "isles": 15561,
    "dat": 1628,
    "ā": 194,
    "Ġcarpent": 4465,
    "tossed": 10997,
    "row": 1066,
    "Ġregret": 5561,
    "dawson": 26127,
    "embers": 21925,
    "sings": 4251,
    "tw": 2811,
    "Ġide": 2123,
    "Ġasia": 11681,
    "iant": 5427,
    "arrange": 23762,
    "pagans": 25525,
    "dost": 14534,
    "Ġsuicide": 12782,
    "Ġdur": 11592,
    "u": 89,
    "Ġintroduce": 3205,
    "iza": 6255,
    "Ġindecision": 25780,
    "opp": 6963,
    "Ġdie": 3963,
    "rown": 2193,
    "Ġhackney": 20430,
    "Ġabiding": 22266,
    "Ġtranquo": 14841,
    "orated": 12587,
    "Ġmonsters": 11075,
    "mmed": 7913,
    "Ġbulkhead": 24510,
    "Ġcle": 1512,
    "Ġvinc": 14083,
    "Ġwater": 1950,
    "Ġwaved": 9645,
    "Ġsparing": 22125,
    "osal": 11757,
    "Ġskylight": 24069,
    "sweep": 24616,
    "Ġlegal": 10440,
    "Ġ84": 19707,
    "Ġineffect": 13928,
    "ondescript": 22911,
    "estate": 12817,
    "Ġassur": 6073,
    "isite": 15560,
    "Ġhandspikes": 12933,
    "Ġferrule": 24499,
    "adler": 21758,
    "Ġoverflow": 10293,
    "aled": 3944,
    "nne": 20987,
    "consciousness": 13362,
    "otograph": 5826,
    "orph": 21396,
    "Ġhardy": 8566,
    "stranger": 9883,
    "Ġilliter": 23466,
    "Ġusually": 6263,
    "striving": 24668,
    "Ġstuffed": 13406,
    "anced": 1322,
    "umnal": 18299,
    "loops": 12878,
    "Ġwin": 9642,
    "quarters": 24945,
    "execution": 20469,
    "conc": 3947,
    "uvier": 9069,
    "Ġexceedingly": 4613,
    "Ġquote": 18465,
    "Ġad": 444,
    "Ġnasty": 17441,
    "mouse": 15390,
    "Ġskilfully": 20521,
    "Ġestablished": 9070,
    "harpoone": 6107,
    "agings": 18164,
    "Ġeach": 894,
    "Ġhair": 3311,
    "answering": 26003,
    "teous": 16169,
    "deception": 22140,
    "uded": 6286,
    "Ġgirls": 4279,
    "Ġuncivilized": 25498,
    "mosphere": 10043,
    "uted": 7592,
    "Ġunobstructed": 18260,
    "Ġpleasantness": 24136,
    "cleanliness": 25870,
    "lled": 10108,
    "Ġsingularly": 12145,
    "Ġevangelists": 20337,
    "would": 2352,
    "Ġclink": 22341,
    "Ġmouldy": 14972,
    "'d": 12424,
    "cess": 537,
    "ubb": 1647,
    "Ġpitchpoling": 14909,
    "Ġprof": 2460,
    "Ġtrick": 7020,
    "Ġcreases": 22723,
    "Ġcrop": 10163,
    "Ġprot": 3848,
    "Ġjackal": 24238,
    "Ġjurymen": 16846,
    "Ġlucy": 17968,
    "Ġrelieved": 7665,
    "Ġdoted": 21430,
    "Ġpanegyric": 26448,
    "yea": 23083,
    "Ġsuccession": 12098,
    "Ġmedic": 11248,
    "Ġsherry": 19448,
    "monster": 8592,
    "system": 4069,
    "neys": 23580,
    "Ġget": 1624,
    "australian": 20559,
    "Ġjoy": 3183,
    "Ġpowdered": 24236,
    "Ġinitialization": 1254,
    "ev": 6952,
    "whales": 5187,
    "Ġyarman": 12701,
    "Ġapprobation": 10986,
    "glances": 23850,
    "ume": 4834,
    "Ġ**": 4719,
    "Ġstake": 14001,
    "Ġmachinery": 20482,
    "Ġaltered": 7393,
    "Ġgems": 9209,
    "Ġimmensity": 25329,
    "trimmed": 23945,
    "Ġmaddened": 17243,
    "Ę": 217,
    "Ġvivid": 8057,
    "ak": 539,
    "sil": 5282,
    "apple": 22838,
    "Ġhighway": 14346,
    "Ġbarrow": 12066,
    "Ġstood": 2550,
    "Ġsubdivisions": 26036,
    "rifice": 12500,
    "Ġfast": 1713,
    "Ġkin": 15902,
    "Ġerie": 20051,
    "ĠĠĠĠĠĠĠĠĠĠĠĠĠĠĠĠĠĠĠĠĠĠĠĠĠĠĠĠĠĠĠĠĠĠĠĠĠĠĠĠĠĠ": 24208,
    "Ġnoblest": 13238,
    "walton": 20247,
    "Ġharm": 5017,
    "tomahawk": 25914,
    "ilt": 2966,
    "Ġowen": 15092,
    "Ġcoars": 14269,
    "madly": 24419,
    "Ġpeels": 22687,
    "Ġclinched": 17392,
    "Ġherb": 15854,
    "Ġimperial": 9481,
    "Ġcontinue": 5398,
    "Ġ114": 24437,
    "learned": 8601,
    "ronted": 14875,
    "Ġlining": 13949,
    "umer": 9258,
    "Ġbrushed": 15568,
    "Ġasks": 5115,
    "Ġthickest": 16653,
    "Ġoutrage": 15956,
    "tables": 19755,
    "Ġdrunken": 12047,
    "gryphon": 15356,
    "Ġdogs": 7741,
    "Ġcatch": 4441,
    "origin": 7581,
    "ders": 8074,
    "Ġexhausting": 24709,
    "Ġweakness": 9967,
    "Ġupbraid": 18317,
    "Ġglances": 10373,
    "sell": 13779,
    "seven": 8463,
    "revenge": 13840,
    "gast": 20869,
    "Ġtons": 11550,
    "Ġmarried": 3405,
    "Ġrecollected": 8310,
    "Ġcured": 21344,
    "Ġmonosyllable": 20724,
    "Ġpopulation": 16826,
    "tempestuous": 26096,
    "Ġshop": 9252,
    "Ġtem": 805,
    "Ġe": 311,
    "Ġcaused": 5048,
    "Ġacquainted": 5179,
    "Ġpretext": 22225,
    "duty": 20237,
    "Ġbeggar": 9349,
    "Ġunmethodically": 22065,
    "allions": 22194,
    "understanding": 1125,
    "Ġdiary": 24738,
    "bows": 10082,
    "grow": 10099,
    "Ġhappy": 2465,
    "Ġscrewing": 20206,
    "Ġpathways": 11154,
    "handedness": 24919,
    "Ġcandid": 4100,
    "Ġsweetly": 23915,
    "Ġbaggy": 24537,
    "aff": 3100,
    "reply": 19720,
    "Ġregretted": 13397,
    "unbe": 21868,
    "breast": 11247,
    "Ġrequ": 793,
    "Ġcourtesy": 9945,
    "irt": 3073,
    "Ġfreshe": 13066,
    "Ġimpressive": 14998,
    "Ġscrutin": 26013,
    "Ġissues": 9542,
    "nowled": 5470,
    "Ġcolony": 18764,
    "Ġaffair": 4463,
    "Ġinitials": 11015,
    "awakened": 14451,
    "gling": 10098,
    "Ġvomit": 21944,
    "Ġmartyr": 26359,
    "Ġfam": 1583,
    "Ġlikened": 16498,
    "Ġobliter": 14320,
    "Ġgrass": 5177,
    "Ġprompted": 23813,
    "Ġdrinks": 24278,
    "ickering": 22666,
    "Ġdisput": 14254,
    "Ġhaving": 1882,
    "Ġlucifers": 16587,
    "Ġdefinitions": 22940,
    "Ġstirred": 12214,
    "Ġanother": 1733,
    "Ġpresented": 5183,
    "Ġoffers": 12942,
    "icable": 6388,
    "Ġmeanly": 12905,
    "Ġslam": 13053,
    "Ġparsonage": 7123,
    "Ġintertw": 18585,
    "Ġloses": 15871,
    "baby": 25515,
    "Ġvaliant": 9800,
    "aying": 15747,
    "ocation": 14625,
    "tattoo": 21085,
    "Ġgurg": 15670,
    "Ġdeed": 7867,
    "Ġdivine": 6921,
    "Ġneur": 813,
    "ĠĠĠĠĠĠĠĠĠĠĠĠĠĠĠĠĠĠĠĠĠĠĠ": 18830,
    "Ġdisputes": 25824,
    "see": 3043,
    "apart": 15959,
    "Ġlodged": 11253,
    "iscient": 17850,
    "Ġunwarranted": 25171,
    "comes": 5394,
    "Ġcolumb": 22848,
    "ards": 2504,
    "Ġ11": 5318,
    "Ġgallant": 8655,
    "Ġlearnedly": 23383,
    "Ġbugs": 13646,
    "Ġselling": 21222,
    "happiest": 19330,
    "Ġdate": 7841,
    "Ġlaugh": 4114,
    "atches": 13844,
    "lue": 8508,
    "/`)": 13658,
    "Ġamusements": 16912,
    "Ġfem": 6134,
    "iastic": 12476,
    "Ġsevered": 18202,
    "Ġweighted": 2089,
    "Ġadvertisement": 6941,
    "sis": 1866,
    "screwed": 17186,
    "Ġagencies": 18540,
    "att": 1459,
    "Ġindolent": 13004,
    "Ġamaze": 22479,
    "attacks": 23118,
    "Ġparted": 5928,
    "Ġarriving": 19215,
    "atum": 21257,
    "Ġcross": 1374,
    "iocr": 20921,
    "Ġchap": 5933,
    "Ġcolds": 23754,
    "abama": 12705,
    "Ġeffectual": 18733,
    "ause": 1312,
    "Ġinterference": 8894,
    "Ġheiress": 20695,
    "Ġgrave": 5100,
    "princip": 17135,
    "judge": 13333,
    "Ġtongs": 9961,
    "Ġgovern": 10451,
    "Ġclasp": 9744,
    "Ġclair": 6268,
    "darcy": 5208,
    "Ġthine": 7374,
    "Ġcaprice": 14575,
    "procure": 23394,
    "parable": 16388,
    "solving": 3096,
    "Ġclasping": 20207,
    "erated": 21270,
    "Ġgales": 12661,
    "Ġcalam": 13029,
    "vib": 21113,
    "Ġvari": 833,
    "Ġpattern": 1317,
    "Ġkeel": 6444,
    "rolling": 9061,
    "Ġriv": 10747,
    "Ġwheel": 9718,
    "disagreeable": 11164,
    "Ġapply": 1776,
    "Ġcling": 11769,
    "Ġtoiling": 15632,
    "ghan": 19452,
    "Ġsubdued": 11031,
    "pense": 10369,
    "Ġresearch": 3082,
    "Ġdum": 10812,
    "superior": 9525,
    "Ġheadsman": 13269,
    "Ġapartments": 19612,
    "feed": 9293,
    "Ġback": 802,
    "lifeless": 24311,
    "useness": 22288,
    "ners": 3270,
    "isa": 17844,
    "Ġth": 299,
    "Ġobstacle": 16954,
    "rose": 6013,
    "Ġ77": 24262,
    "Ġchoicest": 24219,
    "Ġdetailed": 12824,
    "Ġplaything": 19235,
    "turkish": 24532,
    "Ġpupp": 10821,
    "Ġrattled": 15064,
    "fury": 17546,
    "Ġwooden": 4728,
    "Ġirregular": 9865,
    "Ġannihil": 10175,
    "Ġdressed": 5081,
    "wards": 1275,
    "Ġproceedings": 9907,
    "Ġcost": 2505,
    "Ġwearing": 12735,
    "Ġindirectly": 8940,
    "creation": 14803,
    "Ġclergyman": 8712,
    "Ġkills": 15904,
    "Ġcaring": 23087,
    "tumultuous": 20396,
    "Ġvocabulary": 4995,
    "Ġmeddle": 19489,
    "Ġviii": 16412,
    "teak": 22811,
    "patient": 25342,
    "Ġaside": 5234,
    "scream": 11077,
    "Ġfoot": 3161,
    "Ġorphan": 12380,
    "Ġfearless": 9875,
    "Ġwitnessed": 14842,
    "rating": 7808,
    "lovel": 22507,
    "unfearing": 21888,
    "wishes": 13805,
    "Ġshipmates": 6720,
    "oded": 11668,
    "Ġbohem": 8527,
    "Ġconsequence": 5542,
    "Ġforemast": 12003,
    "Ġxviii": 23407,
    "Ġplayed": 9416,
    "off": 1887,
    "heads": 4095,
    "Ġmanifested": 17156,
    "expectations": 24275,
    "uttle": 6247,
    "Ġtens": 17722,
    "Ġeager": 3567,
    "ulated": 6029,
    "Ġshutter": 16669,
    "Ġdated": 10940,
    "Ġeyed": 12663,
    "plan": 15816,
    "Ġphilosophy": 7103,
    "Ġding": 12595,
    "paws": 21027,
    "Ġcomposure": 7217,
    "Ġcontinent": 14886,
    "Ġreproach": 9557,
    "Ġbaked": 21383,
    "sufficiently": 14979,
    "Ġbraved": 23834,
    "ldog": 21913,
    "Ġpyth": 21457,
    "pictures": 15088,
    "Ġcontemptuous": 24675,
    "Ġeagle": 13197,
    "vative": 1597,
    "besides": 8696,
    "Ġessentially": 24923,
    "Ġcuts": 14606,
    "apprehens": 17404,
    "southern": 20406,
    "Ġtru": 4107,
    "Ġenjoying": 11236,
    "Ġcarve": 23088,
    "Ġspeedy": 11173,
    "pardonable": 17216,
    "Ġreduced": 11921,
    "Ġflowing": 14409,
    "Ġlizzy": 3541,
    "Ġdrives": 14576,
    "dil": 11479,
    "Ġwreaths": 25936,
    "lestrade": 9657,
    "Ġle": 333,
    "acceptance": 25185,
    "Ġpictures": 5503,
    "oons": 12495,
    "Ġpapa": 10657,
    "speed": 19406,
    "Ġeyel": 17095,
    "Ġremonstrate": 22787,
    "Ġbur": 2698,
    "itime": 15545,
    "Ġbiographical": 22764,
    "india": 22367,
    "Ġprolonged": 8357,
    "Ġdenny": 9002,
    "fire": 6357,
    "Ġsearch": 2587,
    "Ġabundant": 17153,
    "Ġsuffers": 2971,
    "Ġsadness": 13283,
    "cost": 19184,
    "meantime": 9092,
    "Ġportentous": 15227,
    "Ġheavy": 3742,
    "Ġmalay": 24390,
    "Ġinwards": 15618,
    "Ġpermanently": 25473,
    "Ġsaid": 578,
    "Ġindignity": 18837,
    "Ġcoron": 4464,
    "lording": 24046,
    "Ġph": 1548,
    "indian": 11776,
    "abilities": 3235,
    "ensils": 22544,
    "Ġheadlands": 22895,
    "uteronomy": 15661,
    "aye": 3658,
    "Ġbutton": 10268,
    "Ġspringing": 10519,
    "customary": 25894,
    "Ġric": 18208,
    "Ġsheeted": 19829,
    "Ġethiopian": 26612,
    "Ġexceptional": 19368,
    "Ġconcent": 8249,
    "berish": 22717,
    "knife": 6942,
    "Ġlawy": 9454,
    "Ġunst": 18234,
    "int": 1197,
    "Ġdeclaring": 19417,
    "Ġpacifics": 24372,
    "Ġfort": 2576,
    "Ġrevers": 21660,
    "luc": 9752,
    "angling": 14139,
    "Ġvoc": 4451,
    "Ġknew": 2054,
    "Ġnursed": 16884,
    "Ġanguish": 5583,
    "Ġbeaches": 18083,
    "Ġcrab": 13141,
    "Ġmagnificence": 20630,
    "Ġmeas": 1099,
    "wandering": 20282,
    "Ġworsh": 12995,
    "Ġforemost": 12002,
    "Ġere": 3683,
    "Ġflickering": 23010,
    "Ġresist": 7915,
    "Ġmeet": 2803,
    "brandy": 19198,
    "Ġtitle": 11409,
    "Ġringing": 13328,
    "grandfather": 25008,
    "Ġclam": 7416,
    "Ġchaff": 18381,
    "Ġsh": 419,
    "Ġseems": 2481,
    "Ġvivacious": 19813,
    "Ġsoot": 14131,
    "recogn": 13422,
    "Ġseaward": 22943,
    "hit": 20887,
    "asses": 7016,
    "Ġupp": 13990,
    "Ġrecesses": 17259,
    "claimed": 9836,
    "Ġrepent": 9863,
    "Ġventured": 7501,
    "gment": 4390,
    "Ġchrist": 4073,
    "Ġcontradicted": 20209,
    "ource": 5243,
    "flatter": 23963,
    "brim": 23573,
    "likely": 9023,
    "fowl": 17548,
    "throne": 25656,
    "apologizing": 26543,
    "ill": 447,
    "ipp": 10103,
    "eman": 5636,
    "Ġnic": 7376,
    "Ġvault": 8841,
    "learning": 2638,
    "Ġflourish": 17159,
    "Ġrim": 21964,
    "Ġshe": 466,
    "Ġearth": 2850,
    "utral": 12659,
    "ential": 826,
    "furthermore": 20001,
    "Ġtread": 9409,
    "peleg": 16292,
    "Ġsunbeam": 23273,
    "rise": 6226,
    "ature": 522,
    "Ġvilest": 20098,
    "xter": 9147,
    "Ġtrusty": 24101,
    "Ġfl": 1279,
    "lott": 6650,
    "Ġfocuses": 8650,
    "Ġsuppressed": 11908,
    "erne": 21267,
    "Ġintru": 15825,
    "Ġpricking": 23219,
    "Ġdifference": 1492,
    "Ġwinding": 8235,
    "luent": 15994,
    "consequence": 9763,
    "Ġbillow": 14776,
    "Ġdirectors": 18920,
    "utch": 21582,
    "Ġwafted": 14498,
    "Ġagitates": 22513,
    "Ġentertained": 9998,
    "angular": 11721,
    "alliance": 22196,
    "Ġmaids": 19689,
    "Ġstamping": 20028,
    "Ġturks": 14597,
    "obliged": 20629,
    "effectually": 25128,
    "Ġ102": 24409,
    "norm": 20983,
    "Ġcrib": 21345,
    "d": 72,
    "Ġvalued": 12179,
    "Ġemployments": 12099,
    "Ġlanguor": 12843,
    "els": 1763,
    "Ġgord": 21596,
    "susp": 10597,
    "pro": 2049,
    "Ġjudged": 12080,
    "Ġbelted": 22944,
    "Ġfacing": 10172,
    "Ġsends": 14787,
    "Ġsqualidness": 25841,
    "Ġimag": 2674,
    "Ġmanhandle": 22325,
    "Ġfathers": 16295,
    "Ġinjunctions": 24268,
    "ø": 185,
    "rever": 21233,
    "Ġredundant": 16549,
    "Ġchancing": 22244,
    "Ġfrivolous": 26175,
    "remark": 7261,
    "Ġaudacity": 19880,
    "Ġtradesman": 20070,
    "Ġinclement": 22549,
    "vellers": 16672,
    "Ġproduced": 2451,
    "dut": 10088,
    "Ġhydraul": 9514,
    "Ġtransparent": 9489,
    "enorm": 17780,
    "ption": 7398,
    "sy": 2685,
    "ird": 2425,
    "Ġpredef": 18537,
    "Ġtossed": 5815,
    "satisfied": 10579,
    "Ġheavenly": 12081,
    "orn": 2244,
    "Ġcaravan": 26289,
    "Ġstables": 23652,
    "Ġsentin": 16370,
    "suffered": 24333,
    "Ġgates": 10201,
    "suffer": 24332,
    "script": 11078,
    "vari": 1517,
    "Ġmantel": 11440,
    "Ġlatent": 19653,
    "Ġsway": 7571,
    "Ġbeckoning": 20499,
    "stochastic": 3773,
    "irably": 13292,
    "Ġhumane": 11881,
    "Ġwall": 3843,
    "station": 10845,
    "acceler": 23596,
    "Ġmemorable": 16426,
    "Ġmagnified": 23199,
    "spass": 18688,
    "Ġresearches": 13125,
    "Ġcaved": 21350,
    "Ġschoolmasters": 19718,
    "elev": 12455,
    "maker": 12489,
    "lleg": 20949,
    "Ġpantaloons": 20294,
    "Ġbast": 21376,
    "Ġexpressive": 8983,
    "Ġshrimp": 24155,
    "Ġwhereas": 3855,
    "Ġvagu": 13587,
    "alone": 10184,
    "holder": 13279,
    "Ġaft": 5737,
    "------": 12130,
    "Ġanswering": 7477,
    "Ġjustification": 22967,
    "Ġdelivered": 11117,
    "Ġdrawling": 19434,
    "streamed": 25964,
    "Ġknocking": 10560,
    "Ġmagazine": 23095,
    "Ġnar": 7375,
    "Ġsystems": 800,
    "Ġsummary": 19400,
    "Ġconsider": 2566,
    "your": 1984,
    "creator": 26380,
    "Ġenrapt": 21935,
    "calm": 8935,
    "nothing": 3153,
    "goose": 19100,
    "mbl": 5946,
    "ina": 21177,
    "Ġvariation": 22661,
    "Ġhyster": 16872,
    "Ġchurned": 18383,
    "Ġapprehens": 5682,
    "Ġstre": 2106,
    "Ġgoverning": 2794,
    "Ġsadder": 24047,
    "idable": 8145,
    "inte": 5144,
    "tisement": 6767,
    "lour": 15378,
    "Ġisol": 8834,
    "Ġyellowish": 24429,
    "Ġearl": 7675,
    "Ġgreatly": 5849,
    "Ġslung": 23165,
    "Ġexactness": 23602,
    "lake": 13747,
    "writer": 14647,
    "Ġpersisted": 13031,
    "Ġblundering": 26282,
    "Ġenhance": 3099,
    "Ġjump": 4503,
    "Ġviolence": 5962,
    "studied": 17148,
    "hest": 3366,
    "Ġintimate": 6549,
    "irr": 12733,
    "chard": 21683,
    "Ġhalts": 3158,
    "headed": 4317,
    "supp": 4163,
    "inside": 23060,
    "published": 26141,
    "based": 2957,
    "leeward": 15208,
    "Ġbewildered": 15211,
    "certain": 3674,
    "ela": 21565,
    "university": 25982,
    "Ġhabitu": 19526,
    "Ġvit": 10246,
    "dripping": 16904,
    "cano": 18843,
    "Ġstarvation": 19789,
    "Ġprogressive": 5024,
    "Ġmystical": 12129,
    "iture": 5696,
    "Ġalgorithm": 763,
    "Ġoutlined": 22316,
    "Ġrecomm": 4996,
    "Ġgoug": 17989,
    "Ġpremium": 23901,
    "Ġgraces": 18224,
    "hearse": 17747,
    "uplifted": 17694,
    "Ġworlds": 11944,
    "woman": 5898,
    "Ġaid": 6122,
    "Ġsadly": 7302,
    "Ġrecording": 24433,
    "Ġcontention": 22422,
    "anger": 2171,
    "Ġshrouded": 14967,
    "Ġsprung": 11250,
    "ry": 807,
    "rell": 11564,
    "B": 38,
    "Ġdesp": 3214,
    "oin": 17616,
    "Ġredness": 19309,
    "Ġshrieked": 9548,
    "pp": 384,
    "obey": 11510,
    "imod": 15707,
    "Ġbrack": 23832,
    "Ġcogent": 14271,
    "Ġexplain": 545,
    "Ġcanted": 17830,
    "03": 20746,
    "Ġxxv": 19715,
    "Ġsque": 18755,
    "slide": 24555,
    "Ġpatagon": 14505,
    "Ġprimitive": 25060,
    "rene": 5379,
    "enit": 17778,
    "smiled": 16613,
    "Ġinhaled": 25451,
    "Ã¦mon": 7094,
    "Ġincivility": 18571,
    "Ġunimag": 12770,
    "Ġcomputes": 4766,
    "Ġzigzag": 26271,
    "Ġescapes": 23504,
    "uttering": 12658,
    "Ġarmada": 23578,
    "Ġcleansed": 26292,
    "Ġunconscious": 9547,
    "glow": 20872,
    "woe": 21133,
    "Ġhenceforth": 19645,
    "Ġrats": 21972,
    "Ġcomrade": 12280,
    "Ġduodecimo": 16766,
    "Ġmayhap": 18709,
    "Ġdemi": 25548,
    "robber": 21533,
    "Ġ25": 13189,
    "diversity": 25896,
    "merry": 16535,
    "inctions": 17731,
    "Ġshould": 864,
    "Ġsensitiveness": 23731,
    "Ġdetermined": 2222,
    "ize": 773,
    "Ġadler": 8173,
    "security": 26205,
    "Ġcreate": 2090,
    "Ġcherry": 16934,
    "manner": 6170,
    "Ġaccomp": 4711,
    "Ġadapts": 3817,
    "Ġunabated": 15850,
    "Ġrabb": 4165,
    "shook": 19854,
    "Ġmanor": 14195,
    "Ġjeopardized": 20228,
    "Ġvind": 10250,
    "Ġpatted": 16377,
    "Ġleeward": 6210,
    "Ġafore": 10759,
    "Ġaccounts": 7207,
    "Ġpleasurable": 23337,
    "Ġdrawled": 23985,
    "tol": 17671,
    "restrained": 16335,
    "Ġhen": 3498,
    "Ġtells": 9362,
    "Ġwouldst": 18498,
    "russian": 22185,
    "illa": 12789,
    "owner": 18609,
    "Ġvalues": 2650,
    "Ġdonkey": 23227,
    "Ġincrust": 22546,
    "rain": 460,
    "ellest": 21570,
    "asper": 7854,
    "Ġtoiled": 12638,
    "Ġfreed": 7267,
    "letons": 14612,
    "cords": 25136,
    "immed": 9218,
    "Ġtyro": 16993,
    "Ġwedding": 4857,
    "Ġcalculates": 13260,
    "appears": 12057,
    "rints": 12499,
    "inions": 8401,
    "Ġacquiesced": 25493,
    "ny": 4017,
    "Ġilluminate": 17191,
    "Ġcurrent": 12999,
    "Ġconcluded": 5658,
    "||": 4868,
    "orse": 5806,
    "Ġdrank": 16533,
    "waste": 21132,
    "whel": 7664,
    "Ġsequentially": 4913,
    "Ġmachine": 790,
    "Ġfoster": 18989,
    "P": 52,
    "Ġsledge": 8110,
    "Ġcharge": 5324,
    "beware": 16037,
    "Ġmax": 2005,
    "Ġstarbuck": 2195,
    "Ġcredited": 25153,
    "Ġsuspending": 19242,
    "Ġdot": 4819,
    "Ġgasping": 17037,
    "Ġstrands": 25574,
    "strikes": 24669,
    "ression": 3402,
    "ially": 9247,
    "Ġ46": 19488,
    "kinder": 24844,
    "Ġunassuming": 20506,
    "Ġapproving": 18508,
    "oak": 21001,
    "âĢľâĢĻ": 10222,
    "rowed": 22854,
    "Ġdesmarest": 22977,
    "Ġheed": 5630,
    "wand": 10739,
    "Ġharsh": 9521,
    "Ġagreement": 18541,
    "Ġinexhaustible": 16980,
    "Ġpoles": 11004,
    "prevailed": 17343,
    "Ġmass": 3780,
    "gument": 20883,
    "ourse": 8870,
    "Ġske": 4814,
    "Ġtid": 8106,
    "Ġaffright": 9332,
    "Ġchestnuts": 24380,
    "watches": 14945,
    "Ġpenny": 16313,
    "Ġtreating": 4283,
    "Ġxlvi": 25589,
    "Ġquery": 2479,
    "Ġpap": 8798,
    "Ġac": 844,
    "Ġparting": 9783,
    "ah": 1834,
    "Ġasc": 4763,
    "blood": 7779,
    "Ġinserting": 19904,
    "Ġdiverted": 14591,
    "flutter": 23967,
    "Ġunthink": 18243,
    "Ġshifting": 12764,
    "andish": 18152,
    "Ġdeft": 21832,
    "atiously": 15520,
    "Ġinclude": 1876,
    "Ġalle": 11665,
    "Ġsurround": 4616,
    "Ġhurtling": 24956,
    "Ġroast": 18456,
    "Ġlinked": 15075,
    "unnatural": 15770,
    "Ġvon": 14079,
    "85": 13679,
    "izz": 7614,
    "Ġdiminish": 14743,
    "Ġsaturn": 22898,
    "brows": 17495,
    "Ġanat": 8123,
    "Ġweep": 7619,
    "Ġentreated": 9951,
    "Ġimmensely": 13593,
    "Ġneed": 2605,
    "Ġmamm": 25089,
    "Ġbawling": 25944,
    "ination": 2911,
    "Ġhumph": 22879,
    "mix": 20972,
    "airs": 2221,
    "Ġarrived": 3745,
    "Ġmic": 17796,
    "Ġshakes": 10905,
    "Ġhypocritical": 20736,
    "Ġstoutly": 16923,
    "insist": 23059,
    "ally": 532,
    "Ġeducation": 5128,
    "coil": 23554,
    "Ġannouncement": 14831,
    "Ġdictionary": 15110,
    "Ġnone": 3222,
    "Ġfires": 16471,
    "Ġtone": 4040,
    "aph": 10955,
    "Ġceleb": 20223,
    "Ġheave": 7599,
    "preference": 22458,
    "Ġgardeners": 12117,
    "union": 15767,
    "Ġplayers": 12035,
    "Ġabuse": 18391,
    "prec": 3201,
    "orm": 425,
    "Ġimpetus": 25569,
    "Ġbingleys": 18994,
    "Ġintimidated": 24804,
    "Ġcharger": 19003,
    "É": 138,
    "Ġsailor": 3531,
    "resides": 23666,
    "Ġtraged": 9352,
    "Ġexpands": 25237,
    "iliation": 10861,
    "Ġrelinqu": 12978,
    "Ġprovision": 14823,
    "Ġremained": 3140,
    "Ġcorresponding": 13435,
    "friends": 8305,
    "ificent": 8183,
    "Ġpursuers": 13222,
    "Ġdart": 4584,
    "Ġpropont": 16348,
    "impart": 21705,
    "Ġleast": 2063,
    "pin": 13765,
    "bey": 10315,
    "ues": 2079,
    "Ġapprovingly": 26249,
    "Ġmuskets": 17055,
    "Ġsmut": 22552,
    "Ġjen": 9267,
    "unwillingly": 21880,
    "Ġimprecate": 20515,
    "affold": 16561,
    "Ġbucket": 8788,
    "Ġwere": 557,
    "Ġmanhat": 22323,
    "Ġphrenologists": 25607,
    "harmony": 25749,
    "say": 3985,
    "ance": 478,
    "Ġexposing": 11831,
    "ify": 1359,
    "Ġcaged": 21349,
    "Ġlightning": 5750,
    "Ġstability": 1363,
    "Ġgul": 7859,
    "Ġcomplacency": 19445,
    "Ġcomplete": 4382,
    "Ġdeformity": 11675,
    "pitchpoling": 25724,
    "Ġbending": 12581,
    "Ġduplicates": 17215,
    "Ġhypothesis": 14779,
    "Ġfunction": 590,
    "Ġadventures": 7747,
    "Ġadmission": 23550,
    "Ġfitness": 23996,
    "Ļ": 252,
    "viii": 12018,
    "Ġ27": 8615,
    "Ġingenious": 12345,
    "Ġfundamental": 3011,
    "Ġextravag": 11256,
    "barbaric": 26357,
    "Ġsuspicions": 9479,
    "iday": 8830,
    "Ġlinguistic": 12422,
    "Ġapparel": 20433,
    "fitzwilliam": 11353,
    "same": 5361,
    "Ġapparelled": 20434,
    "ibles": 18786,
    "Ġslammed": 20445,
    "boys": 13356,
    "Ġashore": 5351,
    "Ġcau": 13879,
    "Ġshank": 21993,
    "Ġoozy": 21324,
    "indisc": 22369,
    "generations": 23782,
    "cures": 20803,
    "itance": 13866,
    "Ġcore": 13876,
    "Ġremove": 7499,
    "approb": 11043,
    "omeness": 18021,
    "Ġconcealed": 7495,
    "gigantic": 15357,
    "Ġconclusions": 10554,
    "isome": 17847,
    "iscre": 17849,
    "Ġsuffice": 18868,
    "in": 262,
    "Ġforwarded": 19043,
    "smoke": 17221,
    "cer": 6642,
    "Ġshattered": 7883,
    "Ġsho": 2246,
    "Ġdiff": 3113,
    "ook": 21002,
    "Ġemir": 23347,
    "Ġpeering": 8535,
    "Ġrattling": 11396,
    "Ġboy": 3019,
    "Ġtyrant": 24766,
    "infliction": 25923,
    "Ġaustralia": 15230,
    "Ġregiment": 6432,
    "Ġrep": 1939,
    "osop": 4404,
    "ating": 665,
    "Ġvac": 5025,
    "Ġcaterpillar": 5864,
    "Ġmol": 12557,
    "method": 17283,
    "pushed": 21021,
    "orient": 2877,
    "severe": 21814,
    "ier": 1136,
    "neighb": 16020,
    "onist": 21248,
    "shrouded": 26360,
    "cry": 12442,
    "Ġlay": 584,
    "Ġbeloved": 5572,
    "Ġcloset": 19589,
    "Ġbreeds": 23345,
    "bons": 17485,
    "Ġginger": 9211,
    "arks": 2844,
    "Ġexcellence": 11452,
    "Ġco": 729,
    "Ġlane": 5627,
    "Ġsurrender": 16449,
    "agation": 1211,
    "Ġhail": 7400,
    "othe": 2613,
    "grew": 17554,
    "humour": 7498,
    "baned": 17494,
    "appin": 18757,
    "Ġanew": 11431,
    "Ġaslant": 21897,
    "hardly": 6491,
    "Ġexc": 1833,
    "Ġrecollections": 10513,
    "Ġmists": 14629,
    "receiving": 12539,
    "Ġinev": 10182,
    "excepting": 19704,
    "Ġmichigan": 26425,
    "Ġclassical": 22618,
    "Ġfacilitate": 26097,
    "possesses": 24615,
    "_),": 7125,
    "shooting": 16964,
    "Ġreceive": 4702,
    "cabin": 8362,
    "Ġchivalrous": 20512,
    "Ġfeature": 749,
    "Ġproposals": 10614,
    "Ġcrowned": 16840,
    "Ġsurp": 9635,
    "quired": 21851,
    "Ġbristol": 14378,
    "Ġvapory": 17005,
    "Ġsmile": 4271,
    "Ġstepmother": 16087,
    "tea": 18739,
    "lested": 14881,
    "Ġtrinity": 22363,
    "oriental": 23717,
    "Ġryder": 10259,
    "Ġmixed": 6974,
    "uncommon": 11680,
    "Ġgathers": 24742,
    "board": 3561,
    "Ġrear": 6535,
    "Ġexpans": 18619,
    "Ġawakened": 10454,
    "squ": 7809,
    "Ġsite": 17752,
    "presently": 9807,
    "oars": 9615,
    "forks": 26386,
    "Ġparish": 8855,
    "Ġswarm": 23050,
    "arr": 3040,
    "naturalists": 23559,
    "Ġguardian": 14940,
    "Ġstren": 15717,
    "won": 7144,
    "ophisticated": 22461,
    "unlike": 18155,
    "aus": 1502,
    "Ġken": 22187,
    "Ġconcernment": 23642,
    "ĠĠĠĠĠĠĠĠĠĠĠĠĠĠĠĠĠĠĠĠĠĠĠĠĠĠĠĠĠĠĠĠĠĠĠĠĠĠĠĠĠĠĠĠĠĠĠĠĠĠĠ": 20036,
    "Ġdynamic": 5124,
    "Ġruffled": 25834,
    ",--": 2477,
    "Ġperishing": 22394,
    "Ġsymbolize": 24959,
    "Ġvan": 1086,
    "Ġjacob": 1899,
    "Ġresp": 2494,
    "Ġliberally": 16829,
    "wander": 17708,
    "Ġpoignant": 22589,
    "Ġtransported": 11280,
    "Ġbetokened": 18795,
    "older": 15753,
    "mbling": 3343,
    "Ġ235": 25712,
    "Ġbehaves": 23299,
    "Ġvictory": 16652,
    "Ġoutline": 15952,
    "Ġpardon": 5727,
    "llable": 6878,
    "urned": 9306,
    "oglyph": 11020,
    "Ġdecember": 15006,
    "Ġmeasure": 3591,
    "Ġfashion": 4297,
    "Ġdivide": 12107,
    "_": 67,
    "certainly": 5339,
    "sufficient": 6635,
    "Ġcollectively": 19965,
    "Ġju": 10287,
    "Ġslippery": 12163,
    "emper": 18184,
    "Ġtaken": 2527,
    "vere": 4882,
    "Ġno": 510,
    "Ġcomplet": 4422,
    "attacked": 23117,
    "Ġ*": 1272,
    "Ġwindward": 6885,
    "Ġperem": 12927,
    "Ġresume": 18564,
    "Ġboomer": 20165,
    "blacksmith": 17000,
    "Ġfight": 5366,
    "Ġspecimen": 13018,
    "reat": 617,
    "Ġcaut": 6521,
    "Ġsupported": 9818,
    "Ġlizz": 21553,
    "gates": 20870,
    "ister": 1294,
    "olic": 14040,
    "Ġmor": 1251,
    "carried": 16710,
    "tedious": 22629,
    "Ġconsequences": 11336,
    "Ġwaterward": 23364,
    "skeleton": 17374,
    "asis": 12646,
    "butt": 15992,
    "Ġuses": 1208,
    "Ġano": 11596,
    "travellers": 24317,
    "Ġlays": 15987,
    "slipping": 25528,
    "Ġsociet": 9449,
    "Ġlump": 21548,
    "Ġdefault": 3034,
    "Ġconnected": 5393,
    "luding": 6700,
    "Ġshivered": 14106,
    "Ġrecollect": 8309,
    "happened": 9433,
    "Ġobeying": 13411,
    "Ġhatchways": 24986,
    "Ġcreatures": 4139,
    "give": 4687,
    "Ġrest": 1781,
    "Ġinitialized": 3948,
    "Ġchiefly": 5766,
    "osen": 6855,
    "Ġthy": 2513,
    "Ġgaping": 13967,
    "Ġgeological": 14532,
    "fed": 11488,
    "terrors": 25040,
    "du": 604,
    "Ġwhittingham": 26196,
    "Ġprofit": 14584,
    "Ġpeleg": 3736,
    "Ġincognit": 22550,
    "Ġsquat": 14366,
    "Ġconfed": 13095,
    "avating": 18604,
    "Ġbruised": 25771,
    "Ġpaths": 2567,
    "Ġgood": 998,
    "Ġthre": 2058,
    "Ġcontent": 5034,
    "touching": 15089,
    "Ġpumping": 25642,
    "Ġconsulted": 13427,
    "Ġtheorem": 2327,
    "search": 8464,
    "Ġgipsies": 12405,
    "Ġoriental": 9097,
    "Ġrogue": 22400,
    "profess": 10635,
    "Ġconduct": 3731,
    "Ġafar": 14290,
    "noticed": 14341,
    "Ġhig": 753,
    "Ġirrespective": 23372,
    "Ġaddressing": 11165,
    "Ġstrings": 11827,
    "Ġclust": 9274,
    "Ġcontributes": 15248,
    "wered": 2689,
    "Ġeddies": 23435,
    "Ġbrit": 6289,
    "Ġgenerations": 10965,
    "invari": 21182,
    "Ġdaughters": 4421,
    "algorith": 3580,
    "hy": 4738,
    "Ġ15": 9324,
    "Ġsafety": 6339,
    "Ġoutrages": 18414,
    "mblies": 24607,
    "ting": 1334,
    "Ġmanif": 8871,
    "Ġpinched": 17034,
    "riet": 18178,
    "izens": 18142,
    "Ġflattening": 26048,
    "balanced": 14554,
    "Ġdividing": 12108,
    "prep": 9759,
    "Ġrejoiced": 8684,
    "Ġmorbidness": 20626,
    "itu": 1229,
    "anded": 5922,
    "sigma": 2999,
    "shock": 19853,
    "lux": 14224,
    "yrin": 12518,
    "field": 3068,
    "Ġunseasonable": 26519,
    "isturbed": 18296,
    "Ġoverspread": 14204,
    "comp": 3816,
    "imin": 1768,
    "aced": 2405,
    "Ġwatched": 6297,
    "Ġchristian": 6479,
    "Ġinexperience": 26098,
    "intment": 4718,
    "Ġproblem": 1270,
    "Ġrecourse": 22737,
    "Ġremo": 3785,
    "Ġcrawl": 11376,
    "Ġquiescent": 26241,
    "Ġdivers": 9666,
    "ivered": 7005,
    "Ġembell": 14411,
    "Ġsaucer": 20603,
    "Ġprize": 11945,
    "Ġjabbering": 22299,
    "inferences": 17738,
    "Ġjing": 15947,
    "priv": 9620,
    "Ġjulia": 22298,
    "success": 6710,
    "Ġgerman": 6141,
    "Ġexec": 19490,
    "Ġtattooed": 11379,
    "Ġreads": 23108,
    "Ġpolitic": 23616,
    "Ġreasons": 6019,
    "sp": 896,
    "Ġhumbled": 16195,
    "patter": 3778,
    "Ġsuch": 795,
    "dared": 13700,
    "nder": 20985,
    "Ġphrensy": 25124,
    "Ġgospel": 17999,
    "Ġaversion": 18863,
    "necessity": 13364,
    "Ġspence": 22122,
    "Ġimagine": 3924,
    "Ġsin": 1514,
    "ner": 1373,
    "Ġpersonally": 8599,
    "Ġconceit": 7295,
    "Ġconfessor": 24015,
    "Ġcoherent": 3262,
    "Ġevaporate": 26331,
    "Ġextract": 1449,
    "pilot": 25907,
    "Ġtawny": 20479,
    "Ġits": 706,
    "sensibility": 25022,
    "around": 12604,
    "Ġhey": 11640,
    "shop": 14235,
    "Ġecstasy": 11630,
    "jer": 12477,
    "Ġaffairs": 6877,
    "thoughts": 9935,
    "Ġincisive": 18569,
    "Ġhundred": 2694,
    "umberland": 16836,
    "cim": 8720,
    "Ġeye": 2283,
    "Ġanalogical": 25639,
    "Ġincome": 7916,
    "Ġtrophy": 20004,
    "Ġdeportment": 22604,
    "Ġ92": 24589,
    "giana": 7800,
    "Ġaroused": 15892,
    "gives": 15355,
    "inqu": 6121,
    "Ġspoken": 4835,
    "Ġblood": 3168,
    "Ġlaying": 7907,
    "rebell": 17762,
    "Ġharpoone": 2909,
    "Ġprophecy": 25705,
    "sartain": 25621,
    "Ġcandelab": 23845,
    "Ġlap": 8436,
    "Ġegg": 8819,
    "Ġseam": 3909,
    "Ġamerican": 5061,
    "fellow": 6792,
    "total": 17249,
    "swing": 15428,
    "Ġjingling": 26016,
    "Ġcath": 17825,
    "emason": 18185,
    "Ġthunders": 15635,
    "desperate": 17350,
    "adam": 15727,
    "subtle": 24242,
    "ju": 13739,
    "Ġwra": 5905,
    "Ġdirt": 15591,
    "arse": 7160,
    "prick": 19340,
    "Ġwaxed": 21295,
    "ort": 521,
    "Ġsitu": 3491,
    "Ġmont": 8559,
    "Ġimmortal": 8017,
    "ricane": 16277,
    "Ġcraw": 7282,
    "Ġburly": 19248,
    "Ġbos": 4874,
    "Ġele": 1964,
    "Ġprophetic": 20017,
    "Ġqueens": 16705,
    "countenance": 6925,
    "deser": 10403,
    "attentions": 13572,
    "Ġsingers": 23767,
    "aps": 1231,
    "Ġsurgeons": 23462,
    "Ġinexpress": 12631,
    "cousin": 10653,
    "Ġcased": 21343,
    "Ġtobacc": 7852,
    "Ġabed": 22261,
    "Ġtragedy": 10668,
    "pie": 21009,
    "Ġchinese": 14180,
    "Ġpropensity": 18995,
    "bil": 20769,
    "Ġcorresponds": 19819,
    "laugh": 10109,
    "Ġdismasted": 15249,
    "think": 3607,
    "Ġcommitting": 22669,
    "Ġweariness": 19792,
    "Ġpanther": 16818,
    "atived": 21260,
    "akes": 2219,
    "Ġsor": 4147,
    "Ġcomparable": 24277,
    "Ą": 197,
    "Ġabsurdly": 19957,
    "Ġendeavouring": 8034,
    "Ġdesolated": 24811,
    "Ġfine": 1315,
    "Ġfrankenstein": 7095,
    "Ġbelongs": 8014,
    "Ġmajesty": 5201,
    "Ġbacks": 8528,
    "Ġmile": 7151,
    "rote": 4591,
    "sat": 4809,
    "mot": 17595,
    "bers": 2568,
    "Ġdived": 9178,
    "entreat": 17974,
    "Ġbrooks": 25699,
    "Ġtattooings": 24899,
    "Ġhanding": 16128,
    "Ġwindpipe": 23101,
    "Ġestimable": 23869,
    "Ġobeisance": 19756,
    "rences": 9272,
    "bless": 22308,
    "Ġlegendary": 20535,
    "Ġineff": 12630,
    "front": 12167,
    "Ġignoble": 19396,
    "Ġlimited": 23540,
    "acted": 11011,
    "Ġwing": 6665,
    "mense": 4779,
    "jonah": 11497,
    "Ġautoregressive": 3428,
    "Ġsable": 15499,
    "hangs": 15366,
    "produce": 20280,
    "painter": 24895,
    "Ġcigars": 12249,
    "Ġusage": 9730,
    "Ġlocks": 11722,
    "Ġanyone": 4459,
    "Ġvilla": 14745,
    "Ġla": 5912,
    "Ġforeman": 23445,
    "Ġprison": 5403,
    "Ġwind": 1436,
    "Ġworried": 22922,
    "Ġplanets": 24052,
    "Ġoptimize": 1673,
    "Ġgouldings": 26186,
    "Ġblasphemy": 26114,
    "Ġribbed": 16803,
    "Ġming": 9646,
    "Ġleaf": 15720,
    "tle": 2407,
    "Ġaccepted": 7750,
    "Ġbound": 3514,
    "Ġindisp": 18838,
    "arpo": 1753,
    "ills": 1629,
    "Ġdates": 6693,
    "Ġcontin": 5382,
    "Ġconfid": 7686,
    "Ġarrest": 7409,
    "ul": 371,
    "Ġjeroboam": 10601,
    "Ġretreated": 13430,
    "Ġtwos": 18656,
    "Ġsore": 10765,
    "vicious": 21116,
    "moran": 24150,
    "gentlemanlike": 19999,
    "Ġpanting": 11602,
    "Ġbus": 1904,
    "Ġbooks": 4674,
    "Ġleagues": 9224,
    "Ġcontemporary": 16009,
    "Ġhud": 10823,
    "Ġomen": 11576,
    "Ġrepressed": 21664,
    "Ġroyalty": 19734,
    "Ġunwillingness": 20029,
    "aited": 12432,
    "Ġsurmise": 12292,
    "dark": 5614,
    "tears": 11037,
    "Ġstript": 23688,
    "ained": 3061,
    "Ġbore": 5079,
    "seek": 8837,
    "Ġtea": 5042,
    "pon": 17624,
    "Ġscatter": 18396,
    "idual": 1558,
    "Ġdrive": 5055,
    "Ġbegan": 2022,
    "Ġbegin": 3095,
    "Ġcrouched": 23439,
    "enance": 3368,
    "Ġpython": 1069,
    "sense": 11524,
    "Ġprocessions": 18431,
    "Ġforesaw": 19126,
    "engagement": 14457,
    "Ġsord": 21217,
    "darker": 24515,
    "Ġreappeared": 21661,
    "round": 3365,
    "oftener": 23961,
    "character": 6331,
    "gird": 20877,
    "Ġbumping": 25280,
    "Ġsupercil": 23452,
    "Ġwanting": 6721,
    "avo": 8517,
    "ix": 1802,
    "mathematics": 26303,
    "Ġ20": 8614,
    "Ġreleased": 2975,
    "Ġswimming": 5507,
    "Ġsympathising": 24296,
    "sworn": 24255,
    "bond": 17488,
    "Ġsket": 18725,
    "):": 11462,
    "birth": 15320,
    "Ġroaring": 10969,
    "Ġsquires": 16181,
    "date": 17516,
    "Ġleisurely": 24745,
    "Ġblanche": 18818,
    "Ġproducing": 11896,
    "Ġgips": 10842,
    "cig": 17502,
    "oir": 21000,
    "Ġaunt": 3176,
    "Ġrheumatic": 20703,
    "âĢĶ.": 11753,
    "rid": 5137,
    "Ġundulates": 24116,
    "Ç": 136,
    "Ġindividually": 22958,
    "Ġdown": 832,
    "diver": 20829,
    "urred": 8449,
    "hopes": 15367,
    "umbria": 23927,
    "engine": 18925,
    "Ġmeth": 1452,
    "Ġal": 342,
    "Ġmercifully": 20176,
    "Ġnorms": 3664,
    "Ġanswer": 2596,
    "Ġmakest": 25435,
    "Ġlust": 9198,
    "Ġdimmed": 24266,
    "Ġflounders": 23009,
    "Ġrejo": 5915,
    "Ġafric": 8906,
    "ish": 550,
    "Ġstruggle": 3673,
    "snow": 10725,
    "Ġvanish": 8928,
    "Ġ82": 24457,
    "Ġtinged": 20080,
    "Ġentra": 18698,
    "Ġquite": 1736,
    "Ġfairest": 20460,
    "Ġrifled": 21975,
    "mael": 6722,
    "Ġdeparture": 6490,
    "Ġklan": 23657,
    "Ġmutually": 23953,
    "Ġascend": 9960,
    "Ġsuspected": 9063,
    "thereby": 14445,
    "Ġconfirmed": 11140,
    "Ġused": 2059,
    "izer": 2030,
    "Ġcreditor": 24289,
    "passing": 14809,
    "amore": 21839,
    "Ġpresided": 20205,
    "seamen": 13624,
    "Ġopinions": 9415,
    "Ġpleased": 4063,
    "Ġstick": 6025,
    "asburgh": 15644,
    "Ġsingle": 1689,
    "medium": 23636,
    "ol": 362,
    "Ġvortex": 26207,
    "Ġtyp": 1132,
    "dee": 11730,
    "Ġreaction": 15692,
    "dear": 6555,
    "Ġseclusion": 18205,
    "giv": 13720,
    "Ġeffectually": 16165,
    "Ġnind": 17948,
    "Ġconjoined": 21802,
    "Ġduplicity": 25331,
    "ience": 816,
    "Ġsalesman": 13666,
    "Ġdecl": 3587,
    "Ġalmighty": 18103,
    "Ġpork": 21453,
    "Ġchanges": 2288,
    "Ġovercame": 9746,
    "overlooked": 23321,
    "Ġshuddered": 11301,
    "Ġasking": 5651,
    "oard": 4808,
    "Ġtimidly": 11339,
    "weight": 2937,
    "Ġabsor": 8504,
    "cks": 3076,
    "Ġoverwhel": 8195,
    "Ġfacil": 16961,
    "violets": 23539,
    "#": 7,
    "Ġgi": 15663,
    "towing": 17688,
    "Ġhonoured": 9881,
    "Ġroses": 11784,
    "skylight": 25622,
    "Ġspeaks": 11160,
    "âĢĶâĢĻ": 8187,
    "Ġwoollen": 12100,
    "Ġunsh": 14112,
    "Ġfusion": 21411,
    "Ġhalf": 1667,
    "witted": 17706,
    "whatever": 6694,
    "Ġinspire": 11993,
    "shadow": 20312,
    "Ġfathoms": 9084,
    "Ġfift": 6382,
    "madam": 24420,
    "Ġknow": 631,
    "Ġincompatible": 25679,
    "Ġvestibule": 13534,
    "esy": 9186,
    "Ġmatrim": 11060,
    "pend": 6367,
    "result": 12041,
    "christmas": 20253,
    "fred": 20853,
    "Ġresuming": 12889,
    "Ġblasts": 19993,
    "Ġoffspring": 16143,
    "Ġtacit": 21172,
    "hollow": 24036,
    "Ġshilling": 18227,
    "Ġdisgusting": 19892,
    "Ġreceipt": 20353,
    "Ġvision": 1618,
    "hole": 5586,
    "Ġtusks": 17252,
    "disgraceful": 26075,
    "Ġcares": 9366,
    "blubber": 15234,
    "Ġtreble": 16502,
    "ope": 4126,
    "Ġremark": 2146,
    "Ġsoon": 1230,
    "Ġintent": 6409,
    "Ġbuckets": 17033,
    "cain": 15324,
    "bo": 1687,
    "dance": 17518,
    "Ġuncles": 23428,
    "Ġopp": 2697,
    "Ġsunday": 7270,
    "Ġemploys": 19428,
    "Ġox": 7153,
    "Ġban": 7156,
    "Ġlined": 15647,
    "living": 7133,
    "Ġlent": 21543,
    "feeder": 12358,
    "ville": 6087,
    "Ġregards": 16075,
    "bpp": 20770,
    "ispensable": 9096,
    "Ġhardest": 18911,
    "ni": 1711,
    "starbuck": 6018,
    "Ġflamingo": 15098,
    "Ġmuscle": 14688,
    "Ġquarrelling": 13496,
    "sect": 8152,
    "returns": 23132,
    "orne": 17871,
    "autions": 20765,
    "vous": 2253,
    "Ġprinc": 4200,
    "talk": 6656,
    "admitted": 18090,
    "beaten": 20313,
    "Ġexpedition": 10634,
    "irregular": 21907,
    "Ġsparsity": 4208,
    "Ġrates": 1405,
    "Ġthrone": 12210,
    "conduct": 11795,
    "ĠĠĠĠĠĠĠĠĠĠĠĠĠĠĠĠĠĠĠĠĠĠĠĠĠĠĠĠĠĠĠĠĠĠĠ": 19256,
    "isition": 11586,
    "Ġdefine": 9815,
    "anyone": 16592,
    "Ġpilgr": 12177,
    "enter": 7857,
    "Ġdomes": 23701,
    "har": 20888,
    "narrative": 17317,
    "berries": 22720,
    "Ġfebruary": 15911,
    "Ġencodings": 4774,
    "Ġfurnishing": 16644,
    "Ġincorrect": 2729,
    "Ġcellar": 8058,
    "Ġblew": 9046,
    "onel": 3087,
    "utely": 8131,
    "boy": 4736,
    "Ġconsumm": 15152,
    "Ġfurious": 10355,
    "Ġsucked": 14129,
    "Ġambition": 11433,
    "joy": 3333,
    "pling": 8474,
    "Ġspirits": 3695,
    "Ġsunrise": 9372,
    "Ġhawsers": 26501,
    "Ġfeedforward": 2328,
    "eting": 7169,
    "Ġfloor": 4378,
    "Ġserved": 8245,
    "Ġeliza": 6437,
    "Ġcuring": 21341,
    "Ġneglect": 7941,
    "Ġstupendous": 20498,
    "Ġexhibited": 9544,
    "Ġemaciated": 20636,
    "coffin": 10663,
    "cheap": 23802,
    "Ġblank": 5950,
    "Ġcoer": 22575,
    "Ġreaches": 18030,
    "Ġforward": 1838,
    "Ġlexic": 15721,
    "Ġbright": 3213,
    "Ġdusky": 13546,
    "ced": 697,
    "bishop": 13692,
    "Ġmeasures": 1205,
    "Ġcorrection": 5062,
    "Ġpunctures": 25133,
    "wound": 21124,
    "Ġreynolds": 10210,
    "Ġcollect": 7237,
    "Ġbelow": 4061,
    "histor": 13488,
    "Ġdisgu": 8205,
    "Ġfeeds": 16432,
    "Ġilleg": 21619,
    "Ġwaning": 15532,
    "Ġeffected": 14353,
    "Ġplants": 22594,
    "Ġundec": 22013,
    "eli": 3874,
    "Ġhorsey": 24248,
    "Ġswain": 18879,
    "Ġczar": 12570,
    "Ġminus": 18749,
    "Ġunbelief": 22043,
    "Ġwasted": 9704,
    "Ġgen": 5296,
    "Ġprone": 18967,
    "Ġmaintainable": 12930,
    "Ġampl": 22476,
    "pounds": 21023,
    "Ġsomnam": 23001,
    "sincerely": 24583,
    "Ġeternities": 19940,
    "Ġinstinctively": 13456,
    "Ġbraided": 16580,
    "Ġpathetic": 19031,
    "serious": 14446,
    "entary": 21563,
    "Ġlivelong": 25511,
    "Ġwarrant": 17793,
    "Ġtroubling": 26546,
    "mas": 5212,
    "Ġlodger": 24088,
    "increas": 10455,
    "Ġhandsomer": 20331,
    "innacle": 7519,
    "vulgar": 25917,
    "ineering": 21963,
    "ay": 355,
    "Ġfellow": 2776,
    "umbled": 8492,
    "Ġspiteful": 19520,
    "Ġcousin": 3702,
    "enterprise": 24991,
    "approbation": 11459,
    "discrimin": 19606,
    "Ġbol": 6241,
    "Ġsauntering": 18326,
    "Ġsacrifice": 9556,
    "Ġelud": 22645,
    "Ġlab": 1873,
    "Ġhedgehog": 10645,
    "deduction": 23552,
    "Ġvertically": 19377,
    "Ġknocked": 9500,
    "companies": 24893,
    "fixed": 7548,
    "Ġtorment": 8674,
    "Ġrav": 14303,
    "prejud": 11794,
    "Ġplainpalais": 20735,
    "Ġpoured": 8801,
    "ampled": 18882,
    "Ġunctuous": 10267,
    "Ġtired": 9150,
    "Ġgathered": 8442,
    "Ġdesert": 6727,
    "ots": 3293,
    "leagued": 26434,
    "Ġ1825": 25718,
    "Ġfamiliar": 5511,
    "Ġsweetness": 9446,
    "Ġconsisting": 8972,
    "Ġnocturn": 18373,
    "Ġdry": 5624,
    "Ġicelandic": 25885,
    "Ġlethargy": 26482,
    "Ġspokes": 18312,
    "Ġlat": 5087,
    "bethink": 25743,
    "Ġtypewriter": 19096,
    "Ġguinea": 8948,
    "appeared": 4281,
    "Ġwore": 6377,
    "Ġyes": 2688,
    "Ġdais": 24371,
    "Ġpropagating": 20631,
    "Ġmaj": 3927,
    "Ġfills": 12590,
    "Ġdignity": 5704,
    "Ġwings": 9164,
    "Z": 62,
    "Ġalive": 4398,
    "accessory": 25499,
    "exertion": 16014,
    "fiend": 13659,
    "ubl": 3592,
    "Ġrecklessness": 24744,
    "Ġmiscellaneous": 17461,
    "Ġabominably": 20063,
    "Ġconsult": 6056,
    "dep": 6786,
    "ag": 377,
    "Ġalice": 1485,
    "Ġendeavors": 16544,
    "Ġhammock": 5768,
    "absence": 12704,
    "Ġsheep": 10927,
    "Ġenlarged": 25984,
    "Ġdiscours": 18715,
    "£": 101,
    "rudential": 16708,
    "tale": 10128,
    "Ġdolphin": 17310,
    "Ġintroduces": 3268,
    "country": 6103,
    "til": 17670,
    "Ġproblems": 2848,
    "Ġabusive": 22269,
    "Ġcomputations": 15999,
    "Ġpinioned": 21478,
    "Ġforesee": 19124,
    "trifling": 19411,
    "Ġdiscussing": 5202,
    "Ġnormalizes": 1864,
    "relate": 24007,
    "Ġunderstood": 5655,
    "Ġnamed": 6139,
    "Ġbeadle": 26483,
    "eneva": 5118,
    "ĠĠĠĠĠĠĠĠĠĠĠĠĠ": 22558,
    "hour": 7340,
    "ouching": 13174,
    "inople": 13827,
    "Ġstepfather": 7221,
    "Ġstronger": 8579,
    "Ġvoyages": 6908,
    "Ġbonnet": 10656,
    "Ġselected": 9710,
    "Ġobscured": 15009,
    "apter": 1192,
    "Ġsplin": 8619,
    "ww": 10738,
    "sou": 12502,
    "Ġcruising": 6912,
    "fortnight": 13084,
    "Ġdisplaying": 16965,
    "Ġinjured": 9040,
    "Ġchoke": 22245,
    "Ġbulk": 5591,
    "Ġcolumn": 9328,
    "choice": 21687,
    "Ġmistaking": 23715,
    "Ġwrecks": 16817,
    "Ġvivacity": 14939,
    "heeded": 13832,
    "Ġancles": 21443,
    "Ġdetain": 14181,
    "Ġpractises": 23296,
    "Ġendangered": 16303,
    "Ġnurse": 9517,
    "Ġanimal": 2498,
    "hundred": 8330,
    "osity": 14184,
    "Ġdisclosed": 15151,
    "Ġfifty": 4622,
    "Ï": 144,
    "Ġherring": 14125,
    "Ġparamore": 22118,
    "Ġdrows": 21432,
    "Ġadaptive": 1352,
    "Ġblossom": 26311,
    "Ġpierce": 17035,
    "Ġfits": 8791,
    "Ġaverse": 11081,
    "attery": 18481,
    "Ġvertu": 23887,
    "sometimes": 5971,
    "pip": 6654,
    "Ġworshipped": 25690,
    "Ġoverflowed": 20260,
    "Ġcomprehension": 15084,
    "Ġmilliner": 19882,
    "Ġpetulance": 24226,
    "end": 501,
    "threw": 21980,
    "Ġarrows": 18335,
    "bureau": 20787,
    "leagues": 21370,
    "poles": 16207,
    "rosings": 15641,
    "Ġcem": 17822,
    "crawling": 16957,
    "Ġspec": 1262,
    "tall": 17672,
    "pig": 8753,
    "Ġfootfall": 14660,
    "Ġsubmitted": 11868,
    "igation": 5917,
    "Ġone": 568,
    "liness": 8747,
    "Ġpondered": 15164,
    "Ġ(âĢľ": 15993,
    "oa": 9613,
    "Ġprecise": 7075,
    "Ġmercy": 8999,
    "Ġcomprehending": 24444,
    "Ġabraham": 18394,
    "Ġgnashed": 20130,
    "Ġbeer": 10220,
    "Ġfoe": 7679,
    "Ġpermitted": 9278,
    "Ġswiss": 18880,
    "willingness": 24754,
    "gled": 10700,
    "Ġthirt": 13937,
    "Ġexponentiating": 3442,
    "Ġlapl": 19775,
    "thern": 4952,
    "dismay": 19151,
    "ableness": 8148,
    "Ġafforded": 8028,
    "Ġmonitors": 3156,
    "Ġintelligible": 15939,
    "measureless": 20233,
    "Ġappar": 7411,
    "Ġfrosts": 19800,
    "Ġrepel": 23356,
    "jabez": 20931,
    "Ġceremonies": 24835,
    "Ġrepenting": 25322,
    "Ġagric": 22511,
    "Ġpoised": 22586,
    "Ġshowing": 7731,
    "vine": 10735,
    "Ġcanst": 8858,
    "majesty": 26279,
    "ishments": 9273,
    "Ġloathsome": 13525,
    "Ġtelegram": 15221,
    "Ġundergo": 23236,
    "Ġday": 956,
    "Ġexploration": 2337,
    "sick": 13782,
    "mil": 13750,
    "clock": 3933,
    "fa": 7336,
    "Ġlasting": 18791,
    "_)âĢĶ": 20142,
    "remained": 8570,
    "recursion": 13325,
    "Ġforgotten": 5679,
    "Ġjobs": 24831,
    "Ġmexico": 15278,
    "Ġfagged": 17881,
    "drunk": 24658,
    "Ġpainful": 6462,
    "Ġsyllable": 9729,
    "Ġevolve": 2998,
    "ources": 2788,
    "Ġinflex": 20632,
    "Ġaverred": 18862,
    "Ġcondem": 6338,
    "Ġgreater": 3033,
    "Ġne": 390,
    "Ġvexed": 9994,
    "Ġcovered": 5171,
    "whether": 5319,
[...]
