{
  "metadata": {
    "vocab_size": 26615,
    "algorithm": "BPE",
    "created_at": "2026-05-07 05:30:52",
    "special_tokens": [
      "<PAD>",
      "<SOS>",
      "<EOS>",
      "<UNK>",
      "<MASK>"
    ]
  },
  "vocab": {
    "Ġkeep": 2356,
    "ref": 6516,
    "endar": 18363,
    "Ġjune": 10290,
    "Ġplied": 22604,
    "uy": 21102,
    "Ġbanish": 15573,
    "Ġamused": 11802,
    "Ġprecipitate": 19945,
    "child": 5537,
    "studied": 17151,
    "Ġdreading": 23801,
    "gloomy": 25147,
    "mark": 5282,
    "Ġdressed": 5081,
    "Ġgazette": 19504,
    "Ġcrawford": 24894,
    "moment": 3575,
    "Ġclam": 7416,
    "unch": 14060,
    "abama": 12713,
    "Ġlamb": 8816,
    "Ġfangs": 12601,
    "fro": 8736,
    "oubtedly": 6943,
    "disappeared": 14571,
    "Ġdeclines": 23966,
    "Ġsorrow": 4629,
    "rr": 17651,
    "Ġmule": 13864,
    "cle": 3952,
    "Ġto": 297,
    "Ġsideboard": 10387,
    "Ġreplace": 14477,
    "Ġoblique": 20172,
    "Ġzone": 14359,
    "uck": 1234,
    "Ġtempted": 9058,
    "Ġinte": 2066,
    "germans": 20568,
    "beauty": 20107,
    "Ġtongues": 14865,
    "Ġpreprocess": 22238,
    "Ġentailed": 11028,
    "Ġeber": 18006,
    "footsteps": 25200,
    "Ġbow": 3062,
    "Ġess": 5691,
    "Ġsaxon": 25469,
    "bearer": 18519,
    "Ġwearied": 15796,
    "Ġreigned": 13989,
    "nder": 20989,
    "dread": 8732,
    "swear": 16919,
    "Ġsimulation": 2750,
    "Ġappar": 7411,
    "oped": 6049,
    "Ġroar": 9754,
    "Ġmanager": 11772,
    "Ġagency": 11809,
    "Ġlearning": 386,
    "Ġbelf": 21384,
    "Ġawfulness": 23589,
    "Ġmedit": 8026,
    "Ġrap": 14309,
    "Ġ[_": 15463,
    "Ġbored": 16108,
    "Ġmonstr": 7669,
    "unw": 14059,
    "Ġhum": 1099,
    "Ġrode": 16000,
    "Ġgay": 5534,
    "agreeable": 5830,
    "irium": 8163,
    "ampl": 21847,
    "tons": 7560,
    "Ġuncork": 23432,
    "Ġphrase": 11188,
    "narrowly": 20350,
    "allowed": 5728,
    "Ġcustoms": 19655,
    "inexplicable": 25809,
    "read": 3276,
    "================================================================": 9992,
    "Ġbeautiful": 3670,
    "Ġdislike": 6050,
    "Ġswap": 23057,
    "Ġimprove": 1939,
    "Ġsurplus": 26304,
    "Ġvia": 2383,
    "ounix": 14165,
    "waters": 11334,
    "impossible": 8827,
    "lacings": 26135,
    "!âĢĶâĢĻ": 23564,
    "Ġbe": 336,
    "carries": 19530,
    "erman": 5108,
    "Ġvivacious": 19818,
    "Ġdrooping": 9422,
    "Ġgodly": 19080,
    "Ġjourneying": 25566,
    "soo": 18685,
    "!âĢĻ": 3332,
    "Ġsling": 21223,
    "situ": 9623,
    "Ġthose": 1172,
    "considerable": 10550,
    "Ġdevious": 22720,
    "befriend": 22497,
    "Ġyaw": 18097,
    "Ġcrop": 10164,
    "Ġvery": 636,
    "?âĢĻ": 2640,
    "Ġmouthful": 16576,
    "Ġrestrain": 8966,
    "Ġincommod": 25308,
    "Ġpowers": 5419,
    "away": 4626,
    "Ġcondescension": 10620,
    "Ġgermans": 25785,
    "emorial": 10243,
    "readily": 19365,
    "aped": 3761,
    "Ġalteration": 9548,
    "Ġbrowne": 13305,
    "iforn": 14066,
    "Ġlit": 6248,
    "bib": 17493,
    "Ġfumes": 21422,
    "Ġconsidered": 4612,
    "Ġneighbours": 8304,
    "Ġimages": 1601,
    "clopÃ¦dia": 15259,
    "Ġvint": 18195,
    "ompl": 4537,
    "Ġdeaden": 23462,
    "poke": 18803,
    "memory": 13620,
    "Ġtiles": 17727,
    "dissatisf": 26130,
    "Ġproperties": 3119,
    "pagans": 25526,
    "Ġadventurous": 16734,
    "Ġinglorious": 24423,
    "Ġeagerly": 4990,
    "presbyterian": 26370,
    "uts": 8819,
    "Ġstair": 8457,
    "Ġtruth": 3320,
    "Ġagreeing": 20022,
    "Ġmoth": 17804,
    "attered": 4017,
    "Ġblasp": 14402,
    "Ġwrong": 4724,
    "mic": 12492,
    "nant": 17610,
    "Ġoutlandish": 12842,
    "Ġportent": 12085,
    "Ġfeeble": 12287,
    "Ġquiescent": 26244,
    "Ġhereditary": 10666,
    "Ġfate": 4754,
    "Ġplun": 6283,
    "Ġmahogany": 20581,
    "Ġintended": 5547,
    "Ġrest": 1780,
    "Ġreser": 5170,
    "Ġknife": 7309,
    "button": 10967,
    "onze": 21258,
    ":âĢĶ": 4434,
    "rederick": 14082,
    "Ġsacr": 7194,
    "consol": 9764,
    "dued": 7911,
    "Ġaids": 12232,
    "nosed": 20994,
    "Ġvelv": 10621,
    "Ġdeclining": 23967,
    "Ġasiatic": 20433,
    "Ġchaos": 17010,
    "enth": 6682,
    "Ġdames": 23475,
    "Ġstruggles": 16580,
    "Ġhazarded": 25655,
    "Ġadjacent": 20713,
    "Ġinheriting": 25355,
    "Ġvirgin": 7328,
    "compl": 6873,
    "Ġselected": 9713,
    "Ġalgorithms": 865,
    "aper": 4999,
    "cracy": 24691,
    "adequately": 20322,
    "culous": 11141,
    "Ġexposed": 8525,
    "Ġcontraction": 16011,
    "Ġumbrella": 15268,
    "20": 20755,
    "icant": 21566,
    "Ġappertain": 22222,
    "Ġrude": 7234,
    "marks": 7346,
    "tracks": 19649,
    "soever": 11864,
    "Ġrefrained": 14337,
    "Ġhare": 5157,
    "Ġfoss": 9853,
    "Ġredundant": 16552,
    "is": 280,
    "ersampling": 18217,
    "Ġadmeasure": 18294,
    "Ġshivering": 10267,
    "Ġirretrie": 23377,
    "Ġsociety": 3975,
    "acy": 3951,
    "Ġfund": 2845,
    "Ġcringed": 25943,
    "noon": 5037,
    "Ġcombing": 22874,
    "Ġsav": 3356,
    "Ġdistricts": 20266,
    "Ġmeans": 699,
    "Ġourselves": 5127,
    "Ġstrained": 10220,
    "Ġpreced": 6042,
    "Ġball": 3621,
    "Ġantelope": 24182,
    "Ġearls": 18905,
    "Ġminor": 12972,
    "**:": 4737,
    "contempl": 13192,
    "obliv": 23101,
    "Ġoccurred": 4464,
    "Ġparagra": 15882,
    "Ġparcel": 15202,
    "Ġoutermost": 22324,
    "Ġbower": 15570,
    "Ġtypes": 8938,
    "abil": 2007,
    "Ġsweetness": 9448,
    "depths": 25664,
    "chemical": 23811,
    "Ġwonderland": 23427,
    "Ġash": 4833,
    "mes": 1201,
    "Ġtrusted": 10519,
    "Ġteaching": 10366,
    "Ġgate": 6825,
    "Ġstroke": 6936,
    "Ġslung": 23172,
    "Ġstript": 23693,
    "Ġscoundrel": 13673,
    "gown": 9598,
    "Ġiterate": 13202,
    "Ġsplinters": 15105,
    "thur": 7188,
    "laden": 14931,
    "Ġnearly": 3362,
    "Ġattacks": 12208,
    "Ġmonosy": 18847,
    "evil": 11487,
    "revival": 26163,
    "Ġslaught": 23171,
    "before": 3115,
    "Ġbank": 4877,
    "lonely": 20959,
    "%": 9,
    "Ġgrief": 4621,
    "Ġgardiners": 11158,
    "july": 20478,
    "Ġepsom": 19986,
    "Ġconsent": 5372,
    "authority": 13594,
    "Ġbravest": 23844,
    "Ġtransp": 4770,
    "Ġunfailing": 24111,
    "recollection": 25349,
    "Ġpeaked": 2297,
    "factories": 19846,
    "Ġjest": 18404,
    "Ġhire": 21489,
    "Ġcontinual": 6778,
    "Ġgroups": 3716,
    "Ġdramatic": 4851,
    "icular": 2023,
    "plague": 21958,
    "Ġanew": 11431,
    "join": 12117,
    "Ġno": 511,
    "rifle": 21049,
    "quet": 6835,
    "inity": 5693,
    "Ġgib": 13967,
    "Ġmaintain": 855,
    "Ġbenef": 3485,
    "Ġdiscipline": 26562,
    "Ġmumbling": 11576,
    "Ġconsumm": 15157,
    "âĢĻ,": 14072,
    "Ġhardihood": 23116,
    "erate": 7150,
    "Ġmccarthys": 19665,
    "ropes": 7906,
    "Ġactively": 18654,
    "Ġwides": 17790,
    "Ġsunda": 13546,
    "pre": 647,
    "Ġdelights": 14597,
    "want": 8770,
    "Ġwires": 21298,
    "Ġfeebly": 24878,
    "Ġsap": 18324,
    "Ġgeorge": 3745,
    "Ġwool": 19436,
    "Ġphrases": 2796,
    "utions": 1888,
    "Ġfaire": 13368,
    "Ġcabs": 23643,
    "m": 81,
    "family": 7324,
    "Ġindefinitely": 25222,
    "drawing": 10488,
    "acetty": 24463,
    "Ġdevotees": 25377,
    "apable": 6423,
    "ashion": 3858,
    "een": 727,
    "Ġblank": 5953,
    "Ġraising": 8912,
    "Ġpantaloons": 20299,
    "indul": 22375,
    "Ġlaurel": 20656,
    "acles": 8521,
    "Ġsur": 2187,
    "Ġorigin": 4116,
    "ogany": 18673,
    "bey": 10315,
    "enary": 12555,
    "Ġhither": 4759,
    "Ġdep": 735,
    "Ġregarding": 13213,
    "Ġdr": 2826,
    "Ġsemicircle": 26068,
    "Ġhappily": 9333,
    "Ġgently": 7172,
    "forbearance": 22792,
    "Ġneville": 7399,
    "Ġnic": 7376,
    "Ġashes": 7618,
    "Ë": 140,
    "Ġmeasure": 3591,
    "Ġwe": 387,
    "ď": 208,
    "deformity": 22150,
    "afternoon": 13188,
    "oning": 7573,
    "persecutor": 26531,
    "kily": 20939,
    "Ġisolated": 13562,
    "rigible": 24932,
    "û": 188,
    "Ġvult": 12756,
    "Ġskilfully": 20527,
    "Ġdining": 6978,
    "consciously": 19628,
    "Ġandes": 12645,
    "Ġstumped": 24945,
    "otograph": 5827,
    "Ġintroduced": 7693,
    "Ġlass": 15651,
    "portuguese": 25414,
    "Ġbu": 3680,
    "Ġtossing": 8127,
    "Ġflap": 14424,
    "Ġagatha": 6866,
    "stoke": 18022,
    "elab": 21574,
    "orne": 17874,
    "Ġjumbled": 22302,
    "feared": 11805,
    "Ġcontinued": 2926,
    "Ġinclusive": 24165,
    "Ġoverpowered": 15291,
    "Ġperpetually": 17071,
    "Ġcrate": 19121,
    "Ġdenoted": 16567,
    "Ġdesire": 3714,
    "Ġsnatched": 10472,
    "Ġsqueeze": 10041,
    "masterly": 24529,
    "jaw": 13745,
    "Ġrecede": 25969,
    "Ġgordon": 26468,
    "stained": 21653,
    "Ġstraggling": 23754,
    "Ġburtons": 19255,
    "Ġrepublic": 14531,
    "Ġsuitable": 18283,
    "palms": 25263,
    "Ġeng": 1162,
    "ringle": 21043,
    "Ġhollow": 5648,
    "Ġpreferred": 14968,
    "Ġwraps": 19779,
    "Ġsauntering": 18328,
    "Ġantiquity": 15233,
    "Ġlimping": 23546,
    "Ġgoney": 14546,
    "Ġaudibly": 24770,
    "Ġinteresting": 4325,
    "teen": 6371,
    "Ġdecomposes": 5506,
    "Ġhorizon": 6635,
    "rowing": 7932,
    "Ġlick": 21554,
    "Ġglories": 16243,
    "continuing": 24478,
    "Ġdeficiency": 14406,
    "Ġplayed": 9418,
    "ying": 1369,
    "pit": 3981,
    "Ġprying": 15612,
    "Ġconfessor": 24022,
    "Ġswaying": 15048,
    "Ġmerid": 13196,
    "cous": 8725,
    "depth": 12804,
    "Ġrepent": 9865,
    "Ġtelesc": 12991,
    "hap": 17560,
    "ricane": 16281,
    "conducted": 25573,
    "ling": 736,
    "Ġtoller": 9093,
    "Ġii": 7385,
    "Ġmabel": 17326,
    "inition": 11558,
    "mists": 17605,
    "Ġbelshazzar": 16229,
    "Ġbargain": 23795,
    "driven": 19774,
    "Ġencl": 16169,
    "Ġseasons": 9433,
    "ells": 5305,
    "ĠĠĠĠĠĠĠĠĠĠĠĠĠĠĠĠĠĠĠĠĠĠĠĠĠĠĠĠĠĠĠĠĠĠĠĠĠĠĠĠĠĠĠĠ": 12157,
    "Ġsatisfy": 6911,
    "Ġcomplaints": 12268,
    "rushed": 10586,
    "Ġadmiring": 16481,
    "gue": 12471,
    "pequod": 7054,
    "pest": 6965,
    "contrasted": 17308,
    "ight": 403,
    "icacy": 15661,
    "Ġdecay": 1014,
    "Ġmoves": 14233,
    "Ġcharcoal": 19008,
    "regret": 16450,
    "beholding": 16043,
    "Ġabed": 22270,
    "Ġfertile": 20586,
    "friend": 3861,
    "tering": 3805,
    "Ġill": 2196,
    "aces": 2070,
    "wid": 10136,
    "Ġsubsets": 2346,
    "Ġshutting": 14762,
    "hawk": 7123,
    "angry": 18295,
    "shark": 14238,
    "Ġmac": 15541,
    "Ġbuttoning": 17237,
    "Ġtrappers": 23086,
    "Ġrec": 889,
    "Ġplausible": 26554,
    "Ġexecutors": 19536,
    "Ġlou": 6822,
    "Ġfrigates": 25707,
    "ura": 1040,
    "scent": 13025,
    "Ġrobert": 10971,
    "Ġtorture": 9067,
    "heartily": 24217,
    "Ġflip": 11916,
    "indirect": 22377,
    "Ġpossessing": 16577,
    "Ġcriminal": 7538,
    "Ġdeck": 2140,
    "andromeda": 21873,
    "Ġforthwith": 16619,
    "Ġstraightway": 9019,
    "Ġtidy": 17093,
    "lotte": 3331,
    "Ġevid": 3497,
    "Ġrecollections": 10514,
    "ources": 2788,
    "Ġclaw": 22362,
    "Ġ106": 24413,
    "invested": 17119,
    "Ġbeneficial": 23934,
    "Ġcoarsely": 25830,
    "Ġsangu": 15506,
    "tery": 14039,
    "acceler": 23600,
    "Ġforests": 13595,
    "Ġrefuge": 8541,
    "Ġbulldog": 23862,
    "Ġinjustice": 9192,
    "ifford": 15787,
    "Ġinforming": 18742,
    "ayed": 12716,
    "continued": 8679,
    "tled": 3455,
    "Ġmartyr": 26362,
    "Ġliveliness": 13646,
    "Ġsame": 1341,
    "Ġcou": 5288,
    "fi": 12465,
    "ping": 9617,
    "Ġultimate": 12352,
    "Ġpipe": 4319,
    "gun": 10098,
    "||": 4869,
    "oa": 9614,
    "Ġensemble": 1609,
    "mens": 20971,
    "Ġseeing": 2888,
    "Ġcommencement": 12242,
    "Ġly": 2270,
    "Ġroll": 5381,
    "official": 24915,
    "attentive": 17191,
    "Ġze": 8547,
    "nurs": 21001,
    "cim": 8723,
    "Ġcounsel": 13618,
    "Ġpaddle": 20062,
    "Ġiv": 4042,
    "Ġcombat": 16192,
    "extending": 22773,
    "brow": 15318,
    "Ġpatagonia": 25858,
    "ang": 446,
    "achalot": 15866,
    "Ġbrutality": 26278,
    "Ġmoul": 15547,
    "ce": 313,
    "Ġessays": 19747,
    "Ġaverred": 18867,
    "auley": 22625,
    "centre": 17087,
    "Ġattentive": 9035,
    "Ġmortification": 12098,
    "Ġmute": 19419,
    "excitement": 19672,
    "mered": 8219,
    "Ġkindly": 6079,
    "Ġscandinav": 19964,
    "qu": 369,
    "Ġpet": 4587,
    "Ġtechn": 9368,
    "Ġembark": 8559,
    "ount": 1115,
    "jeroboam": 25620,
    "Ġundertaken": 18988,
    "Ġhitherto": 5882,
    "Ġunfor": 15842,
    ".âĢĻâĢĿ": 6741,
    "Ġflow": 1240,
    "haired": 14769,
    "Ġprehens": 22236,
    "Ġstandards": 19017,
    "Ġmeddle": 20580,
    "Ġwindward": 6885,
    "Ġrelig": 8553,
    "Ġjuggl": 20441,
    "Ġperman": 10966,
    "Ġinduce": 7764,
    "Ġpoltroon": 26599,
    "ared": 771,
    "rying": 3189,
    "Ġpressing": 9263,
    "handedness": 24921,
    "Ġrooms": 5180,
    "Ġhorns": 11124,
    "iciously": 17976,
    "Ġfastidious": 14493,
    "gered": 9278,
    "weaknesses": 26031,
    "gallery": 24694,
    "they": 1877,
    "Ġrelent": 18776,
    "Ġpretensions": 16559,
    "yet": 3749,
    "Ġsho": 2247,
    "Ġmasking": 2421,
    "Ġmansion": 17811,
    "Ġcurled": 8228,
    "unbidden": 21899,
    "Ã¦": 4338,
    "lifted": 15389,
    "Ġgeorgia": 23889,
    "Ġfix": 2507,
    "Ġbrix": 12587,
    "Ġlaud": 17970,
    "Ġmarlings": 23042,
    "ilder": 15716,
    "Ġregrets": 18588,
    "Ġteneriffe": 26415,
    "Ġperdition": 15995,
    "Ġguardianship": 17422,
    "rably": 21637,
    "Ġstayed": 7999,
    "Ġrelate": 6875,
    "Ġsul": 7571,
    "Ġresembles": 25970,
    "Ġturned": 2135,
    "different": 6502,
    "pped": 1997,
    "U": 57,
    "Ġyelled": 9696,
    "ains": 5094,
    "Ġxvi": 19106,
    "Ġnegatived": 23052,
    "cent": 8074,
    "Ġspoiled": 11364,
    "advantages": 11272,
    "Ġsoften": 23129,
    "othic": 16219,
    "Ġthoughtfulness": 18775,
    "Ġexpectantly": 23526,
    "Ġrewarded": 14942,
    "induce": 22379,
    "lean": 21368,
    "ĠĠĠĠĠĠĠĠĠĠĠĠĠĠĠĠ": 1222,
    "Ġunabated": 15855,
    "ethics": 8880,
    "storied": 18024,
    "_âĢĶâĢĻâĢĿ": 25742,
    "eland": 11622,
    "Ġdesertion": 24786,
    "Ġarbitrary": 4736,
    "Ġribbed": 16805,
    "Ġhumbly": 16200,
    "Ġscr": 11764,
    "operations": 19978,
    "Ġscener": 10950,
    "observation": 17271,
    "Ġthrob": 21522,
    "aet": 15310,
    "Ġaloof": 21790,
    "mbl": 5948,
    "Ġupright": 8496,
    "const": 5941,
    "ti": 8391,
    "Ġtheory": 5799,
    "Ġelab": 22644,
    "uled": 11538,
    "Ġcandour": 14674,
    "Ġproofs": 19817,
    "Ġscimet": 22298,
    "Ġdescribe": 2765,
    "Ġlandsmen": 11352,
    "Ġoutlaws": 22328,
    "Ġarched": 10933,
    "Ġtroubles": 19442,
    "Ġnomin": 10192,
    "Ġagreement": 18543,
    "iss": 2181,
    "Ġbutler": 18271,
    "Ġvicious": 24402,
    "Ġplantation": 11424,
    "Ġinvolves": 1096,
    "gy": 2100,
    "Ġfra": 1848,
    "umnal": 18301,
    "ster": 1957,
    "Ġimpertin": 6933,
    "Ġinhabitants": 7525,
    "Ġattract": 11837,
    "circ": 4390,
    "Ġsimilarity": 3170,
    "Ġopened": 3510,
    "Ġgeneric": 18444,
    "peril": 18344,
    "Ġdiscerned": 24959,
    "Ġseating": 18202,
    "Ġmidnight": 5266,
    "countryman": 24640,
    "Ġdate": 7842,
    "understood": 13219,
    "Ġnailing": 21531,
    "beryls": 25310,
    "recovered": 19790,
    "Ġnovelties": 24777,
    "erect": 20850,
    "Ġaffirmative": 15226,
    "omeness": 18025,
    "Ġbidding": 9539,
    "Ġhorsham": 10407,
    "Ġkept": 3346,
    "Ġpredicted": 2046,
    "Ġsomewhat": 4897,
    "not": 910,
    "Ġbirth": 6525,
    "Ġporpoises": 13385,
    "count": 4210,
    "scornful": 26576,
    "Ġbring": 3324,
    "visitors": 13352,
    "Ġowen": 15097,
    "bearers": 18522,
    "azed": 9401,
    "Ġdocument": 15020,
    "nne": 20991,
    "Ġrifts": 21983,
    "Ġadvancing": 6879,
    "Ġheaths": 25973,
    "Ġremo": 3783,
    "Ġbodings": 21394,
    "Ġcapering": 21357,
    "move": 11857,
    "okingly": 22386,
    "Ġniag": 21534,
    "Ġissues": 9544,
    "Ġpoised": 22598,
    "somewhat": 11161,
    "journey": 8748,
    "irts": 9240,
    "Ġcalmly": 7735,
    "mitted": 5213,
    "Ġadler": 8175,
    "Ġprobed": 18734,
    "Ġceler": 15554,
    "Ġsupplied": 8945,
    "Ġmatter": 1734,
    "Ġsupers": 18282,
    "Ġoverdone": 22354,
    "Ġwhirlp": 16964,
    "Ġservants": 6612,
    "dat": 1605,
    ".}": 20747,
    "Ğ": 223,
    "ste": 3582,
    "Ġmanufact": 22333,
    "empl": 5724,
    "Ġaboriginal": 14190,
    "Ġrobins": 16242,
    "Ġwebster": 20164,
    "Ġdeem": 18136,
    "chapter": 1402,
    "Ġlodge": 5779,
    "Ġdiscl": 9799,
    "sk": 5521,
    "ress": 931,
    "Ġtenth": 13828,
    "))": 1514,
    "Ġphilosophical": 26336,
    "Ġeigenvalues": 4998,
    "Ġspermacetti": 19049,
    "Ġsubtlety": 24779,
    "public": 17647,
    "cher": 5786,
    "Ġanimation": 11153,
    "Ġcharacteristic": 12051,
    "Ġmeantime": 6208,
    "til": 17672,
    "Ġstraps": 19311,
    "anque": 13890,
    "Ġbaling": 17861,
    "racing": 21635,
    "arrant": 10475,
    "Ġunlikely": 10909,
    "cried": 8728,
    "Ġkeels": 11062,
    "Ġembraced": 10008,
    "Ġgaze": 6932,
    "itely": 5365,
    "Ġamidst": 9496,
    "Ġbarbara": 24815,
    "alescing": 23869,
    "Ġintensely": 17018,
    "fin": 5209,
    "Ġtragedy": 10669,
    "rict": 8094,
    "information": 12396,
    "declined": 25175,
    "--âĢĺ": 22852,
    "Ġresignation": 18567,
    "Ġbattalions": 25777,
    "Ġinsip": 19269,
    "Ġverdant": 15003,
    "analy": 17840,
    "Ġinquired": 7486,
    "Ġflies": 13029,
    "ipher": 18422,
    "Ġtelescopes": 25689,
    "Ġforts": 21777,
    "Ġvalleys": 14921,
    "Ġgovernesses": 25130,
    "Ġreced": 15695,
    "consolation": 15155,
    "Ġbaleen": 10039,
    "Ġlegendary": 20540,
    "Ġblaming": 22934,
    "Ġfleeting": 19329,
    "carpet": 25203,
    "soldiers": 25912,
    "asher": 15649,
    "Ġsqualls": 17021,
    "rid": 5137,
    "itaries": 21339,
    "Ġalms": 21785,
    "Ġcried": 1487,
    "Ġspars": 3808,
    "Ġrepented": 23366,
    "Ġgaiety": 16750,
    "acter": 2506,
    "Ġforge": 8458,
    "Ġpuffed": 14979,
    "Ġcle": 1509,
    "Ġescape": 2646,
    ":--": 5784,
    "ocean": 12404,
    "Ġfully": 6344,
    "ama": 11679,
    "refuge": 24733,
    "itzerland": 9997,
    "Ġencamp": 22806,
    "Ġpencil": 11946,
    "Ġmagnificent": 9847,
    "Ġcousin": 3702,
    "Ġidiotic": 25589,
    "Ġsympt": 7014,
    "ª": 108,
    "Ġ111": 24435,
    "thr": 12764,
    "Ġdeplored": 20508,
    "swimming": 24260,
    "Ġtoilings": 24741,
    "Ġfearfully": 23513,
    "forbid": 14353,
    ",*": 17473,
    "Ġfedallah": 6110,
    "hel": 4814,
    "Ġstubbs": 23298,
    "freighted": 14894,
    "Ġundoing": 22040,
    "chants": 21696,
    "omely": 21663,
    "Ġaware": 5756,
    "Ġply": 21456,
    "Ġweeping": 11689,
    "Ã¦mon": 7096,
    "Ġpresc": 15928,
    "Ġconst": 1907,
    "Ġsuccessfully": 19432,
    "quickly": 14964,
    "Ġnothing": 1360,
    "Ġcocoan": 20319,
    "uten": 11624,
    "Ġstove": 6735,
    "temper": 10006,
    "Ġarrang": 2467,
    "Ġhenceforth": 19645,
    "Ġchoked": 9266,
    "ames": 2956,
    "Ġunfrequently": 20741,
    "Ġtex": 15474,
    "Ġmatlock": 18805,
    "arthur": 14832,
    "Ġfleetness": 20182,
    "Ġhave": 444,
    "Ġofficer": 6755,
    "Ġneskye": 21535,
    "yset": 21148,
    "Ġfundamentals": 14636,
    "Ġpeak": 16129,
    "Ġtwit": 12933,
    "Ġmile": 7152,
    "Ġdelineate": 26058,
    "Ġensuing": 12312,
    "iber": 6507,
    "ds": 4688,
    "Ġinto": 646,
    "Ġprodigy": 19795,
    "Ġtimorous": 24227,
    "Ġcaught": 3727,
    "ves": 695,
    "balance": 12009,
    "Ġaerial": 21201,
    "Ġneed": 2608,
    "Ġinsincere": 26600,
    "Ġamiss": 18512,
    "Ġlithe": 24669,
    "ĝ": 222,
    "voices": 21120,
    "writhed": 26081,
    "Ġwaggish": 25435,
    "Ġ63": 24365,
    "Ġmortally": 23920,
    "Ġvary": 15810,
    "Ġrests": 13096,
    "Ġcock": 11001,
    "Ġs": 265,
    "Ġsummers": 23876,
    "Ġpalp": 11250,
    "Ġdaft": 19666,
    "oted": 4598,
    "labour": 23918,
    "Ġsmiting": 12905,
    "orers": 14105,
    "Ġtrusting": 24105,
    "pemberley": 9622,
    "Ġconfeder": 25708,
    "Ġhangs": 11608,
    "obey": 11511,
    "Ġcomprehensive": 15090,
    "Ġperu": 14224,
    "Ġprognostics": 20561,
    "Ġnicely": 8712,
    "Ġsplinter": 23750,
    "Ġnaked": 8128,
    "alliance": 22205,
    "Ġpitching": 16612,
    "Ġtallest": 15476,
    "Ġache": 18663,
    "Ġcalmer": 23048,
    "urring": 21709,
    "Ġhogshe": 20495,
    "Ġbenevolence": 9529,
    "Ġmari": 6814,
    "iour": 4035,
    "Ġrepentance": 15163,
    "Ġirresolute": 24917,
    "Ġinspired": 2517,
    "int": 1202,
    "Ġdiscovered": 4414,
    "Ġxxv": 19720,
    "Ġconventional": 25548,
    "inces": 13830,
    "Ġworkflow": 2250,
    "Ġagile": 22518,
    "Ġimplement": 3122,
    "Ġlonging": 14301,
    "Ġhappened": 3710,
    "Ġlive": 2734,
    "Ġtink": 9150,
    "hau": 17563,
    "opy": 4460,
    "Ġreminding": 19800,
    "Ġlamp": 4111,
    "tea": 18741,
    "Ġreality": 7059,
    "Ġadm": 2403,
    "Ġborder": 10171,
    "Ġwritten": 4164,
    "harpooneers": 8693,
    "Ġinsertion": 26345,
    "to": 714,
    "Ġtelegraph": 25584,
    "Ġeuropean": 20049,
    "Ġsecure": 4912,
    "concerted": 16673,
    "Ġcontract": 18476,
    "Ġseverity": 15823,
    "Ġfootpath": 19340,
    "sentence": 2942,
    "Ġascent": 19621,
    "Ġchewing": 23288,
    "cutting": 23787,
    "Ġengineering": 3026,
    "oce": 10715,
    "Ġwing": 6668,
    "Ġconflag": 20338,
    "Ġembodied": 25847,
    "Ġacted": 7422,
    "Ġedd": 8399,
    "Ġrash": 10899,
    "Ġpluck": 15617,
    "Ġverily": 16604,
    "Ġmingled": 12380,
    "crooked": 25747,
    "Ġcheeks": 5960,
    "Ġcough": 11583,
    "Ġimaginative": 19249,
    "ė": 216,
    "Ġtones": 8402,
    "maid": 8556,
    "throt": 25660,
    "Ġcourtesy": 9947,
    "Ġparticip": 16134,
    "Ġmonths": 3453,
    "Ġrecollecting": 17113,
    "jury": 15376,
    "fen": 20852,
    "Ġpairs": 4179,
    "Ġgardiner": 3239,
    "Ġburgl": 13176,
    "ides": 2164,
    "Ġpartners": 11856,
    "Ġreferences": 21678,
    "ruff": 15900,
    "Ġhovers": 19078,
    "Ġaccord": 4024,
    "asper": 7856,
    "ĠâĢĺ_": 11118,
    "Ġsped": 22130,
    "Ġenrolled": 21942,
    "innocence": 15186,
    "fitting": 1508,
    "Ġparish": 8857,
    "Ġwield": 21293,
    "Ġordered": 5833,
    "annica": 24561,
    "olerable": 7183,
    "Ġheading": 8937,
    "awakened": 14455,
    "witted": 17708,
    "gratification": 24347,
    "slight": 10728,
    "Ġgreedy": 3055,
    "Ġbluish": 23651,
    "Ġenderby": 13654,
    "Ġheav": 1850,
    "prehensible": 12363,
    "Ġcommunications": 16357,
    "Ġthin": 4348,
    "althily": 19362,
    "Ġhindrance": 25221,
    "Ġtroubled": 6618,
    "Ġfreely": 7058,
    "pilot": 25909,
    "Ġleviathan": 3290,
    "Ġglued": 20592,
    "Ġtastes": 15479,
    "aggoo": 5130,
    "Ġpacific": 5153,
    "Ġbegging": 11081,
    "middle": 11311,
    "dening": 22785,
    "fairly": 17221,
    "======": 9835,
    "Ġ42": 16679,
    "Ġgraze": 18227,
    "apolog": 22337,
    "Ġfurnished": 6476,
    "Ġappointed": 20106,
    "Ġsunwards": 19013,
    "vedale": 22714,
    "Ġtass": 15472,
    "Ġunless": 4088,
    "Ġpatient": 6895,
    "Ġpropontis": 17467,
    "isson": 23463,
    "Ġtame": 17723,
    "Ġdiffused": 12072,
    "Ġshift": 2284,
    "Ġunsur": 22027,
    "Ġsympathies": 14863,
    "Ġrogue": 22409,
    "Ġspence": 22131,
    "Ġimpat": 4458,
    "apping": 5853,
    "Ġscrutin": 26015,
    "Ġaloft": 4303,
    "composure": 24037,
    "Ġhumour": 7933,
    "Ġpasses": 2677,
    "Ġproduct": 3531,
    "Ġagrees": 22521,
    "closed": 23158,
    "Ġmarble": 7671,
    "ippers": 17577,
    "Ġsweeter": 23921,
    "Ġeul": 21622,
    "Ġunsolved": 22038,
    "ome": 535,
    "danish": 20835,
    "Ġglass": 4370,
    "Ġbutter": 6842,
    "Ġgenius": 8047,
    "Ġwester": 25156,
    "Ġcardboard": 19982,
    "organ": 15577,
    "feeders": 25236,
    "Ġcalcul": 3635,
    "Ġdams": 16455,
    "our": 534,
    "Ġfourteen": 12012,
    "care": 4929,
    "Ġdiligently": 11406,
    "Ġsakes": 18327,
    "Ġtwice": 4662,
    "Ġartificial": 787,
    "Ġspikes": 22141,
    "isbury": 21380,
    "Ġemotion": 7692,
    "smooth": 20251,
    "Ġsands": 14950,
    "Ġbestowing": 16972,
    "osp": 6854,
    "comm": 7440,
    "Ġlo": 452,
    "affected": 10477,
    "Ġinstability": 3811,
    "exact": 7912,
    "Ġvelvet": 12401,
    "Ġmeadow": 17153,
    "Ġver": 3392,
    "erately": 21276,
    "Ġvan": 1089,
    "neighb": 16029,
    "dragging": 16610,
    "Ġvexations": 24611,
    "Ġresumed": 11815,
    "Ġunexpectedly": 19911,
    "Ġblasphe": 17409,
    "land": 1528,
    "Ġinterior": 8898,
    "Ġobtruded": 20724,
    "amusement": 15285,
    "Ġsheeted": 19834,
    "Ġunhe": 22015,
    "abound": 15743,
    "Ġjiff": 22301,
    "Ġglared": 13018,
    "Ġapproximation": 2342,
    "Ġbelt": 13007,
    ";âĢĶ": 3746,
    "isa": 17847,
    "Ġinvoking": 19147,
    "Ġtoast": 21516,
    "Ġostentatiously": 20472,
    "Ġdecanting": 22457,
    "Ġfailed": 6674,
    "brows": 17498,
    "Ġantiqu": 12148,
    "Ġassociated": 12253,
    "Ġhumbug": 18781,
    "Â": 131,
    "Ġaccelerate": 23230,
    "alogies": 25162,
    "Ġtag": 15470,
    "Ġcapacity": 10441,
    "burnt": 20083,
    "Ġcomplain": 6687,
    "suggest": 20379,
    "Ġcalms": 23047,
    "Ġfleecy": 17024,
    "Ġlouisiana": 25079,
    "Ġconcern": 2585,
    "Ġott": 13868,
    "Ġsuperior": 2751,
    "Ġeconomical": 25288,
    "finally": 9501,
    "Ġweather": 3994,
    "._]]": 5335,
    "Ġroyalty": 19738,
    "Ġfuss": 13907,
    "misfortunes": 16757,
    "describe": 1513,
    "two": 3859,
    "Ġ1839": 20463,
    "iality": 8847,
    "alive": 10828,
    "Ġceiling": 7998,
    "abond": 15744,
    "....": 11317,
    "ĠĠ": 352,
    "admon": 21765,
    "among": 6258,
    "Ġgoat": 16009,
    "Ġcomplete": 4383,
    "Ġhagger": 21495,
    "recurring": 24196,
    "Ġpauses": 14817,
    "Ġend": 1475,
    "bons": 17488,
    "Ġindulging": 16905,
    "Ġeliminating": 20623,
    "borrowed": 20794,
    "ascal": 10194,
    "rifled": 21050,
    "Ġdearest": 5457,
    "barbaric": 26360,
    "Ġreceipt": 20358,
    "blown": 25202,
    "confidential": 25877,
    "Ġsomething": 1792,
    "bedroom": 14700,
    "cost": 19189,
    "beside": 19879,
    "Ġgleam": 12311,
    "Ġskill": 6872,
    "Ġturkish": 12265,
    "Ġopulent": 23631,
    "Ġimpatience": 7510,
    "Ġmarket": 7710,
    "ivation": 3111,
    "Ġsimple": 1620,
    "iferous": 17293,
    "saving": 21062,
    "appears": 12063,
    "incidentally": 20542,
    "Ġresent": 6051,
    "Ġpronouncing": 16970,
    "confidence": 16809,
    "Ġrudder": 25110,
    "Ġsignifies": 19206,
    "Ġpewter": 17187,
    "Ġthere": 565,
    "dying": 15343,
    "Ġzodiac": 16176,
    "inct": 3293,
    "Ġcitadel": 25439,
    "fig": 8738,
    "Ġsuffer": 4722,
    "Ġcommons": 22676,
    "circumamb": 26088,
    "owder": 8450,
    "alterable": 13627,
    "lue": 8511,
    "itted": 2441,
    "proposal": 18768,
    "Ġhumaneval": 25583,
    "surprising": 16920,
    "supplemental": 25875,
    "save": 13787,
    "Ġprophecy": 25706,
    "corrupt": 14897,
    "Ġlee": 4219,
    "Ġcordage": 19681,
    "Ġmagnifying": 16321,
    "Ġpatagonian": 20537,
    "cream": 15333,
    "bpp": 20774,
    "afforded": 25866,
    "big": 13688,
    "Ġbowlines": 19324,
    "Ġum": 10213,
    "currents": 23848,
    "Ġhigher": 1819,
    "Ġhoisting": 9864,
    "Ġdined": 9178,
    "rue": 1131,
    "ouring": 6421,
    "Ġdeclared": 5594,
    "Ġinsensible": 12328,
    "ĠâĢľâĢĺ": 8506,
    "Ġninety": 13604,
    "task": 13795,
    "ĠlinnÃ¦us": 15278,
    "Ġreliable": 18778,
    "Ġflows": 13014,
    "rule": 15899,
    "ashes": 6018,
    "admirably": 24947,
    "Ġunde": 11715,
    "Ġjurymen": 16848,
    "Ġadversary": 12177,
    "Ġcongrat": 5828,
    "according": 12030,
    "Ġvect": 1226,
    "Ġvi": 1949,
    "Ġheaps": 11644,
    "aye": 3658,
    "aloft": 8810,
    "mountain": 10714,
    "Ġsensation": 6896,
    "marest": 20982,
    "lins": 2027,
    "assemblies": 25957,
    "Ġwalled": 15537,
    "ivers": 1981,
    "tick": 17679,
    "Ġcount": 1814,
    "g": 75,
    "swept": 19789,
    "Ġlistless": 16476,
    "Ġpages": 15611,
    "interval": 7992,
    "Ġthirds": 16709,
    "Ġjudging": 16596,
    "involved": 25627,
    "Ġcashier": 20201,
    "Ġdouble": 4940,
    "try": 7813,
    "Ġremoter": 20109,
    "ilar": 10217,
    "Ġquebec": 24132,
    "pinn": 21028,
    "retched": 3070,
    "fiend": 13664,
    "Ġcompetent": 11819,
    "Ġcataract": 23430,
    "Ġhotel": 8654,
    "Ġnarrowly": 16821,
    "Ġchance": 3318,
    "Ġlimped": 19183,
    "Ġinsupportable": 13934,
    "Ġinquir": 4239,
    "Ġaccurate": 13281,
    "Ġangry": 5498,
    "Ġbanqu": 12592,
    "ollen": 11299,
    "Ġwisdom": 11234,
    "brain": 13690,
    "Ġclubbed": 26547,
    "Ġfolio": 11922,
    "Ġinfinity": 23285,
    "Ġimmortal": 8019,
    "Ġpunctures": 25136,
    "Ġwhiteness": 5921,
    "Ġwhereof": 16105,
    "singular": 12192,
    "Ġmention": 2988,
    "Ġsevere": 6034,
    "Ġproudly": 19745,
    "dozen": 23381,
    "azz": 8263,
    "Ġtuck": 10142,
    "Ġunrivalled": 26520,
    "Ġeddystone": 25736,
    "Ġ5": 4935,
    "quit": 15765,
    "ieces": 4772,
    "Ġhamp": 12634,
    "Ġimitated": 18332,
    "system": 4238,
    "actions": 8909,
    "Ġcrisis": 13129,
    "atig": 13847,
    "Ġincorruption": 26310,
    "ellative": 21950,
    "brevi": 24075,
    "Ġpersuading": 19413,
    "rable": 11634,
    "rival": 12746,
    "Ġdeeps": 16114,
    "Ġmining": 22834,
    "Ġripples": 25506,
    "Ġblasphemer": 26117,
    "inclination": 20061,
    "Ġregularly": 7659,
    "personal": 24968,
    "Ġstreets": 5865,
    "Ġblush": 14403,
    "Ġtides": 13823,
    "asc": 6387,
    "Ġpilgrimage": 17310,
    "Ġobsc": 7041,
    "Ġestate": 6318,
    "Ġunfelt": 24110,
    "Ġvisual": 5741,
    "Ġambitious": 18514,
    "Ġhue": 8431,
    "¾": 127,
    "Ġsooner": 5572,
    "Ġaccused": 8510,
    "owe": 15711,
    "Ġstall": 12700,
    "quered": 11053,
    "Ġcandelabra": 26603,
    "Ġstaying": 8285,
    "Ġfavourable": 7960,
    "Ġoccupation": 9933,
    "Ġforbidden": 17078,
    "ulged": 12733,
    "apside": 22966,
    "globe": 25145,
    "«": 109,
    "Ġreligious": 25124,
    "Ġeducated": 16786,
    "Ġdecision": 2674,
    "Ġarchly": 22783,
    "Ġmuzzle": 21324,
    "Ġquestioning": 10464,
    "shazzar": 15292,
    "Ġphilosophy": 7105,
    "Ġmun": 12566,
    "Ġtort": 5904,
    "Ġcompar": 4771,
    "iogn": 20923,
    "backs": 9393,
    "Ġchiswick": 25561,
    "Ġtrees": 4200,
    "Ġocc": 886,
    "Ġglance": 4229,
    "Ġbleak": 10560,
    "Ġhorseman": 19610,
    "Ġbloodshot": 23802,
    "repro": 10771,
    "abri": 6684,
    "ù": 186,
    "Ġperformed": 8549,
    "Ġfarther": 5957,
    "Ġbirds": 5875,
    "earnest": 12402,
    "Ġtertiary": 15297,
    "Ġunceasingly": 20362,
    "epilogue": 22105,
    "ckery": 22100,
    "Ġhunter": 5401,
    "Ġloc": 10915,
    "iom": 20917,
    "Ġresol": 2663,
    "Ġelapsed": 7654,
    "something": 4284,
    "der": 468,
    "Ġepo": 21623,
    "Ġtierce": 15480,
    "reinforcement": 7827,
    "Ġharshly": 25250,
    "Ġrider": 24187,
    "),": 1346,
    "Ġretains": 20033,
    "Ġpalmy": 19502,
    "Ġinconvenient": 20013,
    "ially": 9249,
    "Ġquadruped": 20618,
    "Ġjollies": 20373,
    "snap": 24849,
    "Ġcentrally": 23835,
    "Ġemac": 16408,
    "will": 1965,
    "Ġirreparable": 20002,
    "Ġblo": 2733,
    "Ġconsort": 18725,
    "Ġunhappily": 18263,
    "Ġspark": 6691,
    "wl": 17703,
    "Ġnot": 413,
    "comparatively": 25841,
    "Ġrueful": 25582,
    "Ġdanced": 7843,
    "bbed": 6910,
    "igns": 8449,
    "Ġig": 3498,
    "announce": 24560,
    "stand": 629,
    "Ġmilitary": 11258,
    "Ġscrews": 25178,
    "Ġswinging": 7449,
    "Ġpracticable": 19036,
    "Ġdirector": 18922,
    "Ġsl": 1496,
    "kl": 4865,
    "Ġpostponed": 20393,
    "Ġphiladel": 23888,
    "Ġmemories": 14557,
    "Ġdictionary": 15115,
    "avish": 22602,
    ")(": 2983,
    "lucky": 24544,
    "Ġcelestial": 10069,
    "Ġesq": 15111,
    "Ġqualifications": 24676,
    "omen": 4083,
    "enderby": 25216,
    "Ġsupposed": 4559,
    "Ġgrievances": 20650,
    "Ġbarque": 23793,
    "Ġreiter": 21670,
    "----": 4055,
    "Ġgleams": 17312,
    "Ġ121": 24465,
    "Ġunctuous": 10268,
    "Ġjollity": 25567,
    "reach": 17758,
    "Ġinwards": 15624,
    "Ġskipper": 22803,
    "Ġcomplaisance": 19452,
    "Ġchased": 8864,
    "Ġstatement": 5255,
    "ä": 165,
    "bus": 5355,
    "Ġfle": 3093,
    "aust": 15312,
    "Ġofficio": 23819,
    "unity": 4148,
    "Ġalcoves": 26487,
    "insult": 16282,
    "Ġtravel": 5955,
    "Ġwooded": 23521,
    "capable": 13704,
    "Ġburying": 19254,
    "Ġseizing": 7881,
    "mund": 13760,
    "Ġanalogical": 25641,
    "Ġtowards": 1730,
    "makes": 10712,
    "Ġbraces": 14671,
    "atics": 15525,
    "Ġautonomous": 10677,
    "alt": 12642,
    "vil": 2731,
    "hence": 16626,
    "tri": 11531,
    "Ġgilder": 21617,
    "hundred": 8332,
    "ocratic": 17246,
    "inn": 5364,
    "Ġmol": 12565,
    "Ġquarrels": 16568,
    "beth": 13691,
    "reliable": 21243,
    "heartedness": 24825,
    "haw": 6363,
    "Ġconsequent": 18113,
    "Ġaustralia": 15235,
    "Ġsingular": 4425,
    "ĠĠĠĠĠĠĠĠĠĠĠĠĠĠĠĠĠĠĠĠĠĠĠĠĠĠĠĠĠĠĠĠĠĠ": 14614,
    "Ġmisunderstood": 18706,
    "nez": 22461,
    "Ġpatron": 7464,
    "mme": 22507,
    "Ġdedication": 3088,
    "]": 65,
    "king": 3061,
    "rope": 3188,
    "Ġharriet": 24572,
    "conclusions": 25672,
    "Ġtak": 15471,
    "humor": 19455,
    "_.": 2215,
    "Ġopera": 23428,
    "Ġwell": 901,
    "Ġtart": 12532,
    "venison": 22630,
    "Ġexcellence": 11452,
    "dreams": 12340,
    "Ġconsequ": 6256,
    "Ġbashee": 19851,
    "Ġhavoc": 15816,
    "effectually": 25131,
    "Ġseap": 15820,
    "yonder": 21147,
    "impregnable": 26482,
    "Ġfetched": 24567,
    "Ġtrop": 7566,
    "Ġinches": 5846,
    "rosings": 15647,
    "Ġapprove": 12877,
    "conceive": 16032,
    "Ġcourage": 4634,
    "action": 3723,
    "Ġpoorly": 9857,
    "Ġsinned": 18953,
    "Ġpens": 21463,
    "Ġrecords": 12199,
    "Ġdiddled": 22671,
    "Ġenjoy": 3757,
    "Ġmusty": 22684,
    "ford": 2823,
    "Ġcrocodile": 20742,
    "Ġindulge": 10584,
    "Ġunanswerable": 26522,
    "Ġstructured": 2975,
    "Ġromantic": 8032,
    "Ġmerits": 13197,
    "Ġconfederate": 17355,
    "etts": 12664,
    "Ġmemorand": 23461,
    "Ġclearer": 16314,
    "Ġabrid": 22277,
    "Ġrigging": 5600,
    "Ġaltar": 9230,
    "Ġsqueaking": 26276,
    "Ġproduce": 4368,
    "Ġbusks": 23343,
    "Ġmore": 677,
    "Ġcontinuing": 14399,
    "Ġbunger": 9998,
    "etch": 9206,
    "alous": 7372,
    "handled": 19263,
    "Ġwaylaid": 22879,
    "Ġwhispers": 14702,
    "violets": 23544,
    "motion": 17607,
    "Ġchat": 6562,
    "cl": 1493,
    "disgu": 19157,
    "Ġforemast": 12008,
    "Ġaccompanying": 11305,
    "paused": 17376,
    "angered": 16181,
    "Ġsitting": 3602,
    "front": 12174,
    "inted": 2648,
    "oqu": 7556,
    "elius": 13291,
    "Ġdiscoverer": 26036,
    "promised": 12255,
    "Ġascertaining": 17205,
    "Ġunobserved": 18250,
    "icken": 6713,
    "Ġloosened": 26003,
    "wealth": 22692,
    "udg": 22756,
    "nants": 17614,
    "Ġclimes": 12847,
    "kindness": 10507,
    "member": 20977,
    "embraced": 25805,
    "Ġexploration": 2337,
    "Ġdamning": 19141,
    "Ġcunning": 6240,
    "ĠĠĠĠĠĠĠĠĠĠĠĠĠĠĠĠĠĠĠĠĠĠĠĠĠĠĠĠĠĠĠĠĠĠĠĠĠĠĠĠĠĠ": 24211,
    "Ġsurrounded": 5881,
    "Ã¦st": 24177,
    "Ġconsecut": 18114,
    "warm": 8103,
    "clearly": 25196,
    "Ġacqu": 1416,
    "Ġthese": 820,
    "terday": 4705,
    "Ġfilters": 3925,
    "Ġlately": 6388,
    "Ġbilliard": 16689,
    "Ġcroquet": 9964,
    "omination": 21666,
    "bott": 9108,
    "Ġcounter": 6482,
    "othed": 16512,
    "Ġparlour": 12324,
    "Ġintelligences": 12834,
    "Ġevangelists": 20342,
    "Ġpersonality": 16477,
    "Ġevil": 3804,
    "teenth": 11877,
    "Ġextend": 18700,
    "Ġninetieth": 25358,
    "aired": 8370,
    "Ġdepend": 774,
    "thole": 21991,
    "Ġimplicated": 24876,
    "Ġromish": 19587,
    "Ġdaresay": 14706,
    "wondering": 19847,
    "protested": 13477,
    "Ġsets": 8778,
    "Ġcasks": 7522,
    "ricade": 13043,
    "Ġmoby": 3663,
    "Ġsettee": 22925,
    "Ġabaft": 22279,
    "Ġasse": 8161,
    "Ġpauper": 26180,
    "street": 6496,
    "ten": 1555,
    "jour": 20929,
    "Ġineff": 12638,
    "Ġindividually": 22963,
    "suited": 22650,
    "overed": 2855,
    "Ġ48": 24082,
    "ĠĠĠĠĠĠĠĠĠĠĠĠĠĠĠĠĠĠĠĠĠĠĠĠĠĠĠĠĠĠĠĠ": 2737,
    "Ġperiodically": 19497,
    "Ġfoolish": 5982,
    "Ġvoluntarily": 12144,
    "Ġrevealing": 3922,
    "withstanding": 8947,
    "Ġunwaning": 24830,
    "forgotten": 12419,
    "Ġwhims": 12696,
    "braid": 17496,
    "lar": 4485,
    "°": 113,
    "Ġclank": 15973,
    "Ġafghan": 22633,
    "Ġpier": 7163,
    "veil": 18048,
    "matical": 13131,
    "ı": 242,
    "Ġinterrupt": 4360,
    "Ġfor": 340,
    "Ġcheek": 8581,
    "Ġcommands": 16590,
    "Ġridiculous": 10631,
    "Ġcomfort": 3437,
    "bank": 10081,
    "Ġmaxim": 3086,
    "Ġgravel": 14104,
    "ars": 907,
    "aths": 22705,
    "Ġunion": 6839,
    "Ġworkman": 16259,
    "Ġhelm": 5276,
    "Ġteasing": 11890,
    "Ġinexper": 16981,
    "ours": 3426,
    "unforeseen": 21893,
    "ioneer": 15635,
    "ortal": 6267,
    "devoted": 20020,
    "attent": 9361,
    "Ġvisions": 12980,
    "acknowledge": 18472,
    "Ġprank": 23222,
    "Ġoutdone": 22323,
    "Ġ-": 1942,
    "peleg": 16296,
    "erval": 4018,
    "Ġvirtue": 4922,
    "Ġstaggers": 24654,
    "Ġvoracity": 25987,
    "Ġexpected": 3694,
    "Ġknee": 7095,
    "Ġinsure": 13181,
    "Ġexterm": 21835,
    "Ĉ": 201,
    "å": 166,
    "Ġoppressive": 20458,
    "Ġdeepest": 8214,
    "Ġverse": 16603,
    "Ġlegs": 4916,
    "Ġstum": 21736,
    "overhearing": 19052,
    "slide": 24555,
    "Ġshavings": 14112,
    "respective": 19848,
    "Ġfoliage": 18869,
    "Ġslipping": 13364,
    "_--": 20764,
    "bonnet": 25743,
    "mentioned": 10625,
    "Ġbracing": 16582,
    "Ġdecent": 10983,
    "Ġre": 317,
    "Ġinjure": 16782,
    "Ġeloped": 22647,
    "acet": 5474,
    "hit": 20891,
    "Ġmodesty": 12821,
    "Ġprojected": 16870,
    "may": 3677,
    "Ġextinguished": 10347,
    "Ġsymp": 4504,
    "bestowed": 12229,
    "Ġhomage": 12358,
    "sue": 2077,
    "Ġslice": 23164,
    "Ġglittering": 10055,
    "ass": 539,
    "yder": 10140,
    "Ġyork": 11667,
    "Ġspade": 9261,
    "atiously": 15524,
    "Ġobstacle": 16956,
    "Ġmerchants": 23736,
    "Ġstam": 18068,
    "Ġpubl": 3937,
    "embraces": 25804,
    "Ġ101": 24408,
    "Ġintently": 8170,
    "Ġapplications": 4783,
    "Ġsickened": 16776,
    "Ġrefusal": 10343,
    "Ġsquared": 1384,
    "Ġpreparations": 12313,
    "Ġgipsies": 12411,
    "games": 20882,
    "Ġvillages": 14751,
    "Ġcomposedly": 25186,
    "your": 1982,
    "Ġopposition": 16521,
    "dropping": 14984,
    "Ġcalled": 1969,
    "coll": 23782,
    "cloud": 11106,
    "otle": 21802,
    "Ġcoal": 18597,
    "Ġarticulate": 24431,
    "attempted": 20177,
    "including": 23592,
    "Ġgrasp": 4664,
    "Ġunspeakably": 25173,
    "mixed": 17606,
    "Ġath": 15804,
    "birds": 15147,
    "ructive": 18545,
    "leaning": 10791,
    "amore": 21848,
    "tolerably": 21098,
    "Ġli": 602,
    "Ġdiabolism": 25515,
    "Ġflank": 8230,
    "Ġenticements": 26035,
    "Ġunrecorded": 17469,
    "discern": 14853,
    "Ġlittle": 867,
    "fif": 9118,
    "V": 58,
    "Ġgamesome": 17291,
    "shortened": 24747,
    "irra": 15788,
    "Ġpang": 15608,
    "Ġbreaking": 6312,
    "Ġkramm": 26235,
    "added": 11661,
    "Ġsimilar": 4917,
    "Ġrhine": 12359,
    "wling": 11546,
    "Ġdiversion": 17199,
    "Ġsoftmax": 1689,
    "pronounced": 12349,
    "desired": 9007,
    "Ġtremendous": 8354,
    "reposed": 24491,
    "Ġ1807": 26084,
    "namely": 23704,
    "Ġindicated": 10470,
    "Ġpyramid": 8805,
    "intelligent": 16845,
    "damn": 20027,
    "Ġoust": 21327,
    "icorn": 15660,
    "illes": 12698,
    "Ġdab": 15591,
    "buncle": 13695,
    "Ġcleaned": 23187,
    "ron": 5216,
    "ripp": 6405,
    "dial": 20827,
    "Ġrob": 1252,
    "Ġstrife": 18615,
    "voyage": 7787,
    "Ġsecondary": 23337,
    "appro": 7046,
    "Ġhunting": 7259,
    "steam": 23963,
    "Ġpled": 17907,
    "accomplishments": 25327,
    "imental": 16533,
    "Ġtype": 2019,
    "Ġcommentaries": 20163,
    "Ġlawyer": 10670,
    "dep": 6787,
    "Ġyarn": 10869,
    "Ġ108": 19687,
    "gryphon": 15361,
    "hooked": 23719,
    "star": 12675,
    "Ġrevolutionized": 3366,
    "pertaining": 22193,
    "Ġperpendicularly": 11375,
    "irresist": 21917,
    "fins": 13721,
    "Ġaugment": 8695,
    "bres": 11472,
    "Ġfrench": 4939,
    "henomenon": 13617,
    "Ġunseason": 22057,
    "Ġchurch": 4711,
    "Ġnetworks": 598,
    "Ġimprudence": 10299,
    "Ġmedicine": 15209,
    "Ġrevenge": 5452,
    "standers": 18480,
    "Ġincommun": 25309,
    "Ġrestoration": 19025,
    "tisement": 6768,
    "wled": 15456,
    "Ġclasp": 9747,
    "itatingly": 25278,
    "Ġskip": 1843,
    "Ġticking": 25036,
    "Ġknitted": 19592,
    "Ġhorribly": 16345,
    "Ġaunts": 21203,
    "complained": 25840,
    "Ġgraces": 18226,
    "tipt": 25086,
    "eling": 6683,
    "Ġquaker": 10972,
    "Ġqualified": 14952,
    "longer": 8616,
    "favourable": 12267,
    "Ġwarehouses": 20421,
    "early": 20122,
    "Ġsacrifice": 9557,
    "loaded": 22517,
    "lin": 9605,
    "Ġende": 21937,
    "Ġlifelessly": 23055,
    "Ġwelded": 9573,
    "Ġpenetrated": 13475,
    "Ġcontempl": 6703,
    "Ġleakage": 23460,
    "Ġaffording": 14823,
    "Ġwr": 1543,
    "Ġplying": 17914,
    "Ġcaw": 13885,
    "Ġgangway": 20161,
    "Ġeither": 2604,
    "Ġhoney": 12636,
    "oology": 21008,
    "Ġdeserves": 13293,
    "Ġoversampling": 20519,
    "withdrawn": 23034,
    "meant": 7923,
    "door": 6195,
    "vels": 5432,
    "77": 15303,
    "Ġhugest": 17016,
    "odecimo": 11445,
    "Ġscanning": 18401,
    "ited": 1749,
    "walk": 5523,
    "Ġhearken": 21689,
    "ator": 1920,
    "Ġsplendidly": 25328,
    "dick": 11480,
    "tee": 16174,
    "hurried": 11354,
    "Ġperse": 6274,
    "Ġsteak": 9831,
    "chester": 23809,
    "Ġpupils": 20424,
    "¹": 122,
    "Ġcarter": 18902,
    "barbar": 20241,
    "Ġcuts": 14608,
    "Ġ127": 24471,
    "Ġunderstanding": 1836,
    "told": 7812,
    "Ġarmchair": 8272,
    "lass": 5995,
    "Ġtwelfth": 22682,
    "Ġcolonial": 22858,
    "Ġfishy": 16524,
    "Ġberm": 21386,
    "Ġsurpass": 13586,
    "Ġuncertain": 4065,
    "isk": 9169,
    "Ġtints": 17728,
    "Ġcasts": 19429,
    "Ġerected": 12237,
    "scy": 21058,
    "snow": 10725,
    "Ġpitched": 9446,
    "Ġfly": 3868,
    "ners": 3272,
    "flow": 2099,
    "onness": 21257,
    "aven": 8211,
    "staring": 18020,
    "Ġassid": 18947,
    "Ġfurthest": 22819,
    "harpoons": 24286,
    "sense": 11525,
    "Ġelud": 22645,
    "Ġinconvenience": 9565,
    "Ġjetted": 24430,
    "Ġseptember": 18208,
    "last": 3801,
    "Ġretain": 7865,
    "Ġrenow": 18030,
    "declared": 15121,
    "Ġhere": 1090,
    "Ġrebell": 21673,
    "sail": 3600,
    "scar": 9818,
    "Ġk": 485,
    "ipp": 10104,
    "Ġrespecting": 14485,
    "Ġages": 7029,
    "aintance": 3566,
    "Ġobjective": 3762,
    "Ġprofessors": 14727,
    "Ġsable": 15502,
    "later": 20955,
    "yd": 21145,
    "Ġthro": 5818,
    "Ġcourting": 23294,
    "--âĢľ": 12976,
    "Ġhaving": 1878,
    "Ġcomforter": 20510,
    "Ġabreast": 18395,
    "rians": 21935,
    "Ġwelfare": 12563,
    "acted": 11011,
    "itance": 13870,
    "Ġtechnique": 2148,
    "Ġphenomena": 21487,
    "Ġsed": 10762,
    "hyme": 19612,
    "attachment": 13056,
    "barrel": 17061,
    "Ġpredicts": 2595,
    "Ġemerging": 24614,
    "Ġcolumns": 14377,
    "Ġhanged": 17927,
    "Ġbacks": 8532,
    "Ġhertfordshire": 5377,
    "itig": 1331,
    "Ġcurve": 22989,
    "repairing": 24494,
    "Ġbare": 6134,
    "riors": 18188,
    "Ġrubber": 22791,
    "Ġexerc": 6834,
    "engines": 18930,
    "Ġbut": 424,
    "Ġslumbers": 18944,
    "presbyter": 20621,
    "stupid": 12679,
    "Ġsad": 3866,
    "Ġexamined": 6336,
    "expectant": 24277,
    "Ġmum": 13860,
    "Ġindustry": 18840,
    "Ġsweetest": 13250,
    "Ġexpanding": 25239,
    "Ġhistories": 14688,
    "Ġexperience": 1362,
    "Ġreaches": 18034,
    "Ġsalesman": 13671,
    "Ġtrades": 8233,
    "Ġopposed": 11189,
    "Ġfewer": 16218,
    "hement": 13834,
    "Ġbomb": 17869,
    "iem": 20919,
    "Ġcelest": 9903,
    "Ġaffirm": 11892,
    "Ġcleans": 18950,
    "results": 20390,
    "Ġexquisitely": 20205,
    "Ġcommodore": 12398,
    "mission": 5972,
    "Ġsuggested": 8322,
    "daw": 17523,
    "Ġknees": 6928,
    "ĠĠĠĠĠĠĠĠĠĠĠĠĠĠĠĠĠĠĠĠĠĠĠĠĠĠĠĠĠĠĠĠĠĠĠĠĠĠĠĠĠĠĠĠĠĠĠĠ": 7990,
    "Ġmagnitude": 1941,
    "Ġcoward": 7156,
    "Ġfreshly": 23990,
    "Ġpretence": 13210,
    "numer": 15401,
    "torture": 26152,
    ").âĢĿ": 20743,
    "scythes": 26403,
    "Ġaromatic": 25926,
    "Ġwere": 555,
    "opatra": 22482,
    "match": 15393,
    "oting": 2743,
    "Ġhatches": 12048,
    "Ġslee": 8976,
    "dimens": 2317,
    "representation": 20199,
    "Ġcannib": 6038,
    "Ġtrunk": 7206,
    "hours": 9126,
    "fashion": 8082,
    "figure": 13558,
    "Ġliterally": 15119,
    "Ġclinch": 18431,
    "Ġhulls": 13928,
    "ominy": 13984,
    "Ġconjured": 25102,
    "dischar": 19155,
    "Ġdetaining": 25819,
    "Ġdangerously": 23940,
    "Ġdrank": 16536,
    "r": 86,
    "Ġresource": 10994,
    "Ġcounty": 9032,
    "Ġlim": 2381,
    "Ġbeheld": 4494,
    "chant": 4257,
    "Ġshifted": 14109,
    "Ġwallowing": 24046,
    "seamen": 13629,
    "Ġconsists": 11980,
    "oin": 17618,
    "Ġharry": 24571,
    "hunting": 24384,
    "Ġseventy": 7882,
    "Ġliquid": 22414,
    "ores": 2413,
    "good": 2903,
    "Ġost": 9651,
    "leag": 21369,
    "Ġambiguous": 20167,
    "Ġclock": 9535,
    "Ġbeams": 14632,
    "contemplated": 20461,
    "Ġinsatiable": 19274,
    "Ġsurrounds": 24233,
    "call": 8726,
    "ableness": 8150,
    "tha": 15826,
    "conject": 8883,
    "Ġkilled": 4955,
    "Ġcommunicative": 24547,
    "Ġclubb": 22363,
    "Ġwhose": 2008,
    "Ġtablets": 13158,
    "Ġconstantly": 11975,
    "Ġderanged": 23178,
    "Ġunlabeled": 3798,
    "makers": 20984,
    "Ġpanel": 13375,
    "past": 8091,
    "Ġautoregressive": 3430,
    "orable": 8121,
    "ppa": 10241,
    "Ġbo": 795,
    "Ġimposed": 14217,
    "Ġ550": 19639,
    "Ġsta": 18065,
    "Ġdews": 21843,
    "Ġadvert": 10573,
    "Ġking": 2305,
    "vill": 10736,
    "Ġenjoyed": 8009,
    "mare": 17600,
    "Ġdro": 2770,
    "Ġperception": 9752,
    "fork": 20859,
    "Ġberths": 20118,
    "clean": 14763,
    "Ġinquire": 7721,
    "thes": 7391,
    "Ġwinter": 5220,
    "dles": 11482,
    "Ġshoulder": 5849,
    "Ġobscure": 9556,
    "ude": 7563,
    "Ġmere": 2713,
    "Ġtranspired": 16785,
    "Ġsevered": 18206,
    "c": 71,
    "Ġventing": 19496,
    "Ġgr": 976,
    "Ġoppressively": 25711,
    "Ġminutest": 14561,
    "doing": 8588,
    "Ġcontemplation": 11358,
    "Ġextra": 4053,
    "pole": 9335,
    "Ġbenefactor": 14699,
    "indust": 18436,
    "infant": 19830,
    "Ġ": 225,
    "spread": 8390,
    ";âĢĻ": 15305,
    "Ġtreading": 16505,
    "Ġreveal": 11201,
    "experienced": 15124,
    "Ġvisited": 5950,
    "assured": 10953,
    "intense": 22940,
    "Ġsneering": 24696,
    "Ġwails": 21299,
    "poises": 11894,
    "Ġfretfully": 25448,
    "Ġfountain": 7365,
    "Ġmamma": 10050,
    "Ġcabal": 23644,
    "Ġkeys": 11999,
    "Ġerection": 24004,
    "Ġwo": 3649,
    "ario": 14249,
    "monster": 8595,
    "Ġpains": 5967,
    "Ġfrigid": 17354,
    "Ġanon": 9668,
    "gunpowder": 25340,
    "tables": 19760,
    "Ġmorality": 22977,
    "Ġtruthful": 23870,
    "Ġelastic": 4362,
    "Ġpower": 1199,
    "Ġaccomp": 4713,
    "allies": 14167,
    "Ġaffrighted": 13575,
    "Ġfam": 1586,
    "Ġperseus": 10605,
    "Ġscope": 15947,
    "diligence": 26111,
    "Ġfolded": 7769,
    "Ġargosy": 24275,
    "Ġpallor": 13518,
    "Ġsongs": 13423,
    "Ġaudacious": 13463,
    "Ġgarnery": 17389,
    "Ġscrewing": 20211,
    "Ġnervous": 2405,
    "Ġnoble": 3438,
    "expose": 23663,
    "Ġcontentment": 14872,
    "barn": 17484,
    "ates": 518,
    "Ġstiffest": 24827,
    "Ġherb": 15859,
    "Ġnarrative": 6217,
    "ements": 11108,
    "igen": 4830,
    "Ġstartling": 14672,
    "uncle": 8160,
    "orte": 14186,
    "Ġoccurrences": 11051,
    "Ġlewis": 15728,
    "Ġdelivery": 18976,
    "Ġxxi": 24475,
    "reng": 4000,
    "Ġbelie": 14411,
    "Ġcatholic": 20684,
    "sway": 15426,
    "Ġruddy": 17127,
    "together": 3553,
    "reflected": 24732,
    "Ġgreas": 17994,
    "steep": 19422,
    "Ġgratifying": 13309,
    "Ġeclipsed": 26378,
    "Ġsquares": 11170,
    "88": 20760,
    "Ġuninhabited": 22056,
    "arpo": 1754,
    "Ġcontingency": 26246,
    "Ġenduring": 16304,
    "Ġaltered": 7393,
    "Ġhackluyt": 25656,
    "Ġtremor": 24767,
    "Ġgrego": 18963,
    "Ġneighbors": 25807,
    "Ġploughed": 22612,
    "face": 3675,
    "Ġtalent": 12300,
    "gossip": 23407,
    "Ġentries": 22743,
    "ington": 21304,
    "wake": 11547,
    "Ġcringing": 25942,
    "Ġpropos": 7064,
    "Ġunnecessary": 8854,
    "Ġdefined": 11902,
    "endure": 22226,
    "Ġlimber": 16479,
    "Ġphrenolog": 12337,
    "vari": 1515,
    "istol": 6261,
    "Ġbolivia": 24668,
    "Ġsurvive": 9069,
    "tall": 17674,
    "2": 22,
    "$": 8,
    "za": 13812,
    "onds": 12998,
    "Ġincessantly": 11412,
    "arris": 13212,
    "described": 18896,
    "can": 1233,
    "Ġrabbit": 4288,
    "Ġreluct": 14373,
    "effect": 8607,
    "Ġnook": 15931,
    "pread": 7418,
    "Ġintact": 21994,
    "Ġjug": 12839,
    "Ġneedless": 19232,
    "Ġdisadvantage": 12894,
    "exertion": 16019,
    "andering": 21872,
    "Ġmake": 1282,
    "Ġdetested": 14176,
    "Ġbeds": 14553,
    "Ġintelligence": 561,
    "intimate": 22941,
    "Ġgestic": 21612,
    "Ġembarked": 17136,
    "Ġglorious": 11077,
    "rect": 1599,
    "Ġobvious": 4964,
    "Ġblessing": 11264,
    "severe": 21824,
    "Ġsailing": 5324,
    "Ġcleat": 18949,
    "Ġhieroglyph": 11973,
    "Ġintru": 15830,
    "Ġseparate": 5778,
    "dislike": 23496,
    "Ġamount": 8514,
    "opÃ¦": 12876,
    "Ġfall": 2989,
    "Ġcursed": 6729,
    "youth": 11878,
    "Ġcant": 17826,
    "Ġcomfor": 14056,
    "una": 21874,
    "ificent": 8185,
    "slow": 7811,
    "carbuncle": 26383,
    "stamp": 21652,
    "odiac": 14030,
    "Ġexplain": 545,
    "Ġphysical": 7523,
    "Ġbale": 7839,
    "Ġaffection": 2639,
    "Ġdirectors": 18923,
    "Ġdeserts": 10509,
    "isions": 6132,
    "poise": 6173,
    "Ġinitials": 11014,
    "reserve": 17766,
    "Ġprospect": 4706,
    "Ġends": 8239,
    "Ġstyle": 6946,
    "Ġnotion": 7884,
    "Ġbon": 8789,
    "absurd": 21800,
    "Ġpreventing": 883,
    "Ġcompiled": 22578,
    "Ġsenior": 17173,
    "Ġpossibilities": 18977,
    "Ġbene": 2033,
    "acting": 22634,
    "Ġemploying": 23981,
    "Ġpatagon": 14507,
    "Ġheap": 12682,
    "amount": 10885,
    "Ġmax": 2006,
    "ily": 1032,
    "cious": 6646,
    ",âĢĿ": 579,
    "Ġlargely": 14287,
    "falgar": 26131,
    "Ġsnaky": 23745,
    "bee": 16040,
    "Ġir": 1991,
    "Ġsoliloqu": 11888,
    "Ġregions": 10326,
    "Ġhammers": 13244,
    "Ġcomical": 11680,
    "Ġtreacle": 14596,
    "Ġembellished": 25849,
    "sip": 10726,
    "nuee": 17432,
    "Ġanswer": 2599,
    "increase": 20271,
    "Ġtenderness": 12219,
    "intu": 22937,
    "Ġwhelm": 25999,
    "Ġwish": 2101,
    "Ġimbec": 14158,
    "Ġvalidation": 2357,
    "Ġcentre": 5122,
    "anxiety": 25159,
    "Ġderick": 9366,
    "buttons": 22406,
    "ired": 1446,
    "intending": 22939,
    "manned": 18764,
    "lowering": 16031,
    "Ġimpulsive": 19966,
    "ounded": 9750,
    "Ġdecember": 15008,
    "Ġunfathomably": 25874,
    "Ġethiop": 26156,
    "cating": 20804,
    "Ġremote": 8922,
    "uzzle": 19586,
    "Ġrattle": 10900,
    "erde": 21271,
    "Ġstab": 10863,
    "privilege": 25264,
    "rosc": 17957,
    "Ġhorner": 8960,
    ".âĢĶâĢľ": 20749,
    "foreign": 18544,
    "wound": 21129,
    "are": 638,
    "Ġbesides": 3511,
    "Ġheard": 1399,
    "Ġphrenologists": 25609,
    "Ġwhite": 1536,
    "Ġflapped": 23017,
    "ething": 1602,
    "Ġgratitude": 5598,
    "Ġrigger": 19533,
    "Ġprospects": 9961,
    "Ġgoose": 5940,
    "untary": 9869,
    "Ġtradeoff": 2656,
    "itz": 6008,
    "Ġwidows": 24238,
    "Ġ125": 24469,
    "rael": 21633,
    "rose": 6016,
    "Ġuniversally": 12002,
    "Ġindians": 14414,
    "Ġceased": 6469,
    "Ġplanks": 5563,
    "Ġaffliction": 25846,
    "Ġrobe": 18457,
    "Ġemerg": 13427,
    "Ġlaugh": 4110,
    "Ġconstitutes": 13555,
    "lev": 1237,
    "flutterings": 26607,
    "Ġaval": 15495,
    "Ġconducting": 16651,
    "Ġunce": 11714,
    "Ġbasket": 9574,
    "liking": 22928,
    "Ġinflamed": 13476,
    "aton": 21261,
    "ca": 20795,
    "Ġlucerne": 23867,
    "Ġmurdered": 6465,
    "adventure": 17235,
    "Ġone": 569,
    "Ġcope": 17832,
    "prejudiced": 17299,
    "Ġbully": 23859,
    "Ġduchess": 4799,
    "Ġcorrob": 16269,
    "itudes": 3016,
    "bol": 8721,
    "cules": 12394,
    "Ġcurb": 16244,
    "Ġconstruction": 9387,
    "Ġindependent": 9018,
    "Ġbast": 21382,
    "springing": 24890,
    "Ġhier": 1892,
    "Ġdeb": 4764,
    "Ġlead": 3520,
    "Ġsa": 474,
    "Ġamazement": 7766,
    "remote": 23194,
    "disgrace": 16459,
    "athed": 7829,
    "Ġloo": 22115,
    "Ġlengths": 19208,
    "whatsoever": 18492,
    "Ġpattered": 19033,
    "Ġ199": 3011,
    "Ġclaws": 15975,
    "brushing": 20790,
    "Ġappo": 8501,
    "computer": 2035,
    "Ġgriff": 22810,
    "Ġwilful": 10536,
    "fac": 17542,
    "sticks": 25965,
    "Ġprefers": 20517,
    "Ġsuspicious": 9482,
    "drawn": 9915,
    "Ġremot": 8546,
    "Ġfamil": 4321,
    "Ġimpelled": 11785,
    "uvian": 12246,
    "Ġmeanwhile": 5736,
    "Ġstiffness": 24828,
    "Ġbakers": 17868,
    "Ġkeeping": 7283,
    "Ġintroduction": 8972,
    "eneva": 5118,
    "ippi": 20247,
    "Ġlikeness": 11180,
    "Ġalways": 1698,
    "âĢĻ-": 18169,
    "Ġgrowing": 6752,
    "nue": 15399,
    "Ġloathed": 15878,
    "Ġ16": 7928,
    "Ġdeaths": 14538,
    "Ġundiscernible": 22073,
    "Ġsensitive": 13200,
    "these": 3242,
    "Ġsubstantial": 14812,
    "obed": 14448,
    "Ġwandering": 8657,
    "indirectly": 18438,
    "riptions": 14797,
    "Ġfatally": 19397,
    "B": 38,
    "Ġelias": 18634,
    "Ġcelebrate": 26359,
    "Ġpump": 12625,
    "lished": 8384,
    "Ġcopestone": 24939,
    "icest": 21568,
    "Ġresume": 18566,
    "Ġexists": 14044,
    "Ġunrival": 22052,
    "age": 504,
    "benevolent": 15236,
    "Ġeternity": 12282,
    "Ġbadly": 12135,
    "Ġbree": 5012,
    "Ġcap": 2362,
    "Ġshar": 9252,
    "Ġwarp": 8114,
    "sorting": 17005,
    "ription": 5676,
    "Ġshilling": 18229,
    "Ġcontemptuously": 19836,
    "Ġscent": 10287,
    "disapprobation": 19159,
    "inated": 6805,
    "Ġocean": 3304,
    "Ġcaptains": 7457,
    "wherein": 19109,
    "Ġbillow": 14783,
    "leaves": 12582,
    "Ġtrophy": 20010,
    "Ġcoburg": 18601,
    "Ġimitate": 14159,
    "Ġmood": 6278,
    "Ġadver": 5641,
    "anzas": 17842,
    "Ġdistantly": 18535,
    "coronet": 16864,
    "Ġredoubled": 23756,
    "lane": 10707,
    "Ġslew": 23386,
    "Ġopening": 5045,
    "odecimoes": 25319,
    "Ġsqu": 1037,
    "Ġarabic": 24983,
    "vii": 13151,
    "Ġbegat": 18865,
    "pregn": 18497,
    "Ġuncivilized": 25499,
    "descried": 11932,
    "Ġforces": 12706,
    "Ġobsolete": 26559,
    "Ġkindness": 4094,
    "ashed": 3782,
    "Ġswing": 13041,
    "Ġwantonly": 22899,
    "mael": 6725,
    "Ġemig": 14524,
    "Ġsight": 2114,
    "Ġcharacteristics": 8613,
    "Ġcoroner": 7511,
    "Ġpalpitated": 26086,
    "Ġhummed": 18779,
    "stop": 11636,
    "begging": 22502,
    "Ġicebergs": 23978,
    "Ġweighted": 2090,
    "Ġclothe": 4712,
    "Ġfrosted": 19806,
    "fore": 686,
    "designated": 26320,
    "Ġgunwales": 12244,
    "asht": 4081,
    "Ġparagraph": 17456,
    "Ġversion": 10632,
    "Ġcongregation": 12332,
    "Ġlaug": 3625,
    "Ġbitterly": 8316,
    "idirectional": 2422,
    "Ġloaf": 15875,
    "Ġimmort": 19487,
    "poison": 14395,
    "Ġgiver": 21609,
    "Ġboister": 12923,
    "introdu": 8939,
    "Ġboards": 14302,
    "Ġcrotch": 9965,
    "Ġpassenger": 14371,
    "Ġhereford": 22883,
    "Ġsweep": 8267,
    "Ġmounttop": 19981,
    "bye": 5952,
    "Ġunw": 7005,
    "Ġsaves": 18325,
    "lantic": 6365,
    "Ġcoppers": 22590,
    "onder": 3777,
    "hav": 20899,
    "ots": 3295,
    "pitchpoling": 25725,
    "tained": 4407,
    "justified": 19004,
    "Ġgout": 21600,
    "Ġmainz": 22652,
    "Ġlingo": 24904,
    "Ġlashing": 11618,
    "corrob": 24484,
    "Ġimproved": 7658,
    "tails": 21089,
    "Ġinferred": 14501,
    "Ġsleepers": 13152,
    "treacle": 25151,
    "ellent": 3758,
    "Ń": 260,
    "immortal": 21714,
    "gypt": 8262,
    "Ġmem": 2167,
    "Ġcompliment": 5673,
    "Ġpar": 456,
    "Ġadoration": 18291,
    "unken": 10238,
    "clair": 18935,
    "astes": 11742,
    "Ġthee": 2622,
    "garious": 17559,
    "Ġposition": 1950,
    "ians": 2359,
    "brothers": 17025,
    "Ġoaths": 13526,
    "Ġcontaining": 2233,
    "Ġeager": 3567,
    "thine": 15827,
    "Ġslam": 13062,
    "scans": 22995,
    "arned": 21822,
    "Ġanecdote": 26356,
    "Ġannual": 14834,
    "Ġbasis": 16962,
    "000": 2559,
    "Ġexclaim": 11222,
    "Ġfuel": 13906,
    "Ġbackwards": 12931,
    "Ġdirty": 9180,
    "notches": 22754,
    "Ġslopes": 18943,
    "wonder": 6372,
    "occasionally": 13523,
    "hedge": 22504,
    "aker": 3661,
    "bore": 13689,
    "keeping": 8638,
    "wet": 15454,
    "Ġdesol": 6881,
    "sweet": 8689,
    "Ġgroan": 13328,
    "Ġcheerily": 13311,
    "Ġsin": 1512,
    "Ġmaids": 19694,
    "Ġsquint": 22842,
    "Ġprophe": 13082,
    "arbuck": 2026,
    "Ą": 197,
    "Ġactions": 6280,
    "tube": 20414,
    "almost": 4943,
    "details": 19678,
    "Ġyawning": 12303,
    "Ġsuav": 22092,
    "application": 12366,
    "Ġtruest": 16701,
    "Ġxavier": 2856,
    "Ġregretted": 13403,
    "Ġspirits": 3695,
    "Ġregulate": 22576,
    "..": 5783,
    "datasets": 11953,
    "inders": 15983,
    "fulfil": 16036,
    "Ġdoubting": 13103,
    "Ġmissionary": 25697,
    "Ġ12": 5483,
    "eted": 7593,
    "friends": 8307,
    "Ġprofounder": 23568,
    "smith": 5669,
    "apothecary": 26546,
    "evinced": 19928,
    "icles": 17975,
    "levelled": 23646,
    "didn": 9009,
    "Ġtrace": 6183,
    "Ġvales": 21951,
    "nose": 17611,
    "Ġfast": 1716,
    "ĉ": 202,
    "Ġharmony": 16815,
    "animals": 24737,
    "despatched": 19804,
    "www": 17253,
    "acrity": 14262,
    "Ġsignificantly": 4520,
    "based": 2963,
    "oters": 21804,
    "tubs": 15133,
    "ider": 21770,
    "Ġhorizont": 6937,
    "gon": 17553,
    "Ġwithdrawn": 10608,
    "Ġluck": 4880,
    "ceiving": 3900,
    "Ġburnt": 9930,
    "above": 8149,
    "Ġcellar": 8060,
    "Ġbreak": 2871,
    "Ġcompromising": 22581,
    "mud": 20973,
    "Ġlater": 6019,
    "Ġke": 1155,
    "Ġreciprocating": 26371,
    "Ġsneezes": 24697,
    "marrying": 19550,
    "Ġpreface": 18368,
    "Ġhailing": 11696,
    "fearfully": 25119,
    "Ġcaged": 21355,
    "Ġproud": 5654,
    "tes": 11530,
    "Ġtul": 21162,
    "Ġhanding": 16133,
    "history": 15016,
    "ine": 404,
    "Ġslightest": 6094,
    "watches": 14949,
    "erringly": 16214,
    "Ġtrial": 6637,
    "Ġchains": 8252,
    "Ġadhering": 14141,
    "attering": 7420,
    "Ġhandspike": 22702,
    "Ġjolly": 6858,
    "Ġrejected": 12297,
    "masters": 16835,
    "turbable": 24530,
    "Ġbount": 15571,
    "Ġcontributed": 16012,
    "Ġtrout": 22370,
    "obscure": 23102,
    "ushing": 5730,
    "Ġproduces": 2093,
    "attempts": 17192,
    "ribs": 23369,
    "cords": 25139,
    "Ĥ": 229,
    "completely": 12423,
    "#": 7,
    "Ġstable": 2697,
    "events": 12320,
    "hes": 1398,
    "parable": 16399,
    "Ġharpoons": 5659,
    "Ġcontemporary": 16015,
    "Ġswore": 10380,
    "gins": 12472,
    "Ġcraft": 4377,
    "Ġmassacre": 20550,
    "capting": 24042,
    "Ġstarry": 16924,
    "ne": 645,
    "aset": 10833,
    "Ġgenerously": 22390,
    "quee": 4126,
    "Ġconcl": 5095,
    "holland": 24044,
    "deliber": 17428,
    "Ġloaded": 8493,
    "Ġshaded": 14107,
    "Ġcathedral": 17415,
    "Ġrelev": 1715,
    "arding": 22162,
    "Ġbalances": 2341,
    "lucifer": 25303,
    "Ġprints": 16332,
    "nameless": 19905,
    "Ġelevation": 14899,
    "rel": 3750,
    "Ġcircumstance": 4987,
    "gods": 13370,
    "que": 1103,
    "slouched": 24556,
    "Ġrustling": 24714,
    "bread": 10687,
    "Ġunhappiness": 14120,
    "Ġherds": 9718,
    "iors": 9127,
    "Ġsunday": 7270,
    "Ġcatastrophe": 10485,
    "upon": 2721,
    "for": 949,
    "Ġoverlapping": 26240,
    "came": 4571,
    "Ġnought": 21526,
    "Ġinsanity": 12050,
    "Ġexhibition": 14959,
    "Ġpursuing": 9440,
    "sheltered": 25586,
    "ĠĠĠĠĠĠĠĠĠĠĠĠĠĠĠĠĠĠĠĠĠĠĠĠĠĠĠĠĠĠĠĠĠĠĠĠĠĠĠĠĠ": 19585,
    "Ġirksome": 13115,
    "Ġorgies": 18286,
    "satisfactory": 16894,
    "ously": 2489,
    "Ġarve": 15896,
    "mur": 5428,
    "imaux": 21716,
    "Ġdodging": 19889,
    "acled": 16066,
    "Ġjot": 11766,
    "ě": 220,
    "Ġfeverish": 11349,
    "Ġsog": 22087,
    "Ġtaught": 6804,
    "Ġseason": 5238,
    "scheme": 15257,
    "gammon": 20246,
    "Ġdisappointing": 19582,
    "Ġyesterday": 5333,
    "included": 19210,
    "Ġuntrodden": 23523,
    "Ġcontemplated": 13467,
    "Ġfleets": 23777,
    "od": 350,
    "Ġvigil": 9509,
    "ouement": 21452,
    "occupied": 12307,
    "blocks": 25518,
    "Ġpur": 2219,
    "Ġtransc": 12874,
    "moored": 22710,
    "Ġfaultless": 24539,
    "Ġshelf": 12271,
    "Ġtheoretically": 3563,
    "oquent": 12503,
    "Ġendangered": 16305,
    "tinted": 17684,
    "Ġtotal": 4993,
    "Ġtranquill": 6633,
    "Ġdoll": 10814,
    "baboon": 25517,
    "make": 5793,
    "Ġcloth": 9746,
    "Ġamph": 18511,
    "Ġfool": 4231,
    "Ġcopying": 17069,
    "Ġindign": 6175,
    "Ġhol": 1183,
    "Ġrapture": 13498,
    "Ġdepressions": 25799,
    "avor": 14282,
    "inations": 7568,
    "Ġspeedy": 11173,
    "Ġmurky": 19204,
    "Ġsure": 1863,
    "Ġcritics": 23444,
    "Ġflooring": 23626,
    "Ġcheating": 16369,
    "Ġimputed": 12812,
    "Ġblasted": 7938,
    "scuttle": 11914,
    "Ġ270": 25133,
    "astern": 8585,
    "Ġwatch": 2742,
    "Ġpunctual": 17139,
    "Ġsaviour": 20715,
    "Ġwaking": 11572,
    "Ġsain": 17751,
    "Ģ": 227,
    "rad": 2155,
    "Ġdifferen": 936,
    "Ġsixty": 7724,
    "Ġdesk": 11910,
    "Ġsoundings": 13136,
    "furniture": 20245,
    "Ġpolice": 4675,
    "meetings": 20381,
    "Ġdogs": 7743,
    "Ġacquire": 2723,
    "Ġfurthermore": 1168,
    "Ġag": 684,
    "ifix": 21908,
    "Ġunravel": 26216,
    "Ġvain": 3627,
    "Ġwhitting": 18058,
    "Ġtoilet": 13939,
    "Ġshy": 10904,
    "Ġvigilant": 20187,
    "eps": 12794,
    "Ġdigging": 14940,
    "Ġdoubtless": 6197,
    "again": 3397,
    "lands": 8242,
    "swells": 26149,
    "Ġjura": 14194,
    "Ġdisdain": 8361,
    "Ġbleeding": 14882,
    "tone": 8766,
    "Ġfields": 2144,
    "Ġrambled": 20171,
    "Ġdated": 10940,
    "Ġcommand": 3322,
    "Ġpraises": 16731,
    "Ġcy": 13876,
    "angling": 14142,
    "Ġinqu": 2968,
    "advanced": 19591,
    "Ġstiffly": 15006,
    "grieved": 17319,
    "Ġreputed": 18038,
    "Ġdifferent": 1430,
    "oarsman": 25262,
    "hip": 8744,
    "ugues": 19021,
    "Ġcascade": 20584,
    "hibited": 17429,
    "Ġbox": 5109,
    "trucks": 25420,
    "transformer": 25018,
    "Ġripp": 11220,
    "Ġperfectly": 3698,
    "Ġfeelingly": 23003,
    "Ġincredible": 9517,
    "Ġmortifying": 13248,
    "ediction": 17947,
    "Ġlect": 9224,
    "ods": 8838,
    "Ġcovered": 5171,
    "Ġrooted": 13172,
    "iction": 4267,
    "Ġdesperation": 19821,
    "Ġluff": 15656,
    "/`)": 13663,
    "Ġreligion": 11416,
    "circumstances": 8048,
    "usations": 15945,
    "Ġye": 900,
    "Ġembod": 14408,
    "Ġperpetual": 12306,
    "Ġinsignific": 13183,
    "Ġabject": 18392,
    "Ġsatirical": 26281,
    "dinner": 11407,
    "cor": 5520,
    "suggested": 17301,
    "Ġsanct": 15066,
    "Ġpreliminary": 10059,
    "Ġstrewed": 23424,
    "Ġbingleys": 18996,
    "âĢĶ": 517,
    "Ġdam": 2218,
    "ople": 2319,
    "Ġcommerce": 11016,
    "prehens": 9291,
    "idol": 21771,
    "Ġassigned": 16313,
    "Ġsunrise": 9375,
    "Ġlabyrinth": 13682,
    "Ġdeser": 3885,
    "missing": 13223,
    "Ġpeaking": 22694,
    "bur": 4687,
    "Ġans": 1647,
    "Ġcords": 14881,
    "Ġinclosed": 19541,
    "ĠĠĠĠĠĠĠĠ": 712,
    "commun": 15035,
    "Ġaffectionate": 5584,
    "Ġmogul": 12866,
    "_),": 7127,
    "bitter": 11241,
    "Ġobliv": 16136,
    "Ġbehold": 5049,
    "Ġprof": 2459,
    "Ġinjunctions": 24271,
    "ermost": 7430,
    "asily": 13948,
    "orate": 10801,
    "rim": 7139,
    "Ġeyelashes": 26107,
    "Ġounce": 15275,
    "Ġsaying": 3244,
    "Ġmurmuring": 23580,
    "ho": 2860,
    "Ġroof": 6566,
    "Ġunmingled": 18264,
    "Ġassurance": 7776,
    "Ġletters": 3791,
    "izens": 18146,
    "joy": 3335,
    "Ġexpressions": 7707,
    "Ġsulky": 13517,
    "Ġwise": 6812,
    "Ġpoetry": 15083,
    "youn": 5690,
    "Ġthrows": 14739,
    "dimensional": 2349,
    "orting": 9737,
    "Ġcompensated": 17403,
    "Ġfiend": 4413,
    "Ġtasted": 12533,
    "struck": 7864,
    "oward": 6023,
    "Ġrejoinder": 24599,
    "isco": 12585,
    "ħ": 232,
    "Ġcele": 9902,
    "pend": 6368,
    "Ġinexperienced": 26101,
    "Ġsequential": 2134,
    "Ġscowl": 22295,
    "Ġdisguises": 25058,
    "Ġpreference": 9735,
    "Ġfaithfulness": 24445,
    "Ġdismal": 11813,
    "Ġexpon": 967,
    "Ġwheeling": 18289,
    "Ġconvivial": 16549,
    "Ġbristol": 14382,
    "Ġordained": 19448,
    "aly": 1102,
    "ien": 10103,
    "european": 26373,
    "Ġbreaches": 14521,
    "Ġrekindled": 21681,
    "capt": 3835,
    "Ġuncovered": 23434,
    "Ġabsorb": 25115,
    "Ġmain": 810,
    "Ġcorporeal": 17362,
    "Ġleghorn": 13149,
    "hump": 12481,
    "homely": 25618,
    "Ġfleet": 9434,
    "Ġpatronage": 17053,
    "Ġdelicately": 24125,
    "distinct": 13339,
    "lengths": 24847,
    "Ġwrath": 16318,
    "Ġcrad": 21352,
    "another": 5439,
    "neat": 22462,
    "Ġstoven": 23180,
    "Ġpropose": 9855,
    "Ġforfeit": 21780,
    "Ġdi": 6526,
    "Ġlabels": 3288,
    "Ġ40": 14771,
    "unting": 21879,
    "Ġdownwards": 8531,
    "anth": 13889,
    "Ġline": 1849,
    "attributed": 23126,
    "dro": 6647,
    "arman": 11597,
    "Ġtusk": 25426,
    "burning": 25081,
    "cold": 9591,
    "Ġteased": 18789,
    "Ġsepar": 3997,
    "Ġfaults": 12216,
    "ffy": 18317,
    "Ġitself": 2520,
    "Ġviolin": 16430,
    "Ġexhilar": 19686,
    "_)": 9104,
    "Ġlaborious": 13107,
    "entitled": 21572,
    "Ġladder": 8601,
    "Ġnice": 6678,
    "Ġcircles": 7968,
    "Ġhypothesis": 14786,
    "Ġexamine": 7736,
    "Ġcaptive": 14429,
    "Ġtyrant": 24766,
    "Ġparaphrasing": 26527,
    "iation": 7343,
    "utored": 15666,
    "eight": 9593,
    "Ġqueens": 16704,
    "Ġcoupled": 16852,
    "aswag": 21550,
    "Ġtaking": 3249,
    "Ġticklish": 25037,
    "Ġstockings": 20000,
    "Ġrighted": 23183,
    "Ġadvantages": 9813,
    "Ġrainy": 24340,
    "rine": 21040,
    "atre": 17771,
    "Ġrepairs": 19083,
    "Ġfrantically": 23262,
    "Ġlances": 6985,
    "Ġsig": 868,
    "Ġunlim": 18254,
    "Ġpiled": 8427,
    "casks": 20406,
    "gely": 10701,
    "Ġpeep": 6870,
    "Ġric": 18210,
    "Ġpadded": 25039,
    "convul": 24884,
    "Ġblacksmiths": 19875,
    "bastian": 10675,
    "Ġplease": 4723,
    "Ġunique": 12782,
    "itor": 12570,
    "crane": 24087,
    "Ġexpost": 18624,
    "sutherland": 21065,
    "Ġdoth": 13910,
    "Ġsplintered": 11419,
    "money": 8753,
    "umer": 9260,
    "Ġbelonged": 6922,
    "Ġsaws": 23053,
    "Ġcomprehending": 24444,
    "tur": 5688,
    "Ġbressed": 21390,
    "Ġanticipating": 17059,
    "Ġunthinkingly": 26222,
    "Ġmany": 1107,
    "opence": 18506,
    "Ġsolomon": 11054,
    "Ġdonkey": 23231,
    "Ġracket": 22659,
    "Ġpeddler": 26181,
    "Ġbaggy": 24537,
    "Ġmorass": 22975,
    "Ġkins": 22199,
    "indispensable": 14211,
    "Ġlocking": 18299,
    "Ġworsh": 13004,
    "Ġcounsell": 25385,
    "Ġbonnet": 10657,
    "Ġbun": 6009,
    "Ġcorpulence": 24505,
    "Ġunbounded": 18260,
    "Ġdives": 17892,
    "hatches": 19930,
    "Ġhook": 6454,
    "powerful": 24848,
    "science": 11913,
    "reserved": 13845,
    "umbled": 8495,
    "Ġcravat": 26308,
    "Ġanimal": 2497,
    "Ġconjectured": 9999,
    "naturally": 14589,
    "Ġdeer": 12724,
    "Ġenjoyments": 24021,
    "Ġsufferer": 16264,
    "Ġ107": 24414,
    "M": 49,
    "Ġsoaked": 15864,
    "hill": 15365,
    "Ġhopes": 4230,
    "Ġprosper": 10230,
    "Ġfreighted": 16325,
    "verest": 13993,
    "estate": 12825,
    "Ġcontrived": 10305,
    "âĢľ_": 5720,
    "Ġconfirmation": 17212,
    "purse": 20028,
    "Ġmitig": 1335,
    "Ġcontour": 18475,
    "Ġplump": 14285,
    "Ġwitt": 17785,
    "Ġpal": 4039,
    "ivity": 1664,
    "Ġinitial": 822,
    "Ġeast": 5370,
    "Ġcushion": 17835,
    "appointment": 24063,
    "Ġhoofs": 14527,
    "mental": 16052,
    "Ġpeter": 10537,
    "oices": 7348,
    "Ġavert": 14427,
    "Ġnewfound": 22936,
    "Ġtoils": 10187,
    "preservation": 25306,
    "Ġsuppress": 13028,
    "Ġmerchantmen": 19862,
    "Ġadopted": 15181,
    "endeav": 7151,
    "Ġclerks": 17297,
    "Ġachieves": 4380,
    "Ġbread": 5404,
    "Ġsuperiority": 14617,
    "orous": 5294,
    "produced": 25415,
    "Ġconcert": 11970,
    "Ġpuffs": 14978,
    "Ġanticipation": 17058,
    "Ġgrooves": 16742,
    "Ġwide": 4105,
    "Ġgnawed": 25168,
    "antingly": 22103,
    "handsome": 13179,
    "harrow": 20910,
    "Ġvivid": 8059,
    "Ġembarks": 22950,
    "Ġassert": 7122,
    "Ġrecursive": 4782,
    "Ġhelmsman": 10506,
    "Ġemperor": 15161,
    "intentions": 22943,
    "ileries": 18061,
    "Ġpositional": 2598,
    "reader": 23850,
    "univers": 15775,
    "Ġsecret": 3717,
    "Ġpop": 5151,
    "Ġrigid": 16717,
    "Ġquarter": 3974,
    "she": 1397,
    "pent": 3490,
    "rage": 10844,
    "Ġprudence": 13922,
    "Ġaslant": 21906,
    "Ġfoaming": 18993,
    "Ġdivined": 19446,
    "Ġpoland": 23619,
    "Ġexposes": 22626,
    "Ġdiamond": 15602,
    "Ġprynne": 25541,
    "ribut": 816,
    "Ġmadame": 13153,
    "Ġpublicly": 13326,
    "Ġgulf": 10637,
    "Ġheads": 3737,
    "second": 6545,
    "Ġapart": 4746,
    "belonged": 25598,
    "drunk": 24660,
    "Ġprovinces": 24192,
    "elve": 4642,
    "urred": 8451,
    "ateful": 5929,
    "replied": 11567,
    "Ġcupboard": 16884,
    "Ġcathed": 14549,
    "Ġtoll": 7853,
    "Ġgets": 10840,
    "antically": 22101,
    "Ġsinusoid": 4781,
    "Ġrome": 12159,
    "Ġnecessitates": 23933,
    "Ġscreening": 25301,
    "Ġexceed": 1344,
    "Ġensl": 19276,
    "saying": 8644,
    "anybody": 12086,
    "humanity": 24840,
    "Ġunprinciple": 18255,
    "Ġvanishing": 1345,
    "stranded": 19228,
    "Ġoffic": 3190,
    "Ġbears": 6829,
    "Ġcinque": 20489,
    "Ġsockets": 22091,
    "next": 5894,
    "Ġmichael": 20682,
    "point": 6065,
    "Ġconsisted": 10420,
    "Ġsuggestive": 11298,
    "flies": 19427,
    "Ġresearches": 13135,
    "silent": 9976,
    "Ġexpectations": 13146,
    "Ġtip": 15473,
    "Ġincl": 4269,
    "urried": 21708,
    "etting": 21584,
    "pillar": 5618,
    "Ġvesuvius": 26502,
    "Ġhold": 2246,
    "Ġcalamity": 17351,
    "Ġexploding": 2112,
    "¤": 102,
    "Ġstanding": 3001,
    "Ġsouthern": 7691,
    "ieties": 19023,
    "complacency": 19916,
    "Ġapoplexy": 25266,
    "conjecturing": 20137,
    "silence": 8046,
    "Ġkeeled": 18809,
    "ertips": 23642,
    "Ġselection": 18205,
    "inative": 15486,
    "Ġdrab": 13074,
    "Ġtalker": 23374,
    "Ġvehem": 22895,
    "Ġcho": 4548,
    "whales": 5187,
    "power": 7138,
    "rapidly": 15246,
    "Ġpriests": 15042,
    "Ġforth": 3460,
    "hers": 7637,
    "Ġlines": 4535,
    "Ġdisturbing": 19949,
    "Ġhardware": 4904,
    "Ġrucastles": 18722,
    "Ġservices": 11218,
    "girls": 12322,
    "Ġquadr": 8201,
    "?âĢĻâĢĿ": 23645,
    "Ġodious": 12154,
    "footed": 19692,
    "orrow": 2919,
    "favouring": 24761,
    "Ġcontrari": 23353,
    "Ġbrides": 22868,
    "Ġsuccour": 20438,
    "somehow": 12014,
    "Ġproficiency": 19195,
    "hardly": 6492,
    "Ġunclasp": 26512,
    "Ġfinding": 3265,
    "Ġinfl": 6893,
    "Ġjesty": 18406,
    "formality": 22231,
    "Ġcompatibility": 2962,
    "Ġhorr": 3193,
    "uce": 11537,
    "uteness": 17988,
    "Ġadversarial": 5606,
    "Ġconfined": 7465,
    "Ĺ": 250,
    "Ġperth": 7024,
    "rack": 18013,
    "congratulations": 20282,
    "Ġworry": 18817,
    "Ġtamely": 24982,
    "Ġpen": 1529,
    "Ġtropics": 17067,
    "prodig": 16429,
    "mort": 10711,
    "Ġcorroboration": 26054,
    "where": 2092,
    "Ġoffence": 12949,
    "morn": 20978,
    "Ġenough": 1761,
    "hereabouts": 23608,
    "Ġtribe": 10752,
    "Ġmatted": 22917,
    "Ġjoyously": 19350,
    "Ġstripped": 10465,
    "Ġimprinted": 22398,
    "Ġcolonnades": 26277,
    "national": 21000,
    "whaling": 7901,
    "Ġgorgeous": 20470,
    "stolidity": 21661,
    "Ġidly": 16405,
    "Ġbrush": 17866,
    "Ġdiagon": 24739,
    "trad": 21078,
    "Ġtransitory": 16034,
    "Ġglanced": 5954,
    "square": 15063,
    "Ġnets": 21528,
    "heredit": 21212,
    "tr": 3576,
    "Ġinde": 7371,
    "Ġgazing": 5878,
    "tiger": 13799,
    "Ġvintage": 26211,
    "Ġclung": 10961,
    "knew": 9128,
    "Ġviciously": 24403,
    "Ġpleasure": 2692,
    "Ġwinking": 17795,
    "800": 17478,
    "neighbouring": 19967,
    "Ġexp": 778,
    "otic": 15748,
    "Ġpalm": 10515,
    "trimmed": 23952,
    "Ġearthly": 7991,
    "french": 9121,
    "Ġnlp": 3063,
    "Ġopine": 19230,
    "vision": 5619,
    "Ġoverhead": 11773,
    "Ġdented": 17893,
    "Ġdanish": 21435,
    "Ġunaccountably": 26516,
    "streamed": 25966,
    "Ġsevent": 18203,
    "aks": 8509,
    "Ġslavish": 23177,
    "eer": 15350,
    "Ġpyramids": 15117,
    "Ġshoved": 23492,
    "able": 453,
    "Ġforlorn": 14017,
    "fol": 4862,
    "Ġlaboratory": 13615,
    "Ġliberties": 19670,
    "Ġbatt": 13901,
    "Ġbefallen": 12346,
    "Ġvictory": 16655,
    "Ġplush": 18611,
    "Ġunfeeling": 14121,
    "Ġrequired": 7223,
    "Ġspices": 22135,
    "weigh": 18665,
    "Ġcollins": 2185,
    "shot": 2069,
    "Ä": 133,
    "Ġbewitched": 25976,
    "Ġprovinc": 16743,
    "birth": 15324,
    "Ġreliance": 14387,
    "Ġflattered": 10376,
    "uted": 7594,
    "Ġintu": 12767,
    "Ġdescribed": 6608,
    "ĠĠĠĠĠĠĠĠĠĠĠĠĠĠĠĠĠĠĠĠĠĠĠĠĠĠĠĠĠĠĠĠĠĠĠĠĠĠĠ": 19261,
    "inclined": 10641,
    "sis": 1885,
    "Ġcorridor": 10673,
    "go": 2064,
    "Ġjonah": 3477,
    "Ġoutcast": 18415,
    "alling": 6039,
    "Ġrecent": 7435,
    "_âĢĶ": 11468,
    "physiogn": 26265,
    "Ġpedest": 15068,
    "Ġreadily": 5254,
    "Ġtravelling": 11308,
    "Ġoutsk": 15959,
    "discoloured": 23500,
    "washed": 13050,
    "Ġpatched": 16383,
    "Ġinvulnerable": 19148,
    "alone": 10185,
    "igation": 5920,
    "Ġtangles": 25762,
    "prepar": 22467,
    "Ġrelieved": 7668,
    "perv": 1624,
    "coburg": 13601,
    "ultaneous": 18584,
    "Ġnineveh": 13392,
    "destiny": 16700,
    "Ġthorough": 6247,
    "Ġspecimen": 13027,
    "itory": 12571,
    "Ġpremium": 23908,
    "ackled": 22429,
    "Ġbaptized": 25775,
    "altern": 17944,
    "Ġpython": 1073,
    "hangs": 15371,
    "Ġluckily": 16799,
    "Ġderivatives": 2370,
    "towards": 5003,
    "Ġpenalizing": 13094,
    "mist": 5686,
    "Ġcompared": 2230,
    "dry": 13706,
    "Ġquantization": 19856,
    "arboard": 7266,
    "Ġdiana": 21440,
    "doubt": 6783,
    "Ġburke": 19253,
    "Ġdown": 829,
    "Ġengraved": 17081,
    "Ġbat": 10796,
    "icing": 9202,
    "Ġdoubtful": 19143,
    "Ġcurves": 18853,
    "walls": 25346,
    "sometimes": 5974,
    "blubber": 15239,
    "executed": 25740,
    "Ġdolphin": 17314,
    "Ġpace": 9184,
    "committed": 18744,
    "Ġork": 18285,
    "magn": 10612,
    "Ġusually": 6265,
    "Ġhandsomely": 25498,
    "Ġseven": 4543,
    "Ġthrills": 24541,
    "Ġpull": 5152,
    "tot": 10729,
    "Ġcoolly": 9774,
    "Ġschoolmasters": 19723,
    "arness": 11673,
    "pse": 21011,
    "wharf": 20609,
    "Ġcocain": 18600,
    "Ġscattered": 6856,
    "constantinople": 25508,
    "Ġshrew": 22005,
    "ays": 6685,
    "Ġrafters": 22661,
    "Ġconsol": 3813,
    "Ġson": 2985,
    "Ġarm": 2490,
    "Ġhomeward": 9394,
    "Ġpond": 13918,
    "Ġsegmentation": 17342,
    "glanced": 19369,
    "Ġwarsaw": 26168,
    "man": 1055,
    "bale": 20776,
    "hic": 3248,
    "battering": 20788,
    "appe": 2947,
    "never": 3155,
    "Ġwane": 21291,
    "introduced": 15127,
    "Ġyear": 3286,
    "starbuck": 6021,
    "Ġwedding": 4816,
    "Ġshaggy": 13573,
    "Ġsultanism": 25889,
    "Ġdistributions": 1053,
    "Ġtill": 1823,
    "Ġpressed": 6044,
    "Ġinboard": 17935,
    "Ġrelinqu": 12987,
    "Ġquery": 2478,
    "anything": 5518,
    "dared": 13705,
    "revolver": 25628,
    "Ġcigar": 9547,
    "Ġkindred": 16377,
    "ched": 1545,
    "Ġlonger": 3359,
    "Ġdiscover": 4718,
    "Ġnatures": 16506,
    "forward": 2191,
    "Ġcorpse": 6641,
    "Ġsoaring": 22089,
    "Ġmarling": 23040,
    "obtained": 23100,
    "Ě": 219,
    "Ġchanc": 18385,
    "Ġdistrusting": 25056,
    "oked": 4308,
    "shabbily": 26248,
    "Ġreadiness": 13054,
    "Ġdropt": 23675,
    "Ġbanners": 24859,
    "classification": 4389,
    "Ġtraversed": 18894,
    "since": 5897,
    "Ġintervened": 25482,
    "confl": 22471,
    "Ġgovernor": 16491,
    "Ġilluminated": 20178,
    "Ġquoin": 22423,
    "Ġcocoanuts": 26364,
    "accountable": 7111,
    "ingham": 21303,
    "Ġlengthwise": 10453,
    "entering": 17979,
    "Ġexasperate": 20101,
    "evidently": 20348,
    "Ġreeled": 13988,
    "Ġsymb": 2592,
    "sufficient": 6638,
    "Ġsympathy": 6348,
    "Ġfiends": 14830,
    "Ġminiatures": 20324,
    "D": 40,
    "Ġacquit": 18898,
    "gers": 8377,
    "Ġkills": 15909,
    "Ġ1828": 25720,
    "Ġgenerator": 3381,
    "ament": 2439,
    "mccarthy": 15397,
    "Ġeloquent": 16113,
    "means": 9789,
    "Ġcoop": 14275,
    "Ġkettle": 26234,
    "Ġarsac": 11745,
    "such": 3084,
    "Ġworms": 25217,
    "Ġunmanner": 22034,
    "meanwhile": 10611,
    "Ġprudent": 9186,
    "within": 6732,
    "Ġscepticism": 25928,
    "also": 7852,
    "stem": 564,
    "Ġmeal": 9699,
    "Ġpunct": 8664,
    "elling": 5831,
    "Ġlombardy": 26464,
    "Ġremained": 3145,
    "Ġvessels": 6757,
    "Ġswiss": 18884,
    "Ġabundant": 17156,
    "Ġentr": 14339,
    "Ġhipp": 21496,
    "Ġforgery": 25978,
    "Ġfainter": 14916,
    "Ġvagueness": 25738,
    "yield": 13811,
    "mine": 5617,
    "Ġimminent": 11245,
    "Ġansw": 2208,
    "nd": 11505,
    "Ġexclusion": 19399,
    "Ġmariner": 7247,
    "acity": 5734,
    "awned": 19463,
    "Ġcovariate": 2351,
    "Ġextinction": 14342,
    "partly": 14603,
    "Ġscru": 8193,
    "agement": 4186,
    "period": 15905,
    "Ġscraggy": 24579,
    "ists": 3998,
    "Ġbeggars": 20632,
    "Ġsymphony": 26533,
    "Ġutil": 4673,
    "Ġridges": 16732,
    "Ġbaboon": 19696,
    "ided": 2784,
    "Ġantics": 24180,
    "Ġdiscerning": 24958,
    "Ġcrescentic": 20624,
    "linearity": 1652,
    "luxur": 25823,
    "Ġkrem": 9728,
    "Ġbarmaid": 19337,
    "creatures": 7518,
    "osc": 18388,
    "Ġluc": 3311,
    "Ġfairly": 6327,
    "direful": 25897,
    "Ġsearched": 15822,
    "Ġjoined": 4565,
    "Ġchurches": 12832,
    "Ġcapric": 14576,
    "Ġpovels": 22600,
    "many": 5251,
    "Ġdivide": 12114,
    "Ġadvers": 4887,
    "hol": 3837,
    "Ġcompress": 21854,
    "Ġdrawback": 23993,
    "irably": 13299,
    "lady": 4435,
    "Ġconf": 1818,
    "historical": 20469,
    "Ġphr": 2679,
    "Ġhomely": 25220,
    "unmistakable": 21900,
    "occurred": 13341,
    "circle": 16737,
    "Ġcanal": 8183,
    "triumph": 15442,
    "Ġhumiliating": 22888,
    "Ġreward": 6146,
    "Ġdelayed": 9520,
    "Ġgamb": 18000,
    "sig": 2878,
    "Ġclothes": 4997,
    "Ġsignific": 3827,
    "Ġshown": 5159,
    "Ġpersuasions": 16633,
    "Ġjet": 5309,
    "Ġresults": 7308,
    "Ġruefully": 17303,
    "Ġbran": 5252,
    "Ġlulled": 17971,
    "Ġscratch": 25565,
    "examine": 25478,
    "hidden": 17373,
    "unned": 21883,
    "Ġdragon": 14946,
    "Ġsavages": 9914,
    "Ġshrugged": 12773,
    "Ġhealed": 21687,
    "guarded": 13298,
    "Ġseethe": 21968,
    "Ġimportance": 4900,
    "Ġconsolation": 6210,
    "formation": 22230,
    "Ġpleases": 16300,
    "dl": 20825,
    "Ġdeductions": 19735,
    "Ġunreasonable": 12781,
    "Ġgospel": 18003,
    "reflections": 24734,
    "instant": 8655,
    "acquaintance": 6938,
    "Ġunsupplied": 22048,
    "Ġflower": 16235,
    "slackened": 26095,
    "Ġjoke": 8871,
    "ulus": 21867,
    "asional": 17962,
    "questions": 16761,
    "Ġcoincid": 20320,
    "rained": 5162,
    "Ġhurt": 7702,
    "eat": 11484,
    "Ġbeget": 9227,
    "_.âĢĶ": 23474,
    "Ġnoiseless": 10359,
    "atch": 672,
    "Ġwrapping": 19778,
    "Ġeats": 15680,
    "ici": 8442,
    "Ġquestionable": 19268,
    "Ġmodes": 22218,
    "Ġhedges": 19988,
    "Ġappearing": 9845,
    "Ġhighly": 4845,
    "avating": 18608,
    "Ġacid": 22686,
    "Ġvisits": 8224,
    "raint": 18318,
    "Ġnin": 10189,
    "Ġsuffering": 8948,
    "Ġdescribes": 3124,
    "Ġwondrously": 24068,
    "Ġurging": 24501,
    "Ġdistorted": 14251,
    "Ġlibr": 16004,
    "Ġcause": 2410,
    "Ġsoc": 3522,
    "Ġholy": 6593,
    "co": 2434,
    "Ġthanks": 6709,
    "Ġvehic": 8935,
    "uned": 21876,
    "yellow": 9626,
    "camp": 15332,
    "Ġnewsp": 9341,
    "Ġsparsity": 4205,
    "Ġsixth": 16560,
    "Ġplayful": 19239,
    "Ġdiscernible": 15057,
    "Ġtig": 13815,
    "nour": 20990,
    "ased": 1266,
    "Ġthroes": 24574,
    "spoutings": 25006,
    "Ġdecorum": 16027,
    "circumstantial": 24443,
    "Ġblotches": 25315,
    "Ġwreat": 15533,
    "Ġrains": 24339,
    "Ġfeatures": 1434,
    "Ġnoiselessly": 22866,
    "Ġrefreshed": 15293,
    "aned": 5147,
    "Ġclosely": 6489,
    "Ġlace": 13951,
    "Ġduties": 6611,
    "Ġquakers": 22421,
    "iling": 3095,
    "Ġgirl": 3087,
    "Ġinstruction": 14346,
    "Ġvul": 10249,
    "Ġintrig": 21995,
    "Ġfilm": 23929,
    "ilst": 8145,
    "Ġsmokes": 22565,
    "Ġlunatic": 24995,
    "Ġpicture": 4857,
    "legged": 10466,
    "illar": 5101,
    "Ġ65": 24367,
    "Ġnom": 21523,
    "isure": 6242,
    "inously": 21189,
    "Ġprendergast": 26538,
    "damp": 15346,
    "Ġclusters": 25233,
    "end": 497,
    "Ġhowled": 12860,
    "Ġacquisition": 18900,
    "Ġsalad": 19482,
    "Ġhypothe": 4071,
    "Ġfiddle": 25445,
    "Ġ(": 594,
    "Ġdra": 1592,
    "Ġjutting": 22306,
    "Ġsand": 6237,
    "Ġplaned": 24059,
    "Ġgirls": 4279,
    "flagged": 23975,
    "Ġdiffidence": 14660,
    "Ġpropriet": 9552,
    "Ġrespectability": 14486,
    "Ġclasped": 17208,
    "noise": 14335,
    "Ġpercept": 14225,
    "Ġmethinks": 10390,
    "Â£": 4812,
    "intervals": 10639,
    "gest": 5426,
    "with": 1297,
    "Ġneg": 1332,
    "sence": 3307,
    "spade": 10341,
    "jac": 8383,
    "Ġcloset": 19594,
    "Ġarter": 22182,
    "Ġgem": 21598,
    "vicinity": 20483,
    "opic": 22481,
    "brilliancy": 26078,
    "Ġblossom": 26313,
    "Ġcensure": 15098,
    "Ġanytime": 12889,
    "Ġwhispering": 14947,
    "9": 29,
    "Ġholmes": 1309,
    "theories": 18081,
    "A": 37,
    "Ġclanking": 20614,
    "ounted": 5030,
    "stepfather": 19193,
    "Ġcomparatively": 9492,
    "Ġinclu": 1101,
    "Ġjacket": 6490,
    "Ġkeeps": 8268,
    "Ġgi": 15669,
    "Ġt": 261,
    "Ġhowling": 8512,
    "Ġincapable": 7423,
    "Ġhill": 5626,
    "Ġwriggling": 15260,
    "Ġpremises": 10489,
    "acid": 10995,
    "Ġcontemplate": 19894,
    "pointed": 9810,
    "Ġdirection": 1790,
    "Ġprecision": 13190,
    "Ġdeliverer": 11954,
    "ublic": 11228,
    "specim": 23947,
    "Ġreptile": 15280,
    "allow": 5104,
    "Ġwitty": 21295,
    "Ġped": 7846,
    "night": 2172,
    "tomahawk": 25916,
    "Ġpemberley": 4589,
    "position": 15415,
    "ilty": 6395,
    "Ġupward": 9723,
    "Ġdocile": 19962,
    "aur": 15311,
    "Ġpaw": 12624,
    "uncomfortable": 18163,
    "Ġlion": 9677,
    "Ġsow": 17750,
    "hearted": 6971,
    "Ġaccorded": 24091,
    "from": 1989,
    "asingly": 17963,
    "country": 6105,
    "pushed": 21025,
    "press": 1732,
    "suppose": 8648,
    "deserts": 25382,
    "Ġconvers": 2910,
    "Ġinjunction": 19620,
    "airing": 16178,
    "Ġcumul": 4176,
    "garnished": 26389,
    "ems": 5236,
    "Ġincomplete": 17210,
    "Ġhind": 9190,
    "ois": 9136,
    "Ġwipe": 25765,
    "Ġfilling": 13411,
    "Ġorganically": 3013,
    "Ġscorching": 20071,
    "Ġdigest": 24648,
    "Ġraven": 16118,
    "Ġbri": 21381,
    "orial": 8419,
    "Ġcredulous": 17146,
    "ittarius": 22385,
    "summer": 11996,
    "Ġimpassable": 20615,
    "Ġcomforts": 14695,
    "Ġcondescended": 19959,
    "Ġhooked": 19079,
    "Ġstigma": 25792,
    "Ġentirely": 3432,
    "wholly": 10942,
    "Ġastonishment": 4794,
    "Ġmushroom": 13239,
    "transform": 8051,
    "lives": 12489,
    "touched": 15441,
    "addressing": 24400,
    "ilities": 6992,
    "Ġdest": 2238,
    "Ġgiddy": 20500,
    "Ġvague": 6407,
    "Ġgush": 10204,
    "Ġclosed": 4605,
    "inced": 3336,
    "Ġher": 427,
    "or": 282,
    "Ġpresence": 5031,
    "ork": 416,
    "Ġabsolut": 3908,
    "Ġlayer": 1013,
    "ggling": 19098,
    "Ġbrighton": 6471,
    "Ġjets": 10289,
    "Ġlac": 17967,
    "Ġmagg": 18907,
    "Ġcommission": 6714,
    "Ġfoundering": 21423,
    "Ġmach": 13859,
    "Ġdisreputable": 22539,
    "lies": 15384,
    "Ġboxed": 24359,
    "Ġgag": 21597,
    "vered": 4831,
    "accuracy": 9881,
    "ounders": 22389,
    "Ġincorrupt": 19237,
    "Ġugl": 12686,
    "iply": 22348,
    "fic": 20854,
    "Ġbrawny": 13616,
    "Ġstup": 14007,
    "Ġthre": 2060,
    "Ġpervers": 11786,
    "Ġframed": 19055,
    "Ġcetace": 14990,
    "Ġschemes": 11132,
    "Ġbeh": 1799,
    "Ġintrusion": 12769,
    "gment": 4392,
    "trem": 17682,
    "civil": 7798,
    "prior": 21035,
    "Ġwretchedly": 19509,
    "85": 13684,
    "Ġpalpit": 16691,
    "Ġtoe": 13938,
    "Ç": 136,
    "Ġadieus": 25113,
    "Ġuntidy": 23524,
    "Ġmeanly": 12913,
    "plicable": 10257,
    "Ġutterance": 14766,
    "Ġfain": 5809,
    "Ġsuperficial": 23457,
    "Ġplight": 14284,
    "tanh": 5204,
    "stricken": 9886,
    "Ġnarrations": 24351,
    "Ġexhaustion": 14963,
    "abled": 12798,
    "angular": 11726,
    "Ġhapp": 1091,
    "oned": 4631,
    "han": 12476,
    "rily": 7623,
    "Ġexponentially": 1444,
    "ox": 9135,
    "Ġgermany": 25786,
    "Ġdons": 17890,
    "Ġcave": 10786,
    "Ġjail": 22299,
    "conspicuous": 26249,
    "Ġhears": 8140,
    "reluct": 26164,
    "Ġaround": 3608,
    "Ġpurposes": 11169,
    "usions": 6161,
    "nnight": 20995,
    "umbrance": 22123,
    "became": 10516,
    "thence": 23403,
    "include": 23591,
    "pride": 11211,
    "Ġpenny": 16315,
    "Ġwater": 1945,
    "Ġaven": 10760,
    "Ġquarrelling": 13501,
    "ibility": 2392,
    "Ġgreenhorn": 23771,
    "Ġtread": 9411,
    "legs": 13185,
    "doors": 19096,
    "Ġdecomp": 3809,
    "mical": 9130,
    "Ġjaws": 5592,
    "appropri": 22847,
    "Ġdeportment": 22596,
    "approach": 24834,
    "Ġorgans": 15868,
    "Ġexecuted": 9474,
    "Ġsweetly": 23922,
    "Ġindic": 2890,
    "revol": 12544,
    "Ġstrat": 16092,
    "Ġsought": 5010,
    "Ġinh": 10825,
    "shoulder": 16585,
    "Ġbehaves": 23302,
    "¨": 106,
    "agues": 8162,
    "Ġproposition": 23253,
    "Ġafforded": 8030,
    "Ġstricken": 9778,
    "Ġtranslation": 3089,
    "isance": 17849,
    "Ġdiverted": 14593,
    "Ġhauling": 14089,
    "puff": 21024,
    "Ġsovere": 9258,
    "surprise": 9532,
    "Ġfocused": 16343,
    "Ġglimpses": 13435,
    "Ġinsects": 25647,
    "Ġestim": 3348,
    "Ġtackles": 8052,
    "stead": 10847,
    "weary": 22690,
    "cooper": 19192,
    "stee": 21649,
    "Ġdistrusted": 13544,
    "rush": 7012,
    "Ġbrighter": 16189,
    "Ġsupplying": 19801,
    "Ġaddison": 14234,
    "rusion": 11324,
    "Ġwickedness": 9528,
    "line": 1441,
    "Ġfanned": 19101,
    "Ġraised": 4661,
    "_.âĢĻâĢĿ": 17481,
    "Ġdrinks": 24281,
    "Ġtong": 4870,
    "wic": 21123,
    "enborough": 21288,
    "Ġunreasoning": 15848,
    "goose": 19103,
    "ulls": 8841,
    "apart": 15964,
    "itics": 13874,
    "place": 4150,
    "Ġgone": 2110,
    "Ġcarn": 17823,
    "Ġmoderation": 12822,
    "rows": 6443,
    "Ġcrane": 23439,
    "bles": 7019,
    "Ġslept": 8260,
    "allest": 5485,
    "Ġunassuming": 20512,
    "estab": 14172,
    "lays": 14924,
    "Ġhawaiian": 25367,
    "Ġpresto": 22235,
    "Ġirene": 8446,
    "Ġmarshy": 20221,
    "carp": 9112,
    "Ġrelics": 16198,
    "Ġunrem": 18245,
    "uv": 6231,
    "ength": 2313,
    "herald": 22212,
    "Ġdecipher": 22460,
    "unciation": 25983,
    "shook": 19858,
    "Ġpeeping": 16130,
    "activity": 22635,
    "Ġ72": 19614,
    "etus": 21582,
    "z": 94,
    "Ġdumbly": 24990,
    "lab": 3454,
    "nect": 663,
    "Ġvineyards": 25109,
    "Ġblood": 3171,
    "revenge": 13844,
    "gyric": 19111,
    "Ġswung": 6450,
    "Ġ36": 14770,
    "Ġtranquilly": 12293,
    "Ġfals": 15584,
    "fleet": 15015,
    "Ġprelimin": 8863,
    "Ġenorm": 5304,
    "presume": 25670,
    "Ġcor": 1323,
    "Ġunlocking": 20708,
    "umul": 1287,
    "ld": 385,
    "Ġattending": 3285,
    "Ġinquest": 16548,
    "Ġhunt": 6185,
    "Ġdistrustful": 25057,
    "Ġincensed": 18573,
    "Ġfrederick": 15590,
    "Ġbaron": 19336,
    "velling": 14765,
    "resum": 17762,
    "Ġencode": 4365,
    "ot": 346,
    "searching": 25106,
    "Ġejaculation": 20257,
    "Ġcistern": 17383,
    "Ġsemblance": 20736,
    "Ġwaved": 9646,
    "Ġnames": 4534,
    "mantel": 26395,
    "Ġappear": 2483,
    "nobody": 16145,
    "Ġboarders": 16601,
    "lodged": 25908,
    "Ġsty": 6253,
    "Ġdepos": 11005,
    "nades": 20999,
    "Ġcategor": 4136,
    "Ġprize": 11951,
    "Ġthursday": 12648,
    "illuminated": 17455,
    "charming": 15709,
    "Ġknowest": 12867,
    "Ġcous": 3435,
    "Ġpow": 4638,
    "Ġlatitude": 8330,
    "Ġaugmentation": 20119,
    "ouder": 17902,
    "Ġquestion": 2777,
    "Ġmagnitudes": 3821,
    "Ġgritted": 22809,
    "ispens": 8337,
    "Ġtolland": 24993,
    "Ġdespondency": 16579,
    "Ġardently": 9500,
    "Ġerud": 20058,
    "Ġexercised": 24800,
    "Ġquite": 1741,
    "Ġcausal": 3410,
    "Ġlabours": 8586,
    "Ġelephants": 9866,
    "Ġpresenting": 18989,
    "eminence": 20102,
    "Ġinfluences": 14867,
    "adie": 18091,
    "shell": 16289,
    "fordshire": 4677,
    "Ġadvantageously": 19548,
    "Ġlearnedly": 23389,
    "Ġbur": 2695,
    "Ġexpanse": 14294,
    "sings": 4250,
    "Ġgossiping": 26245,
    "Ġsulphur": 24934,
    "Ġreminisc": 18727,
    "Ġbachel": 7159,
    "Ġ2026": 12338,
    "Ġtore": 6532,
    "lorn": 12491,
    "desper": 13222,
    "Ġniece": 5712,
    "Ġnour": 10831,
    "glim": 19368,
    "Ġpassions": 7931,
    "Ġdeact": 18138,
    "Ġengine": 1917,
    "Ġcocoa": 25483,
    "Ġreveren": 13198,
    "inquir": 9538,
    "Ġplumber": 16088,
    "Ġwhoa": 22425,
    "Ġprocess": 563,
    "entle": 1739,
    "Ġfinest": 10394,
    "Ġfellows": 8258,
    "Ġprofane": 13155,
    "Ġconsoled": 18115,
    "Ġcomb": 1082,
    "cont": 2924,
    "Ġdefendants": 15143,
    "\"": 6,
    "Ġfetch": 7771,
    "fortunate": 4792,
    "Ġyards": 5371,
    "desponding": 26343,
    "Ġpavement": 9579,
    "iscre": 17852,
    "Ġshrubbery": 18233,
    "whilst": 18372,
    "Ġsolitary": 5856,
    "snatched": 24851,
    "hies": 17561,
    "Ġhelen": 16657,
    "better": 7121,
    "elzebub": 26465,
    "Ġlane": 5627,
    "Ġandrew": 21511,
    "confused": 19642,
    "ardy": 22161,
    "Ġchristendom": 16695,
    "Ġme": 353,
    "helping": 23147,
    "Ġwears": 10242,
    "Ġdestructive": 23488,
    "Ġaveraging": 2420,
    "Ġyard": 5923,
    "corner": 13400,
    "Ġhang": 9189,
    "learnt": 23584,
    "Ġcurios": 18855,
    "yea": 23092,
    "Ġfoot": 3165,
    "spanish": 14332,
    "comput": 2025,
    "Ġacquirement": 19257,
    "Ġchemistry": 11461,
    "Ġwife": 2587,
    "anesc": 21363,
    "cares": 24310,
    "particip": 23618,
    "Ġbeef": 6830,
    "gone": 6505,
    "gam": 10097,
    "discovering": 24253,
    "acon": 10683,
    "Ġshri": 5375,
    "ispensable": 9098,
    "lantern": 17430,
    "Ġabstraction": 26540,
    "ichron": 22173,
    "Ġposture": 24166,
    "Ġpetrified": 19599,
    "Ġinside": 5448,
    "pursue": 24978,
    "Ġguests": 12290,
    "Ġdeprec": 15761,
    "Ġerecting": 24653,
    "bo": 1690,
    "Ġruins": 16161,
    "Ġdependent": 14291,
    "Ġtravels": 11930,
    "Ġwal": 6518,
    "Ġbrewed": 23350,
    "odhead": 18120,
    "inforcement": 2902,
    "etuous": 21587,
    "G": 43,
    "wicked": 24448,
    "Ġitalian": 12413,
    "Ġheh": 21684,
    "anyth": 5438,
    "Ġdiminish": 14748,
    "Ġdaughter": 2872,
    "Ġcopies": 24938,
    "sartain": 25623,
    "swam": 24256,
    "âĢĶâĢľ": 2973,
    "Ġeyebrows": 23517,
    "speaks": 19722,
    "Ġfearing": 12819,
    "Ġarrest": 7409,
    "harpooneer": 8692,
    "Ġimagenet": 19248,
    "ra": 314,
    "roar": 17955,
    "Ġascend": 9962,
    "icuous": 10836,
    "unicorn": 21894,
    "Ġauthentic": 20538,
    "Ġdetected": 18822,
    "Ġprognost": 15284,
    "Ġlizz": 21561,
    "Ġbrigandish": 25488,
    "Ġquarters": 8623,
    "Ġchink": 15935,
    "chers": 11318,
    "Ġstrive": 23692,
    "fearing": 18530,
    "Ġpowdered": 24239,
    "umst": 2503,
    "Ġabundance": 17157,
    "uncont": 15777,
    "Ġrepetition": 8974,
    "ulpt": 10886,
    "Ġcash": 9654,
    "Ġarchitects": 18738,
    "Ġefficient": 1042,
    "gird": 20881,
    "Ġclimate": 9277,
    "solut": 3363,
    "Ġhabitation": 14805,
    "Ġdetermining": 14423,
    "Ġunpardonable": 22067,
    "Ġrack": 9315,
    "belled": 24039,
    "apprehension": 26115,
    "everywhere": 23697,
    "useful": 16503,
    "Ġcomfortless": 23916,
    "Ġhor": 1663,
    "plate": 18200,
    "Ġgales": 12669,
    "thereby": 14449,
    "Ġnearest": 8473,
    "grampus": 18618,
    "Ġbohem": 8529,
    "iate": 6506,
    "Ġprofession": 6209,
    "tro": 15435,
    "Ġunduly": 25995,
    "Ġroads": 13292,
    "lone": 11501,
    "Ġregression": 4410,
    "Ġdents": 13913,
    "batross": 9095,
    "Ġvoices": 7878,
    "Ġhunters": 6302,
    "Ġbackgammon": 22668,
    "reckoning": 25271,
    "Ġjury": 5378,
    "Ġsensible": 4976,
    "delay": 16696,
    "J": 46,
    "Ġinquisitive": 26318,
    "adding": 21766,
    "Ġtash": 13822,
    "Ġrephrased": 26478,
    "sworn": 24258,
    "Ġmorning": 1747,
    "Ġsustain": 10019,
    "irmed": 9241,
    "Ġenlightened": 12750,
    "Ġseconds": 16393,
    "ench": 21282,
    "itching": 21338,
    "ny": 4014,
    "Ġduc": 4697,
    "Ġattend": 5035,
    "imens": 1746,
    "Ġdreamt": 23942,
    "chorus": 19814,
    "Ġjig": 15954,
    "Ġhighway": 14348,
    "Ġpossesses": 19355,
    "Ġharpoone": 2915,
    "turn": 4292,
    "paint": 21020,
    "Ġwhereas": 3854,
    "Ġindependence": 12108,
    "Ġentrance": 7233,
    "rages": 15684,
    "Ġcalm": 3445,
    "Ġpoultry": 17443,
    "Ġgrimes": 11035,
    "Ġrending": 19470,
    "Ġcanv": 7011,
    "buckets": 26124,
    "Ġsoothed": 10031,
    "cooks": 25070,
    "flying": 13723,
    "rus": 5932,
    "Ġcombination": 22875,
    "goodness": 19290,
    "po": 1139,
    "Ġaccelerating": 1618,
    "oured": 2670,
    "Ġsquaw": 22843,
    "imodal": 17449,
    "Ġsick": 4693,
    "screw": 9349,
    "consequ": 18503,
    "tail": 8765,
    "Ġres": 696,
    "mut": 17596,
    "lotts": 23829,
    "İ": 241,
    "Ġecon": 9679,
    "!": 5,
    "Ġoriginal": 6104,
    "Ġoutbreak": 22322,
    "Ġhurriedly": 11249,
    "Ġtragedies": 25242,
    "Ġclaims": 13376,
    "lect": 1224,
    "Ġovercame": 9745,
    "Ġshrunk": 16719,
    "aught": 2678,
    "Ġlighter": 12657,
    "Ġbou": 17854,
    "Ġrecounted": 22729,
    "Ġunwarrant": 19936,
    "(": 12,
    "Ġreport": 6193,
    "Ġ>": 21154,
    "Ġa": 263,
    "Ġmystery": 5509,
    "Ġrav": 14310,
    "grie": 12474,
    "transformers": 8718,
    "onts": 15521,
    "Ġsynd": 22207,
    "ivable": 10911,
    "text": 1970,
    "Ġdarker": 13123,
    "izer": 2031,
    "Ġbanks": 6815,
    "foot": 9048,
    "Ġfif": 4214,
    "Ĩ": 233,
    "one": 614,
    "Ġdejection": 15199,
    "Ġward": 10157,
    "£": 101,
    "Ġfit": 3682,
    "Ġtwos": 18657,
    "Ġrounds": 18887,
    "Ġdomineer": 23708,
    "Ġwrapped": 8343,
    "Ġdefe": 21840,
    "Ġfagged": 17884,
    "ressed": 3024,
    "Ġstraighten": 24007,
    "Ġmounted": 7833,
    "Ġmocking": 24006,
    "Ġhemp": 9217,
    "gives": 15360,
    "garden": 15027,
    "Ġmutually": 23960,
    "Ġidea": 2485,
    "Ġchoke": 22254,
    "Ġfriends": 2653,
    "ú": 187,
    "Ġmended": 21316,
    "stayed": 25291,
    "Ġvices": 14085,
    "evid": 11486,
    "Ġstruct": 2783,
    "ulties": 12908,
    "neurons": 3139,
    "gu": 3953,
    "Ġnaught": 8129,
    "ackinaw": 22430,
    "insensibility": 23074,
    "boiling": 19001,
    "andes": 18154,
    "Ġwrap": 24596,
    "Ġvacancies": 24344,
    "Ġbeside": 5192,
    "Ġfrightened": 5342,
    "ergy": 2361,
    "onies": 6807,
    "Ġinsince": 23678,
    "Ġtakings": 20575,
    "orated": 12595,
    "Ġenumerating": 15247,
    "abases": 3008,
    "Ġscriptures": 26237,
    "got": 6955,
    "Ġunaffected": 14124,
    "gorge": 22342,
    "Ġbaffled": 12406,
    "Ġale": 9156,
    "irious": 15789,
    "original": 9087,
    "Ġneedle": 8276,
    "poor": 6063,
    "inqu": 6123,
    "Ġmoored": 11795,
    "queen": 12731,
    "gaining": 20127,
    "lake": 13751,
    "Ġbumps": 21395,
    "Ġgerman": 6143,
    "Ġsmilingly": 22566,
    "Ġgenerating": 12852,
    "Ġloitered": 26526,
    "Ġunreasonably": 17453,
    "Ġcorn": 9352,
    "owed": 2271,
    "Ġtho": 21518,
    "initely": 7569,
    "Ġscreen": 17207,
    "Ġthrust": 5084,
    "Ġahead": 6665,
    "Ġpequod": 2322,
    "Ġrestrained": 16375,
    "Ġirregularly": 25324,
    "Ġusurpation": 18359,
    "unted": 6999,
    "Ġresisted": 22546,
    "Ġger": 21595,
    "arthy": 4823,
    "Ġtend": 6122,
    "Ġlodging": 24095,
    "?_": 8071,
    "irm": 3109,
    "pshaw": 21030,
    "aken": 1867,
    "Ġcoll": 8222,
    "Ġbeasts": 10619,
    "Ġchilled": 18383,
    "Ġuncont": 14118,
    "Ġpersistence": 2808,
    "crated": 16684,
    "igations": 18045,
    "Ġcreeping": 18683,
    "ceremony": 20593,
    "Ġassistance": 6335,
    "delight": 5345,
    "enit": 17780,
    "Ġoxford": 11372,
    "Ġsudden": 1999,
    "pening": 2834,
    "only": 3308,
    "Ġnose": 4404,
    "Ġpresuming": 16794,
    "Ġgrop": 12668,
    "amb": 5723,
    "Ġbowsprit": 16562,
    "Ġfevers": 22214,
    "southern": 20412,
    "Ġapartment": 6636,
    "Ġhaze": 18197,
    "Ġencouraged": 9357,
    "Ġrio": 23894,
    "Ġtheatre": 21281,
    "Ġbump": 9661,
    "Ġchaplain": 19914,
    "Ġwont": 9854,
    "Ġfads": 21420,
    "cannibal": 15227,
    "Ġakin": 15497,
    "reg": 2188,
    "Ġcler": 11775,
    "Ġstilly": 25974,
    "Ġsettles": 22924,
    "aked": 2015,
    "Ġbusier": 23342,
    "som": 3292,
    "Ã¦us": 14819,
    "atered": 22012,
    "Ġfever": 6560,
    "Ġimm": 3961,
    "Ġdistinctions": 18536,
    "Ġscoresby": 10462,
    "Ġfolding": 19729,
    "Ġspe": 821,
    "Ġawake": 8273,
    "Ġwake": 4749,
    "Ġnewspapers": 17188,
    "ĠĠĠĠĠĠĠĠĠĠĠĠĠĠĠĠĠĠĠĠĠĠĠĠĠ": 24441,
    "evening": 7091,
    "Ġq": 1087,
    "treatment": 20415,
    "Ġwatchful": 16527,
    "Ġfeathers": 15122,
    "Ġcontinuous": 1560,
    "Ġegyptians": 25290,
    "Ġgums": 21615,
    "Ġbouquet": 20686,
    "Ġsavoury": 23880,
    "Ġsteamer": 17190,
    "vens": 21115,
    "Ġinequalities": 26454,
    "Ġmultitudinous": 26275,
    "Ġpreceded": 13431,
    "brown": 15320,
    "Ġpalsy": 25779,
    "fish": 3513,
    "Ġconvey": 9983,
    "ondon": 2704,
    "three": 5239,
    "Ġvigour": 24461,
    "Ġcurtain": 14418,
    "ruined": 18341,
    "ried": 927,
    "Ġviolent": 5117,
    "despond": 19803,
    "Ġcorrespond": 6211,
    "Ġovertook": 18424,
    "._": 3222,
    "Ġponies": 21479,
    "Ġpooh": 18606,
    "blast": 9589,
    "stein": 5505,
    "Ġintentions": 10609,
    "Ġdumplings": 15193,
    "Ġperched": 10301,
    "transp": 24508,
    "Ġrules": 1916,
    "visits": 24225,
    "determine": 19947,
    "Ġhas": 825,
    "Ġapproached": 5844,
    "grand": 7971,
    "address": 14883,
    "Ġanimate": 23425,
    "Ġunprofitable": 18268,
    "Ġrefreshment": 17241,
    "Ġhalloa": 13320,
    "Ġrefused": 6717,
    "irectly": 6940,
    "Ġcedar": 15191,
    "!_": 7329,
    "lengthwise": 19953,
    "Ġquies": 18465,
    "Ġbildad": 3779,
    "Ġovercome": 6045,
    "Ġ181": 23899,
    "neying": 22463,
    "Ġencoding": 4774,
    "Ġpod": 15607,
    "course": 6106,
    "izzy": 3097,
    "antled": 18287,
    "Ġcruelty": 9971,
    "Ġunsophisticated": 25993,
    "Ġreappeared": 21669,
    "Ġmuslin": 19386,
    "Ġmaj": 3924,
    "Ġdrops": 9034,
    "Ġintegration": 9870,
    "Ġyore": 21783,
    "shape": 10982,
    "Ġexec": 19495,
    "Ġparameters": 993,
    "Ġmoisture": 12362,
    "pleasantness": 19773,
    "Ġupstairs": 5837,
    "Ġpermission": 9281,
    "overing": 6308,
    "Ġliv": 6681,
    "Ġarchbishop": 18716,
    "ask": 856,
    "Ġforgetfulness": 14607,
    "haven": 20914,
    "Ġrevisit": 21674,
    "Ġinstrument": 7120,
    "Ġalpine": 18108,
    "Ġfashion": 4298,
    "Ġvineyard": 12333,
    "Ġbucket": 8791,
    "Ġsensit": 2949,
    "âĢĻ": 378,
    "Ġbarrels": 9438,
    "Ġperish": 8877,
    "zwilliam": 5074,
    "Ġbottomless": 12110,
    "Ġcanopy": 18323,
    "Ġdespairing": 14776,
    "imately": 12692,
    "Ġmaimed": 21319,
    "solved": 7687,
    "oker": 10964,
    "Ġhateful": 19716,
    "Ġluckless": 16798,
    "Ġlifetime": 13605,
    "Ġrecourse": 22730,
    "orum": 12594,
    "Ġaccompanied": 6781,
    "Ġbug": 11591,
    "slee": 17170,
    "Ġchips": 14183,
    "churning": 21701,
    "Ġlapl": 19780,
    "Ġexcel": 3564,
    "Ġjagged": 18408,
    "ougher": 18277,
    "Ġimpropri": 14218,
    "Ġtenderest": 23550,
    "Ġlordly": 23747,
    "pulled": 25148,
    "Ġclerval": 4654,
    "Ġfollowed": 1791,
    "idual": 1558,
    "ret": 1477,
    "Ġ[\"": 19933,
    "Ġtrem": 6662,
    "pense": 10370,
    "alarmed": 21507,
    "Ġdenny": 9003,
    "skylight": 25624,
    "Ġpartially": 13126,
    "pervading": 18979,
    "dreadful": 11422,
    "Ġwooing": 19437,
    "Ġ95": 19776,
    "Ġgladstone": 23872,
    "Ġcrows": 24034,
    "Ġannouncement": 14835,
    "Ġpinioned": 21486,
    "Ġsatire": 22907,
    "Ġishmael": 7395,
    "mbly": 9788,
    "Ġox": 7154,
    "Ġghostly": 24651,
    "Ġstring": 11830,
    "Ġunwarranted": 24831,
    "Ġpioneer": 17919,
    "Ġdoze": 14178,
    "Ķ": 247,
    "la": 10706,
    "earliest": 20123,
    "se": 358,
    "Ġconcil": 23325,
    "enial": 17781,
    "there": 1426,
    "Ġleaped": 8829,
    "ipping": 2210,
    "ent": 305,
    "Ġnone": 3225,
    "lydon": 13991,
    "cele": 21629,
    "ĠâĢľ": 516,
    "Ġstrata": 26028,
    "language": 5129,
    "Ġsugg": 4501,
    "ar": 285,
    "Ġcorroded": 18878,
    "Ġap": 5008,
    "Ġconsolidation": 5060,
    "meryton": 10113,
    "Ġshelter": 17009,
    "Ġcastors": 23979,
    "Ġripple": 25505,
    "swelled": 19613,
    "Ġstaring": 8828,
    "Ġarrival": 4731,
    "scra": 13026,
    "kington": 11204,
    "Ġhinge": 25542,
    "Ġqueequeg": 2012,
    "anc": 6380,
    "mont": 19171,
    "Ġhadn": 9721,
    "carrying": 16714,
    "grateful": 10429,
    "Ġparallel": 1414,
    "Ġsnatch": 14640,
    "Ġpeg": 22693,
    "etymology": 14703,
    "recover": 24624,
    "Ġassiduous": 26294,
    "pump": 21019,
    "ortations": 22263,
    "business": 5609,
    "Ġenhancement": 23716,
    "Ġstained": 11654,
    "Ġjavelins": 26106,
    "Ġsafe": 5103,
    "Ġwest": 5219,
    "Ġsolved": 8933,
    "om": 316,
    "Ġimmaculate": 19489,
    "Ġderiv": 1737,
    "Ġlone": 11615,
    "Ġtreacherous": 13557,
    "Ġpalace": 16690,
    "ibid": 18843,
    "Ġcommenced": 8534,
    "Ġinverted": 12641,
    "fight": 17539,
    "lynes": 15707,
    "Ġrepublican": 17414,
    "Ġupset": 22158,
    "Ġbad": 3985,
    "Ġaccounted": 10296,
    "Ġmors": 17803,
    "Ġcheck": 7271,
    "unhes": 21880,
    "Ġprefer": 6417,
    "indifference": 15985,
    "sam": 21054,
    "Ġindispensable": 11905,
    "ishments": 9275,
    "joint": 24012,
    "etence": 21581,
    "whips": 22243,
    "Ġmovable": 22438,
    "honorable": 19903,
    "worm": 15455,
    "anch": 15563,
    "op": 657,
    "Ġobedience": 11414,
    "ishly": 14201,
    "arm": 1358,
    "Ġcolle": 8927,
    "]]": 5205,
    "round": 3367,
    "Ġsurviv": 13438,
    "muring": 17602,
    "venty": 6428,
    "Ġday": 957,
    "Ġsinking": 7307,
    "hind": 20896,
    "Ġlake": 5227,
    "att": 1457,
    "Ġjoyous": 14665,
    "Ġinconveniences": 24942,
    "Ġwore": 6378,
    "Ġbecome": 3161,
    "Ġvit": 10247,
    "Ġregard": 3069,
    "Ġunexpected": 6841,
    "Ġcanes": 22168,
    "rasing": 21048,
    "Ġthoughtless": 16195,
    "Ġharpoon": 3613,
    "Ļ": 252,
    "Ġblew": 9047,
    "complaisance": 24808,
    "?--": 15306,
    "proper": 7472,
    ",âĢĶâĢĺ": 23805,
    "zes": 11550,
    "Ġsimpler": 2049,
    "hro": 20893,
    "ainted": 3657,
    "Ġvoid": 14088,
    "Ġsignal": 5947,
    "Ġcherished": 10592,
    "fear": 8516,
    "Ġhairs": 13234,
    "Ġnail": 9197,
    "ifle": 10892,
    "Ġflatter": 9350,
    "laugh": 10110,
    "horner": 23616,
    "cabin": 8364,
    "painter": 24897,
    "curiosity": 8627,
    "Ġinherited": 25354,
    "Ġtreating": 4283,
    "Ġshops": 22006,
    "az": 2186,
    "gerine": 22893,
    "venth": 9297,
    "Ġshining": 8173,
    "jewel": 20349,
    "mou": 10709,
    "Ġdestroyed": 5272,
    "bro": 4032,
    "Ġabominate": 20068,
    "Ġincites": 22557,
    "sales": 17668,
    "Ġfranc": 16354,
    "advance": 12160,
    "Ġpaced": 7585,
    "holmes": 4432,
    "Ġseam": 3906,
    "Ġconsulting": 13432,
    "Ġdeified": 18140,
    "Ġbeliever": 25850,
    "Ġlabelled": 23334,
    "ruction": 4358,
    "Ġexposing": 11835,
    "Ġfunny": 7639,
    "Ġwhiff": 21722,
    "acit": 16065,
    "Ġwaned": 17793,
    "elope": 14463,
    "itan": 10161,
    "urmount": 13998,
    "Ġprices": 15615,
    "Ġbloody": 9890,
    "Ġsnarl": 25714,
    "Ġbrooding": 18909,
    "Ġfacet": 15588,
    "Ġsledge": 8112,
    "adow": 18090,
    "Ġappeals": 16317,
    "Ġmetaphysical": 26071,
    "Ġlicensing": 20096,
    "Ġosc": 2837,
    "Ġuncl": 22021,
    "onomy": 12551,
    "oric": 21399,
    "Ġwondered": 11126,
    "Ġlighten": 23263,
    "Ġvowed": 14086,
    "Ġconsecrate": 26490,
    "Ġown": 1009,
    "Ġeavesdroppers": 25964,
    "brÃ¦": 11176,
    "isle": 13894,
    "Ġhammered": 13243,
    "Ġarchipelagoes": 14350,
    "Ġthinking": 4029,
    "Ġfowls": 8694,
    "Ġindu": 5295,
    "lighter": 20961,
    "Ġghast": 9211,
    "pl": 401,
    "Ġducking": 17148,
    "Ġspect": 3549,
    "Ġfrequencies": 4789,
    "Ġdespatched": 23833,
    "value": 18810,
    "Ġbusy": 6191,
    "fters": 20863,
    "salis": 25150,
    "admire": 24946,
    "ensation": 22551,
    "Ġnormalizes": 1861,
    "Ľ": 254,
    "Ġbackstays": 22667,
    "amouch": 21850,
    "rabbit": 20594,
    "Ġoutline": 15957,
    "uttural": 21593,
    "ouble": 2659,
    "aug": 1216,
    "aution": 9389,
    "ancient": 9657,
    "prec": 3204,
    "figures": 20125,
    "Ġstraightened": 12112,
    "zz": 4293,
    "Ġoakum": 16935,
    "contin": 16543,
    "Ġamazed": 14891,
    "iles": 2864,
    "appo": 3912,
    "Ġgirdle": 19160,
    "compared": 24036,
    "iscient": 17853,
    "breat": 10080,
    "giving": 8742,
    "Ġpoul": 15616,
    "awe": 20767,
    "Ġsaintly": 25932,
    "Ġdisappears": 18561,
    "Ġkink": 22198,
    "Ġpastures": 23422,
    "lux": 14228,
    "Ġhumble": 8554,
    "Ġlabeled": 3715,
    "geor": 15978,
    "Ġgothic": 18002,
    "bweb": 20793,
    "ortment": 22262,
    "meeting": 11020,
    "devilish": 17082,
    "Ġinvolved": 8926,
    "Ġbethink": 12382,
    "mber": 5850,
    "Ġharrow": 17928,
    "Ġoffer": 4844,
    "Ġpistols": 17331,
    "ound": 584,
    "verd": 21732,
    "Ġaffected": 5576,
    "pron": 9008,
    "Ġnightmare": 18921,
    "fourth": 11329,
    "ushes": 22286,
    "Ġgratified": 8022,
    "Ġmisfortune": 5568,
    "stochastic": 3771,
    "Ġslip": 8956,
    "iating": 3208,
    "Ġoutward": 7905,
    "room": 2183,
    "Ġindiam": 22959,
    "Ġstrengthen": 20703,
    "Ġmarvels": 11085,
    "Ġtattooing": 15029,
    "Ġabrupt": 9738,
    "law": 6117,
    "situation": 11438,
    "Ġtraits": 23080,
    "ienced": 5685,
    "Ġrats": 21981,
    "Ġwan": 15530,
    "Ġjones": 7204,
    "Ġfet": 5808,
    "Ġaccepted": 7752,
    "Ġenabled": 9298,
    "construction": 19781,
    "Ġgover": 2460,
    "Ġenvironments": 24139,
    "aves": 3596,
    "Ġparametric": 2397,
    "Ġincredulity": 11312,
    "Ġmeanings": 18609,
    "con": 653,
    "Ġdiscovery": 5412,
    "Ġcontest": 18474,
    "ative": 741,
    "etime": 12663,
    "Ġexaggerate": 25650,
    "Ġcharge": 5325,
    "proud": 9906,
    "Ġoaken": 13867,
    "Ġmethods": 3163,
    "crowded": 20193,
    "nine": 13763,
    "Ġreefed": 20305,
    "Ġcheap": 13092,
    "problems": 11435,
    "unct": 18157,
    "simon": 16974,
    "Ġliter": 8815,
    "Ġameric": 3852,
    "Ġappropri": 2229,
    "wood": 5900,
    "injustice": 17738,
    "Ġpage": 6979,
    "Ġcomplement": 23712,
    "Ġtour": 9149,
    "Ġimpulses": 19965,
    "Ġwafted": 14499,
    "honest": 17004,
    "Ġseverely": 14935,
    "Ġjoin": 4854,
    "vapor": 25756,
    "thoughts": 9937,
    "Ġhospit": 7515,
    "Ġmeasures": 1210,
    "Ġdream": 3535,
    "Ġgoing": 2067,
    "Ġimmedi": 2908,
    "Ġdisappeared": 5645,
    "merit": 19283,
    "Ġconfident": 11139,
    "Ġunansw": 22063,
    "beh": 5472,
    "harmony": 25751,
    "syntax": 5868,
    "sustained": 20571,
    "ensical": 18569,
    "Ġvariations": 22670,
    "Ġunfrequ": 19511,
    "Ġtheorem": 2327,
    "|": 96,
    "fts": 18701,
    "iv": 430,
    "inction": 6663,
    "Ġrenders": 13287,
    "Ġstave": 11653,
    "Ġconquered": 14028,
    "might": 4075,
    "Ġreplay": 5047,
    "boilers": 26298,
    "suspect": 9542,
    "Ġdromedary": 17441,
    "omn": 15693,
    "Ġcame": 1300,
    "Ġate": 8843,
    "Ġwilds": 16510,
    "Ġderbyshire": 6588,
    "indifferent": 14210,
    "aby": 18109,
    "Ġequally": 5258,
    "Ġservox": 23873,
    "Ġroot": 2649,
    "Ġsubsequent": 7661,
    "Ġrested": 9381,
    ".*": 7331,
    "queer": 10363,
    "Ġmaritime": 23044,
    "Ġreef": 10850,
    "Ġstrict": 7222,
    "Ġdog": 4190,
    "Ġdoubling": 23323,
    "guilty": 19486,
    "plentiful": 21961,
    "burn": 8372,
    "Ġdexterous": 15151,
    "python": 4692,
    "Ġbeacon": 21761,
    "Ġfancy": 3742,
    "Ġdespair": 4007,
    "Ġsoot": 14131,
    "Ġdescried": 7921,
    "advancing": 14838,
    "Ġembeddings": 2022,
    "Ġveracity": 23892,
    "Ġdisgu": 8207,
    "lun": 20948,
    "assistance": 20374,
    "Ġmurderous": 8317,
    "Ġcongratulatory": 19770,
    "gen": 6504,
    "furnished": 20244,
    "Ġparasol": 22126,
    "Ġcomplying": 18590,
    "ercial": 21277,
    "Ġpropont": 16352,
    "Ġsnapped": 9899,
    "ĠĊ": 12527,
    "Ġfavoring": 2345,
    "Ġcur": 1257,
    "Ġmott": 17805,
    "Ġsuperiors": 23456,
    "Ġconver": 806,
    "Ġfolios": 23025,
    "Ġridic": 7509,
    "Ġsmooth": 2778,
    "equally": 19901,
    "Ġvastly": 23863,
    "Ġsubmission": 22795,
    "Ġcannon": 14155,
    "silly": 24421,
    "downstairs": 23923,
    "Ġapplication": 2094,
    "bless": 22317,
    "Ġdeduced": 12211,
    "inuating": 16206,
    "Ġrod": 9282,
    "Ġoperated": 14548,
    "firm": 10699,
    "Ġverge": 23890,
    "Ġpry": 11601,
    "uine": 13801,
    "Ġcompos": 22577,
    "Ġyellow": 5302,
    "Ġunhinged": 26218,
    "Ġmedical": 9472,
    "bath": 13692,
    "coal": 12027,
    "Ġgrim": 7439,
    "5": 25,
    "verse": 9690,
    "shine": 9288,
    "Ġstri": 2802,
    "Ġturns": 4981,
    "Ġphysi": 9990,
    "retrie": 18926,
    "unfort": 21881,
    "Ġenquired": 21945,
    "Ġproceeding": 9908,
    "Ġleg": 2336,
    "arn": 357,
    "Ġimmersed": 19488,
    "penny": 22949,
    "Ġendeavors": 16547,
    "prep": 9761,
    "Ġride": 12762,
    "Ġhaven": 8476,
    "Ġenchanted": 9082,
    "bourine": 9398,
    "Ġclassifies": 11844,
    "Ġconcerned": 5332,
    "Ġconceivable": 16614,
    "Ġscience": 1541,
    "Ġextracting": 11114,
    "Ġprepared": 5879,
    "Ġhonestly": 19975,
    "Ġnight": 1465,
    "Ġcountess": 11967,
    "Ġnoses": 18374,
    "Ġincrust": 22556,
    "Ġbeware": 8831,
    "sure": 5522,
    "ise": 707,
    "Ġmannish": 26239,
    "Ġhoof": 23357,
    "Ġmorphology": 3012,
    "emberley": 4167,
    "sens": 8097,
    "during": 6788,
    "Ġhig": 754,
    "Ġexperiments": 23021,
    "Ġmien": 17810,
    "professor": 17251,
    "Ġdynamic": 5123,
    "Ġminus": 18751,
    "Ġribs": 7103,
    "Ġstraw": 9431,
    "heav": 5694,
    "wantonly": 25153,
    "buoy": 7762,
    "Ġheaven": 3364,
    "isition": 11588,
    "](": 11467,
    "Ġslighter": 18942,
    "rived": 5373,
    "otion": 4946,
    "ness": 851,
    "Ġbestowed": 6595,
    "neglected": 25669,
    "alog": 8808,
    "Ġactionable": 24559,
    "agatha": 21913,
    "Ġbumpkin": 20203,
    "determination": 19948,
    "Ġlower": 2660,
    "Ġcompassion": 6488,
    "fortunes": 6334,
    "berg": 11867,
    "Ġdomains": 6617,
    "Ġincarnation": 25574,
    "Ġdet": 510,
    "Ġdumb": 7844,
    "Ġar": 479,
    "Ġjudge": 5502,
    "Ġprogen": 14041,
    "feature": 3853,
    "reshold": 21242,
    "Ġreports": 19084,
    "tiness": 21074,
    "Ġxv": 23409,
    "rive": 9709,
    "em": 389,
    "ructure": 762,
    "Ġartful": 22613,
    "Ġrandomly": 1918,
    "subst": 12168,
    "Ġbloodshed": 23803,
    "artic": 14223,
    "hitherto": 17285,
    "Ġwarrant": 17796,
    "iless": 10283,
    "Ġmer": 2933,
    "ped": 6964,
    "mate": 5359,
    "mmet": 10990,
    "sham": 9759,
    "marry": 13327,
    "housekeeper": 24101,
    "Ġfairness": 9896,
    "Ġlingered": 13507,
    "Ġbark": 10799,
    "vulgar": 25919,
    "Ġmantelpiece": 15210,
    "them": 3020,
    "abiding": 21798,
    "Ġscarcity": 23830,
    "Ġawkwardness": 13490,
    "Ġgomorrah": 21619,
    "lyph": 10853,
    "Ġpledge": 11602,
    "Ġdau": 21429,
    "due": 22415,
    "Ġwantest": 18794,
    "ĠmanÅĵuv": 18418,
    "Ġinvade": 19144,
    "Ġtouched": 6003,
    "paus": 13775,
    "Ġsilver": 7463,
    "Ġentertain": 6056,
    "Ġgirdled": 19161,
    "Ġresounds": 22547,
    "semic": 21826,
    "Ġinference": 9673,
    "Ġcomstock": 21856,
    "Ġstaircase": 20099,
    "Ġcasket": 19727,
    "Ġchatbots": 11350,
    "Ġcanoes": 12809,
    "Ġpanthe": 19656,
    "Ġseedy": 21967,
    "Ġrhyme": 21986,
    "Ġskies": 8923,
    "Ġwast": 21869,
    "Ġprevents": 2556,
    "rupt": 3212,
    "Ġlobes": 22120,
    "Ġlunch": 13528,
    "Ġcomply": 8894,
    "thus": 5158,
    "Ġcongratulate": 9065,
    "Ġdum": 10812,
    "Ġstraining": 11328,
    "Ġpresum": 4838,
    "Ġwinding": 8237,
    "Ġtin": 15465,
    "Ġscarce": 8625,
    "Ġmomentary": 11036,
    "Ġrever": 6538,
    "Ġcrosses": 23067,
    "whatever": 6696,
    "Ġimpossibility": 20649,
    "nourished": 26399,
    "range": 3491,
    "Ġeye": 2283,
    "Ġdrowsiness": 26446,
    "ap": 546,
    "Ġentropy": 2032,
    "ances": 1336,
    "Ġanne": 1527,
    "ć": 200,
    "thank": 4950,
    "Ġlur": 5226,
    "Ġguided": 10461,
    "Ġclumsy": 9581,
    "Ġflashes": 11919,
    "ccarthy": 4888,
    "ert": 2631,
    "Ġbrink": 18773,
    "Ġjewels": 12372,
    "instinct": 19546,
    "Ġpoles": 11006,
    "wise": 2573,
    "usation": 18397,
    "Ġresolves": 23649,
    "Ġrippling": 17279,
    "Ġedition": 16456,
    "simultaneously": 19866,
    "Ġsuperb": 16443,
    "Ġroaring": 10969,
    "Ġlucifers": 16589,
    "thing": 1481,
    "guinea": 16674,
    "Ġuniformly": 19149,
    "brad": 20782,
    "dar": 20826,
    "Ġstretching": 10017,
    "Ġadduced": 26525,
    "Ġgive": 1713,
    "Ġyellowish": 24429,
    "Ġfamiliarity": 16730,
    "Ġinsist": 9892,
    "Ġcrests": 25686,
    "stays": 15691,
    "Ġserving": 14487,
    "weaving": 18666,
    "silver": 19693,
    "luding": 6702,
    "vis": 4578,
    "Ġparticulars": 5754,
    "sensibility": 25026,
    "unwillingness": 25803,
    "lesome": 12969,
    "C": 39,
    "Ġunintermitted": 26221,
    "Ġdescend": 7427,
    "Ġexplored": 23519,
    "Ġcomes": 3422,
    "Ġchr": 3686,
    "really": 6972,
    "Ġvoyager": 16513,
    "prick": 19346,
    "Ġcandidates": 4333,
    "Ġanticipatingly": 26103,
    "Ġflashed": 11917,
    "Ġnaval": 16900,
    "Ġnaturalist": 22894,
    "keeper": 5596,
    "Ġfortnight": 6202,
    "Ġfeeling": 3085,
    "Ġdeserve": 8310,
    "Ġfeminine": 15266,
    "Ġwhites": 21721,
    "Ġbachelors": 24861,
    "Ġexig": 21832,
    "shabb": 18487,
    "Ġblindly": 12113,
    "Ġsummar": 3523,
    "Ġblotted": 20220,
    "br": 2476,
    "milk": 20480,
    "reason": 4416,
    "lamp": 9610,
    "Ġhearty": 9850,
    "bly": 6112,
    "acks": 11791,
    "repe": 8780,
    "Ġnash": 5820,
    "Ġbenjam": 22896,
    "Ġfrivolous": 26177,
    "Ġduodecimo": 16768,
    "Ġwedge": 24935,
    "ted": 791,
    "Ġcompose": 12909,
    "anqu": 4107,
    "Ġgasp": 7173,
    "arab": 21445,
    "oam": 8755,
    "Ġbehav": 3537,
    "beg": 22492,
    "Ġhumor": 11052,
    "Ġpause": 5707,
    "Ġmim": 3107,
    "18": 20753,
    "machine": 998,
    "Ġmr": 661,
    "Ġdoubloons": 13437,
    "mosp": 8090,
    "Ġ**": 4721,
    "georgiana": 26021,
    "Ġcatch": 4443,
    "inte": 5144,
    "rolled": 9061,
    "Ġsallow": 12540,
    "naturalist": 23578,
    "erative": 21275,
    "Ġrescue": 13346,
    "Ġsheath": 14153,
    "Ġmercifully": 20181,
    "Ġmoss": 9286,
    "solitary": 14505,
    "appeared": 4281,
    "Ġstrain": 6026,
    "Ġdivine": 6921,
    "less": 929,
    "okers": 18443,
    "ifting": 6547,
    "clear": 9026,
    "Ġendwise": 23141,
    "Ġamber": 7028,
    "Ġprick": 14479,
    "produce": 20285,
    "í": 174,
    "wished": 13807,
    "Ġsecrets": 9056,
    "ality": 2511,
    "Ġdetermined": 2224,
    "Ġpicked": 6343,
    "Ġalas": 5924,
    "surface": 10532,
    "Ġsumat": 14137,
    "Ġwickham": 2209,
    "Ġoutlined": 22325,
    "el": 306,
    "tim": 13793,
    "inement": 11559,
    "aren": 10076,
    "distant": 13338,
    "Ġdata": 519,
    "hoping": 17567,
    "Ġgrind": 18735,
    "Ġdollars": 11456,
    "Ġblacks": 23391,
    "Ġvanish": 8930,
    "Ġfiver": 22779,
    "scale": 3532,
    "Ġsincer": 13070,
    "Ġarranging": 11175,
    "sorrows": 17322,
    "practical": 17223,
    "Ġgaff": 17996,
    "v": 90,
    "hint": 12479,
    "Ġgemini": 26470,
    "coloured": 7291,
    "acceptable": 25184,
    "ck": 437,
    "deceit": 25557,
    "Ġinstigated": 18703,
    "paralleled": 14519,
    "Ġfirmament": 19474,
    "alter": 10827,
    "Ġwhereby": 11839,
    "coo": 11171,
    "uble": 21105,
    "Ġsidel": 9637,
    "ield": 2408,
    "tribute": 21091,
    "clinging": 20824,
    "Ġbab": 5291,
    "discovery": 12019,
    "Ġ1869": 19387,
    "Ġangles": 23590,
    "others": 7672,
    "exactly": 10638,
    "everybody": 8614,
    "crimson": 24088,
    "Ġundulates": 24118,
    "Ġmomentarily": 22816,
    "Ġdesolate": 10015,
    "Ġstains": 21746,
    "Ġbetake": 22912,
    "cries": 17512,
    "sax": 21059,
    "_âĢĶâĢĻ": 13685,
    "thest": 11656,
    "ientious": 11694,
    "purposes": 25024,
    "Ġmomentous": 16173,
    "Ġconversing": 14634,
    "ę": 218,
    "Ġgaz": 4041,
    "Ġinquiries": 5678,
    "Ġencompassed": 15256,
    "Ġgans": 5822,
    "roofed": 26185,
    "Ġharris": 13929,
    "posture": 16928,
    "cellar": 20280,
    "Ġpulpit": 7470,
    "relative": 24016,
    "tra": 5002,
    "Ġminutes": 3003,
    "Ġinstantly": 3589,
    "Ġthreshold": 2810,
    "Ġask": 1492,
    "lascar": 20962,
    "mon": 2309,
    "^{": 15307,
    "Ġsqualid": 14370,
    "dense": 18717,
    "trying": 15440,
    "Ġtobacc": 7854,
    "Ġbritannica": 24681,
    "Ġunjustly": 17128,
    "Ġacceded": 22381,
    "Ġshrivelled": 19706,
    "Ġantichronical": 26610,
    "Ġalbatross": 10872,
    "Ġhap": 18196,
    "parm": 21016,
    "Ġlikes": 9410,
    "Ġclust": 9276,
    "Ġvindict": 13608,
    "ear": 8734,
    "Ġprogressive": 5024,
    "Ġfronts": 19003,
    "Ġfishing": 9664,
    "Ġembalmed": 13659,
    "Ġgovern": 10451,
    "Ġpestilent": 25778,
    "onic": 7828,
    "Ġdrew": 3534,
    "Ġtry": 3138,
    "borean": 25744,
    "Ġele": 1960,
    "Ġ9": 5903,
    "Ġmeaning": 1415,
    "Ġbrist": 14380,
    "arson": 22752,
    "Ġloungers": 24863,
    "crowd": 25255,
    "Ġgaily": 16749,
    "rudently": 16712,
    "earn": 10697,
    "Ġpacket": 14895,
    "sing": 5138,
    "ital": 4818,
    "whis": 7900,
    "ological": 1882,
    "Ġdownright": 16120,
    "Ġunexpl": 22044,
    "icate": 9203,
    "Ġavowal": 19418,
    "commotion": 24914,
    "Ġwounded": 8661,
    "luckily": 19755,
    "knowledge": 7479,
    "Ġmanxman": 9567,
    "accompanied": 12425,
    "Ġaddressed": 5263,
    "fully": 2206,
    "Ġcrooked": 11282,
    "Ġaffinity": 18791,
    "Ġdeterminate": 23010,
    "®": 111,
    "Ġrevolving": 9985,
    "assuming": 22315,
    "Ġtester": 21175,
    "Ġowing": 6007,
    "Ġlazy": 17050,
    "Ġparaph": 22125,
    "Ġaquiline": 26160,
    "Ġdiary": 24738,
    "Ġaccompl": 5167,
    "rations": 10724,
    "Ġdent": 13908,
    "leagued": 26436,
    "Ġcro": 4873,
    "Ġsturgeon": 20595,
    "Ġgodfre": 14529,
    "Ġdun": 6676,
    "Ġmant": 9649,
    "Ġcarve": 23097,
    "Ġent": 904,
    "ain": 343,
    "tles": 10731,
    "Ó": 148,
    "seemingly": 25363,
    "Ġsallied": 12541,
    "Ġfisher": 3224,
    "Ġchances": 9265,
    "cer": 6645,
    "Ġextensive": 12951,
    "Ġspot": 4151,
    "Ġfaithfully": 14889,
    "servants": 15039,
    "anct": 21361,
    "!_âĢĶ": 19976,
    "Ġprince": 18973,
    "ues": 2080,
    "Ġalarm": 4045,
    "Ġhorizontal": 7784,
    "brim": 23574,
    "sacred": 17029,
    "Ġentering": 6287,
    "Ġcatching": 9480,
    "startled": 24944,
    "ihood": 20924,
    "Ġtiller": 8967,
    "Ġexactly": 2767,
    "Ġforefinger": 16442,
    "Ġanomalous": 25638,
    "uneven": 23684,
    "Ġsuspending": 19246,
    "Ġadvertise": 25389,
    "ring": 1751,
    "hun": 5210,
    "characteristic": 24686,
    "Ġmourning": 13481,
    "Ġprecious": 5760,
    "Ġswelled": 11090,
    "Ġlieu": 19567,
    "Ġwollstonecraft": 26426,
    "Ġdispel": 16597,
    "Ġfaded": 10810,
    "Ġcasement": 25095,
    "Ġregained": 18586,
    "suffer": 24328,
    "happening": 16566,
    "ouse": 1193,
    "Ġdense": 8124,
    "Ġrepresentations": 1873,
    "amused": 21851,
    "Ġmitt": 21310,
    "400": 20757,
    "anatory": 21366,
    "pidation": 18901,
    "who": 2445,
    "Ġic": 9627,
    "Ġhappens": 2192,
    "Ġdeliberately": 10626,
    "Ġled": 3519,
    "when": 1591,
    "discrimin": 19611,
    "Ġgrasping": 12169,
    "Ġpromises": 10402,
    "Ġjinglers": 26019,
    "Ġdramat": 23219,
    "hurry": 24762,
    "franch": 24285,
    "Ġpiling": 17911,
    "Ġrid": 4355,
    "Ġwildness": 14604,
    "Ġfifteen": 6947,
    "Ġtear": 6723,
    "Ġmysticetus": 24923,
    "domestic": 19828,
    "Ġleap": 5825,
    "Ġpermit": 9751,
    "travellers": 24338,
    "Ġadvocate": 13679,
    "scept": 21056,
    "Ġeducation": 5128,
    "Ġhish": 21919,
    "ran": 11517,
    "Ġsatisfying": 23696,
    "ensions": 14263,
    "Ġfoolscap": 24159,
    "continual": 20646,
    "gener": 3129,
    "shott": 11797,
    "Ġrecklessly": 16984,
    "Ġspool": 24803,
    "Ġrazor": 22660,
    "illed": 2623,
    "disappointed": 25192,
    "Ġfixedly": 19250,
    "detached": 19677,
    "Ġrepulsive": 14530,
    "ickering": 22674,
    "Ġcoquet": 22589,
    "Ġinquiry": 6485,
    "Ġruff": 14351,
    "perquisites": 26532,
    "Ġthrill": 24540,
    "Ġferocious": 17421,
    "Ġdishonor": 25602,
    "misrepresented": 24213,
    "Ġexperienced": 6583,
    "Ġchar": 1705,
    "Ġgoug": 17993,
    "Ġsibbald": 21233,
    "allows": 15910,
    "Ġdomineering": 23709,
    "ineer": 11702,
    "Ġanonymous": 26179,
    "Ġsagaciously": 24730,
    "jephro": 26393,
    "unknown": 10891,
    "Ġexercise": 8360,
    "rior": 12745,
    "Ġfigure": 4204,
    "Ġvaried": 11851,
    "flakes": 23971,
    "Ġguardians": 14945,
    "Ġadapted": 11040,
    "Ġshiver": 12771,
    "croquet": 25748,
    "Ġcaprice": 14577,
    "Ġreconciliation": 25293,
    "Ġevangelist": 20341,
    "Ġur": 5539,
    "cheer": 9439,
    "ines": 682,
    "fields": 14654,
    "Ġbough": 13896,
    "Ġlistened": 4471,
    "bedstead": 23935,
    "dare": 12457,
    "excellent": 8045,
    "Ġunimpeachable": 26523,
    "Ġinflicted": 11366,
    "have": 2059,
    "kered": 18275,
    "Ġaright": 11743,
    "season": 14036,
    "Ġexpert": 18864,
    "Ġcreat": 1412,
    "Ġundeviating": 15220,
    "Ġfell": 1974,
    "victim": 25531,
    "strils": 10459,
    "Ġbroker": 23106,
    "<": 32,
    "Ġbeliefs": 24582,
    "o": 83,
    "imod": 15713,
    "Ġoutstretched": 14197,
    "Ġsignification": 19205,
    "proved": 11989,
    "mortar": 25409,
    "Ġeight": 3899,
    "roman": 22009,
    "representing": 25272,
    "Ġcrisp": 12005,
    "Ġwith": 349,
    "Ġcovering": 13258,
    "Ġ100": 14367,
    "Ġdesc": 772,
    "Ġsc": 532,
    "Ġsmart": 11818,
    "bulk": 19926,
    "Ġhowl": 12859,
    "Ġdrink": 4787,
    "aws": 8238,
    "died": 11481,
    "Ġransacked": 26506,
    "Ġnumerous": 6920,
    "Ġint": 409,
    "Ġgre": 1584,
    "rison": 13781,
    "rested": 13078,
    "Ġelevates": 24499,
    "Ġextort": 22750,
    "Ġpreceding": 7529,
    "Ġsorrows": 13358,
    "Ġbible": 9321,
    "favourite": 15146,
    "Ġanaly": 1129,
    "akin": 11770,
    "Ġlizzy": 3543,
    "Ġprocession": 11778,
    "Ġbowels": 9432,
    "rivial": 9436,
    "Ġbalmy": 22911,
    "Ġeating": 8137,
    "liberal": 26283,
    "Ġmythologies": 26215,
    "empty": 23637,
    "Ġengagement": 5397,
    "Ġconsuming": 22797,
    "Ġscreaming": 13426,
    "sery": 17662,
    "Ġsilken": 16381,
    "Ġwhitewashed": 14471,
    "Ġmetropolis": 17276,
    "Ġparticular": 2448,
    "Ġtraffic": 23088,
    "Ġtambourine": 9566,
    "Ġbeak": 18082,
    "Ġtransition": 14246,
    "Ġperv": 15993,
    "erial": 4632,
    ".": 18,
    "Ġairy": 23321,
    "Ġtotally": 9473,
    "Ġunrestrained": 25555,
    "ards": 2504,
    "Ġhearth": 11984,
    "iliary": 21731,
    "Ġjacob": 1897,
    "Ġperemptorily": 17369,
    "onious": 15520,
    "Ġnon": 1625,
    "acle": 4715,
    "apparent": 11042,
    "Ġmechan": 1194,
    "Ġpositions": 2058,
    "affairs": 14657,
    "Ġmice": 13861,
    "Ġcorner": 4371,
    "Ġunrolled": 22043,
    "olidity": 18134,
    "Ġpetty": 19598,
    "shout": 22442,
    "Ġpredicting": 2415,
    "Ġhides": 16268,
    "Ġunh": 9255,
    "Ġabstract": 17183,
    "mangled": 20983,
    "Ġwit": 3840,
    "Ġdigesting": 19812,
    "Ġqu": 605,
    "Ġgoodly": 22825,
    "Ġprodigiously": 14934,
    "Ġresc": 4508,
    "dancing": 12458,
    "Ġsupport": 6730,
    "ause": 1314,
    "Ġsooty": 25816,
    "Ġthirty": 4944,
    "Ġintolerable": 8484,
    "Ġdecreed": 18489,
    "Ġatonement": 21947,
    "Ġsimulates": 2738,
    "Ġru": 948,
    "estations": 22233,
    "apothe": 22339,
    "engaged": 7452,
    "Ġexasper": 8469,
    "heaven": 8054,
    "Ġbowl": 11205,
    "¦": 104,
    "Ġgreek": 10633,
    "Ġspeeches": 22655,
    "Ġoptimizer": 5036,
    "Ġpatent": 11966,
    "batim": 25019,
    "Ġbod": 4582,
    "intercourse": 14639,
    "avenue": 25060,
    "spark": 18688,
    "suitableness": 26262,
    "surgeon": 24216,
    "bill": 10078,
    "Ġready": 3396,
    "Ġjing": 15952,
    "Ġbrah": 19360,
    "Ġcontains": 2792,
    "Ġdizzy": 21436,
    "Ġsafie": 6620,
    "Ġcapricious": 20541,
    "Ġapparelled": 20440,
    "Ġtells": 9363,
    "ges": 2877,
    "Ġgreatly": 5851,
    "Ġcol": 1062,
    "Ġidiot": 11974,
    "Ġsabbath": 17256,
    "client": 18934,
    "Ġstolen": 14009,
    "Ġhawk": 15176,
    "Ġexhib": 6351,
    "Ġnap": 8812,
    "lad": 5994,
    "Ġblankets": 24613,
    "metallic": 19882,
    "Ġcomplaint": 24775,
    "ß": 160,
    "thrill": 25657,
    "ropy": 1104,
    "Ġcetology": 10011,
    "Ġdipped": 15598,
    "Ġmusky": 19385,
    "Ġimprovements": 14533,
    "gradu": 18617,
    "Ġgentlemanlike": 12070,
    "Ġprivile": 8649,
    "Ġsacrificed": 17424,
    "Ġtilted": 20416,
    "Ġchap": 5936,
    "ishing": 1145,
    "Ġappellation": 22225,
    "Ġscud": 14192,
    "Ġrecommended": 8671,
    "fifty": 12355,
    "Ġerred": 21159,
    "earthly": 24723,
    "Ġdarting": 7758,
    "ven": 779,
    "Ġfrightens": 24033,
    "tarpaul": 21100,
    "Ġstrangled": 24133,
    "accept": 8892,
    "Ġstamped": 13529,
    "his": 1411,
    "Ġstopping": 2748,
    "forming": 15923,
    "Ġevol": 2816,
    "etent": 10201,
    "successful": 11359,
    "Ġstaggering": 20276,
    "Ġfetching": 16897,
    "Ġloss": 823,
    "Ġmouths": 7492,
    "Ġreproach": 9558,
    "windward": 24162,
    "ĠĠĠĠĠĠĠĠĠĠĠĠĠĠĠĠĠĠĠĠĠĠĠĠĠĠĠĠĠĠ": 24442,
    "Ġbuoy": 8005,
    "thinks": 16643,
    "ivorous": 22084,
    "fow": 20855,
    "neville": 22465,
    "Ġconstraints": 2739,
    "Ġmich": 21308,
    "asses": 7018,
    "Ġagent": 6279,
    "Ġsincerely": 7964,
    "Ġasc": 4765,
    "isher": 2881,
    "netherfield": 9815,
    "Ġoccup": 3736,
    "splice": 17172,
    "ocr": 10469,
    "hued": 20913,
    "Ġbreezes": 14871,
    "Ġtweed": 22681,
    "Ġwhalemen": 3910,
    "Ġexter": 7397,
    "Ġfed": 5529,
    "idation": 5022,
    "Ġairth": 23322,
    "Ġdelivered": 11117,
    "Ġrecollect": 8311,
    "aits": 20768,
    "Ġchildish": 13140,
    "dred": 2525,
    "Ġupon": 718,
    "Ġpract": 1810,
    "Ġmetallic": 19090,
    "mock": 5174,
    "lovel": 22516,
    "Ġprofited": 19194,
    "Ġsimon": 5172,
    "wis": 12522,
    "antage": 3877,
    "Ġdisrespect": 18554,
    "Ġ124": 24468,
    "Ġdomes": 23707,
    "hmael": 7342,
    "Ġcomfortable": 6097,
    "Ġ500": 24323,
    "Ġcath": 17828,
    "orters": 21404,
    "Ġinvaders": 23482,
    "Ġwip": 13855,
    "remark": 7261,
    "histor": 13494,
    "Ġlinn": 13955,
    "Ġglistened": 20175,
    "waist": 13421,
    "bewil": 22503,
    "ond": 1161,
    "Ġwronged": 24249,
    "mush": 20979,
    "ette": 15662,
    "Ġpag": 6013,
    "Ġpresented": 5183,
    "Ġadmirable": 8270,
    "Ġapprised": 18362,
    "Ġguessed": 11283,
    "Ġbrain": 2088,
    "Ġrascal": 11704,
    "ut": 308,
    "7": 27,
    "pute": 8848,
    "Ġsuperflu": 14555,
    "Ġgrounds": 6751,
    "prisoner": 20546,
    "Ġunden": 22018,
    "hears": 12537,
    "Ġscre": 9739,
    "remes": 21240,
    "Ġsupremacy": 20263,
    "dist": 4482,
    "Ġstepdaughter": 22616,
    "Ġarrived": 3743,
    "accompl": 9882,
    "term": 3754,
    "Ġplains": 14624,
    "Ġnovember": 11752,
    "Ġgaping": 13971,
    "Ġmyst": 4048,
    "ik": 17572,
    "Ġglowed": 24865,
    "Ġbiting": 17863,
    "Ġreason": 1352,
    "appearance": 5334,
    "Ġrestored": 7068,
    "sank": 17663,
    "elop": 1498,
    "Ġshare": 1659,
    "Ġencountered": 8323,
    "subjects": 19878,
    "Ġtawny": 20485,
    "erer": 8735,
    "Ġproof": 6155,
    "Ġegot": 18010,
    "Ġlived": 3988,
    "judging": 24203,
    "Ġfeature": 751,
    "Ġsaratoga": 26424,
    "ifying": 5235,
    "companies": 24895,
    "Ġabhor": 5467,
    "Ġgrapple": 25812,
    "Ġstupid": 7605,
    "Ġrefresh": 10344,
    "Ġ110": 24434,
    "Ġpersuade": 5874,
    "ge": 558,
    "Ġsmoothed": 23658,
    "Ġidentify": 12016,
    "Ġyarman": 12709,
    "awake": 14454,
    "Ġscheduling": 2350,
    "Ġvanity": 7047,
    "Ġdisorder": 16054,
    "Ġexcepting": 14681,
    "Ġvectors": 1770,
    "Ġnominal": 15171,
    "Ġspar": 10922,
    "Ġfrankenstein": 7097,
    "attery": 18509,
    "Ġplaything": 19240,
    "Ġaverage": 3143,
    "aston": 7408,
    "Ġget": 1623,
    "flitted": 23972,
    "Ġdrows": 21439,
    "sicilian": 21066,
    "Ġling": 7377,
    "loom": 18539,
    "Ġsingle": 1692,
    "Ġelbows": 18635,
    "Ġreco": 9790,
    "Ġprev": 6266,
    "vert": 15718,
    "Ġnoah": 10943,
    "Ġmarched": 18873,
    "worse": 14692,
    "Ġdefile": 18826,
    "crimin": 17510,
    "headsman": 16698,
    "Ġrenewed": 9540,
    "Ġdoubted": 7966,
    "Ġbarbed": 14837,
    "Ġadvised": 16217,
    "Ġpew": 9317,
    "Ġjar": 15953,
    "Ġern": 8398,
    "Ġwhaling": 2782,
    "Ġbriskly": 25312,
    "dismal": 23499,
    "Ġopinions": 9417,
    "Ġsimplest": 16334,
    "context": 3404,
    "orts": 2554,
    "Ġatmosphere": 10898,
    "umed": 6556,
    "taught": 17685,
    "Ġsequ": 982,
    "iracle": 11244,
    "canonical": 22969,
    "<SOS>": 1,
    "Ġcultiv": 13559,
    "ens": 701,
    "Ġburning": 5979,
    "escript": 18471,
    "Ġbetokened": 18801,
    "Ġgibe": 25960,
    "hoisting": 23720,
    "Ġarise": 7898,
    "Ġinterests": 14570,
    "Ġdiadem": 24740,
    "Ġanswering": 7478,
    "entions": 17977,
    "derbyshire": 18322,
    "Ġheartless": 13076,
    ";âĢĿâĢĶ": 20762,
    "Ġinexpressible": 17335,
    "Ġemployed": 5200,
    "towing": 17690,
    "Ġsublimity": 26348,
    "existence": 16017,
    "ations": 711,
    "asets": 2310,
    "Ġporpoise": 7108,
    "ĠĠĠĠĠĠĠĠĠĠĠĠĠĠĠĠĠ": 22955,
    "the": 334,
    "Ġsupercil": 23455,
    "Ġswish": 23058,
    "idelburgh": 10563,
    "mystery": 15158,
    "ile": 520,
    "etah": 12665,
    "Ġpainter": 19170,
    "Ġrejecting": 17051,
    "even": 3836,
    "Ġfondly": 19619,
    "urean": 18125,
    "Ġtemporary": 7982,
    "butt": 15997,
    "cstasy": 11446,
    "Ġcontinental": 19708,
    "Ġhosmer": 6775,
    "Ġtoy": 15637,
    "Ġblooming": 17214,
    "prow": 15413,
    "Ġvulgarity": 25364,
    "towns": 24855,
    "Ġparacels": 13670,
    "Ġne": 391,
    "nailed": 20998,
    "whalemen": 10432,
    "Ġparchment": 13655,
    "Ġlanguor": 12851,
    "Ġsofas": 26225,
    "ract": 1002,
    "mysterious": 26053,
    "Ġwrit": 8243,
    "af": 2377,
    "Ġdelicate": 6481,
    "cture": 15668,
    "Ġdepths": 4326,
    "Ġchuckled": 10649,
    "women": 15458,
    "Ġsoliloquized": 17304,
    "necessarily": 19634,
    "Ġintellect": 8171,
    "Ġexclaimed": 4683,
    "Ġbedfellows": 23447,
    "/": 19,
    "Ġthousandth": 23683,
    "Ġpursuers": 13230,
    "Ġquaint": 18466,
    "bellies": 19977,
    "berries": 22749,
    "Ġmen": 1436,
    "Ġnarrowed": 24354,
    "Ġcanvassed": 19938,
    "Ġneedn": 19231,
    "Ġgle": 7860,
    "Ġmetaphys": 16415,
    "Ġsetbacks": 11064,
    "Ġleaky": 2347,
    "marching": 25753,
    "```": 25894,
    "ax": 693,
    "settled": 10508,
    "Ġexpecting": 10437,
    "Ġdevout": 14328,
    "ą": 198,
    "cen": 17504,
    "Ġdoctors": 12155,
    "created": 12454,
    "Ġinteraction": 7424,
    "ari": 670,
    "Ġcapsizing": 20092,
    "Ġtimid": 6347,
    "Ġhealthy": 10852,
    "method": 17286,
    "europe": 20668,
    "invol": 12534,
    "thrusting": 20262,
    "Ġmonotonically": 3832,
    "ages": 827,
    "Ġconsole": 8152,
    "Ġmotion": 4567,
    "Ġsuns": 23277,
    "Ġbrooks": 25701,
    "boy": 4738,
    "robust": 19730,
    "yingly": 23065,
    "Ġcallest": 17834,
    "tol": 17673,
    "edy": 2862,
    "iffe": 21907,
    "Ġtrembled": 8705,
    "Ġimmeasurable": 26232,
    "Ġmeasuring": 22886,
    "Ġcharing": 14182,
    "iot": 9602,
    "Ġfisheries": 17440,
    "suspicions": 25392,
    "ibles": 18787,
    "Ġhumorousness": 25378,
    "Ġunlike": 7006,
    "Ġnigh": 4878,
    "Ġsch": 13837,
    "Ġlux": 8817,
    "Ġacquaintance": 4130,
    "Ġay": 15493,
    "Ġstubborn": 10415,
    "start": 7600,
    "Ġillness": 8593,
    "conclusion": 25671,
    "because": 4923,
    "Ġreservo": 16832,
    "Ġcaps": 8417,
    "Ġfejee": 18355,
    "lest": 5290,
    "Ġsuspense": 9420,
    "entiating": 3436,
    "Ġambition": 11433,
    "Ġcastor": 19430,
    "Ġpassed": 2010,
    "accomplishment": 20226,
    "Ġobstinate": 11337,
    "duchess": 18464,
    "reflect": 19867,
    "hundreds": 25076,
    "compar": 14362,
    "Ġpap": 8801,
    "pretending": 17041,
    "Ġmourn": 8707,
    "rical": 11520,
    "wr": 3029,
    "Ġlory": 12656,
    "pike": 11516,
    "Ġlucy": 17972,
    "wrote": 11548,
    "Ġinfidel": 13091,
    "Ġordering": 18998,
    "Ġ179": 19757,
    "rises": 17656,
    "Ġfisherman": 12079,
    "Ġperplexity": 2753,
    "Ġdimin": 3870,
    "Ġful": 4297,
    "Ġarg": 4766,
    "Ġmediterranean": 12318,
    "Ġmonstrous": 7791,
    "Ġhunted": 7453,
    "contact": 23731,
    "Ġshield": 22004,
    "Ġow": 8410,
    "vy": 21110,
    "enger": 10774,
    "into": 3678,
    "Ġimprisonment": 22396,
    "gracious": 11834,
    "Ġfarewell": 9522,
    "Ġcocaine": 20723,
    "extraordinary": 9097,
    "Ġstumbling": 21747,
    "followed": 8340,
    "Ġexe": 3992,
    "lost": 8890,
    "crippled": 26385,
    "©": 107,
    "Ġhus": 3094,
    "guessed": 25873,
    "Ġfrankly": 16746,
    "Ġbig": 5806,
    "murderers": 25728,
    "Ġheal": 21685,
    "Ġtrapped": 23081,
    "till": 6966,
    "Ġsubst": 4272,
    "Ġune": 4599,
    "ver": 331,
    "Ġdivulged": 16650,
    "reen": 21234,
    "Ġlinear": 3431,
    "ashions": 16419,
    "Ġdefiance": 11069,
    "aloud": 17943,
    "answer": 11738,
    "Ġwhereon": 16104,
    "bearings": 25372,
    "sey": 5542,
    "Ġlookest": 22719,
    "Ġvoluntary": 14801,
    "âĢľâĢĶ": 10873,
    "ighb": 10424,
    "Ġopportunity": 4786,
    "uns": 21875,
    "mathematics": 26305,
    "Ġwilfully": 16767,
    "dition": 15341,
    "Ġuntouched": 16466,
    "etition": 7382,
    "conc": 3944,
    "Ġtol": 6677,
    "seated": 11674,
    "chiefly": 14848,
    "Ġlist": 2365,
    "Ġdefault": 3040,
    "pour": 17631,
    "Ġimpediments": 26242,
    "Ġsax": 10930,
    "hs": 8379,
    "onted": 11569,
    "Ġscenari": 22297,
    "ogne": 12938,
    "windows": 19537,
    "Ġschooner": 16748,
    "chari": 21693,
    "aneously": 4057,
    "aved": 5476,
    "Ġrefres": 14336,
    "Ġschoolmaster": 16863,
    "Ġvalley": 5852,
    "Ġchallenge": 25472,
    "Ġnods": 19064,
    "sies": 21057,
    "alled": 5913,
    "Ġpalms": 8647,
    "desol": 13221,
    "ignified": 14491,
    "Ġdesponding": 25869,
    "Ġopposite": 5120,
    "Ġ94": 17718,
    "Ġbern": 17860,
    "orrah": 17877,
    "Ġregularization": 1158,
    "Ġfacing": 10173,
    "Ġmeditating": 20046,
    "strongly": 24685,
    "dle": 3306,
    "Ġclosest": 16764,
    "bolt": 25138,
    "estic": 4956,
    "Ġmock": 3689,
    "Ġsaddest": 16664,
    "bulkington": 19927,
    "jug": 17581,
    "achable": 14139,
    "Ġdagger": 21441,
    "state": 13976,
    "Ġinflex": 20637,
    "Ġmortar": 19396,
    "consequential": 26251,
    "human": 7090,
    "Ġpurchase": 12263,
    "Ġgale": 5823,
    "ere": 6790,
    "onden": 13846,
    "iliating": 12699,
    "Ġmastery": 23996,
    "Ġexpress": 2198,
    "dog": 10695,
    "iff": 3903,
    "measure": 10033,
    "Ġpretend": 7723,
    "Ġtoilette": 20496,
    "Ġpresumed": 10546,
    "sc": 1259,
    "object": 6884,
    "Ġbenjamin": 26568,
    "turns": 14908,
    "Ġrussian": 14352,
    "byshire": 6174,
    "Ġregret": 5561,
    "Ġdischarged": 15223,
    "Ġmonosyllable": 20728,
    "Ġdeclares": 16993,
    "Ġthirdly": 24144,
    "Ġmemo": 18122,
    "Ġhandkerchief": 8916,
    "Ġflash": 8231,
    "opposing": 24822,
    "Ġarmy": 11744,
    "reporting": 24493,
    "Ġlunacy": 20031,
    "Ġweb": 9242,
    "Ġriot": 14689,
    "Ġbachelor": 7788,
    "ui": 9146,
    "neys": 23583,
    "arctic": 12614,
    "movable": 14326,
    "Ġstores": 18071,
    "angible": 22110,
    "sole": 6170,
    "ada": 14013,
    "gunw": 17222,
    "Ġlanyard": 26462,
    "Ġlowering": 7988,
    "Ġhonors": 23603,
    "Ġencouragement": 13047,
    "Ġassured": 4373,
    "Ġplunged": 8696,
    "Ġbefell": 14012,
    "Ġprotracted": 19472,
    "Ġincorrect": 2728,
    "he": 264,
    "code": 15331,
    "Ġdecoyed": 18491,
    "Ġcompasses": 11268,
    "Ġindication": 22958,
    "Ġdel": 1614,
    "tears": 11037,
    "uvier": 9070,
    "felt": 5891,
    "Ġwitnesses": 9488,
    "exper": 8881,
    "Ġgracious": 8850,
    "Ġconsistent": 14528,
    "ch": 321,
    "Ġgases": 21606,
    "Ġunjustifiable": 25112,
    "Ġspectrum": 4476,
    "Ġharvest": 13418,
    "ctic": 8444,
    "yard": 5902,
    "Ġstock": 7455,
    "Ġnugent": 26458,
    "buried": 14851,
    "helped": 18927,
    "Ġvertical": 16605,
    "Ġenvelopes": 24506,
    "Ġrepugnance": 19086,
    "herfield": 3628,
    "daughters": 13469,
    "Ġtenderly": 11315,
    "speaking": 12102,
    "Ġmixture": 9564,
    "Ġforeb": 12006,
    "emason": 18184,
    "Ġmbpp": 21325,
    "Ġtravellers": 11309,
    "Ġfocuses": 8653,
    "Ġantichron": 24183,
    "rut": 8093,
    "Ġquart": 11790,
    "quid": 18149,
    "Ġinterruptions": 24188,
    "accomp": 10456,
    "Ġtypewriter": 19099,
    "serpent": 16294,
    "sp": 893,
    "Ġestimation": 11219,
    "volutional": 1931,
    "returns": 23144,
    "Ġgrowl": 16539,
    "Ġsymmetrical": 20370,
    "Ġlanguage": 650,
    "Ġright": 1504,
    "Ġhastened": 9006,
    "overfitting": 13104,
    "Ġmakest": 25436,
    "Ġprom": 1524,
    "abriel": 6950,
    "Ġundecided": 22053,
    "limp": 20954,
    "Ġoverhanging": 22356,
    "Ġpy": 21454,
    "emph": 21931,
    "Ġdemocracy": 25459,
    "vid": 915,
    "vigorous": 25918,
    "cousins": 20121,
    "Ġth": 299,
    "Ġbennet": 1576,
    "urged": 18051,
    "Ġhurrah": 9871,
    "Ġsurvey": 13596,
    "Ġcongenial": 12414,
    "Ġenvirons": 13209,
    "cook": 8271,
    "Ġlin": 10834,
    "Ġmoments": 4846,
    "Ġcanada": 22170,
    "were": 2557,
    "Ġdines": 21427,
    "Ġpam": 21457,
    "scand": 18857,
    "Ġdominion": 16537,
    "frozen": 25142,
    "iew": 2446,
    "Ġsober": 10912,
    "Ġcontinuation": 22921,
    "Ġalpha": 13591,
    "Ġsamples": 2965,
    "Ġthread": 14540,
    "worn": 13808,
    "Ġstirring": 10581,
    "Ġstubb": 1784,
    "Ġswiftness": 9929,
    "Ġarchangel": 8545,
    ",": 16,
    "angled": 6844,
    "Ġimport": 1044,
    "Ġtremulous": 14988,
    "proachable": 23401,
    "Ġalan": 10870,
    "Ġrespite": 13157,
    "Ġopium": 8997,
    "nerable": 16279,
    "ek": 1905,
    "neighbours": 24882,
    "mons": 17601,
    "Ġsunny": 13089,
    "pshire": 21026,
    "Ġapprehended": 26091,
    "Ġcem": 17825,
    "Ġvancou": 22881,
    "hateful": 20911,
    "sory": 17660,
    "misery": 13347,
    "sol": 1788,
    "Ġproceedings": 9909,
    "==": 945,
    "Ġaccursed": 9460,
    "Ġyoked": 15738,
    "Ġcarry": 4779,
    "Ġhuff": 21494,
    "Ġhorn": 6187,
    "Ġmenaces": 23111,
    "bled": 5469,
    "Ġunsh": 14117,
    "Ġann": 4491,
    "aim": 2754,
    "Ġgardener": 19136,
    "Ġveiled": 16203,
    "Ġbestirred": 20454,
    "Ġlashes": 17969,
    "knowing": 10438,
    "Ġarchitectures": 2913,
    "diss": 17524,
    "oded": 11671,
    "Ġfiltering": 23930,
    "Ġcompl": 3755,
    "Ġought": 3418,
    "Ġfarmhouse": 24989,
    "ai": 2524,
    "Ġdance": 4444,
    "j": 78,
    "Ġringbolts": 24198,
    "following": 10574,
    "Ġimbu": 15894,
    "gaff": 20884,
    "Ġtrials": 16790,
    "ailed": 3247,
    "broad": 8646,
    "Ġflourished": 15128,
    "Ġvomit": 21953,
    "jaws": 20934,
    "unbe": 21877,
    "antages": 7192,
    "Ġtranquo": 14845,
    "Ġdaunt": 19667,
    "Ġsite": 17754,
    "Ġreign": 13987,
    "Ġtep": 21164,
    "Ġtroop": 24898,
    "Ġcurv": 3508,
    "Ġhaught": 10254,
    "Ġmistifying": 23723,
    "oppressed": 24821,
    "horn": 8087,
    "rooms": 10433,
    "kin": 7133,
    "Ġsympathetic": 17361,
    "Ġunmethodically": 22075,
    "eled": 2358,
    "Ġtout": 17720,
    "Ġpecks": 18669,
    "Ġpalaces": 24093,
    "da": 17515,
    "aboard": 21799,
    "alley": 23030,
    "Ġsurrey": 14560,
    "anish": 2616,
    "Ġbias": 1192,
    "separation": 25227,
    "Ġover": 554,
    "Ġsandwiched": 26611,
    "Ġdefine": 9817,
    "Ġcatherine": 2814,
    "I": 45,
    "confess": 12179,
    "Ġinit": 818,
    "Ġpossessor": 23827,
    "Ġcapacious": 19178,
    "Ġsum": 2698,
    "wind": 4251,
    "Ġangels": 11179,
    "Ġfavours": 23284,
    "ni": 1553,
    "crown": 13701,
    "proves": 23397,
    "Ġzeros": 3325,
    "Ġprone": 18970,
    "Ġresemble": 15696,
    "blunder": 24129,
    "anely": 17838,
    "Ġnightgown": 23137,
    "Ġattends": 19653,
    "ciousness": 20819,
    "âĢĶ.": 11758,
    "Ġrevolve": 19732,
    "agitation": 14070,
    "ativeness": 15523,
    "tuesday": 17691,
    "Ġsigma": 1539,
    "Ġendeavoured": 4918,
    "Ġwarped": 25038,
    "Ġfinal": 5400,
    "darker": 24512,
    "Ġelegant": 7533,
    "Ġpea": 14319,
    "Ġsqueezed": 20039,
    "Ġalle": 11668,
    "Ġtract": 21168,
    "anse": 12579,
    "Ġam": 660,
    "Ġirish": 14535,
    "Ġgoodge": 22826,
    "Ġdisagreeable": 9300,
    "Ġmyster": 5928,
    "Ġrobbery": 11911,
    "whe": 1076,
    "ifice": 7198,
    "pleasanter": 24050,
    "Ġfinishing": 23130,
    "Ġterr": 3274,
    "Ġ79": 24266,
    "ken": 2800,
    "mies": 20970,
    "Ġrejection": 19987,
    "Ġnegro": 6448,
    "Ġbrown": 6300,
    "Ġcigars": 12256,
    "Ġmorose": 18845,
    "Ġmoney": 3417,
    "swing": 15431,
    "detained": 24381,
    "quarrel": 20018,
    "ii": 4013,
    "§": 105,
    "Ġeternities": 19946,
    "Ġcleared": 6077,
    "igned": 5656,
    "blue": 13696,
    "dis": 2253,
    "Ġcoopers": 20525,
    "Ġ75": 19615,
    "out": 467,
    "ral": 4628,
    "parad": 16398,
    "Ġswart": 14437,
    "Ġsocks": 14133,
    "Ġbeach": 6543,
    "Ġcamel": 25350,
    "Ġpile": 8426,
    "Ġfacial": 10607,
    "Ġsteadfastly": 10653,
    "Ġsuperstitions": 17072,
    "Ġhall": 4181,
    "Ġbusily": 9386,
    "Ġslave": 7454,
    "itche": 7580,
    "Ġnantucket": 2840,
    "Ġstand": 1736,
    "contr": 12060,
    "Ġhours": 2820,
    "Ġkrus": 18350,
    "Ġstarboard": 7606,
    "nevertheless": 8287,
    "hammock": 16356,
    "networks": 2406,
    "ded": 2755,
    "diversity": 25898,
    "Ġreckoning": 14981,
    "Ġsayest": 22782,
    "Ġtrains": 10948,
    "reeable": 3609,
    "pid": 1418,
    "roll": 9198,
    "empt": 2618,
    "resting": 23237,
    "Ġcastle": 14719,
    "down": 3466,
    "Ġdealer": 23980,
    "Ġachieve": 3671,
    "Ġtiar": 21170,
    "aders": 21763,
    "wered": 2687,
    "my": 1316,
    "Ġimprobable": 9797,
    "Ġtransparency": 10678,
    "Ġreception": 9841,
    "jolly": 20933,
    "yden": 21146,
    "Ġpouch": 21472,
    "Ġadvances": 13000,
    "Ġpeaks": 16131,
    "coiled": 16487,
    "Ġstrike": 4856,
    "concerning": 9066,
    "verbally": 25361,
    "Ġknave": 11273,
    "ued": 7562,
    "Ġbehind": 2809,
    "Ġmiriam": 25274,
    "inter": 2951,
    "Ġwidely": 8034,
    "ivened": 22971,
    "Ġpopulation": 16828,
    ";": 31,
    "fired": 20862,
    "Ġfloundered": 18863,
    "Ġtus": 10750,
    "Ġding": 12603,
    "Ġsecured": 6747,
    "mir": 20965,
    "telesc": 22821,
    "Ġaffectation": 14443,
    "burgh": 6774,
    "Ġvertu": 23893,
    "ocations": 23710,
    "assumed": 22313,
    "Ġstrait": 23753,
    "tout": 21068,
    "Ġmatrimony": 13638,
    "Ġemma": 20697,
    "Ġcategorization": 12140,
    "?_âĢĿ": 12319,
    "Ġescort": 23507,
    "uced": 13802,
    "slept": 17171,
    "Ġnapole": 15118,
    "Ġtraining": 529,
    "Ġomn": 8412,
    "farintosh": 24552,
    "Ġpeddling": 21485,
    "Ġscrib": 22293,
    "punctual": 26357,
    "rec": 6006,
    "quarried": 24948,
    "Ġsatin": 12993,
    "already": 6981,
    "Ġallusion": 7627,
    "imprudent": 14652,
    "Ġglobe": 6078,
    "entropy": 1439,
    "granting": 23416,
    "haustible": 16892,
    "Ġstart": 3258,
    "Ġetext": 23953,
    "Ġtails": 9904,
    "Ġperceptibly": 25822,
    "Ġeas": 2353,
    "Ġsuspects": 16891,
    "Ġshameful": 19854,
    "persu": 8029,
    "Ġsluggishly": 25892,
    "Ġslink": 23167,
    "Ġaction": 5797,
    "Ġinfatuation": 25857,
    "Ġleisurely": 24745,
    "Ġcompact": 2264,
    "Ġsobbing": 14135,
    "madam": 24420,
    "Ġcook": 3709,
    "ghost": 20889,
    "Ġ}": 21156,
    "Ġoctavo": 15166,
    "Ġimper": 4503,
    "Ġrejoicing": 13424,
    "Ġscholars": 26113,
    "Ġfishes": 11593,
    "Ġbelief": 5857,
    "Ġcalmed": 16271,
    "stiff": 12678,
    "Ġassuring": 13068,
    "Ġpolished": 11183,
    "verty": 8454,
    "of": 768,
    "agony": 14071,
    "musket": 25342,
    "Ġremembered": 5277,
    "bedded": 12446,
    "Ġtwee": 22679,
    "Ġjan": 11765,
    "Ġbattering": 13903,
    "uttered": 8443,
    "Ġconfining": 23310,
    "Ġinstruct": 2867,
    "Ġemergency": 25731,
    "Ġrecovered": 5481,
    "69": 17476,
    "Ġinsulted": 14994,
    "Ġweaver": 11690,
    "ifiable": 18166,
    "reast": 17759,
    "Ġproductions": 22952,
    "Ġafar": 14296,
    "Ġlionel": 25287,
    "weight": 2943,
    "Ġlanterns": 24577,
    "lop": 20950,
    "profitable": 17055,
    "Ġbet": 1136,
    "ents": 1895,
    "pity": 17628,
    "Ġcakes": 13886,
    "Ġwaiting": 4323,
    "Ġdifficult": 3568,
    "Ġsleeve": 20143,
    "disposed": 25013,
    "mrs": 3741,
    "inside": 23070,
    "Ġportraits": 20145,
    "inked": 12917,
    "Ġcargo": 16292,
    "athy": 14325,
    "successfully": 14993,
    "per": 482,
    "summoned": 26592,
    "uneasiness": 23686,
    "Ġwithdrew": 9698,
    "assisted": 22312,
    "Ġdetermination": 9821,
    "separated": 20162,
    "Ġassizes": 11109,
    "further": 7536,
    "arks": 2846,
    "master": 5687,
    "Ġinvincible": 23481,
    "laid": 10111,
    "Ġknow": 632,
    "Ġvon": 14083,
    "Ġcucumber": 21359,
    "Ġfleshy": 24616,
    "dream": 8731,
    "terrible": 8468,
    "Ġcreations": 18682,
    "Ġheadlong": 11893,
    "oul": 4699,
    "Ġtransparent": 9491,
    "Ġtown": 2454,
    "100": 11465,
    "rane": 17654,
    "pen": 1207,
    "Ġmember": 8465,
    "wer": 8397,
    "Ġdripping": 13150,
    "nature": 5360,
    "harpooned": 24287,
    "Ġbunch": 11327,
    "plish": 18201,
    "Ġinherit": 25353,
    "ough": 472,
    "Ġrese": 2239,
    "mole": 22707,
    "Ġrises": 9715,
    "Ġimp": 586,
    "mouthful": 25209,
    "ounce": 6559,
    "Ġfarthing": 14456,
    "fleece": 19951,
    "ineffectual": 26505,
    "nigh": 13765,
    "Ġpowder": 11276,
    "Ġcongeal": 25981,
    "Ġoriginally": 7304,
    "Ġpossessions": 23828,
    "Ġquicker": 16509,
    "principal": 20662,
    "cruet": 17027,
    "lace": 13750,
    "Ġdidn": 4363,
    "Ġhysterical": 26093,
    "Ġdisenc": 22531,
    "holder": 13286,
    "Ġstrong": 1785,
    "Ġincreasing": 8248,
    "Ġfunction": 590,
    "Ġve": 1110,
    "claps": 23157,
    "Ġgeneva": 5450,
    "Ġcanals": 22169,
    ".,": 5990,
    "vib": 21118,
    "repent": 15515,
    "Ġrecital": 16142,
    "Ġdisconcerted": 18563,
    "Ġsuppose": 2869,
    "Ġstill": 1156,
    "Ġbeginning": 4240,
    "covered": 11478,
    "practised": 20250,
    "aid": 1919,
    "Ġtal": 7565,
    "Ġhel": 3784,
    "Ġfastening": 16359,
    "Ġvag": 9710,
    "Ġdinah": 9455,
    "add": 5229,
    "Ġpos": 1012,
    "Ġlethargy": 26484,
    "Ġcomplied": 14736,
    "Ġencouraging": 2265,
    "examined": 17268,
    "icts": 22412,
    "was": 1422,
    "Ġreasoned": 23054,
    "Ġuncontrollable": 25815,
    "Ġellenborough": 26155,
    "afric": 19181,
    "savage": 15078,
    "Ġceti": 24772,
    "worship": 19390,
    "Ġquill": 12861,
    "grant": 10428,
    "Ġtemples": 18637,
    "ulsive": 10235,
    "causes": 20346,
    "Ġdireful": 11019,
    "ylon": 24980,
    "Ġvolley": 24146,
    "Ġrecl": 16140,
    "Ġdandy": 17894,
    "Ġabsorbing": 17130,
    "Ġswim": 3819,
    "Ġhalf": 1672,
    "emb": 11691,
    "Ġassault": 9839,
    "Ġmolasses": 25629,
    "Ġmuteness": 19420,
    "Ġanalogy": 25640,
    "chor": 6148,
    "Ġwail": 21289,
    "twenty": 6609,
    "Ġstrides": 22619,
    "streets": 13398,
    "magnifying": 25393,
    "Ġprob": 969,
    "Ġpaddington": 17095,
    "Ġden": 3108,
    "ivial": 15862,
    "Ġdisgusting": 19896,
    "police": 10585,
    "Ġcoming": 2617,
    "oes": 4436,
    "wins": 21132,
    "Ġcheat": 19019,
    "elly": 17982,
    "Ġequival": 4784,
    "resist": 8277,
    "Ġgiven": 1629,
    "Ġsubsided": 14551,
    "Ġlosing": 10917,
    "Ġinexhaustible": 16982,
    "Ġdenominated": 15231,
    "Ġex": 362,
    "_?âĢĿ": 15308,
    "Ġamong": 1670,
    "Ġadrift": 11725,
    "Ġcostume": 16496,
    "crime": 14777,
    "Ġtreatise": 19348,
    "Ġsharing": 3474,
    "Ġdashed": 6012,
    "Ġmort": 3457,
    "Ġsusp": 2661,
    "Ġcam": 10163,
    "Ġanoint": 25538,
    "disguise": 26307,
    "Ġminds": 6305,
    "Ġprofess": 3696,
    "Ġtasselled": 25922,
    "Ġskirts": 14355,
    "Ġstrove": 9959,
    "ouraged": 22859,
    "soul": 9142,
    "prints": 23816,
    "Ġnature": 2536,
    "Ġinspector": 6499,
    "test": 13794,
    "Ġchuck": 8504,
    "aan": 20766,
    "Ġevidence": 5270,
    "Ġprice": 10404,
    "restraint": 18981,
    "iii": 14779,
    "Ġeighteenth": 14757,
    "Ġblending": 14401,
    "Ġhigh": 933,
    "Ġjerked": 19835,
    "Ġexcessively": 9442,
    "Ġvibrating": 13540,
    "Ġmanhandle": 22334,
    "Ġathirst": 20601,
    "reck": 9638,
    "Ġretreated": 13436,
    "Ġdivert": 23595,
    "Ġalb": 14018,
    "Ġwhim": 14001,
    "although": 8809,
    "Ġreal": 1636,
    "coffin": 10664,
    "Ġpaints": 23525,
    "Ġpolite": 9884,
    "Ġtrod": 15028,
    "Ġannihilation": 15168,
    "super": 5946,
    "unusually": 15783,
    "Ġformal": 2945,
    "assembled": 21549,
    "Ġaverted": 16257,
    "Ġsalary": 13297,
    "Ġnoticed": 5548,
    "intim": 22938,
    "Ġgarn": 13965,
    "Ġpert": 22401,
    "Ġgnarled": 25169,
    "Ġjealousy": 13579,
    "Ġacceler": 1610,
    "Ġencounters": 19583,
    "Ġhab": 4215,
    "ccess": 3186,
    "tor": 15434,
    "Ġmarching": 16697,
    "Ġspear": 9314,
    "Ġcraggy": 23530,
    "Ġfettered": 24568,
    "Ġstar": 6025,
    "Ġaxis": 12310,
    "Ġalps": 10871,
    "Ġreliability": 22885,
    ".;": 20746,
    "uses": 11763,
    "Ġbaw": 15572,
    "ruck": 6848,
    "Ġillustrative": 25069,
    "wit": 7818,
    "artificial": 1003,
    "adieu": 26202,
    "Ġincludes": 2011,
    "Ġwindsor": 16888,
    "Ġsurpl": 19134,
    "aff": 3103,
    "Ġannihil": 10176,
    "keenest": 25662,
    "âĢĶâĢľ_": 13205,
    "Ġvial": 10250,
    "disappearing": 23504,
    "Ġstrateg": 1351,
    "Ġmonsters": 11075,
    "Ġrecently": 11862,
    "avers": 17482,
    "Ġdivinest": 25722,
    "Ġinsignificant": 20459,
    "Ġperishing": 22403,
    "Ġtruck": 19514,
    "safety": 20352,
    "arts": 6565,
    "Ġjoky": 18407,
    "zing": 7821,
    "Ġcaroline": 7255,
    "ourers": 21453,
    "Ġregarded": 5762,
    "ezing": 10575,
    "Ġtimber": 13353,
    "lod": 15381,
    "Ġapologized": 25199,
    "ieth": 10705,
    "Ġlodgings": 8313,
    "ĠĠĠĠĠĠĠĠĠĠĠĠĠĠĠĠĠĠĠĠĠĠĠĠĠĠĠĠĠĠĠĠĠĠĠĠĠĠĠĠĠĠĠĠĠĠ": 9955,
    "=": 33,
    "ĠcÃ¦": 15558,
    "Ġalternating": 15032,
    "Ġsolic": 7934,
    "Ġberg": 24535,
    "âĢľâĢĻ": 10223,
    "precisely": 6917,
    "idav": 18095,
    "isting": 5550,
    "Ġpresentation": 14481,
    "Ġcrept": 11022,
    "Ġplow": 21462,
    "labours": 16618,
    "writ": 16554,
    "onian": 17768,
    "Ġfar": 1451,
    "africa": 26309,
    "fare": 7800,
    "Ġdwell": 5813,
    "dwelt": 23874,
    "Ġhans": 12630,
    "adru": 15734,
    "begged": 18518,
    "dissatisfied": 26613,
    "rev": 17757,
    "Ġcondemn": 13447,
    "soon": 4027,
    "liament": 16221,
    "Ġheadlands": 22904,
    "Ġdey": 11677,
    "Ġindepend": 3666,
    "Ġendeavored": 19304,
    "Ġlun": 7857,
    "vain": 15449,
    "Ġbound": 3516,
    "looked": 6085,
    "Ġcrumbs": 19124,
    "Ġnorthwards": 19549,
    "oking": 4607,
    "Ġtimes": 2303,
    "Ġpartial": 2131,
    "Ġbalm": 22910,
    "Ġcampa": 17175,
    "Ġincomp": 12904,
    "Ġassuredly": 14824,
    "Ġconfession": 11236,
    "Ġfruitless": 25606,
    "Ġbloodthirsty": 26602,
    "Ġfurs": 18739,
    "ove": 1743,
    "Ġplanning": 14754,
    "Ġemb": 1208,
    "hatchet": 24819,
    "Ġbook": 2700,
    "rusted": 16508,
    "Ġfav": 1753,
    "Ġreasons": 6022,
    "Ġburton": 23654,
    "quietude": 24656,
    "Ġhers": 7891,
    "Ġprevented": 5944,
    "Ġinc": 702,
    "Ġmeridians": 17357,
    "sleeping": 13457,
    "Ġancles": 21450,
    "Ġentail": 9795,
    "cabinet": 25080,
    "Ġgenerate": 1470,
    "Ġcongregated": 20100,
    "favour": 9551,
    "gr": 2086,
    "principle": 10652,
    "Ġcompliments": 8636,
    "atter": 659,
    "tw": 2813,
    "raved": 18015,
    "Ġaccur": 3789,
    "Ġbapt": 13898,
    "waited": 24587,
    "baden": 25616,
    "Ġresentment": 7531,
    "Ġtooks": 23331,
    "sme": 17659,
    "Ġscaling": 3630,
    "Ġhighlands": 22781,
    "Ġmoving": 1679,
    "Ġimmediately": 3365,
    "Ġfluke": 14675,
    "Ġorchard": 22097,
    "Ġshade": 6552,
    "Ġremnants": 22798,
    "drifting": 19827,
    "Ġtherein": 11779,
    "30": 20756,
    "kee": 18274,
    "Ġhovel": 8255,
    "Ġbonds": 17871,
    "Ġtuning": 3074,
    "lott": 6653,
    "warn": 11544,
    "Ġessentially": 24925,
    "probably": 10022,
    "Ġfrenz": 25447,
    "ghan": 19458,
    "Ġfrown": 10808,
    "ildad": 3529,
    "Ġparlor": 13542,
    "Ġusage": 9732,
    "Ġwonderfully": 10431,
    "Ġcharitable": 23273,
    "Ġnorms": 3664,
    "Ġenglishman": 11230,
    "Ġagreeably": 24955,
    "Ġvane": 22880,
    "shock": 19857,
    "Ġattitudes": 16102,
    "alyards": 18782,
    "Ġmeanest": 12914,
    "fisher": 7548,
    "lilies": 20963,
    "haps": 1673,
    "braces": 24659,
    "Ġviewed": 10463,
    "Ġbashaw": 25634,
    "Ġhat": 2771,
    "Ġnind": 17952,
    "Ġoccupied": 5273,
    "roy": 7855,
    "Ġdedu": 5583,
    "Ġspectacle": 10498,
    "ancholy": 5070,
    "Ġreck": 6539,
    "Ġunfav": 14791,
    "resh": 8406,
    "Ġstare": 10865,
    "posterity": 25489,
    "Ġwelcomed": 9484,
    "crazy": 24692,
    "Ġcasked": 24496,
    "Ġproducts": 5198,
    "Ġ(âĢľ": 15998,
    "sharpening": 22454,
    "Ġkeepers": 23539,
    "unavoidable": 17392,
    "Ġahoy": 12188,
    "Ġobtain": 8917,
    "Ġdusky": 13552,
    "Ġbrig": 11048,
    "omit": 13980,
    "Ġwillow": 18534,
    "Ġmind": 1619,
    "Ġ1836": 25721,
    "why": 2831,
    "relics": 24018,
    "Ġannesley": 19580,
    "Ġrevolver": 14900,
    "Ġfa": 4820,
    "host": 5869,
    "Ġhist": 2444,
    "Ġmagnus": 18960,
    "Ġvigorous": 10568,
    "brimmed": 14588,
    "odious": 21815,
    "Ġalice": 1484,
    "itt": 572,
    "road": 6679,
    "Ġassaulted": 25321,
    "berish": 22746,
    "rary": 4576,
    "Ġ183": 13241,
    "Ġbusied": 19066,
    "Ġsympathising": 24298,
    "fights": 20867,
    "Ġblinds": 8008,
    "people": 7679,
    "Ġsuits": 22093,
    "Ġindef": 9191,
    "satisf": 5781,
    "Ġushered": 18358,
    "bitts": 26123,
    "errand": 22915,
    "Ġunavailing": 26217,
    "izure": 21846,
    "Ġalche": 21788,
    "Ġsickle": 24247,
    "strength": 13977,
    "ature": 521,
    "ernally": 22615,
    "Ġhumans": 8932,
    "hole": 5585,
    "biqu": 17499,
    "Ġsliding": 9365,
    "Ġinvariably": 8065,
    "Ġswallow": 8952,
    "Ġdismasted": 15254,
    "Ġemergencies": 17364,
    "wrinkles": 16556,
    "Ġgrand": 3590,
    "Ġturks": 14599,
    "matic": 4619,
    "Ġhy": 5625,
    "Ġloomed": 12304,
    "compliments": 24807,
    "glancing": 11215,
    "description": 11095,
    "itying": 21999,
    "Ġconsoling": 19460,
    "beat": 10987,
    "Ġlangsdorff": 15279,
    "Ġportcull": 23866,
    "rew": 3647,
    "fixedly": 24930,
    "Ġmace": 21312,
    "Ġrinal": 21985,
    "traced": 19648,
    "understand": 1127,
    "Ġsimpl": 1580,
    "Ġkey": 2105,
    "Ġguar": 23050,
    "invisible": 17741,
    "ricity": 23068,
    "Ġsiber": 17756,
    "Ġsurprised": 3829,
    "shad": 10981,
    "Ġplatform": 17133,
    "Ġmarines": 16265,
    "mem": 10710,
    "Ġ8": 5433,
    "Ġcontemptible": 16954,
    "Ġscorch": 20070,
    "Ġreconcile": 25292,
    "Ġenthusiasm": 8066,
    "Ġascribed": 14857,
    "Ġraises": 11848,
    "Ġdaybreak": 18728,
    "feather": 16046,
    "Ġfat": 3459,
    "clothes": 9059,
    "wor": 3415,
    "Ġslackened": 15129,
    "sideways": 14572,
    "venant": 22629,
    "Ġcaulk": 25441,
    "Ġnightfall": 23136,
    "Ġaberde": 22282,
    "oo": 7554,
    "found": 4211,
    "Ġscreamed": 9526,
    "doc": 23379,
    "Ġwhirlpool": 20657,
    "woman": 5901,
    "Ġremem": 4313,
    "Ġundertaking": 8577,
    "Ġyouthful": 16724,
    "Ġbowls": 23773,
    "Ġwhales": 1826,
    "Ġapply": 1776,
    "Ġphilosoph": 19654,
    "Ġguardian": 14944,
    "Ġrecalled": 8540,
    "Ġstoper": 14465,
    "Ġelementary": 24811,
    "Ġstrings": 11832,
    "Ġallegro": 25795,
    "Ġpatted": 16382,
    "Ġwid": 4633,
    "Ġsnugness": 20080,
    "Ġcocksure": 26260,
    "Ġendued": 14079,
    "Ġlab": 1869,
    "divers": 15345,
    "Ġgasped": 11373,
    "Ġheartily": 6890,
    "table": 5795,
    "Ġknots": 15010,
    "Ġsubstance": 5510,
    "volous": 18595,
    "Ġcens": 8415,
    "ect": 380,
    "murder": 10566,
    "ishop": 9744,
    "Ġsilk": 11965,
    "Ġdispersed": 16598,
    "Ġengland": 3856,
    "Ġdismast": 12892,
    "Ġsoftness": 18919,
    "powers": 25411,
    "Ġhung": 4561,
    "Ġcadiz": 17327,
    "Ġinclined": 6625,
    "Ġwindings": 18911,
    "Ġgreatness": 12947,
    "noted": 22753,
    "largely": 19577,
    "Ġglaciers": 20176,
    "Ġsmiling": 5475,
    "Ġincreased": 2214,
    "Ġshalt": 18231,
    "Ġcoronet": 6346,
    "Ġpelt": 15613,
    "Ġintrude": 25991,
    "Ġgould": 17992,
    "Ġcharges": 23272,
    "heavily": 24533,
    "Ġpole": 6434,
    "atural": 940,
    "Ġdefinite": 11070,
    "Ġscaled": 2109,
    "Ġcoverage": 4287,
    "Ġfinite": 2326,
    "tiest": 21084,
    "henomen": 10496,
    "Ġtoad": 21514,
    "Ġrail": 7226,
    "Ġscraps": 16903,
    "Ġexpect": 2306,
    "dashed": 12459,
    "pursuit": 20343,
    "Ġlandless": 23382,
    "retreat": 23143,
    "Ġdelightful": 6322,
    "itions": 4144,
    "provid": 11150,
    "Ġword": 1054,
    "Ġclassify": 1696,
    "Ġbarrens": 25502,
    "Ġgrec": 18962,
    "cape": 13700,
    "Ġinsufferable": 13933,
    "wrinkled": 16555,
    "Ġimply": 18446,
    "?âĢĶ": 3465,
    "relig": 15514,
    "patient": 25343,
    "Ġpolar": 9413,
    "Ġbrawn": 10483,
    "Ġilliter": 23470,
    "Ġshore": 4835,
    "Ġsnow": 3704,
    "ov": 15402,
    "ñ": 178,
    "Ġincantation": 26259,
    "Ġpaus": 4299,
    "Ġfidget": 15192,
    "arched": 10816,
    "Ġalert": 18104,
    "Ġthigh": 10188,
    "Ġviol": 2072,
    "Ñ": 146,
    "Ġbritain": 16957,
    "Ġelephant": 8257,
    "captains": 12131,
    "cake": 20806,
    "Ġeduc": 4785,
    "weeks": 14318,
    "Ġfame": 21409,
    "Ġsteadfast": 8682,
    "Ġsuperl": 16444,
    "quarters": 24949,
    "Ġbeadle": 26485,
    "tumultuously": 25614,
    "pot": 10119,
    "Ġoptimal": 1855,
    "Ġabhorrence": 9054,
    "Ġpenalty": 1839,
    "ob": 1420,
    "orough": 5700,
    "Ġindividuals": 24545,
    "Ġreturns": 11929,
    "Ġdemoniacal": 20559,
    "Ġolive": 12569,
    "Ġdeficient": 18827,
    "Ġcal": 1326,
    "list": 7552,
    "Ġdissuade": 26258,
    "Ġhebrew": 13990,
    "ober": 15408,
    "Ġback": 830,
    "cavity": 26127,
    "Ġnerve": 16342,
    "Ġmuscles": 12092,
    "Ġranging": 8481,
    "manif": 14374,
    "Ġn": 300,
    "Ġlightning": 5750,
    "Ġdifferently": 10391,
    "Ġapp": 496,
    "Ġcontained": 7681,
    "cloudless": 20335,
    "transferred": 24510,
    "Ġpushed": 5912,
    "accustomed": 13160,
    "Ġdz": 4756,
    "Ġchina": 8041,
    "Ġfrequented": 16587,
    "Ġpeev": 22697,
    "acknowledged": 15205,
    "through": 4022,
    "once": 5906,
    "<MASK>": 4,
    "Ġelement": 6898,
    "Ġseeming": 8543,
    "Ġprincely": 24149,
    "Ġundeceive": 25553,
    "Ġmetropolitan": 17277,
    "concern": 5877,
    "shazz": 14241,
    "concerns": 24583,
    "Ġhole": 6081,
    "Ġcoldness": 23762,
    "Ġirregular": 9867,
    "know": 2318,
    "Ġspaces": 3112,
    "gration": 9123,
    "class": 4093,
    "Ġsleepy": 8269,
    "Ġangrily": 9409,
    "city": 15329,
    "Ġprocured": 8680,
    "Ġresearch": 3289,
    "Ġattic": 16101,
    "ies": 581,
    "sword": 10727,
    "Ġobliging": 13246,
    "Ġ83": 24458,
    "Ġimpact": 10298,
    "Ġ/*": 10141,
    "Ġoutset": 15958,
    "Ġfainted": 8795,
    "Ġejac": 10205,
    "Ġharpooneer": 3769,
    "Ġimplicate": 24877,
    "Ġdealing": 14047,
    "Ġgodfrey": 15296,
    "Ġcripple": 11441,
    "oing": 15403,
    "Ġreveries": 11348,
    "oky": 8199,
    "Ġexplanations": 15914,
    "atement": 17774,
    "trap": 24333,
    "inlaid": 21193,
    "Ġblurred": 22935,
    "Ġwiping": 25766,
    "Ġhath": 12632,
    "level": 2652,
    "ourably": 14378,
    "Ġfundamental": 3015,
    "Ġflattened": 26048,
    "screaming": 20328,
    "aphys": 15204,
    "whom": 8186,
    "Ġexpedition": 10636,
    "veh": 12685,
    "Ġjew": 9469,
    "Ġmountain": 3371,
    "ower": 997,
    "Ġembellish": 25848,
    "Ġrecall": 3855,
    "Ġthoughtlessness": 16196,
    "simple": 13455,
    "Ġbarn": 11589,
    "Ġtop": 2469,
    "bolts": 11421,
    "rous": 3748,
    "Ġscuttle": 7414,
    "Ġleadenhall": 16630,
    "Ġallen": 5160,
    "Ġmines": 21311,
    "painful": 13504,
    "explanation": 12361,
    "Ġpity": 4941,
    "Ġquadru": 16007,
    "Ġcharley": 19007,
    "Ġremark": 2146,
    "bird": 9587,
    "Ġbedroom": 7277,
    "Ġheadache": 22905,
    "Ġrods": 9755,
    "Ġexamples": 2605,
    "Ġeternally": 11370,
    "Ġhelper": 24029,
    "Ġdod": 6675,
    "clouds": 25497,
    "Ġshrill": 12145,
    "Ġpythag": 26449,
    "istry": 22114,
    "Ġtomb": 8811,
    "groom": 8743,
    "gather": 20877,
    "ourselves": 9013,
    "Ġdishes": 16053,
    "vices": 21119,
    "Ġgrant": 11876,
    "Ġminuteness": 19140,
    "Ġpuzz": 5532,
    "unhesitatingly": 26497,
    "Ġhoisted": 5962,
    "Ġbuying": 23999,
    "Ġwrecked": 9968,
    "Ġtil": 12528,
    "Ġbowed": 6244,
    "val": 1164,
    "Ġassisted": 11111,
    "Ġbesee": 19245,
    "Ġfourth": 7708,
    "Ġcarelessness": 13079,
    "Ġcobbler": 25831,
    "Ġawaited": 17074,
    "Ġbagging": 24538,
    "Ġrequ": 800,
    "Ġblocks": 6323,
    "bureau": 20791,
    "enorm": 17782,
    "Ġinfamy": 14502,
    "interruption": 20115,
    "Ġincorporate": 20457,
    "offing": 23338,
    "anxiously": 15113,
    "ences": 1263,
    "Ġkl": 2735,
    "apprehens": 17408,
    "anded": 5925,
    "ige": 12683,
    "slightest": 25417,
    "ech": 4391,
    "account": 5330,
    "disreputable": 23505,
    "Ġalleys": 25979,
    "Ġmiser": 18704,
    "Ġconsequence": 5541,
    "fury": 17548,
    "Ġhood": 10824,
    "bon": 13687,
    "tern": 4220,
    "illa": 12797,
    "Ġdowncast": 18650,
    "Ġcoiled": 11823,
    "Ġwanted": 4968,
    "Ġinduced": 8674,
    "sudden": 5316,
    "Ġlistening": 6320,
    "Ġforty": 5719,
    "beware": 16042,
    "Ġwil": 4581,
    "Ġreeds": 15699,
    "present": 1138,
    "Ġconclusion": 5988,
    "outre": 18321,
    "Ġwa": 1752,
    "Ġmister": 22757,
    "Ġungovernable": 20711,
    "Ġeverlasting": 9339,
    "Ġnewton": 3530,
    "Ġfrank": 4421,
    "Ġsaints": 20677,
    "Ġhatchway": 13527,
    "Ġheadland": 22903,
    "around": 12612,
    "landsmen": 25062,
    "Ġtombed": 25164,
    "ears": 20847,
    "rippa": 11342,
    "Ġderived": 8240,
    "Ġcharger": 19006,
    "mere": 11858,
    "pumps": 21029,
    "Ġvineyarder": 25607,
    "ure": 356,
    "Ġindomit": 22961,
    "like": 1883,
    "Ġsovereign": 10064,
    "Ġhappier": 10361,
    "Ġhit": 7164,
    "frantic": 24284,
    "allers": 22202,
    "Ġhiss": 15791,
    "crack": 19843,
    "younger": 11313,
    "search": 8467,
    "Ġgilded": 17447,
    "Ġescaped": 6460,
    "Ġtongs": 9963,
    "pair": 21014,
    "confid": 14869,
    "Ġacceptable": 16745,
    "Ġgiants": 25961,
    "poled": 22913,
    "Ġlets": 18079,
    "Ġwaifing": 25244,
    "inger": 6813,
    "tailed": 17686,
    "Ġcompunction": 18591,
    "Ġpleasures": 11143,
    "Ġinterchange": 16079,
    "gardiner": 12294,
    "Ġprow": 6686,
    "Ġcuring": 21347,
    "Ġstuff": 5717,
    "Ġtrick": 7022,
    "wore": 21127,
    "Ġupheld": 22157,
    "conclude": 24070,
    "Ġcalifornian": 25853,
    "Ġmelting": 24289,
    "Ġscenarios": 26543,
    "Ġxxxix": 24973,
    "Ġgir": 2258,
    "quality": 10234,
    "Ġaspect": 3098,
    "Ġbouton": 17870,
    "Ġsatisf": 2807,
    "Ġthan": 737,
    "Ġmalice": 7153,
    "building": 17311,
    "Ġorphans": 20207,
    "blind": 16703,
    "Ġwives": 12559,
    "Ġlump": 21556,
    "acked": 10975,
    "Ġboon": 22640,
    "Ġexult": 10232,
    "Ġcows": 15556,
    "Ġoutput": 930,
    "fa": 7336,
    "culine": 19065,
    "onial": 11568,
    "william": 4563,
    "warrant": 21140,
    "ining": 3223,
    "Ġglobal": 2369,
    "Ġcumberland": 21358,
    "Ġforemost": 12007,
    "fatigue": 20660,
    "Ġpugn": 21483,
    "grat": 5052,
    "using": 5468,
    "Ġbrook": 13052,
    "Ġprovid": 1010,
    "van": 7815,
    "Ġfunere": 22264,
    "jo": 3747,
    "iamond": 14591,
    "presence": 18495,
    "fe": 674,
    "odd": 21814,
    "command": 6578,
    "Ġineffable": 17334,
    "Ġhappy": 2464,
    "Ġal": 342,
    "separ": 9232,
    "cil": 8724,
    "ede": 21510,
    "Ġblasphemy": 26116,
    "Ġjustify": 11073,
    "Ġsideways": 6184,
    "Ġfriend": 1296,
    "Ġlashed": 9200,
    "wrapped": 15212,
    "els": 1763,
    "Ġarc": 14160,
    "Ġgravesend": 15219,
    "metals": 24765,
    "Ġsurgeons": 23466,
    "Ġcounterbalance": 24721,
    "Ġineffect": 13932,
    "believe": 8305,
    "Ġcrow": 3803,
    "Ġencircling": 26273,
    "Ġtreachery": 15104,
    "Ġfrequent": 3287,
    "Ġchange": 1992,
    "Ĵ": 245,
    "Ġheaped": 18040,
    "Ġsubmit": 11873,
    "Ġbottles": 16572,
    "Ġsecre": 5493,
    "Ġwon": 1668,
    "Ġtottenham": 24143,
    "Ġfears": 5729,
    "thunder": 10264,
    "Ġincred": 5646,
    "ognit": 19184,
    "visit": 7756,
    "Ġintrepidity": 25551,
    "respond": 12548,
    "roylott": 20030,
    "Ġsucceeding": 16762,
    "Ġrain": 5005,
    "Ġlethar": 21751,
    "Ġesteemed": 10590,
    "Ġledgers": 23941,
    "Ġparsonage": 7125,
    "recursion": 13332,
    "ohn": 4562,
    "Ġalders": 21789,
    "Ġes": 8773,
    "Ġboisterously": 25683,
    "Ġfluid": 11213,
    "Ġsteward": 6586,
    "ention": 857,
    "Ġdecreases": 3409,
    "Ġegress": 21625,
    "Ġauthority": 7750,
    "ctors": 21594,
    "¼": 125,
    "Ġepis": 19985,
    "asant": 17961,
    "Ġhisself": 21920,
    "Ġor": 436,
    "Ġaperture": 26161,
    "Ġsubs": 2132,
    "Ġvaults": 17155,
    "Ġdiffers": 23784,
    "Ġhelmeted": 19691,
    "Ġmiddle": 4135,
    "projecting": 26074,
    "ceased": 21630,
    "Ġcumulative": 4208,
    "advice": 12161,
    "Ġnoted": 15833,
    "Ă": 195,
    "su": 809,
    "Ġincredulous": 9989,
    "shall": 4551,
    "iard": 9603,
    "Ġrol": 3552,
    "Ġbackwoods": 22666,
    "Ġshouts": 19540,
    "examination": 25479,
    "deserted": 19344,
    "Ġpoured": 8804,
    "Ġprocessions": 18434,
    "Ġgifts": 21616,
    "Ġcring": 15555,
    "sixteen": 24854,
    "Ġresponded": 13641,
    "caut": 20814,
    "Ġfearless": 9877,
    "hereditary": 26420,
    "ioning": 21513,
    "Ġsteady": 4848,
    "Ġsagacity": 16975,
    "prev": 12870,
    "Ġinferiority": 17115,
    "horizon": 23617,
    "Ġbenchmarks": 15023,
    "narrated": 25622,
    "Ġsimultaneous": 22593,
    "Ġslid": 7953,
    "send": 15425,
    "Ġgust": 21601,
    "Ġpacing": 8428,
    "Ġassistants": 9453,
    "iluvian": 18063,
    "Ġoverladen": 22357,
    "Ġregardless": 19326,
    "Ġrel": 1097,
    "Ġinvented": 17037,
    "Ġrather": 1494,
    "Ġrecom": 4556,
    "ĠĠĠ": 2118,
    "Ġdeaf": 12725,
    "Ġintimacy": 8704,
    "Ġspermaceti": 8969,
    "Ġworks": 5859,
    "Ġcircumspection": 25885,
    "ission": 6458,
    "Ġrags": 18646,
    "agation": 1283,
    "Ġcaut": 6522,
    "xible": 13810,
    "apter": 1197,
    "Ġcabinets": 23865,
    "Ġtool": 21515,
    "Ġdepicted": 14280,
    "somers": 19371,
    "Ġsuccessful": 9925,
    "american": 11401,
    "Ġbrotherly": 16528,
    "Ġeven": 1028,
    "Ġdepart": 4657,
    "Ġte": 1117,
    "Ġfeatureless": 22617,
    "Ġbounty": 26438,
    "rist": 10124,
    "Ġtime": 689,
    "Ġnocturnal": 20717,
    "Ġcons": 954,
    "Ġvocabulary": 4995,
    "Ġbulge": 23860,
    "Ġlimits": 3451,
    "reproach": 15189,
    "Ġcoarse": 14279,
    "nor": 2740,
    "Ġequ": 1735,
    "Ġfragments": 19056,
    "Ġrepeat": 8001,
    "lively": 12488,
    "mother": 5480,
    "Ġintensified": 17019,
    "build": 12191,
    "Ġimbalance": 22179,
    "Ġvarying": 15813,
    "Ġinvest": 4978,
    "Ġgrating": 14357,
    "bunger": 20405,
    "Ġcultivation": 17147,
    "amiable": 14055,
    "Ġtransient": 18504,
    "etween": 775,
    "request": 21244,
    "Ġtoil": 6533,
    "Ġ98": 24595,
    "nui": 21002,
    "voc": 8395,
    "curious": 10484,
    "Ġadmiration": 5329,
    "Ġminister": 18753,
    "Ġcitations": 25438,
    "Ġdepartments": 24244,
    "Ġbed": 2153,
    "Ġstamping": 20034,
    "Ġwars": 17787,
    "Ġarri": 2552,
    "dangerous": 20243,
    "Ġut": 2281,
    "Ġcaul": 10788,
    "scorn": 22997,
    "turtle": 12215,
    "Ġenormity": 19698,
    "hold": 3980,
    "Ġmin": 1027,
    "Ġobed": 8538,
    "Ġvillains": 14752,
    "dw": 3333,
    "Ġregent": 18585,
    "utes": 5916,
    "irous": 8842,
    "Ġclearing": 8241,
    "generally": 9437,
    "Ġreached": 4021,
    "Ġtaken": 2526,
    "Ġcircus": 19093,
    "atory": 6127,
    "raltar": 24235,
    "ufact": 10734,
    "Ġspitzbergen": 15290,
    "Ġdiff": 3116,
    "questioning": 16851,
    "dev": 7633,
    "delighted": 10564,
    "lob": 22512,
    "Ġcurds": 22992,
    "app": 1041,
    "Ġfixing": 13159,
    "Ġerect": 6145,
    "Ġharpooned": 13264,
    "Ġcalculus": 23986,
    "Ġhospitals": 24924,
    "trifling": 19417,
    "armon": 23064,
    "worked": 19031,
    "faced": 8081,
    "fair": 10094,
    "Ġdisquiet": 18553,
    "Ġmethodically": 23118,
    "spass": 18687,
    "bent": 15314,
    "Ġgreedily": 18966,
    "moderate": 22840,
    "Ġcalculates": 13267,
    "dig": 4930,
    "strate": 12677,
    "Ġdominant": 12399,
    "Ġchrist": 4070,
    "Ġstarbuck": 2197,
    "Ġinvari": 6530,
    "natured": 7112,
    "Ġweap": 6157,
    "Ġlocal": 1203,
    "Ġautumn": 14510,
    "Ġcomp": 725,
    ");": 7330,
    "Ġsult": 10768,
    "Ġpleasing": 6192,
    "onsible": 22567,
    "Ġimpud": 18447,
    "Ġoutskirts": 17459,
    "dropout": 3199,
    "rove": 21537,
    "Ġprincess": 23227,
    "cks": 3081,
    "Ġsurmis": 23465,
    "Ġpretext": 22234,
    "Ġembodiment": 20531,
    "repeating": 20132,
    "Ġcaptiv": 16260,
    "Ġred": 3007,
    "Ġaimed": 20253,
    "Ġcommit": 18655,
    "Ġestablishment": 13582,
    "Ġwes": 8782,
    "ferred": 16421,
    "Ġcerem": 7079,
    "idually": 21774,
    "aled": 3941,
    "gay": 11490,
    "enge": 21283,
    "Ġlubber": 17446,
    "iments": 4945,
    "deli": 15347,
    "reasoning": 9478,
    "Ġunconscious": 9549,
    "Ġformation": 2946,
    "Ġbulk": 5590,
    "days": 7690,
    "Ġcrossed": 6071,
    "Ġgracechurch": 12202,
    "hyena": 24254,
    "Ġdri": 2363,
    "ene": 2173,
    "Ġnewcom": 16225,
    "Ġorganization": 7985,
    "Ġsombre": 18861,
    "Ġfinally": 4667,
    "Ġland": 1996,
    "Ġpilot": 5987,
    "discernible": 20553,
    "Ġjeopardized": 20233,
    "Ġforked": 11666,
    "tling": 9144,
    "Ġcrew": 2494,
    "Ġfault": 5702,
    "ortions": 10949,
    "Ġmississ": 18841,
    "Ġgown": 10203,
    "Ġefficiently": 3816,
    "allet": 11084,
    "Ġlouis": 8358,
    "Ġappal": 18360,
    "typewritten": 26039,
    "Ġprograms": 7239,
    "Ġperry": 22402,
    "eray": 21269,
    "Â·": 21152,
    "mil": 13754,
    "ops": 5248,
    "Ġfugitive": 17329,
    "Ġant": 4346,
    "dock": 16420,
    "Ġsprained": 15886,
    "elizabeth": 1984,
    "jammed": 25907,
    "Ġnewfoundland": 26570,
    "ĠĠĠĠĠĠĠĠĠĠĠĠĠĠĠĠĠĠĠĠĠĠĠĠĠĠĠĠĠĠĠĠĠĠĠĠĠĠĠĠĠĠĠĠĠ": 9954,
    "Ġduke": 7757,
    "Ġavocation": 23956,
    "Ġdependency": 3484,
    "Ġseething": 18204,
    "Ġfooted": 23799,
    "ĠâĢĶ_": 3456,
    "Ġconceal": 5976,
    "oko": 18442,
    "Ġskulls": 12964,
    "Ġeffect": 968,
    "nearer": 22464,
    "cur": 3271,
    "Ġscruples": 15081,
    "Ġimmutable": 17360,
    "elijah": 19476,
    "conditional": 9080,
    "draw": 23903,
    "Ġsquat": 14369,
    "Ġinsatiate": 19272,
    "ther": 481,
    "Ġpride": 3822,
    "Ġisles": 8461,
    "Ġdepending": 14290,
    "Ġremembrance": 8319,
    "Ġfairest": 20466,
    "Ġclair": 6270,
    "respectively": 24699,
    "clump": 23159,
    "Ġmicha": 17813,
    "solving": 3101,
    "Ġdissu": 18551,
    "Ġsix": 3045,
    "Ġjo": 2609,
    "din": 8375,
    "tered": 2232,
    "Ġcouns": 10522,
    "Ġgrounded": 23714,
    "Ġinjurious": 24272,
    "Ġtantalizing": 20417,
    "Ġstarlight": 24628,
    "Ġconvent": 11670,
    "Ġguards": 16272,
    "zeal": 16262,
    "Ġsadness": 13290,
    "landlord": 9842,
    "Ġbritish": 11338,
    "Ġrestless": 10414,
    "dling": 15342,
    "troubled": 17112,
    "Ġ102": 24409,
    "Ġslo": 15508,
    "Ġblown": 12089,
    "Ġbecame": 2689,
    "Ġwalked": 3144,
    "Ġlowerings": 23648,
    "Ġbased": 3339,
    "charlotte": 6474,
    "Ġnapoleons": 25886,
    "Ġconc": 1840,
    "Ġintens": 7004,
    "Ġgreat": 896,
    "Ġmargin": 11924,
    "Ġcoat": 4555,
    "Ġdeclined": 9923,
    "omas": 12680,
    "hood": 2657,
    "pard": 9620,
    "Ġbond": 21387,
    "elder": 21576,
    "Ġsolely": 9912,
    "Ġrat": 4354,
    "pleasing": 14744,
    "libra": 22929,
    "Ġsins": 13839,
    "enged": 23151,
    "Ġfringe": 17273,
    "µ": 118,
    "Ġord": 3732,
    "kward": 6958,
    "dem": 10694,
    "Ġsoldier": 16921,
    "Ġpig": 5705,
    "Ġenig": 15802,
    "Ġwounds": 17792,
    "Ġapproximate": 2343,
    "Ġcomplexion": 8212,
    "hearing": 8405,
    "Ġadmitted": 8988,
    "imin": 1768,
    "ume": 4836,
    "Ġvulgar": 13607,
    "Ġrushes": 20511,
    "steaks": 23964,
    "Ġscrut": 15949,
    "Ġmu": 17797,
    "carefully": 13372,
    "Ġwaits": 23282,
    "Ġdeficiencies": 26571,
    "adem": 21762,
    "usage": 12836,
    "ullo": 12732,
    "hist": 7132,
    "ateg": 1347,
    "Ġpeasant": 13554,
    "Ġevalu": 3047,
    "Ġtack": 5620,
    "Ġsequences": 1750,
    "ceive": 3065,
    "Ġsharpen": 13572,
    "vital": 17701,
    "rodu": 1817,
    "planks": 21959,
    "lim": 9608,
    "8": 28,
    "ancies": 11586,
    "Ġinquiring": 9001,
    "erred": 6377,
    "Ġsighs": 22713,
    "Ġgraph": 10903,
    "Ġresources": 2940,
    "wait": 11321,
    "Ġrede": 13986,
    "Ġresponsiveness": 2900,
    "Ġmaterially": 12195,
    "moor": 22708,
    "ifies": 6688,
    "Ġabraham": 18396,
    "persons": 24176,
    "jure": 20926,
    "Ġdoleful": 18378,
    "recur": 4439,
    "Ġphys": 5653,
    "Ġbor": 5805,
    "rene": 5379,
    "Ġhunch": 18937,
    "Ġcomrades": 9235,
    "Ġtowing": 9195,
    "Ġmasterless": 23998,
    "Ġimputation": 22177,
    "gledy": 25404,
    "Ġpeeled": 14320,
    "Ġinfatuated": 20536,
    "deemed": 18316,
    "lur": 13749,
    "Ġhunger": 8570,
    "Ġthinnest": 24185,
    "Ġcondense": 21813,
    "Ġvill": 3876,
    "Ġhoops": 9390,
    "prevent": 11798,
    "Ġessentials": 20006,
    "Ġlord": 2969,
    "plings": 11698,
    "customary": 25896,
    "sar": 12508,
    "appear": 13199,
    "Ġsepulchre": 20562,
    "Ġben": 1111,
    "smiles": 14694,
    "Ġpatentee": 25587,
    "Ġtant": 12529,
    "Ġdexterously": 25296,
    "Õ": 150,
    "Ġcalf": 16270,
    "Ġundivided": 24120,
    "Ġmankind": 6700,
    "Ġowest": 25094,
    "Ġattempt": 3483,
    "aries": 6246,
    "lay": 5893,
    "fitted": 17545,
    "hawks": 24695,
    "kinder": 24846,
    "Ġbuff": 9174,
    "eliest": 14749,
    "Ġtun": 6001,
    "Ġdiscrimin": 2543,
    "aming": 5829,
    "Ġspades": 12800,
    "aced": 2416,
    "Ġdec": 641,
    "Ġexasperated": 11413,
    "answered": 10275,
    "Ġspout": 3283,
    "Ġcannibal": 7775,
    "Ġcreamy": 14330,
    "Ġuncommon": 5026,
    "Ġspong": 15884,
    "imag": 6991,
    "Ġconcre": 16389,
    "Ġspatial": 2729,
    "ants": 1391,
    "Ġdodo": 9074,
    "Ġwithout": 1122,
    "uguese": 20734,
    "Ġluxury": 20135,
    "held": 3839,
    "dining": 13708,
    "Ġaged": 10323,
    "Ġwretchedness": 9028,
    "Ġshrieks": 12203,
    "balls": 12308,
    "Ġregulations": 18587,
    "Ġmag": 1431,
    "nt": 920,
    "Ġpetticoat": 15298,
    "Ġbanquet": 15243,
    "Ġarist": 14161,
    "darkened": 24513,
    "oftener": 23968,
    "Ġconvinced": 4203,
    "pie": 21013,
    "Ġfinny": 23132,
    "Ġtransfer": 2390,
    "Ġbottled": 23798,
    "nowledge": 10291,
    "Ġreach": 4044,
    "represented": 20198,
    "Ġ28": 19296,
    "Ġcorpore": 13404,
    "illity": 18297,
    "Ġslippery": 12170,
    "Ġbordering": 17230,
    "Y": 61,
    "Ġpleased": 4061,
    "Ġvengeful": 14892,
    "fooled": 24418,
    "ago": 14067,
    "onday": 6066,
    "ories": 4753,
    "Ġusher": 22220,
    "Ġfoundation": 4228,
    "lik": 3913,
    "Ġhardest": 18914,
    "Ġhart": 17924,
    "?": 35,
    "gentleman": 7519,
    "Ġcalves": 13039,
    "Ġpoets": 11824,
    "Ġsymbolize": 24965,
    "sively": 13788,
    "tures": 21072,
    "mody": 16182,
    "friendship": 24052,
    "Ġuninterrupted": 22051,
    "ributed": 8216,
    "Ġplu": 8802,
    "Ġfortunate": 6216,
    "orm": 425,
    "pha": 22766,
    "s": 87,
    "Ġjeer": 24123,
    "Ġboughs": 20492,
    "Ġenjoying": 11235,
    "Ġreceived": 2954,
    "Ġphyset": 23205,
    "Ġsheltered": 19913,
    "Ġtalks": 23373,
    "Ġsaleve": 17393,
    "ould": 428,
    "Ġthou": 1807,
    "ply": 6367,
    "tempered": 13449,
    "Ġ74": 24263,
    "forehead": 8518,
    "Ġscores": 2714,
    "atives": 2237,
    "question": 5418,
    "glit": 23853,
    "omb": 10208,
    "Ġknowingly": 18481,
    "sphere": 22736,
    "Ġimprudently": 22395,
    "uss": 8767,
    "cell": 10688,
    "Ġstaple": 26200,
    "latin": 25259,
    "Ġunequal": 14844,
    "sius": 13790,
    "Ġreflection": 6441,
    "Ġsuffers": 2976,
    "Ġoptimize": 1626,
    "Ġweeps": 24950,
    "telling": 14442,
    "Ġrewarding": 13440,
    "howling": 18991,
    "Ġadoption": 24951,
    "Ġfancying": 12116,
    "Ġclay": 7020,
    "Ġinsol": 10182,
    "Ġassures": 14468,
    "Ġprivate": 5346,
    "cherish": 24551,
    "princip": 17138,
    "Ġdistress": 5845,
    "Ġbitter": 4169,
    "rift": 11521,
    "Ġconstru": 19069,
    "Ġvivacity": 14943,
    "affrail": 11206,
    "ipl": 20920,
    "contrary": 23732,
    "Ġmedium": 16707,
    "nikin": 23208,
    "Ġray": 18643,
    "dz": 4739,
    "Ġhemisphere": 26479,
    "evenings": 19466,
    "Ġreconciled": 13590,
    "brew": 11474,
    "Ġceasing": 23760,
    "pass": 4291,
    "Ġsouth": 4911,
    "Ġawaken": 23588,
    "Ġlast": 1125,
    "distinguish": 19575,
    "mile": 17598,
    "Ġrational": 8482,
    "ampling": 12730,
    "fect": 2301,
    "Ġintervening": 17269,
    "Ġtrusty": 24104,
    "Ġnourishment": 15195,
    "rifice": 12507,
    "eldest": 22805,
    "Ġdisp": 3358,
    "Ġfordham": 21781,
    "nesday": 8706,
    "inav": 15485,
    "this": 1440,
    "hook": 12056,
    "unhappy": 10239,
    "Ġreflections": 5949,
    "Ġlowest": 11123,
    "kins": 7345,
    "Ġgrave": 5100,
    "Ġpromethe": 14470,
    "gratulation": 24348,
    "usages": 22285,
    "Ġsubsc": 22794,
    "Ġgouge": 26190,
    "Ġunho": 18246,
    "Ġdemi": 25549,
    "wrath": 23759,
    "still": 4216,
    "Ġunfit": 14790,
    "steak": 14710,
    "astonishment": 10032,
    "Ġhoe": 23355,
    "Ġtren": 17722,
    "Ġglades": 19375,
    "×": 152,
    "Ġpatchwork": 24142,
    "burst": 10539,
    "Ġwitnessing": 19601,
    "Ġstump": 7604,
    "Ġshaft": 18230,
    "consider": 6350,
    "Ġcountless": 16385,
    "Ġreject": 7386,
    "Ġquenched": 22422,
    "avast": 8900,
    "Ġgrateful": 7662,
    "alike": 17945,
    "Ġfaltering": 17886,
    "wall": 10138,
    "Ġdistant": 5387,
    "Ġwarnings": 16882,
    "onent": 21251,
    "westward": 25425,
    "Ġtorn": 6002,
    "originally": 24940,
    "Ġargu": 10935,
    "Ġreputation": 11642,
    "madly": 24419,
    "Ġfasting": 16358,
    "Ġpropensity": 18997,
    "Ġlungs": 8363,
    "Ġel": 801,
    "¶": 119,
    "Ġusages": 15920,
    "Ġpikes": 21481,
    "Ġenters": 11026,
    "Ġfleece": 10616,
    "urre": 10857,
    "Ġtrif": 6272,
    "frisco": 16788,
    "unless": 9237,
    "Ġcents": 17830,
    "Ġhumped": 19772,
    "Ġstars": 6151,
    "satisfaction": 9994,
    "Ġturtles": 19223,
    "thoughtfully": 24047,
    "tie": 21071,
    "duty": 20242,
    "Ġoysters": 20582,
    "ction": 501,
    "high": 6652,
    "Ġspecks": 14307,
    "Ġgar": 10839,
    "baggage": 24927,
    "Ġpitiable": 9916,
    "Ġconsisting": 8973,
    "Ġwaiter": 16362,
    "Ġlistener": 16475,
    "pans": 13772,
    "infer": 10146,
    "Ġpeeling": 22696,
    "Ġsuff": 1304,
    "Ġguns": 16777,
    "frock": 20124,
    "draughts": 20391,
    "sighted": 19788,
    "attached": 11938,
    "often": 6167,
    "strip": 19833,
    "Ġspasmodically": 17316,
    "say": 3982,
    "ase": 1159,
    "protruding": 24813,
    "killed": 15379,
    "et": 307,
    "Ġsoles": 22088,
    "ou": 287,
    "Ġprobably": 4314,
    "Ġzealand": 12353,
    "Ġreigns": 21675,
    "september": 14038,
    "###": 3826,
    "pul": 8757,
    "hetically": 21211,
    "Ġidentity": 2522,
    "Ġindividuality": 14911,
    "max": 1685,
    "Ġvisitors": 7986,
    "Ġfading": 15587,
    "Ġacross": 1330,
    "fug": 17544,
    "Ġplentiful": 12915,
    "ilated": 18060,
    "manner": 6172,
    "Ġoverflow": 10293,
    "Ġthinkings": 22814,
    "Ġsea": 1212,
    "Ġcreating": 2998,
    "Ġdoctor": 5067,
    "Ġcheese": 9379,
    "relapse": 24019,
    "anchor": 13891,
    "Ġsn": 2952,
    "manifested": 20529,
    "Ġinsular": 19270,
    "Ġnewcomer": 26041,
    "Ġaggregate": 25678,
    "Ġrobberies": 22986,
    "Ġindex": 17049,
    "wal": 10135,
    "Ġdemanding": 16806,
    "oury": 22309,
    "\\": 64,
    "Ġdreaminess": 23943,
    "Ġwash": 9705,
    "riot": 18186,
    "Ġwaterproof": 19088,
    "col": 3104,
    "trunk": 23951,
    "Ġlard": 13949,
    "Ġfad": 17878,
    "Ġoffice": 4965,
    "Ġsupplies": 20329,
    "Ġanx": 3184,
    "Ġcork": 12573,
    "Ġaloud": 6254,
    "Ġcalling": 5662,
    "Ġrefreshing": 20267,
    "Ġgroup": 2039,
    "block": 11471,
    "Ġilluminate": 17194,
    "Ġslaves": 23173,
    "Ġstupendous": 20504,
    "Ġsmith": 16070,
    "Ġruined": 12958,
    "Ġportly": 14679,
    "Ġtempestuous": 20074,
    "Ġleaving": 3902,
    "Ġhysterics": 26094,
    "Ġpurpose": 2706,
    "ason": 1247,
    "Ġadmit": 7712,
    "card": 11476,
    "Ġcuriously": 13020,
    "malicious": 19904,
    "Ġbreathe": 9014,
    "Ġsoda": 25535,
    "sect": 8154,
    "Ġbask": 8118,
    "Ġthickets": 24026,
    "Ġappropriated": 23486,
    "Ġledge": 19404,
    "stolen": 13979,
    "Ġelectric": 15197,
    "Ġlevi": 3035,
    "Ġforetold": 23452,
    "union": 15773,
    "Ġdisapprobation": 16061,
    "catherine": 7129,
    "iple": 4806,
    "Ġlanded": 7469,
    "Ġoft": 9196,
    "Ġspake": 18309,
    "Ġburial": 16522,
    "Ġsche": 1706,
    "itive": 6671,
    "persuade": 13535,
    "Ġfrequently": 4680,
    "Ġimpressed": 8200,
    "Ġemer": 5961,
    "Ġattack": 5478,
    "coarse": 16488,
    "Ġack": 5621,
    "ino": 15481,
    "ad": 337,
    "Ġunconsciously": 10007,
    "Ġwinds": 5746,
    "Ġcumbrous": 26433,
    "rah": 8138,
    "Ġscrawled": 24580,
    "Ġbead": 21755,
    "Ġtransactions": 18505,
    "whalers": 17265,
    "fulness": 4310,
    "Ġillustration": 19137,
    "attending": 18918,
    "Ġjoist": 19234,
    "Ġlanes": 19768,
    "Ġeyelids": 26108,
    "Ġnotorious": 18224,
    "Ġmournful": 12339,
    "jets": 20930,
    "Ġsense": 3250,
    "Ġmorocc": 22978,
    "Ġsemantics": 2897,
    "occurrences": 26333,
    "icting": 12858,
    "Ġwire": 13854,
    "Ġantarctic": 19555,
    "Ġupbraided": 26529,
    "Ġemir": 23354,
    "Ġda": 5150,
    "Ġpallidness": 25605,
    "Ġproblem": 1269,
    "Ġtransformer": 2635,
    "Ġslabs": 13065,
    "Ġperpendicular": 7209,
    "snapping": 24850,
    "Ġengravings": 15070,
    "tips": 13798,
    "Ġdaw": 21433,
    "fill": 15353,
    "fugitive": 26132,
    "Ġado": 7628,
    "Ġorbs": 22095,
    "iated": 5892,
    "Ġcommenting": 25229,
    "consuming": 25674,
    "Ġdamned": 13134,
    "azing": 7706,
    "leading": 15565,
    "Ġpenet": 6888,
    "six": 7143,
    "Ġspectator": 19409,
    "Ġdoor": 1740,
    "Ġhalls": 19528,
    "Ġasiatics": 20434,
    "phon": 4123,
    "Ġcarries": 7676,
    "Ġexterior": 19991,
    "Ġtouching": 4681,
    "Ġmasters": 11577,
    "Ġdegree": 3701,
    "field": 3073,
    "Ġgoring": 21608,
    "Ġbeeches": 9228,
    "invariably": 26417,
    "inctions": 17733,
    "Ġmand": 21307,
    "antique": 18288,
    "enced": 4296,
    "Ġglut": 18849,
    "Ġparad": 2844,
    "gathered": 13734,
    "Ġshan": 9251,
    "Ġfurnace": 19443,
    "Ġprompt": 3192,
    "abomin": 15745,
    "Ġdaughters": 4423,
    "Ġarthur": 7196,
    "Ġstarvation": 19794,
    "Ġdiscu": 4364,
    "Ġguardsmen": 20633,
    "bare": 12444,
    "Ġhack": 12760,
    "Ġ71": 24261,
    "Ġgovernment": 15179,
    "necessities": 24307,
    "Ġobliterated": 17407,
    "article": 22400,
    "Ġexhibit": 14958,
    "Ġforgiven": 24030,
    "Ġjup": 15955,
    "»": 124,
    "Ġmoreover": 6165,
    "Ġwhal": 5454,
    "onist": 21253,
    "Ġinestimable": 17444,
    "riend": 1187,
    "Ġabstra": 22276,
    "olerably": 11675,
    "look": 2263,
    "sculptured": 26047,
    "Ġ133": 24782,
    "Ġdisc": 944,
    "Ġinviting": 19145,
    "Ġcottages": 14729,
    "Ġprometheus": 15295,
    "Ġstren": 15723,
    "Ġsilvery": 13097,
    "Ġreve": 2936,
    "Ġpepper": 9783,
    "Ġdecreas": 1650,
    "ó": 180,
    "ruin": 22185,
    "Ġreverse": 16983,
    "Ġacres": 14315,
    "shelf": 20384,
    "Ġopens": 23629,
    "acc": 2531,
    "Ġsailors": 4276,
    "ales": 3317,
    "retrospect": 23145,
    "Ġacknowled": 6352,
    "itement": 7836,
    "Ġgazes": 24096,
    "Ġdue": 3843,
    "Ġlabor": 10419,
    "Ġunconcerned": 20513,
    "Ġbubb": 12588,
    "ĠĠĠĠĠĠĠĠĠĠĠĠĠĠĠĠĠĠĠĠĠĠ": 16230,
    "Ġ13": 6720,
    "swim": 16780,
    "Ġsupposing": 6731,
    "Ġsobs": 14134,
    "Ġfruits": 17120,
    "joining": 19449,
    "Ġsnatching": 10473,
    "Ġpeace": 3690,
    "Ġhaunt": 18198,
    "Ġblow": 3373,
    "Ġhumiliation": 16201,
    "Ġsatir": 18799,
    "Ġenvironmental": 24160,
    "Ġmelt": 21321,
    "Ġfrancis": 26064,
    "otions": 7181,
    "Ġpupp": 10821,
    "born": 7544,
    "dignity": 15348,
    "Ġoccupant": 16653,
    "Ġforgetting": 3433,
    "Ġcornelius": 13576,
    "confirmed": 19643,
    "Ġwilderness": 14842,
    "Ġagon": 10322,
    "pious": 17634,
    "Ġsociable": 19406,
    "Ġacquaintances": 17352,
    "uesday": 8590,
    "numbers": 17617,
    "Ġaccomplished": 7106,
    "Ġhorrors": 10481,
    "altogether": 12643,
    "ingley": 1544,
    "aching": 5832,
    "Ġgradually": 3399,
    "times": 8100,
    "Ġunguarded": 15853,
    "ribution": 14306,
    "oment": 919,
    "ecess": 17533,
    "christmas": 20258,
    "Ġnavy": 14918,
    "Ġunsatisfied": 22049,
    "Ġtens": 17724,
    "orted": 4604,
    "Ġbefore": 811,
    "Ġnumberless": 16417,
    "ckled": 9259,
    "č": 206,
    "Ġindomitableness": 26572,
    "presented": 12995,
    "sequ": 2402,
    "mates": 5073,
    "Ġboy": 3023,
    "Ġpublisher": 24069,
    "Ġshutters": 9939,
    "Ġfits": 8794,
    "fever": 22505,
    "tan": 4742,
    "bucket": 17495,
    "Ġinequal": 21501,
    "Ġfan": 2037,
    "asible": 21546,
    "byter": 16215,
    "Á": 130,
    "Ġbaleful": 24987,
    "Ġstepped": 7053,
    "Ġfiercely": 12956,
    "creature": 5347,
    "ppered": 15794,
    "Ġclattering": 22366,
    "athan": 2959,
    "Ġintermediate": 18594,
    "susp": 10598,
    "Ġslates": 11107,
    "Ġcramped": 23531,
    "Ġcommitted": 7431,
    "Ġmour": 6974,
    "Ġpendulous": 25956,
    "asol": 21544,
    "Ġeventually": 8620,
    "Ġbreadth": 10565,
    "iards": 17575,
    "musical": 25341,
    "Ġfab": 15579,
    "Ġexception": 11217,
    "ressing": 8921,
    "occupations": 24969,
    "Ġsymptoms": 8708,
    "Ġsocket": 12789,
    "Ġbitterness": 8025,
    "Ġsettled": 3738,
    "paid": 15416,
    "Ġconstitutional": 25128,
    "Ġpass": 1039,
    "ize": 773,
    "Ġwhosoever": 21723,
    "Ġgrow": 2863,
    "itect": 973,
    "Ġparcels": 25466,
    "clerval": 7952,
    "englishman": 23676,
    "Ġmacy": 19358,
    "hailed": 17566,
    "Ġtales": 10143,
    "ex": 624,
    "Ġcharacteristically": 23690,
    "Ġsobbed": 14136,
    "Ġtransformations": 3482,
    "urg": 8143,
    "Ø": 153,
    "oniously": 21260,
    "mean": 6439,
    "Ġexcited": 5579,
    "Ġanother": 1738,
    "Ġunseasonable": 26521,
    "blows": 17167,
    "Ġswashing": 23061,
    "constellation": 24609,
    "Ġgros": 14825,
    "Ġankers": 21449,
    "Ġregiment": 6433,
    "rep": 5525,
    "Ġresponsible": 9888,
    "Ġmartin": 25437,
    "Ġble": 5223,
    "watching": 16931,
    "Ġgossip": 18470,
    "Ġstriving": 8998,
    "Ġpell": 21459,
    "kingly": 20941,
    "Ġcontrol": 13083,
    "Ġstating": 15725,
    "ef": 5134,
    "Ġquivering": 12862,
    "eagerly": 17318,
    "Ġlevels": 12702,
    "jur": 17579,
    "Ġteaches": 18790,
    "Ġcontrad": 9757,
    "Ġtake": 1579,
    "Ġoppressed": 11190,
    "Ġremonstrate": 22799,
    "Ġaside": 5234,
    "expound": 23662,
    "Ġcooking": 16648,
    "Ġlecture": 13570,
    "Ġgiving": 4082,
    "Ġtraps": 23085,
    "Ġstrip": 9423,
    "Ġgoverness": 8604,
    "Ġtyros": 26102,
    "Ġinstruments": 12227,
    "Ġpositively": 13035,
    "twinkle": 23702,
    "abeth": 908,
    "Ġassailed": 23182,
    "Ġreminds": 13434,
    "Ġlisten": 4674,
    "Ġenergy": 2551,
    "Ġfri": 17880,
    "Ġded": 2549,
    "Ġ1820": 25718,
    "Ġglancing": 5399,
    "whaler": 20312,
    "Ġintelligent": 1381,
    "Ġdecrease": 4198,
    "Ĳ": 243,
    "Ġterrified": 14673,
    "Ġsmitten": 12906,
    "Ġanimated": 7703,
    "windlass": 16722,
    "Ġmess": 7832,
    "Ġportentous": 15232,
    "Ġunchanging": 22050,
    "Ġstability": 1364,
    "Ġrecommending": 24332,
    "owers": 12688,
    "gravel": 22624,
    "Ġamerican": 5061,
    "Ġinclud": 1510,
    "sided": 17665,
    "expectation": 14858,
    "robber": 21541,
    "shoe": 14969,
    "Ġboasting": 19939,
    "Ġapprovingly": 26254,
    "Ġweld": 8113,
    "Ġaccount": 2320,
    "Ġgross": 11627,
    "er": 269,
    "Ġimperial": 9483,
    "Ġfinery": 23131,
    "devil": 7897,
    "Ġbliss": 13005,
    "readers": 23851,
    "pooh": 18804,
    "Ġcove": 22587,
    "Ġphilosophers": 10553,
    "Ġmerciless": 25247,
    "uth": 3019,
    "Ġcarpets": 18904,
    "Ġformidable": 8221,
    "Ġaspired": 25985,
    "Ġunfolding": 17086,
    "Ġdelic": 4131,
    "Ġfirst": 938,
    "pretend": 24883,
    "Ġsuddenly": 2645,
    "Ġcreep": 22724,
    "Ġslugg": 15271,
    "ifts": 12739,
    "Ġspans": 18305,
    "part": 2572,
    "Ġpremature": 3722,
    "Ġhorrible": 4905,
    "asis": 12654,
    "bearded": 18520,
    "Ġlatterly": 24084,
    "Ġimprecate": 20521,
    "Ġflee": 7081,
    "Ġcompanion": 3641,
    "Ġsecuring": 11994,
    "Ġtumbled": 13409,
    "conf": 4957,
    "Ġinhabitant": 19758,
    "Ġunfathomable": 20551,
    "Ġtell": 1468,
    "comes": 5394,
    "fates": 20860,
    "lanterns": 17431,
    "Ġpleasurable": 23344,
    "Ġhousehold": 8571,
    "ising": 2257,
    "Ġcusack": 26434,
    "Ġchilian": 25564,
    "Ġeyed": 12671,
    "idean": 14267,
    "pain": 7350,
    "Ġsailor": 3533,
    "unks": 15778,
    "Ġdiscount": 22786,
    "neath": 12869,
    "Ġslack": 8957,
    "england": 18931,
    "Ġtinkling": 25213,
    "Ġagainst": 1699,
    "Ġoriginated": 24122,
    "izing": 1072,
    "omet": 3077,
    "reement": 15513,
    "burned": 25082,
    "Ġentreated": 9953,
    "Ġproportionate": 17043,
    "boots": 11127,
    "ibly": 2997,
    "accursed": 20543,
    "doms": 20837,
    "Ġcompetition": 14271,
    "Ġxlvi": 25591,
    "treat": 12516,
    "Ġpro": 360,
    "midnight": 14902,
    "Ġparamore": 22127,
    "Ġdisinclination": 22541,
    "Ġbloom": 9889,
    "usive": 8191,
    "splash": 25210,
    "Ġinitialization": 1253,
    "Ġruminated": 24601,
    "apers": 3478,
    "Ġwoody": 23520,
    "seen": 2884,
    "Ġ39": 19493,
    "Ġ15": 9326,
    "Ġsuperst": 7705,
    "Ġgor": 9208,
    "Ġoverthrow": 18427,
    "Ġdestabilizing": 5053,
    "Ġsu": 433,
    "Ġsickbed": 24248,
    "Ġyawned": 15053,
    "Ġhark": 8430,
    "Ġescorted": 23508,
    "opinion": 10985,
    "uttle": 6249,
    "Ġspan": 11731,
    "chance": 6827,
    "Ġsanguine": 25929,
    "licted": 20958,
    "stud": 8823,
    "Ġpaces": 13921,
    "Ġstash": 18070,
    "duct": 3503,
    "oubted": 5861,
    "Ġhost": 7070,
    "Ġmeridian": 25713,
    "occupation": 15060,
    "Ġprime": 10405,
    "involuntarily": 20418,
    "Ġsubsisting": 23437,
    "Ġstretched": 5922,
    "â": 163,
    "Ġfondness": 16781,
    "taffrail": 15444,
    "blog": 19842,
    "Ġconven": 6153,
    "Ġstream": 5186,
    "fall": 5135,
    "Ġspecially": 12000,
    "Ġblasts": 19999,
    "Ġdinners": 23985,
    "n": 82,
    "intended": 11067,
    "Ġkeenest": 12165,
    "Ġeffects": 7236,
    "dilig": 17284,
    "vict": 11542,
    "Ġhollowly": 24525,
    "Ġnovelist": 24776,
    "dost": 14536,
    "Ġcollecting": 12289,
    "Ġholiest": 18814,
    "calmed": 16207,
    "investigations": 25534,
    "Ġrecommendation": 17026,
    "Ġaspects": 4171,
    "increased": 20273,
    "latter": 15385,
    "etical": 13960,
    "Ġmermaid": 17815,
    "Ġjoyfully": 19349,
    "altering": 12644,
    "Ġapprehensions": 13407,
    "paper": 9138,
    "though": 2119,
    "Ġimple": 1809,
    "Ġwounding": 19589,
    "alogue": 25163,
    "Ġbandaged": 16843,
    "mmed": 7916,
    "ordinate": 12879,
    "umbered": 22122,
    "arranging": 19320,
    "Ġdived": 9179,
    "Ġyour": 634,
    "Ġsenate": 25215,
    "Ġdiverse": 19211,
    "Ġminiature": 11041,
    "Ġpossibility": 7458,
    "irresistible": 18176,
    "Ġadagrad": 2907,
    "Ġcomely": 21853,
    "Ġdownstairs": 11225,
    "Ġcomplained": 16999,
    "interested": 9508,
    "kill": 13746,
    "Ġchronic": 9931,
    "Ġsubstitute": 16727,
    "Ġclifford": 22368,
    "Ġinsurance": 23681,
    "idents": 6152,
    "Ġabroad": 8868,
    "ourage": 2450,
    "Ġwomanly": 23551,
    "atches": 13848,
    "Ġemployment": 8632,
    "Ġcrimes": 8591,
    "credit": 12452,
    "extric": 22772,
    "holding": 7740,
    "Ġcruisings": 25865,
    "igating": 21703,
    "fo": 5279,
    "Ġwarmest": 16485,
    "Ġtended": 21169,
    "Ġyielding": 12190,
    "surf": 24214,
    "Ġallude": 12775,
    "Ġdiscredit": 22787,
    "Ġrector": 21680,
    "atically": 2709,
    "anxious": 15112,
    "Ġencourages": 2062,
    "ã": 164,
    "me": 879,
    "Ġdead": 2175,
    "Ġindicates": 3197,
    "dearest": 11737,
    "Ġsmoky": 22564,
    "Ġexplained": 5938,
    "Ġeconomically": 25289,
    "suddenly": 6494,
    "brous": 19201,
    "Ġdeject": 10881,
    "Ġchestnut": 19675,
    "Ġbattle": 5910,
    "faint": 17546,
    "Ġblackest": 19100,
    "Ġimpartial": 15222,
    "Ġdimensions": 16573,
    "ye": 1404,
    "reputation": 15517,
    "Ġunaccount": 22032,
    "deceiving": 22148,
    "giana": 7802,
    "mansion": 20985,
    "Ġspots": 11732,
    "latitudes": 17198,
    "sort": 6799,
    "Ġtears": 4227,
    "Ġgaieties": 24197,
    "Ġtobacco": 8368,
    "ispiece": 19728,
    "Ġyanke": 18100,
    "Ġproport": 2299,
    "Ġlove": 2055,
    "Ġnatural": 1109,
    "Ġwhither": 10216,
    "bride": 19202,
    "shut": 10980,
    "Ġtrailing": 23084,
    "Ġscientific": 6857,
    "err": 1143,
    "wards": 1274,
    "finish": 24383,
    "Ġexplore": 15912,
    "Ġgrudge": 20696,
    "Ġisol": 8837,
    "Ġclassification": 1106,
    "allowance": 16825,
    "Ġdepended": 9779,
    "encounter": 20395,
    "Ġexhausted": 8697,
    "Ġornament": 11722,
    "viating": 14579,
    "Ġwheel": 9720,
    "itch": 10162,
    "ĠĠĠĠĠĠĠĠĠĠĠĠĠĠĠĠĠĠĠĠĠĠĠĠĠĠĠĠĠĠĠĠĠĠĠĠĠĠĠĠĠĠĠĠĠĠĠĠĠ": 20041,
    "Ġduncan": 13464,
    "endering": 21287,
    "rit": 21038,
    "Ġtall": 4036,
    "akness": 14196,
    "Ġassure": 4420,
    "!âĢĶ": 2453,
    "Ġcolour": 4463,
    "loud": 11502,
    "tales": 17687,
    "Ġpencils": 23199,
    "Ġteeth": 4163,
    "hunsford": 24385,
    "encouragement": 17425,
    "define": 1523,
    "icilian": 20694,
    "Ġadmire": 5264,
    "Ġcha": 6853,
    "Ġacutely": 14316,
    "Ġerrors": 2597,
    "Ġgranted": 22811,
    "Ġsally": 15504,
    "Ġtied": 7357,
    "Ġattach": 14295,
    "Ġassumptions": 5517,
    "Ġoblivion": 26032,
    "Ġreferred": 8918,
    "hastened": 16846,
    "Ġdistrict": 10320,
    "Ġcour": 1767,
    "Ġdemo": 10880,
    "magnitude": 17250,
    "ding": 3027,
    "Ġdus": 8425,
    "Ġproportional": 2523,
    "Ġquietude": 19363,
    "Ġcrozetts": 19632,
    "Ġbreath": 4791,
    "Ġparties": 7040,
    "Ġtheir": 643,
    "Ġcondu": 18112,
    "Ġaccounting": 14573,
    "contents": 12061,
    "Ġenv": 3036,
    "theless": 4259,
    "isis": 12583,
    "Ġmaterial": 5178,
    "Ġgene": 15675,
    "Ġthw": 21519,
    "ugal": 19020,
    "Ġliterature": 17150,
    "Ġstranger": 3481,
    "Ġrapt": 7227,
    "ols": 2412,
    "Ġmonoton": 3634,
    "Ġcask": 5527,
    "Ġheavenly": 12088,
    "whereby": 23420,
    "Ġbrimstone": 25687,
    "totally": 25418,
    "inable": 11557,
    "image": 9688,
    "Ġinstinctively": 13462,
    "ronted": 14879,
    "cannon": 22968,
    "Ġsepul": 14092,
    "Ġvoc": 4453,
    "Ġcrusad": 23706,
    "loat": 8889,
    "Ġfollowing": 4060,
    "Ġtaurus": 21181,
    "Ġlungless": 24864,
    "Ġtruce": 24115,
    "Ġmout": 17800,
    "Ġaudacity": 19884,
    "Ġcherish": 10591,
    "Ġcanvas": 7785,
    "vic": 13804,
    "free": 8739,
    "ego": 4033,
    "Ġsuccession": 12105,
    "Ġideas": 5494,
    "Ġchristian": 6480,
    "size": 15427,
    "network": 1913,
    "Ġsleeper": 8603,
    "Ġobligation": 13247,
    "Ġforwarded": 19043,
    "Ġsleeves": 10662,
    ":": 30,
    "stands": 22440,
    "ginger": 13166,
    "Ġsneeze": 24698,
    "Ġdemeanour": 17339,
    "va": 4743,
    "amped": 12037,
    "owards": 4595,
    "Ġhed": 7387,
    "Ġharvard": 24573,
    "Ġreply": 4516,
    "Ġvic": 5237,
    "Ġcomprehended": 11295,
    "Ġgpt": 4351,
    "Ġinvested": 7279,
    "Ġnotions": 14101,
    "gallant": 7782,
    "up": 1281,
    "Ġyield": 5093,
    "Ġattachment": 6052,
    "Ġillustrious": 17109,
    "Ġinch": 7851,
    "Ġpaused": 5416,
    "Ġhav": 12758,
    "Ġembarrassed": 11385,
    "Ġtwitch": 22680,
    "Ġrelation": 2143,
    "occur": 19578,
    "Ġgratify": 19506,
    "Ġthird": 4184,
    "someone": 14565,
    "asons": 6017,
    "glings": 23854,
    "Ġquadrant": 11405,
    "atiable": 17775,
    "Ġware": 12558,
    "Ġcane": 10928,
    "Ġunnaturally": 24871,
    "Ġplaced": 3442,
    "saturday": 14860,
    "Ġconspicuous": 13606,
    "Ġhope": 1787,
    "utmost": 21592,
    "Ġjoes": 19233,
    "Ġbarred": 9004,
    "Ġchanges": 2288,
    "Ġinnumerable": 13355,
    "ole": 9615,
    "bishop": 13697,
    "Ġdoing": 3659,
    "Ġshould": 864,
    "james": 15375,
    "Ġdrawing": 3915,
    "cheerfulness": 20183,
[...]
